{
  "version": "1.0",
  "truncation": null,
  "padding": null,
  "added_tokens": [
    {
      "id": 0,
      "content": "<bos>",
      "single_word": false,
      "lstrip": false,
      "rstrip": false,
      "normalized": false,
      "special": true
    },
    {
      "id": 1,
      "content": "<eos>",
      "single_word": false,
      "lstrip": false,
      "rstrip": false,
      "normalized": false,
      "special": true
    },
    {
      "id": 2,
      "content": "<pad>",
      "single_word": false,
      "lstrip": false,
      "rstrip": false,
      "normalized": false,
      "special": true
    },
    {
      "id": 3,
      "content": "<unk>",
      "single_word": false,
      "lstrip": false,
      "rstrip": false,
      "normalized": false,
      "special": true
    }
  ],
  "normalizer": null,
  "pre_tokenizer": {
    "type": "Whitespace"
  },
  "post_processor": null,
  "decoder": null,
  "model": {
    "type": "BPE",
    "dropout": null,
    "unk_token": "<unk>",
    "continuing_subword_prefix": null,
    "end_of_word_suffix": null,
    "fuse_unk": false,
    "byte_fallback": false,
    "ignore_merges": false,
    "vocab": {
      "<bos>": 0,
      "<eos>": 1,
      "<pad>": 2,
      "<unk>": 3,
      "!": 4,
      "\"": 5,
      "#": 6,
      "$": 7,
      "%": 8,
      "&": 9,
      "'": 10,
      "(": 11,
      ")": 12,
      "*": 13,
      "+": 14,
      ",": 15,
      "-": 16,
      ".": 17,
      "/": 18,
      "0": 19,
      "1": 20,
      "2": 21,
      "3": 22,
      "4": 23,
      "5": 24,
      "6": 25,
      "7": 26,
      "8": 27,
      "9": 28,
      ":": 29,
      "<": 30,
      "=": 31,
      ">": 32,
      "?": 33,
      "@": 34,
      "A": 35,
      "B": 36,
      "C": 37,
      "D": 38,
      "E": 39,
      "F": 40,
      "G": 41,
      "H": 42,
      "I": 43,
      "J": 44,
      "K": 45,
      "L": 46,
      "M": 47,
      "N": 48,
      "O": 49,
      "P": 50,
      "Q": 51,
      "R": 52,
      "S": 53,
      "T": 54,
      "U": 55,
      "V": 56,
      "W": 57,
      "X": 58,
      "Y": 59,
      "Z": 60,
      "[": 61,
      "\\": 62,
      "]": 63,
      "^": 64,
      "_": 65,
      "`": 66,
      "a": 67,
      "b": 68,
      "c": 69,
      "d": 70,
      "e": 71,
      "f": 72,
      "g": 73,
      "h": 74,
      "i": 75,
      "j": 76,
      "k": 77,
      "l": 78,
      "m": 79,
      "n": 80,
      "o": 81,
      "p": 82,
      "q": 83,
      "r": 84,
      "s": 85,
      "t": 86,
      "u": 87,
      "v": 88,
      "w": 89,
      "x": 90,
      "y": 91,
      "z": 92,
      "{": 93,
      "|": 94,
      "}": 95,
      "~": 96,
      "he": 97,
      "in": 98,
      "the": 99,
      "re": 100,
      "an": 101,
      "on": 102,
      "er": 103,
      "is": 104,
      "at": 105,
      "ed": 106,
      "en": 107,
      "al": 108,
      "as": 109,
      "th": 110,
      "or": 111,
      "ar": 112,
      "ou": 113,
      "es": 114,
      "to": 115,
      "and": 116,
      "of": 117,
      "ing": 118,
      "it": 119,
      "il": 120,
      "ic": 121,
      "st": 122,
      "The": 123,
      "ion": 124,
      "le": 125,
      "om": 126,
      "be": 127,
      "ent": 128,
      "ad": 129,
      "id": 130,
      "am": 131,
      "ve": 132,
      "se": 133,
      "ac": 134,
      "ol": 135,
      "ot": 136,
      "nd": 137,
      "ha": 138,
      "for": 139,
      "ver": 140,
      "ay": 141,
      "ter": 142,
      "ir": 143,
      "im": 144,
      "ow": 145,
      "are": 146,
      "ur": 147,
      "was": 148,
      "ly": 149,
      "ro": 150,
      "ill": 151,
      "ch": 152,
      "res": 153,
      "we": 154,
      "ct": 155,
      "de": 156,
      "ut": 157,
      "ig": 158,
      "us": 159,
      "ation": 160,
      "that": 161,
      "tr": 162,
      "ak": 163,
      "our": 164,
      "has": 165,
      "od": 166,
      "ag": 167,
      "wh": 168,
      "ith": 169,
      "pe": 170,
      "ce": 171,
      "not": 172,
      "con": 173,
      "ain": 174,
      "his": 175,
      "et": 176,
      "ab": 177,
      "ul": 178,
      "ment": 179,
      "have": 180,
      "op": 181,
      "li": 182,
      "ice": 183,
      "so": 184,
      "com": 185,
      "un": 186,
      "will": 187,
      "with": 188,
      "all": 189,
      "est": 190,
      "you": 191,
      "ne": 192,
      "ia": 193,
      "sh": 194,
      "fr": 195,
      "ld": 196,
      "ate": 197,
      "ther": 198,
      "Ind": 199,
      "He": 200,
      "by": 201,
      "ers": 202,
      "ap": 203,
      "fe": 204,
      "su": 205,
      "\"\"": 206,
      "pl": 207,
      "ts": 208,
      "red": 209,
      "me": 210,
      "sa": 211,
      "te": 212,
      "one": 213,
      "mo": 214,
      "this": 215,
      "ll": 216,
      "pro": 217,
      "ri": 218,
      "lo": 219,
      "go": 220,
      "were": 221,
      "from": 222,
      "been": 223,
      "um": 224,
      "olice": 225,
      "art": 226,
      "ah": 227,
      "ong": 228,
      "po": 229,
      "igh": 230,
      "di": 231,
      "said": 232,
      "out": 233,
      "hi": 234,
      "inis": 235,
      "ess": 236,
      "ex": 237,
      "do": 238,
      "It": 239,
      "up": 240,
      "ies": 241,
      "ra": 242,
      "ho": 243,
      "hat": 244,
      "any": 245,
      "India": 246,
      "pr": 247,
      "ist": 248,
      "ould": 249,
      "ity": 250,
      "had": 251,
      "sp": 252,
      "wor": 253,
      "qu": 254,
      "But": 255,
      "el": 256,
      "act": 257,
      "also": 258,
      "no": 259,
      "end": 260,
      "inister": 261,
      "ok": 262,
      "This": 263,
      "them": 264,
      "ress": 265,
      "ge": 266,
      "ted": 267,
      "ident": 268,
      "ci": 269,
      "they": 270,
      "av": 271,
      "ard": 272,
      "ive": 273,
      "ime": 274,
      "dis": 275,
      "police": 276,
      "ase": 277,
      "..": 278,
      "ef": 279,
      "who": 280,
      "por": 281,
      "oun": 282,
      "ust": 283,
      "ever": 284,
      "gh": 285,
      "ud": 286,
      "ant": 287,
      "if": 288,
      "iv": 289,
      "ople": 290,
      "per": 291,
      "fil": 292,
      "ke": 293,
      "ind": 294,
      "inc": 295,
      "ian": 296,
      "ction": 297,
      "af": 298,
      "med": 299,
      "can": 300,
      "ren": 301,
      "ight": 302,
      "ome": 303,
      "over": 304,
      "In": 305,
      "wo": 306,
      "ated": 307,
      "ous": 308,
      "people": 309,
      "We": 310,
      "their": 311,
      "au": 312,
      "Minister": 313,
      "00": 314,
      "ev": 315,
      "ack": 316,
      "Pr": 317,
      "part": 318,
      "other": 319,
      "her": 320,
      "gr": 321,
      "und": 322,
      "ide": 323,
      "ore": 324,
      "now": 325,
      "Ch": 326,
      "JP": 327,
      "tak": 328,
      "ord": 329,
      "again": 330,
      "him": 331,
      "BJP": 332,
      "ame": 333,
      "There": 334,
      "thing": 335,
      "hen": 336,
      "aj": 337,
      "nment": 338,
      "man": 339,
      "ear": 340,
      "ath": 341,
      "age": 342,
      "ace": 343,
      "way": 344,
      "They": 345,
      "bo": 346,
      "em": 347,
      "ast": 348,
      "ip": 349,
      "film": 350,
      "your": 351,
      "ary": 352,
      "there": 353,
      "ree": 354,
      "ough": 355,
      "du": 356,
      "Th": 357,
      "ang": 358,
      "day": 359,
      "vi": 360,
      "acc": 361,
      "rest": 362,
      "my": 363,
      "off": 364,
      "case": 365,
      "ater": 366,
      "ail": 367,
      "ure": 368,
      "ep": 369,
      "All": 370,
      "ple": 371,
      "against": 372,
      "cr": 373,
      "ict": 374,
      "What": 375,
      "ound": 376,
      "its": 377,
      "ib": 378,
      "ass": 379,
      "ans": 380,
      "oll": 381,
      "ally": 382,
      "hed": 383,
      "ish": 384,
      "ition": 385,
      "fir": 386,
      "reg": 387,
      "co": 388,
      "here": 389,
      "two": 390,
      "know": 391,
      "gover": 392,
      "And": 393,
      "pos": 394,
      "\"\"\"": 395,
      "ich": 396,
      "cted": 397,
      "after": 398,
      "ild": 399,
      "How": 400,
      "pres": 401,
      "port": 402,
      "ala": 403,
      "what": 404,
      "ence": 405,
      "pp": 406,
      "ach": 407,
      "Cong": 408,
      "ourt": 409,
      "ser": 410,
      "la": 411,
      "att": 412,
      "own": 413,
      "ine": 414,
      "lead": 415,
      "ank": 416,
      "government": 417,
      "ance": 418,
      "Congress": 419,
      "time": 420,
      "har": 421,
      "state": 422,
      "mb": 423,
      "did": 424,
      "20": 425,
      "used": 426,
      "God": 427,
      "br": 428,
      "under": 429,
      "ash": 430,
      "say": 431,
      "try": 432,
      "ital": 433,
      "cre": 434,
      "ade": 435,
      "about": 436,
      "ose": 437,
      "ical": 438,
      "ons": 439,
      "ile": 440,
      "work": 441,
      "ick": 442,
      "coun": 443,
      "mit": 444,
      "amil": 445,
      "Indian": 446,
      "but": 447,
      "new": 448,
      ".\"": 449,
      "able": 450,
      "bl": 451,
      "esh": 452,
      "odi": 453,
      "old": 454,
      "ations": 455,
      "St": 456,
      "which": 457,
      "No": 458,
      "pers": 459,
      "ue": 460,
      "mer": 461,
      "come": 462,
      "As": 463,
      "Police": 464,
      "ions": 465,
      "ial": 466,
      "...": 467,
      "cial": 468,
      "inv": 469,
      "spe": 470,
      "ign": 471,
      "You": 472,
      "ew": 473,
      "That": 474,
      "Rs": 475,
      "get": 476,
      "ful": 477,
      "eng": 478,
      "very": 479,
      "fore": 480,
      "umb": 481,
      "first": 482,
      "into": 483,
      "cent": 484,
      "ck": 485,
      "fa": 486,
      "ire": 487,
      "arrest": 488,
      "Modi": 489,
      "mar": 490,
      "nt": 491,
      "pre": 492,
      "spital": 493,
      "ctor": 494,
      "ann": 495,
      "ved": 496,
      "mat": 497,
      "would": 498,
      "should": 499,
      "then": 500,
      "cont": 501,
      "mis": 502,
      "ai": 503,
      "dec": 504,
      "ake": 505,
      "more": 506,
      "some": 507,
      "iz": 508,
      "pt": 509,
      "str": 510,
      "Mo": 511,
      "ens": 512,
      "when": 513,
      "hy": 514,
      "ational": 515,
      "ult": 516,
      "inj": 517,
      "happ": 518,
      "like": 519,
      "ele": 520,
      "child": 521,
      "ates": 522,
      "ont": 523,
      "incident": 524,
      "those": 525,
      "made": 526,
      "She": 527,
      "mon": 528,
      "tain": 529,
      "je": 530,
      "Allah": 531,
      "wom": 532,
      "Un": 533,
      "ward": 534,
      "vel": 535,
      "ise": 536,
      "arrested": 537,
      "Ker": 538,
      "ory": 539,
      "ced": 540,
      "Raj": 541,
      "leg": 542,
      "sel": 543,
      "reat": 544,
      "Ar": 545,
      "need": 546,
      "wr": 547,
      "cur": 548,
      "taken": 549,
      "read": 550,
      "Kerala": 551,
      "than": 552,
      "ious": 553,
      "hospital": 554,
      "For": 555,
      "19": 556,
      "So": 557,
      "many": 558,
      "hel": 559,
      "ings": 560,
      "ured": 561,
      "bod": 562,
      "istan": 563,
      "sc": 564,
      "An": 565,
      "only": 566,
      "Is": 567,
      "urn": 568,
      "ased": 569,
      "cond": 570,
      "play": 571,
      "han": 572,
      "vis": 573,
      "ship": 574,
      "Chi": 575,
      "bet": 576,
      "ents": 577,
      "ite": 578,
      "Chief": 579,
      "cl": 580,
      "beli": 581,
      "being": 582,
      "chi": 583,
      "three": 584,
      "kill": 585,
      "court": 586,
      "how": 587,
      "Pak": 588,
      "ob": 589,
      "ran": 590,
      "gu": 591,
      "rel": 592,
      "good": 593,
      "led": 594,
      "Je": 595,
      "see": 596,
      "she": 597,
      "ink": 598,
      "war": 599,
      "incl": 600,
      "Prime": 601,
      "van": 602,
      "ness": 603,
      "ities": 604,
      "invest": 605,
      "ied": 606,
      "miss": 607,
      "ollow": 608,
      "ces": 609,
      "int": 610,
      "vers": 611,
      "form": 612,
      "itu": 613,
      "oy": 614,
      "ask": 615,
      "add": 616,
      "year": 617,
      "Pakistan": 618,
      "just": 619,
      "accused": 620,
      "ty": 621,
      "Gand": 622,
      "land": 623,
      "plain": 624,
      "ves": 625,
      "body": 626,
      "rent": 627,
      "fl": 628,
      "comp": 629,
      "minister": 630,
      "famil": 631,
      "og": 632,
      "giv": 633,
      "every": 634,
      "Re": 635,
      "cro": 636,
      "dire": 637,
      "life": 638,
      "well": 639,
      "thr": 640,
      "back": 641,
      "issu": 642,
      "distr": 643,
      "Ko": 644,
      "death": 645,
      "hand": 646,
      "Jeho": 647,
      "prot": 648,
      "down": 649,
      "Gandhi": 650,
      "car": 651,
      "shall": 652,
      "tern": 653,
      "ble": 654,
      "place": 655,
      "turn": 656,
      "ible": 657,
      "vah": 658,
      "Jehovah": 659,
      "take": 660,
      "ave": 661,
      "offic": 662,
      "country": 663,
      "world": 664,
      "meet": 665,
      "cau": 666,
      "uring": 667,
      "ures": 668,
      "oc": 669,
      "ters": 670,
      "injured": 671,
      "came": 672,
      "However": 673,
      "ry": 674,
      "while": 675,
      "ma": 676,
      "help": 677,
      "Sing": 678,
      "such": 679,
      "alth": 680,
      "Se": 681,
      "post": 682,
      "app": 683,
      "tal": 684,
      "Sh": 685,
      "umar": 686,
      "mu": 687,
      "memb": 688,
      "als": 689,
      "vie": 690,
      "men": 691,
      "ors": 692,
      "happen": 693,
      "person": 694,
      "investig": 695,
      "main": 696,
      "Man": 697,
      "cer": 698,
      "these": 699,
      "tem": 700,
      "ss": 701,
      "could": 702,
      "ff": 703,
      "ven": 704,
      "stud": 705,
      "movie": 706,
      "ix": 707,
      "book": 708,
      "does": 709,
      "cess": 710,
      "der": 711,
      "call": 712,
      "anth": 713,
      "ph": 714,
      "children": 715,
      "took": 716,
      "Singh": 717,
      "pol": 718,
      "most": 719,
      "cy": 720,
      "ndra": 721,
      "ener": 722,
      "stand": 723,
      "cause": 724,
      "ving": 725,
      "even": 726,
      "quest": 727,
      "before": 728,
      "PM": 729,
      "ats": 730,
      "icket": 731,
      "attack": 732,
      "Com": 733,
      "De": 734,
      "par": 735,
      "Del": 736,
      "10": 737,
      "ating": 738,
      "cho": 739,
      "olle": 740,
      "Rah": 741,
      "Court": 742,
      "won": 743,
      "Bo": 744,
      "going": 745,
      "che": 746,
      "Nare": 747,
      "fin": 748,
      "ning": 749,
      "char": 750,
      "ik": 751,
      "family": 752,
      "water": 753,
      "His": 754,
      "les": 755,
      "ised": 756,
      "New": 757,
      "ited": 758,
      "uram": 759,
      "complain": 760,
      "Narendra": 761,
      "cret": 762,
      "found": 763,
      "set": 764,
      "cle": 765,
      "leader": 766,
      "ng": 767,
      "ided": 768,
      "Delhi": 769,
      "long": 770,
      "ged": 771,
      "media": 772,
      "mand": 773,
      "produ": 774,
      "resp": 775,
      "follow": 776,
      "ouse": 777,
      "ins": 778,
      "start": 779,
      "ffe": 780,
      "Ram": 781,
      "ral": 782,
      "far": 783,
      "ya": 784,
      "head": 785,
      "ower": 786,
      "Af": 787,
      "four": 788,
      "resident": 789,
      "ween": 790,
      "includ": 791,
      "party": 792,
      "present": 793,
      "Ad": 794,
      "too": 795,
      "aw": 796,
      "chief": 797,
      "between": 798,
      "cas": 799,
      "ments": 800,
      "Al": 801,
      "ten": 802,
      "ms": 803,
      "through": 804,
      "where": 805,
      "pass": 806,
      "ution": 807,
      "ting": 808,
      "repor": 809,
      "died": 810,
      "Lord": 811,
      "make": 812,
      "run": 813,
      "gan": 814,
      "Its": 815,
      "jay": 816,
      "son": 817,
      "fo": 818,
      "sha": 819,
      "self": 820,
      "bu": 821,
      "ought": 822,
      "action": 823,
      "des": 824,
      "killed": 825,
      "On": 826,
      "irl": 827,
      "election": 828,
      "ru": 829,
      "ices": 830,
      "team": 831,
      "later": 832,
      "tered": 833,
      "cus": 834,
      "Do": 835,
      "sub": 836,
      "adesh": 837,
      "reas": 838,
      "nor": 839,
      "look": 840,
      "may": 841,
      "Rahul": 842,
      "president": 843,
      "nat": 844,
      "regis": 845,
      "000": 846,
      "ort": 847,
      "Thir": 848,
      "15": 849,
      "tru": 850,
      "pri": 851,
      "sur": 852,
      "crore": 853,
      "Sha": 854,
      "social": 855,
      "Then": 856,
      "clo": 857,
      "ubl": 858,
      "Mal": 859,
      "tra": 860,
      "prov": 861,
      "put": 862,
      "mark": 863,
      "If": 864,
      "win": 865,
      "given": 866,
      "cap": 867,
      "),": 868,
      "ie": 869,
      "Gover": 870,
      "sent": 871,
      "Go": 872,
      "last": 873,
      "got": 874,
      "President": 875,
      "ended": 876,
      "augh": 877,
      "air": 878,
      "father": 879,
      "Vi": 880,
      "Sup": 881,
      "right": 882,
      "bro": 883,
      "rele": 884,
      "Thiru": 885,
      "amp": 886,
      "ife": 887,
      "contin": 888,
      "akh": 889,
      "second": 890,
      "mission": 891,
      "cretary": 892,
      "women": 893,
      "apuram": 894,
      "rain": 895,
      "position": 896,
      "during": 897,
      "12": 898,
      "numb": 899,
      "law": 900,
      "mitted": 901,
      "ars": 902,
      "ject": 903,
      "let": 904,
      "king": 905,
      "Kumar": 906,
      "Me": 907,
      "polit": 908,
      "ft": 909,
      "sy": 910,
      "exam": 911,
      "Chr": 912,
      "Thiruvan": 913,
      "Su": 914,
      "ision": 915,
      "ond": 916,
      "district": 917,
      "complaint": 918,
      "eve": 919,
      "Sab": 920,
      "US": 921,
      "anthapuram": 922,
      "among": 923,
      "diffe": 924,
      "pur": 925,
      "Thiruvananthapuram": 926,
      "alleg": 927,
      "never": 928,
      "yet": 929,
      "Mah": 930,
      "cons": 931,
      "girl": 932,
      "Par": 933,
      "chan": 934,
      "ared": 935,
      "My": 936,
      "Be": 937,
      "persons": 938,
      "sto": 939,
      "ata": 940,
      "home": 941,
      "cor": 942,
      "meeting": 943,
      "mor": 944,
      "ati": 945,
      "ready": 946,
      "away": 947,
      "house": 948,
      "State": 949,
      "matter": 950,
      "Pe": 951,
      "Why": 952,
      "reme": 953,
      "things": 954,
      "lim": 955,
      "ics": 956,
      "proble": 957,
      "vir": 958,
      "ists": 959,
      "sup": 960,
      "registered": 961,
      "says": 962,
      "loc": 963,
      "investigation": 964,
      "Tamil": 965,
      "regard": 966,
      "pect": 967,
      "press": 968,
      "ways": 969,
      "stit": 970,
      "Kar": 971,
      "stru": 972,
      "love": 973,
      "rece": 974,
      "chool": 975,
      "inter": 976,
      "each": 977,
      "Tr": 978,
      "same": 979,
      "cord": 980,
      "Mumb": 981,
      "velop": 982,
      "sure": 983,
      "ual": 984,
      "order": 985,
      "mir": 986,
      "high": 987,
      "both": 988,
      "dont": 989,
      "official": 990,
      "number": 991,
      "Mumbai": 992,
      "protest": 993,
      "xt": 994,
      "18": 995,
      "others": 996,
      "Christ": 997,
      "give": 998,
      "Wor": 999,
      "serv": 1000,
      "ince": 1001,
      "mother": 1002,
      "jo": 1003,
      "Chin": 1004,
      "bus": 1005,
      "fire": 1006,
      "50": 1007,
      "ote": 1008,
      "days": 1009,
      "must": 1010,
      "imes": 1011,
      "mur": 1012,
      "den": 1013,
      "health": 1014,
      "lakh": 1015,
      "went": 1016,
      "decision": 1017,
      "actor": 1018,
      "power": 1019,
      "Vijay": 1020,
      ").": 1021,
      "done": 1022,
      "want": 1023,
      "comm": 1024,
      "Pradesh": 1025,
      "seats": 1026,
      "At": 1027,
      "ular": 1028,
      "road": 1029,
      "BI": 1030,
      "conne": 1031,
      "When": 1032,
      "Ex": 1033,
      "cha": 1034,
      "14": 1035,
      "var": 1036,
      "sm": 1037,
      "olog": 1038,
      "One": 1039,
      "hum": 1040,
      "Jes": 1041,
      "heav": 1042,
      "announ": 1043,
      "aking": 1044,
      "formed": 1045,
      "Government": 1046,
      "oper": 1047,
      "reported": 1048,
      "contr": 1049,
      "wit": 1050,
      "month": 1051,
      "five": 1052,
      "ana": 1053,
      "ollege": 1054,
      "great": 1055,
      "fri": 1056,
      "Two": 1057,
      "Le": 1058,
      "Jesus": 1059,
      "ility": 1060,
      "ones": 1061,
      "name": 1062,
      "lar": 1063,
      "earth": 1064,
      "ages": 1065,
      "much": 1066,
      "ta": 1067,
      "ublic": 1068,
      "wife": 1069,
      "friend": 1070,
      "min": 1071,
      "ale": 1072,
      "still": 1073,
      "Who": 1074,
      "hu": 1075,
      ".\"\"\"": 1076,
      "former": 1077,
      "Many": 1078,
      "held": 1079,
      "writ": 1080,
      "eneral": 1081,
      "view": 1082,
      "fac": 1083,
      "ideo": 1084,
      "oh": 1085,
      "asked": 1086,
      "started": 1087,
      "show": 1088,
      "use": 1089,
      "word": 1090,
      "semb": 1091,
      "nam": 1092,
      "Sabha": 1093,
      "sol": 1094,
      "think": 1095,
      "import": 1096,
      "happened": 1097,
      "ched": 1098,
      "Pro": 1099,
      "including": 1100,
      "ants": 1101,
      "lit": 1102,
      "woman": 1103,
      "ye": 1104,
      "hold": 1105,
      "sing": 1106,
      "Mus": 1107,
      "vent": 1108,
      "Mar": 1109,
      "less": 1110,
      "believe": 1111,
      "filed": 1112,
      "gest": 1113,
      "Kash": 1114,
      "soon": 1115,
      "cour": 1116,
      "Just": 1117,
      "ca": 1118,
      "tar": 1119,
      "coming": 1120,
      "Con": 1121,
      "different": 1122,
      "cept": 1123,
      "outh": 1124,
      "big": 1125,
      "ben": 1126,
      "ides": 1127,
      "wal": 1128,
      "ner": 1129,
      "After": 1130,
      "ired": 1131,
      "another": 1132,
      "hic": 1133,
      "spot": 1134,
      "Thats": 1135,
      "issue": 1136,
      "ount": 1137,
      "ump": 1138,
      "peri": 1139,
      "Kashmir": 1140,
      "National": 1141,
      "Eng": 1142,
      "kar": 1143,
      "thor": 1144,
      "video": 1145,
      "ham": 1146,
      "ived": 1147,
      "Ab": 1148,
      "oney": 1149,
      "spir": 1150,
      "ref": 1151,
      "Supreme": 1152,
      "sign": 1153,
      "sed": 1154,
      "16": 1155,
      "remain": 1156,
      "situ": 1157,
      "sl": 1158,
      "ering": 1159,
      "poin": 1160,
      "ned": 1161,
      "Med": 1162,
      "Cent": 1163,
      "prom": 1164,
      "ism": 1165,
      "adu": 1166,
      "students": 1167,
      "Act": 1168,
      "laim": 1169,
      "Every": 1170,
      "ried": 1171,
      "dr": 1172,
      "open": 1173,
      "sembly": 1174,
      "ural": 1175,
      "dom": 1176,
      "avail": 1177,
      "ror": 1178,
      "years": 1179,
      "appro": 1180,
      "question": 1181,
      "pet": 1182,
      "ific": 1183,
      "ird": 1184,
      "bre": 1185,
      "member": 1186,
      "develop": 1187,
      "return": 1188,
      "17": 1189,
      "called": 1190,
      "murder": 1191,
      "13": 1192,
      "dead": 1193,
      "Beng": 1194,
      "due": 1195,
      "ative": 1196,
      "ivers": 1197,
      "To": 1198,
      "aged": 1199,
      "claim": 1200,
      "Shah": 1201,
      "allow": 1202,
      "feat": 1203,
      "poss": 1204,
      "lot": 1205,
      "next": 1206,
      "clear": 1207,
      "chang": 1208,
      "Mu": 1209,
      "Bengal": 1210,
      ",\"\"": 1211,
      "urther": 1212,
      "oup": 1213,
      "ush": 1214,
      "Lok": 1215,
      "az": 1216,
      "hear": 1217,
      "school": 1218,
      "daugh": 1219,
      "ached": 1220,
      "lier": 1221,
      "200": 1222,
      "inte": 1223,
      "aren": 1224,
      "gar": 1225,
      "ffic": 1226,
      "don": 1227,
      "Chen": 1228,
      "Some": 1229,
      "aid": 1230,
      "Union": 1231,
      "CC": 1232,
      "because": 1233,
      "ized": 1234,
      "World": 1235,
      "dri": 1236,
      "ajor": 1237,
      "cases": 1238,
      "top": 1239,
      "curity": 1240,
      "Bible": 1241,
      "list": 1242,
      "jud": 1243,
      "Te": 1244,
      "treat": 1245,
      "Fr": 1246,
      "Both": 1247,
      "members": 1248,
      "connection": 1249,
      "hes": 1250,
      "important": 1251,
      "ately": 1252,
      "suc": 1253,
      "soci": 1254,
      "comple": 1255,
      "few": 1256,
      "Gu": 1257,
      "report": 1258,
      "six": 1259,
      "fect": 1260,
      "Jam": 1261,
      "secretary": 1262,
      "rit": 1263,
      "near": 1264,
      "ric": 1265,
      "Im": 1266,
      "test": 1267,
      "comes": 1268,
      "Mad": 1269,
      "told": 1270,
      "appe": 1271,
      "cut": 1272,
      "ek": 1273,
      "posed": 1274,
      "role": 1275,
      "High": 1276,
      "brother": 1277,
      "demand": 1278,
      "CBI": 1279,
      "Shar": 1280,
      "upon": 1281,
      "cannot": 1282,
      "sim": 1283,
      "Chenn": 1284,
      "phone": 1285,
      "ext": 1286,
      "vehic": 1287,
      "alam": 1288,
      "wicket": 1289,
      "best": 1290,
      "nothing": 1291,
      "ives": 1292,
      "angu": 1293,
      "support": 1294,
      "beg": 1295,
      "sever": 1296,
      "val": 1297,
      "trans": 1298,
      "bed": 1299,
      "leaders": 1300,
      "uc": 1301,
      "ified": 1302,
      "These": 1303,
      "truth": 1304,
      "Face": 1305,
      "lood": 1306,
      "Mahar": 1307,
      "30": 1308,
      "ians": 1309,
      "directed": 1310,
      "laun": 1311,
      "care": 1312,
      "formation": 1313,
      "elections": 1314,
      "China": 1315,
      "Am": 1316,
      "ploy": 1317,
      "ber": 1318,
      "seen": 1319,
      "icip": 1320,
      "hal": 1321,
      "tail": 1322,
      "medi": 1323,
      "arents": 1324,
      "released": 1325,
      "25": 1326,
      "area": 1327,
      "change": 1328,
      "accident": 1329,
      "11": 1330,
      "Shi": 1331,
      "several": 1332,
      "gram": 1333,
      "andid": 1334,
      "wards": 1335,
      "fall": 1336,
      "Facebook": 1337,
      "ished": 1338,
      "around": 1339,
      "become": 1340,
      "gether": 1341,
      "Ac": 1342,
      "sus": 1343,
      "ior": 1344,
      "already": 1345,
      "ency": 1346,
      "serious": 1347,
      "organ": 1348,
      "tee": 1349,
      "viol": 1350,
      "aka": 1351,
      "col": 1352,
      "faith": 1353,
      "plac": 1354,
      "aray": 1355,
      "situation": 1356,
      "eas": 1357,
      "na": 1358,
      "kind": 1359,
      "ines": 1360,
      "available": 1361,
      "indi": 1362,
      "dy": 1363,
      "ily": 1364,
      "known": 1365,
      "ris": 1366,
      "ait": 1367,
      "iness": 1368,
      "Day": 1369,
      "train": 1370,
      "city": 1371,
      "wrong": 1372,
      "ode": 1373,
      "face": 1374,
      "Bank": 1375,
      "money": 1376,
      "find": 1377,
      "together": 1378,
      "ani": 1379,
      "Not": 1380,
      "runs": 1381,
      "ety": 1382,
      "vict": 1383,
      "Op": 1384,
      "ML": 1385,
      "poll": 1386,
      "major": 1387,
      "hist": 1388,
      "crit": 1389,
      "Sen": 1390,
      "inde": 1391,
      "sal": 1392,
      "move": 1393,
      "anything": 1394,
      "alleged": 1395,
      "ined": 1396,
      "real": 1397,
      "Our": 1398,
      "inistry": 1399,
      "national": 1400,
      "hon": 1401,
      "candid": 1402,
      "priv": 1403,
      "Ma": 1404,
      "hus": 1405,
      "arch": 1406,
      "pected": 1407,
      "arri": 1408,
      "os": 1409,
      "special": 1410,
      "current": 1411,
      "band": 1412,
      "condu": 1413,
      "ashtra": 1414,
      "ternational": 1415,
      "ross": 1416,
      "unto": 1417,
      "Amit": 1418,
      "Aust": 1419,
      "lock": 1420,
      "news": 1421,
      "why": 1422,
      "continu": 1423,
      "didnt": 1424,
      "keep": 1425,
      "MP": 1426,
      "lear": 1427,
      "relig": 1428,
      "itiz": 1429,
      "problem": 1430,
      "gre": 1431,
      "plan": 1432,
      "received": 1433,
      "mi": 1434,
      "might": 1435,
      "Karnat": 1436,
      "conom": 1437,
      "public": 1438,
      "sen": 1439,
      "lost": 1440,
      "del": 1441,
      "times": 1442,
      "selves": 1443,
      "tell": 1444,
      "ury": 1445,
      "Karnataka": 1446,
      "Maharashtra": 1447,
      "Ho": 1448,
      "left": 1449,
      "Malay": 1450,
      "fact": 1451,
      "visit": 1452,
      "hind": 1453,
      "mil": 1454,
      "sho": 1455,
      "mind": 1456,
      "Dis": 1457,
      "ey": 1458,
      "political": 1459,
      "ament": 1460,
      "Him": 1461,
      "Chand": 1462,
      "further": 1463,
      "fair": 1464,
      "discus": 1465,
      "Muslim": 1466,
      "ub": 1467,
      "parents": 1468,
      "dam": 1469,
      "Austral": 1470,
      "treatment": 1471,
      "true": 1472,
      "hik": 1473,
      "amb": 1474,
      "stem": 1475,
      "live": 1476,
      "match": 1477,
      "mittee": 1478,
      "ets": 1479,
      "ude": 1480,
      "idence": 1481,
      "informed": 1482,
      "Res": 1483,
      "night": 1484,
      "food": 1485,
      "daughter": 1486,
      "ute": 1487,
      "Khan": 1488,
      "along": 1489,
      "third": 1490,
      "Lo": 1491,
      "atch": 1492,
      "states": 1493,
      "announced": 1494,
      "que": 1495,
      "fun": 1496,
      "petition": 1497,
      "feel": 1498,
      "build": 1499,
      "Three": 1500,
      "rish": 1501,
      "requ": 1502,
      "heart": 1503,
      "detail": 1504,
      "partment": 1505,
      "incre": 1506,
      "spo": 1507,
      "ather": 1508,
      "star": 1509,
      "pay": 1510,
      "wood": 1511,
      "since": 1512,
      "ights": 1513,
      "reason": 1514,
      "pop": 1515,
      "Wh": 1516,
      "rence": 1517,
      "Medical": 1518,
      "added": 1519,
      "admitted": 1520,
      "tries": 1521,
      "Part": 1522,
      "certain": 1523,
      "though": 1524,
      "wer": 1525,
      "terror": 1526,
      "ges": 1527,
      "ples": 1528,
      "line": 1529,
      "dies": 1530,
      "Gods": 1531,
      "author": 1532,
      "Ne": 1533,
      "ches": 1534,
      "gl": 1535,
      "films": 1536,
      "With": 1537,
      "Test": 1538,
      "College": 1539,
      "CP": 1540,
      "talk": 1541,
      "following": 1542,
      "met": 1543,
      "langu": 1544,
      "mus": 1545,
      "uru": 1546,
      "group": 1547,
      "Air": 1548,
      "ither": 1549,
      "security": 1550,
      "based": 1551,
      "tle": 1552,
      "project": 1553,
      "without": 1554,
      "Co": 1555,
      "hoto": 1556,
      "People": 1557,
      "condition": 1558,
      "director": 1559,
      "young": 1560,
      "aram": 1561,
      "iversity": 1562,
      "behind": 1563,
      "Hind": 1564,
      "Trump": 1565,
      "ination": 1566,
      "however": 1567,
      "uries": 1568,
      "bank": 1569,
      "understand": 1570,
      "Son": 1571,
      "respons": 1572,
      "aled": 1573,
      "Pa": 1574,
      "immedi": 1575,
      "record": 1576,
      "ses": 1577,
      "success": 1578,
      "reve": 1579,
      "event": 1580,
      "across": 1581,
      "ield": 1582,
      "qual": 1583,
      "chn": 1584,
      "Isra": 1585,
      "San": 1586,
      "ctions": 1587,
      "wan": 1588,
      "Justice": 1589,
      "various": 1590,
      "jar": 1591,
      "fear": 1592,
      "oor": 1593,
      "company": 1594,
      "strong": 1595,
      "CPM": 1596,
      "activ": 1597,
      "vot": 1598,
      "lod": 1599,
      "Cor": 1600,
      "actress": 1601,
      "custo": 1602,
      "week": 1603,
      "Pri": 1604,
      "cri": 1605,
      "rep": 1606,
      "pray": 1607,
      "whom": 1608,
      "tre": 1609,
      "thy": 1610,
      "grow": 1611,
      "fight": 1612,
      "fic": 1613,
      "doing": 1614,
      "officials": 1615,
      "bas": 1616,
      "ology": 1617,
      "olly": 1618,
      "point": 1619,
      "ball": 1620,
      "More": 1621,
      "pend": 1622,
      "Don": 1623,
      "pan": 1624,
      "plic": 1625,
      "ias": 1626,
      "South": 1627,
      "dra": 1628,
      "sk": 1629,
      "ours": 1630,
      "system": 1631,
      "icts": 1632,
      "interest": 1633,
      "bring": 1634,
      "countries": 1635,
      "issued": 1636,
      "light": 1637,
      "Jehovahs": 1638,
      "probe": 1639,
      "ually": 1640,
      "pati": 1641,
      "Bal": 1642,
      "hit": 1643,
      "Pun": 1644,
      "ica": 1645,
      "Bi": 1646,
      "information": 1647,
      "low": 1648,
      "pain": 1649,
      "benef": 1650,
      "saying": 1651,
      "total": 1652,
      "Gr": 1653,
      "aut": 1654,
      "reco": 1655,
      "unt": 1656,
      "Shiv": 1657,
      "ently": 1658,
      "unity": 1659,
      "human": 1660,
      "ery": 1661,
      "Israel": 1662,
      "Fin": 1663,
      "search": 1664,
      "Kochi": 1665,
      "inaray": 1666,
      "final": 1667,
      "Most": 1668,
      "Or": 1669,
      "conf": 1670,
      "Tel": 1671,
      "acy": 1672,
      "camp": 1673,
      "husband": 1674,
      "econom": 1675,
      "engers": 1676,
      "oles": 1677,
      "close": 1678,
      "mak": 1679,
      "ost": 1680,
      "level": 1681,
      "Nadu": 1682,
      "Australia": 1683,
      "jour": 1684,
      "side": 1685,
      "reed": 1686,
      "key": 1687,
      "rul": 1688,
      "stitution": 1689,
      "24": 1690,
      "Bang": 1691,
      "became": 1692,
      "bor": 1693,
      "gone": 1694,
      "joy": 1695,
      "series": 1696,
      "prote": 1697,
      "pris": 1698,
      "continue": 1699,
      "liament": 1700,
      "step": 1701,
      "Vijayan": 1702,
      "small": 1703,
      "cu": 1704,
      "confir": 1705,
      "dest": 1706,
      "gave": 1707,
      "room": 1708,
      "Pinaray": 1709,
      "era": 1710,
      "Pinarayi": 1711,
      "anka": 1712,
      "Party": 1713,
      "Koz": 1714,
      "bit": 1715,
      "something": 1716,
      "expected": 1717,
      "reached": 1718,
      "ushed": 1719,
      "Sharma": 1720,
      "stay": 1721,
      "Hospital": 1722,
      "100": 1723,
      "Can": 1724,
      "Former": 1725,
      "Commission": 1726,
      "vice": 1727,
      "Malayalam": 1728,
      "Spe": 1729,
      "private": 1730,
      "Har": 1731,
      "bad": 1732,
      "cam": 1733,
      "Kozhik": 1734,
      "medical": 1735,
      "West": 1736,
      "abad": 1737,
      "lodged": 1738,
      "fort": 1739,
      "cell": 1740,
      "shared": 1741,
      "jected": 1742,
      "music": 1743,
      "pict": 1744,
      "bal": 1745,
      "Cr": 1746,
      "Ele": 1747,
      "Gujar": 1748,
      "better": 1749,
      "produced": 1750,
      "ctors": 1751,
      "Here": 1752,
      "Kozhikode": 1753,
      "wn": 1754,
      "educ": 1755,
      "evers": 1756,
      "wickets": 1757,
      "ider": 1758,
      "brought": 1759,
      "written": 1760,
      "lish": 1761,
      "acher": 1762,
      "ped": 1763,
      "ju": 1764,
      "adi": 1765,
      "temple": 1766,
      "gy": 1767,
      "SP": 1768,
      "icide": 1769,
      "resign": 1770,
      "const": 1771,
      "program": 1772,
      "TV": 1773,
      "Opposition": 1774,
      "whe": 1775,
      "always": 1776,
      "tour": 1777,
      "ollywood": 1778,
      "Home": 1779,
      "Assembly": 1780,
      "hig": 1781,
      "free": 1782,
      "cost": 1783,
      "CM": 1784,
      "fail": 1785,
      "vill": 1786,
      "inst": 1787,
      "friends": 1788,
      "earlier": 1789,
      "Koh": 1790,
      "Whats": 1791,
      "vision": 1792,
      "ali": 1793,
      "invol": 1794,
      "particip": 1795,
      "process": 1796,
      "mad": 1797,
      "price": 1798,
      "experi": 1799,
      "Ut": 1800,
      "Let": 1801,
      "Sam": 1802,
      "Her": 1803,
      "Pl": 1804,
      "front": 1805,
      "mot": 1806,
      "ibility": 1807,
      "vered": 1808,
      "Jammu": 1809,
      "Add": 1810,
      "mess": 1811,
      "needs": 1812,
      "pun": 1813,
      "respect": 1814,
      "played": 1815,
      "Kohli": 1816,
      "99": 1817,
      "moved": 1818,
      "ert": 1819,
      "University": 1820,
      "General": 1821,
      "21": 1822,
      "Where": 1823,
      "rup": 1824,
      "immediately": 1825,
      "statement": 1826,
      "nel": 1827,
      "ull": 1828,
      "decided": 1829,
      "gold": 1830,
      "Gujarat": 1831,
      "story": 1832,
      "Au": 1833,
      "Shri": 1834,
      "general": 1835,
      "May": 1836,
      "pointed": 1837,
      "currently": 1838,
      "Of": 1839,
      "decl": 1840,
      "Cha": 1841,
      "sis": 1842,
      "anwhile": 1843,
      "ps": 1844,
      "40": 1845,
      "phe": 1846,
      "injuries": 1847,
      "hard": 1848,
      "possible": 1849,
      "iti": 1850,
      "Tho": 1851,
      "22": 1852,
      "concer": 1853,
      "wam": 1854,
      "stars": 1855,
      "ying": 1856,
      "GB": 1857,
      "Uttar": 1858,
      "reng": 1859,
      "abin": 1860,
      "uss": 1861,
      "details": 1862,
      "ease": 1863,
      "King": 1864,
      "tained": 1865,
      "job": 1866,
      "nesses": 1867,
      "Follow": 1868,
      "cricket": 1869,
      "Ke": 1870,
      "employ": 1871,
      "Dev": 1872,
      "contest": 1873,
      "tor": 1874,
      "Kann": 1875,
      "ences": 1876,
      "express": 1877,
      "vid": 1878,
      "cies": 1879,
      "Will": 1880,
      "Jay": 1881,
      "illion": 1882,
      "uk": 1883,
      "United": 1884,
      "Those": 1885,
      "today": 1886,
      "dered": 1887,
      "Other": 1888,
      "hol": 1889,
      "believers": 1890,
      "include": 1891,
      "Health": 1892,
      "history": 1893,
      "els": 1894,
      "Dont": 1895,
      "likely": 1896,
      "Mohan": 1897,
      "suicide": 1898,
      "development": 1899,
      "Moham": 1900,
      "field": 1901,
      "workers": 1902,
      "answer": 1903,
      "launched": 1904,
      "tion": 1905,
      "Ramesh": 1906,
      "Secretary": 1907,
      "believ": 1908,
      "IP": 1909,
      "sequ": 1910,
      "Vir": 1911,
      "taking": 1912,
      "making": 1913,
      "address": 1914,
      "local": 1915,
      "sum": 1916,
      "recent": 1917,
      "speak": 1918,
      "words": 1919,
      "seven": 1920,
      "changed": 1921,
      "problems": 1922,
      "ung": 1923,
      "Amer": 1924,
      "shif": 1925,
      "streng": 1926,
      "ram": 1927,
      "Ministry": 1928,
      "gress": 1929,
      "using": 1930,
      "aring": 1931,
      "Ear": 1932,
      "deal": 1933,
      "market": 1934,
      "elect": 1935,
      "wait": 1936,
      "captain": 1937,
      "dou": 1938,
      "nan": 1939,
      "allowed": 1940,
      "abinet": 1941,
      "hya": 1942,
      "Ak": 1943,
      "areas": 1944,
      "boy": 1945,
      "Dire": 1946,
      "Ro": 1947,
      "70": 1948,
      "happy": 1949,
      "Are": 1950,
      "England": 1951,
      "Indias": 1952,
      "Sal": 1953,
      "viral": 1954,
      "award": 1955,
      "ese": 1956,
      "Sri": 1957,
      "cover": 1958,
      "sco": 1959,
      "avir": 1960,
      "Meanwhile": 1961,
      "really": 1962,
      "stor": 1963,
      "trol": 1964,
      "vo": 1965,
      "Nor": 1966,
      "ara": 1967,
      "operation": 1968,
      "chall": 1969,
      "ered": 1970,
      "weet": 1971,
      "shot": 1972,
      "fell": 1973,
      "example": 1974,
      "lives": 1975,
      "ott": 1976,
      "avirus": 1977,
      "ID": 1978,
      "married": 1979,
      "trict": 1980,
      "mp": 1981,
      "bur": 1982,
      "foot": 1983,
      "discuss": 1984,
      "stri": 1985,
      "grap": 1986,
      "everything": 1987,
      "working": 1988,
      "Four": 1989,
      "CO": 1990,
      "onavirus": 1991,
      "witter": 1992,
      "Say": 1993,
      "Sun": 1994,
      "districts": 1995,
      "eyes": 1996,
      "Bollywood": 1997,
      "pped": 1998,
      "dist": 1999,
      "En": 2000,
      "Rajas": 2001,
      "Wom": 2002,
      "respond": 2003,
      "thou": 2004,
      "iah": 2005,
      "quir": 2006,
      "Red": 2007,
      "ream": 2008,
      "worship": 2009,
      "ledge": 2010,
      "service": 2011,
      "constru": 2012,
      "raised": 2013,
      "Jan": 2014,
      "half": 2015,
      "Paul": 2016,
      "fairs": 2017,
      "charge": 2018,
      "Chennai": 2019,
      "large": 2020,
      "itizen": 2021,
      "little": 2022,
      "Hindi": 2023,
      "Sat": 2024,
      "onse": 2025,
      "pose": 2026,
      "ze": 2027,
      "bar": 2028,
      "Following": 2029,
      "kid": 2030,
      "account": 2031,
      "tax": 2032,
      "rushed": 2033,
      "inal": 2034,
      "ouses": 2035,
      "Only": 2036,
      "States": 2037,
      "adav": 2038,
      "colle": 2039,
      "song": 2040,
      "began": 2041,
      "bs": 2042,
      "Afr": 2043,
      "revealed": 2044,
      "cele": 2045,
      "bail": 2046,
      "lies": 2047,
      "claimed": 2048,
      "mers": 2049,
      "attended": 2050,
      "anyone": 2051,
      "Dr": 2052,
      "Accord": 2053,
      "Joh": 2054,
      "yer": 2055,
      "deep": 2056,
      "acted": 2057,
      "Jo": 2058,
      "Twitter": 2059,
      "places": 2060,
      "pted": 2061,
      "Jose": 2062,
      "ilar": 2063,
      "Rajasthan": 2064,
      "compan": 2065,
      "icle": 2066,
      "loss": 2067,
      "ternal": 2068,
      "nation": 2069,
      "vehicles": 2070,
      "mocr": 2071,
      "hur": 2072,
      "short": 2073,
      "disease": 2074,
      "cir": 2075,
      "riage": 2076,
      "ban": 2077,
      "provided": 2078,
      "function": 2079,
      "According": 2080,
      "roy": 2081,
      "lam": 2082,
      "sex": 2083,
      "def": 2084,
      "aster": 2085,
      "Central": 2086,
      "bat": 2087,
      "appointed": 2088,
      "aug": 2089,
      "ret": 2090,
      "cul": 2091,
      "speed": 2092,
      "Cup": 2093,
      "indeed": 2094,
      "agar": 2095,
      "accord": 2096,
      "celebr": 2097,
      "kes": 2098,
      "coll": 2099,
      "Later": 2100,
      "huge": 2101,
      "single": 2102,
      "Ah": 2103,
      "stated": 2104,
      "Their": 2105,
      "cient": 2106,
      "full": 2107,
      "inn": 2108,
      "critic": 2109,
      "largest": 2110,
      "cing": 2111,
      "peace": 2112,
      "rate": 2113,
      "fully": 2114,
      "bir": 2115,
      "cult": 2116,
      "Sure": 2117,
      "Fil": 2118,
      "ults": 2119,
      "John": 2120,
      "ks": 2121,
      "atives": 2122,
      "created": 2123,
      "rejected": 2124,
      "himself": 2125,
      "AN": 2126,
      "ature": 2127,
      "Ran": 2128,
      "lal": 2129,
      "gg": 2130,
      "IS": 2131,
      "Rav": 2132,
      "spread": 2133,
      "committee": 2134,
      "leave": 2135,
      "ken": 2136,
      "wed": 2137,
      "Yadav": 2138,
      "driver": 2139,
      "cast": 2140,
      "diffic": 2141,
      "difficult": 2142,
      "points": 2143,
      "sou": 2144,
      "candidate": 2145,
      "Mam": 2146,
      "course": 2147,
      "div": 2148,
      "heard": 2149,
      "prices": 2150,
      "engine": 2151,
      "Mess": 2152,
      "ugu": 2153,
      "Kap": 2154,
      "youth": 2155,
      "susp": 2156,
      "date": 2157,
      "rap": 2158,
      "hands": 2159,
      "vind": 2160,
      "effect": 2161,
      "occur": 2162,
      "bab": 2163,
      "study": 2164,
      "rid": 2165,
      "Parliament": 2166,
      "row": 2167,
      "wide": 2168,
      "themselves": 2169,
      "Yes": 2170,
      "office": 2171,
      "roles": 2172,
      "trying": 2173,
      "until": 2174,
      "fav": 2175,
      "vere": 2176,
      "blood": 2177,
      "ession": 2178,
      "jab": 2179,
      "ada": 2180,
      "exp": 2181,
      "ops": 2182,
      "Ph": 2183,
      "photo": 2184,
      "prof": 2185,
      "ference": 2186,
      "result": 2187,
      "Ser": 2188,
      "techn": 2189,
      "ground": 2190,
      "else": 2191,
      "Per": 2192,
      "response": 2193,
      "ention": 2194,
      "gener": 2195,
      "teacher": 2196,
      "passed": 2197,
      "heavy": 2198,
      "km": 2199,
      "works": 2200,
      "shifted": 2201,
      "questions": 2202,
      "evil": 2203,
      "sche": 2204,
      "60": 2205,
      "Christian": 2206,
      "Your": 2207,
      "Dav": 2208,
      "college": 2209,
      "turned": 2210,
      "hope": 2211,
      "ousand": 2212,
      "fected": 2213,
      "thought": 2214,
      "Punjab": 2215,
      "Ra": 2216,
      "ulam": 2217,
      "mal": 2218,
      "pow": 2219,
      "ague": 2220,
      "features": 2221,
      "personal": 2222,
      "except": 2223,
      "quiry": 2224,
      "audi": 2225,
      "plement": 2226,
      "easy": 2227,
      "ize": 2228,
      "liance": 2229,
      "Sa": 2230,
      "gain": 2231,
      "bes": 2232,
      "building": 2233,
      "drink": 2234,
      "command": 2235,
      "Pal": 2236,
      "bow": 2237,
      "Hy": 2238,
      "inem": 2239,
      "Pre": 2240,
      "knowledge": 2241,
      "milit": 2242,
      "mean": 2243,
      "bi": 2244,
      "nal": 2245,
      "indust": 2246,
      "eat": 2247,
      "relation": 2248,
      "polls": 2249,
      "demanded": 2250,
      "glo": 2251,
      "station": 2252,
      "fer": 2253,
      "control": 2254,
      "fast": 2255,
      "shoot": 2256,
      "break": 2257,
      "wel": 2258,
      "Russ": 2259,
      "seat": 2260,
      "release": 2261,
      "ling": 2262,
      "ends": 2263,
      "omas": 2264,
      "god": 2265,
      "Roh": 2266,
      "language": 2267,
      "issues": 2268,
      "sle": 2269,
      "international": 2270,
      "cou": 2271,
      "suff": 2272,
      "ancial": 2273,
      "till": 2274,
      "complete": 2275,
      "Coun": 2276,
      "services": 2277,
      "mom": 2278,
      "initi": 2279,
      "Army": 2280,
      "rishnan": 2281,
      "aching": 2282,
      "pal": 2283,
      "business": 2284,
      "assembly": 2285,
      "mber": 2286,
      "houses": 2287,
      "ari": 2288,
      "oil": 2289,
      "cal": 2290,
      "means": 2291,
      "marriage": 2292,
      "punish": 2293,
      "Bab": 2294,
      "District": 2295,
      "education": 2296,
      "Iran": 2297,
      "dev": 2298,
      "Centre": 2299,
      "Wit": 2300,
      "Theres": 2301,
      "500": 2302,
      "Telugu": 2303,
      "uty": 2304,
      "Ash": 2305,
      "having": 2306,
      "eds": 2307,
      "uture": 2308,
      "closed": 2309,
      "parts": 2310,
      "saw": 2311,
      "hest": 2312,
      "anger": 2313,
      "begin": 2314,
      "religion": 2315,
      "attend": 2316,
      "amount": 2317,
      "knows": 2318,
      "judge": 2319,
      "ney": 2320,
      "enter": 2321,
      "conducted": 2322,
      "destroy": 2323,
      "fill": 2324,
      "sec": 2325,
      "tweet": 2326,
      "ark": 2327,
      "Hindu": 2328,
      "23": 2329,
      "ites": 2330,
      "phy": 2331,
      "parties": 2332,
      "Thomas": 2333,
      "past": 2334,
      "ames": 2335,
      "OD": 2336,
      "alone": 2337,
      "mag": 2338,
      "camera": 2339,
      "giving": 2340,
      "wind": 2341,
      "constitu": 2342,
      "politics": 2343,
      "Bhar": 2344,
      "range": 2345,
      "meas": 2346,
      "eight": 2347,
      "force": 2348,
      "ify": 2349,
      "seas": 2350,
      "period": 2351,
      "months": 2352,
      "2020": 2353,
      "David": 2354,
      "within": 2355,
      "AM": 2356,
      "everyone": 2357,
      "oud": 2358,
      "custody": 2359,
      "adm": 2360,
      "quar": 2361,
      "denied": 2362,
      "Ge": 2363,
      "confirmed": 2364,
      "Ali": 2365,
      "prep": 2366,
      "Virat": 2367,
      "cant": 2368,
      "game": 2369,
      "Sy": 2370,
      "opport": 2371,
      "Islam": 2372,
      "belong": 2373,
      "sea": 2374,
      "Director": 2375,
      "didn": 2376,
      "beaut": 2377,
      "implement": 2378,
      "By": 2379,
      "akk": 2380,
      "ically": 2381,
      "playing": 2382,
      "cil": 2383,
      "nath": 2384,
      "proper": 2385,
      "scri": 2386,
      "sil": 2387,
      "lt": 2388,
      "enger": 2389,
      "wise": 2390,
      "scre": 2391,
      "class": 2392,
      "ports": 2393,
      "sport": 2394,
      "uses": 2395,
      "round": 2396,
      "needed": 2397,
      "senior": 2398,
      "uary": 2399,
      "SS": 2400,
      "gn": 2401,
      "dict": 2402,
      "Bengaluru": 2403,
      "uz": 2404,
      "ayam": 2405,
      "28": 2406,
      "stu": 2407,
      "Nobody": 2408,
      "opposition": 2409,
      "itizenship": 2410,
      "provide": 2411,
      "thee": 2412,
      "towards": 2413,
      "least": 2414,
      "consider": 2415,
      "born": 2416,
      "uel": 2417,
      "living": 2418,
      "vehicle": 2419,
      "future": 2420,
      "teams": 2421,
      "ton": 2422,
      "Var": 2423,
      "eed": 2424,
      "authorities": 2425,
      "Sever": 2426,
      "ican": 2427,
      "Bangl": 2428,
      "Ap": 2429,
      "applic": 2430,
      "accept": 2431,
      "occas": 2432,
      "Chennith": 2433,
      "common": 2434,
      "ley": 2435,
      "ighte": 2436,
      "Several": 2437,
      "town": 2438,
      "surely": 2439,
      "itive": 2440,
      "ceed": 2441,
      "according": 2442,
      "Bihar": 2443,
      "iy": 2444,
      "Chennithala": 2445,
      "followed": 2446,
      "increase": 2447,
      "resol": 2448,
      "necess": 2449,
      "named": 2450,
      "inci": 2451,
      "beat": 2452,
      "AI": 2453,
      "undred": 2454,
      "adv": 2455,
      "outs": 2456,
      "CPI": 2457,
      "ging": 2458,
      "responsibility": 2459,
      "associ": 2460,
      "abo": 2461,
      "passengers": 2462,
      "legal": 2463,
      "region": 2464,
      "Best": 2465,
      "spiritu": 2466,
      "OR": 2467,
      "scored": 2468,
      "birth": 2469,
      "ulation": 2470,
      "Everyone": 2471,
      "English": 2472,
      "phas": 2473,
      "soldi": 2474,
      "wrote": 2475,
      "cts": 2476,
      "olk": 2477,
      "Cl": 2478,
      "Book": 2479,
      "board": 2480,
      "victim": 2481,
      "evidence": 2482,
      "ously": 2483,
      "reports": 2484,
      "MLA": 2485,
      "seized": 2486,
      "popular": 2487,
      "icked": 2488,
      "fine": 2489,
      "rog": 2490,
      "Sena": 2491,
      "morning": 2492,
      "trib": 2493,
      "percent": 2494,
      "department": 2495,
      "protests": 2496,
      "thank": 2497,
      "Cabinet": 2498,
      "Mr": 2499,
      "omet": 2500,
      "ji": 2501,
      "Fir": 2502,
      "bann": 2503,
      "avy": 2504,
      "uted": 2505,
      "trad": 2506,
      "reasons": 2507,
      "Ve": 2508,
      "Now": 2509,
      "once": 2510,
      "often": 2511,
      "irman": 2512,
      "getting": 2513,
      "Christians": 2514,
      "involved": 2515,
      "bey": 2516,
      "achi": 2517,
      "mob": 2518,
      "million": 2519,
      "ste": 2520,
      "Over": 2521,
      "pen": 2522,
      "FI": 2523,
      "violence": 2524,
      "Bangladesh": 2525,
      "hot": 2526,
      "itional": 2527,
      "kept": 2528,
      "relationship": 2529,
      "sour": 2530,
      "early": 2531,
      "ilt": 2532,
      "Er": 2533,
      "Priy": 2534,
      "bless": 2535,
      "coronavirus": 2536,
      "experience": 2537,
      "UP": 2538,
      "regarding": 2539,
      "rains": 2540,
      "Sar": 2541,
      "tou": 2542,
      "male": 2543,
      "MLAs": 2544,
      "mod": 2545,
      "DF": 2546,
      "International": 2547,
      "ilities": 2548,
      "inaug": 2549,
      "cience": 2550,
      "Bl": 2551,
      "student": 2552,
      "bodies": 2553,
      "IT": 2554,
      "host": 2555,
      "letter": 2556,
      "joined": 2557,
      "share": 2558,
      "Have": 2559,
      "draw": 2560,
      "agree": 2561,
      "central": 2562,
      "redu": 2563,
      "stat": 2564,
      "Yog": 2565,
      "utions": 2566,
      "spirit": 2567,
      "Stud": 2568,
      "recovered": 2569,
      "fund": 2570,
      "Even": 2571,
      "handed": 2572,
      "Ze": 2573,
      "righte": 2574,
      "identified": 2575,
      "ances": 2576,
      "tri": 2577,
      "aland": 2578,
      "ened": 2579,
      "doesnt": 2580,
      "sam": 2581,
      "sons": 2582,
      "jee": 2583,
      "page": 2584,
      "Sm": 2585,
      "aly": 2586,
      "wanted": 2587,
      "underway": 2588,
      "estab": 2589,
      "ern": 2590,
      "Mohanlal": 2591,
      "80": 2592,
      "Child": 2593,
      "ding": 2594,
      "Madhya": 2595,
      "App": 2596,
      "tried": 2597,
      "served": 2598,
      "commun": 2599,
      "travel": 2600,
      "mortem": 2601,
      "ane": 2602,
      "aff": 2603,
      "charges": 2604,
      "ues": 2605,
      "join": 2606,
      "Witnesses": 2607,
      "Read": 2608,
      "request": 2609,
      "announce": 2610,
      "punishment": 2611,
      "Affairs": 2612,
      "IC": 2613,
      "Dile": 2614,
      "ankar": 2615,
      "Department": 2616,
      "ival": 2617,
      "witness": 2618,
      "AP": 2619,
      "forward": 2620,
      "above": 2621,
      "card": 2622,
      "offe": 2623,
      "attem": 2624,
      "mony": 2625,
      "poor": 2626,
      "watch": 2627,
      "Earlier": 2628,
      "acce": 2629,
      "ator": 2630,
      "Jud": 2631,
      "die": 2632,
      "enjoy": 2633,
      "declared": 2634,
      "stop": 2635,
      "officer": 2636,
      "cup": 2637,
      "deaths": 2638,
      "trust": 2639,
      "tration": 2640,
      "enough": 2641,
      "Rohit": 2642,
      "Ben": 2643,
      "flu": 2644,
      "nak": 2645,
      "sector": 2646,
      "Muslims": 2647,
      "Africa": 2648,
      "vt": 2649,
      "greg": 2650,
      "financial": 2651,
      "trial": 2652,
      "itation": 2653,
      "Such": 2654,
      "clean": 2655,
      "rail": 2656,
      "lic": 2657,
      "families": 2658,
      "Li": 2659,
      "democr": 2660,
      "ech": 2661,
      "Film": 2662,
      "Moses": 2663,
      "highest": 2664,
      "ively": 2665,
      "Sub": 2666,
      "lling": 2667,
      "sequently": 2668,
      "allegations": 2669,
      "ators": 2670,
      "patients": 2671,
      "Ven": 2672,
      "dro": 2673,
      "similar": 2674,
      "nder": 2675,
      "increased": 2676,
      "iful": 2677,
      "inquiry": 2678,
      "COV": 2679,
      "anim": 2680,
      "Sonia": 2681,
      "righteous": 2682,
      "crim": 2683,
      "ables": 2684,
      "Joseph": 2685,
      "Tri": 2686,
      "rape": 2687,
      "heavens": 2688,
      "entire": 2689,
      "cture": 2690,
      "basis": 2691,
      "village": 2692,
      "batt": 2693,
      "returned": 2694,
      "Dileep": 2695,
      "Art": 2696,
      "tw": 2697,
      "iss": 2698,
      "plea": 2699,
      "isation": 2700,
      "lying": 2701,
      "pract": 2702,
      "forts": 2703,
      "Muk": 2704,
      "Finance": 2705,
      "imum": 2706,
      "offer": 2707,
      "publ": 2708,
      "vest": 2709,
      "speci": 2710,
      "eth": 2711,
      "ient": 2712,
      "ax": 2713,
      "endra": 2714,
      "Rail": 2715,
      "brothers": 2716,
      "term": 2717,
      "ordered": 2718,
      "haran": 2719,
      "recently": 2720,
      "squ": 2721,
      "gets": 2722,
      "From": 2723,
      "emer": 2724,
      "During": 2725,
      "35": 2726,
      "model": 2727,
      "flood": 2728,
      "JD": 2729,
      "\"\".\"": 2730,
      "equ": 2731,
      "ahead": 2732,
      "Sur": 2733,
      "prove": 2734,
      "ked": 2735,
      "inside": 2736,
      "26": 2737,
      "Br": 2738,
      "assa": 2739,
      "believed": 2740,
      "ification": 2741,
      "charged": 2742,
      "fare": 2743,
      "Kingdom": 2744,
      "ows": 2745,
      "mun": 2746,
      "Mohammed": 2747,
      "forth": 2748,
      "foreign": 2749,
      "ising": 2750,
      "leading": 2751,
      "COVID": 2752,
      "onment": 2753,
      "Arun": 2754,
      "BS": 2755,
      "safe": 2756,
      "personnel": 2757,
      "inaugur": 2758,
      "kumar": 2759,
      "Fire": 2760,
      "ST": 2761,
      "brah": 2762,
      "lied": 2763,
      "progress": 2764,
      "ises": 2765,
      "occasion": 2766,
      "assist": 2767,
      "Brit": 2768,
      "ald": 2769,
      "design": 2770,
      "agement": 2771,
      "congreg": 2772,
      "Actor": 2773,
      "ained": 2774,
      "sin": 2775,
      "severe": 2776,
      "dece": 2777,
      "hra": 2778,
      "io": 2779,
      "North": 2780,
      "bench": 2781,
      "pat": 2782,
      "caused": 2783,
      "Did": 2784,
      "cting": 2785,
      "atic": 2786,
      "makes": 2787,
      "Indeed": 2788,
      "learn": 2789,
      "opal": 2790,
      "Kott": 2791,
      "charac": 2792,
      "Ano": 2793,
      "door": 2794,
      "abs": 2795,
      "imp": 2796,
      "School": 2797,
      "Five": 2798,
      "dream": 2799,
      "wasnt": 2800,
      "rovers": 2801,
      "couple": 2802,
      "detained": 2803,
      "damaged": 2804,
      "hood": 2805,
      "Ste": 2806,
      "spiritual": 2807,
      "Constitution": 2808,
      "aries": 2809,
      "ony": 2810,
      "serve": 2811,
      "failed": 2812,
      "Pan": 2813,
      "opt": 2814,
      "exist": 2815,
      "gran": 2816,
      "sleep": 2817,
      "looked": 2818,
      "ama": 2819,
      "IN": 2820,
      "ler": 2821,
      "bt": 2822,
      "Also": 2823,
      "either": 2824,
      "speaking": 2825,
      "verdict": 2826,
      "results": 2827,
      "located": 2828,
      "iding": 2829,
      "tit": 2830,
      "DP": 2831,
      "Ban": 2832,
      "While": 2833,
      "candidates": 2834,
      "ka": 2835,
      "MS": 2836,
      "Che": 2837,
      "Po": 2838,
      "opened": 2839,
      "Kapoor": 2840,
      "girls": 2841,
      "fru": 2842,
      "Priyanka": 2843,
      "atory": 2844,
      "deli": 2845,
      "pot": 2846,
      "2019": 2847,
      "Eur": 2848,
      "counter": 2849,
      "cere": 2850,
      "worked": 2851,
      "ager": 2852,
      "raise": 2853,
      "expect": 2854,
      "dismiss": 2855,
      "cra": 2856,
      "gen": 2857,
      "adha": 2858,
      "ential": 2859,
      "soul": 2860,
      "marks": 2861,
      "endment": 2862,
      "required": 2863,
      "Indians": 2864,
      "Yah": 2865,
      "changes": 2866,
      "jail": 2867,
      "ires": 2868,
      "Fore": 2869,
      "avo": 2870,
      "Def": 2871,
      "controvers": 2872,
      "ministers": 2873,
      "represent": 2874,
      "itude": 2875,
      "related": 2876,
      "Sush": 2877,
      "mult": 2878,
      "rin": 2879,
      "looking": 2880,
      "Award": 2881,
      "vil": 2882,
      "sac": 2883,
      "ountain": 2884,
      "fest": 2885,
      "super": 2886,
      "late": 2887,
      "cript": 2888,
      "whole": 2889,
      "ense": 2890,
      "Bill": 2891,
      "Way": 2892,
      "uck": 2893,
      "Dhon": 2894,
      "ga": 2895,
      "27": 2896,
      "Men": 2897,
      "ming": 2898,
      "placed": 2899,
      "--": 2900,
      "construction": 2901,
      "ier": 2902,
      "prevent": 2903,
      "necessary": 2904,
      "Kottayam": 2905,
      "ries": 2906,
      "Sures": 2907,
      "plays": 2908,
      "anti": 2909,
      "black": 2910,
      "ability": 2911,
      "ood": 2912,
      "Ver": 2913,
      "Suresh": 2914,
      "neigh": 2915,
      "duc": 2916,
      "90": 2917,
      "affected": 2918,
      "Pol": 2919,
      "cinem": 2920,
      "cise": 2921,
      "data": 2922,
      "isnt": 2923,
      "Pat": 2924,
      "carry": 2925,
      "challeng": 2926,
      "rise": 2927,
      "auto": 2928,
      "whether": 2929,
      "takes": 2930,
      "Abd": 2931,
      "TH": 2932,
      "iced": 2933,
      "ago": 2934,
      "wis": 2935,
      "idd": 2936,
      "outside": 2937,
      "sw": 2938,
      "First": 2939,
      "submitted": 2940,
      "hearing": 2941,
      "League": 2942,
      "occurred": 2943,
      "fourth": 2944,
      "stopped": 2945,
      "mention": 2946,
      "river": 2947,
      "included": 2948,
      "prime": 2949,
      "hom": 2950,
      "ja": 2951,
      "weh": 2952,
      "religious": 2953,
      "ashed": 2954,
      "Yahweh": 2955,
      "apost": 2956,
      "thousand": 2957,
      "suffe": 2958,
      "Bar": 2959,
      "fal": 2960,
      "individ": 2961,
      "sele": 2962,
      "ending": 2963,
      "happening": 2964,
      "matches": 2965,
      "box": 2966,
      "icy": 2967,
      "signs": 2968,
      "Women": 2969,
      "felt": 2970,
      "ug": 2971,
      "growth": 2972,
      "cue": 2973,
      "Super": 2974,
      "officers": 2975,
      "isl": 2976,
      "corrup": 2977,
      "aign": 2978,
      "threat": 2979,
      "Thank": 2980,
      "steps": 2981,
      "season": 2982,
      "rug": 2983,
      "moment": 2984,
      "simple": 2985,
      "preci": 2986,
      "aware": 2987,
      "ateg": 2988,
      "bill": 2989,
      "granted": 2990,
      "Dhoni": 2991,
      "Muham": 2992,
      "purpose": 2993,
      "atever": 2994,
      "includes": 2995,
      "vies": 2996,
      "beautiful": 2997,
      "Zealand": 2998,
      "ems": 2999,
      "picture": 3000,
      "san": 3001,
      "sought": 3002,
      "ties": 3003,
      "none": 3004,
      "industry": 3005,
      "dem": 3006,
      "stitute": 3007,
      "expressed": 3008,
      "akrishnan": 3009,
      "bag": 3010,
      "crime": 3011,
      "accepted": 3012,
      "mass": 3013,
      "ger": 3014,
      "Euro": 3015,
      "rs": 3016,
      "Roy": 3017,
      "rank": 3018,
      "explain": 3019,
      "majority": 3020,
      "Ay": 3021,
      "arrived": 3022,
      "Arab": 3023,
      "petrol": 3024,
      "Committee": 3025,
      "Educ": 3026,
      "heaven": 3027,
      "Hary": 3028,
      "eld": 3029,
      "remember": 3030,
      "300": 3031,
      "undergoing": 3032,
      "vol": 3033,
      "Reg": 3034,
      "War": 3035,
      "neither": 3036,
      "direct": 3037,
      "Kannur": 3038,
      "suspended": 3039,
      "reach": 3040,
      "toms": 3041,
      "global": 3042,
      "century": 3043,
      "contain": 3044,
      "victory": 3045,
      "City": 3046,
      "justice": 3047,
      "virus": 3048,
      "conference": 3049,
      "Nir": 3050,
      "programme": 3051,
      "sust": 3052,
      "electric": 3053,
      "AT": 3054,
      "32": 3055,
      "suffered": 3056,
      "Thus": 3057,
      "flow": 3058,
      "seeking": 3059,
      "Aj": 3060,
      "smart": 3061,
      "expl": 3062,
      "continues": 3063,
      "Haryana": 3064,
      "Col": 3065,
      "alliance": 3066,
      "Rajya": 3067,
      "ron": 3068,
      "Kam": 3069,
      "Bha": 3070,
      "non": 3071,
      "phet": 3072,
      "journal": 3073,
      "hath": 3074,
      "Kodi": 3075,
      "mes": 3076,
      "completed": 3077,
      "jan": 3078,
      "mist": 3079,
      "governments": 3080,
      "diesel": 3081,
      "actors": 3082,
      "hor": 3083,
      "Pand": 3084,
      "Kolk": 3085,
      "reedom": 3086,
      "soldiers": 3087,
      "Amb": 3088,
      "Ernak": 3089,
      "certainly": 3090,
      "idered": 3091,
      "ika": 3092,
      "Special": 3093,
      "votes": 3094,
      "built": 3095,
      "schools": 3096,
      "ena": 3097,
      "contrib": 3098,
      "Ahmed": 3099,
      "bh": 3100,
      "rif": 3101,
      "Andhra": 3102,
      "uzha": 3103,
      "baby": 3104,
      "block": 3105,
      "lab": 3106,
      "Europe": 3107,
      "reli": 3108,
      "campaign": 3109,
      "ners": 3110,
      "biggest": 3111,
      "knew": 3112,
      "Kolkata": 3113,
      "Ernakulam": 3114,
      "Ja": 3115,
      "screen": 3116,
      "forces": 3117,
      "IPL": 3118,
      "benefit": 3119,
      "ORD": 3120,
      "doctor": 3121,
      "ded": 3122,
      "pictures": 3123,
      "listen": 3124,
      "aves": 3125,
      "ots": 3126,
      "spoke": 3127,
      "adminis": 3128,
      "airport": 3129,
      "considered": 3130,
      "wants": 3131,
      "guid": 3132,
      "languages": 3133,
      "ees": 3134,
      "Chandr": 3135,
      "orig": 3136,
      "forms": 3137,
      "increas": 3138,
      "economic": 3139,
      "hearts": 3140,
      "announcement": 3141,
      "bel": 3142,
      "phys": 3143,
      "supp": 3144,
      "rodu": 3145,
      "Nothing": 3146,
      "encies": 3147,
      "message": 3148,
      "ministry": 3149,
      "ki": 3150,
      "paid": 3151,
      "net": 3152,
      "forman": 3153,
      "fans": 3154,
      "saf": 3155,
      "aging": 3156,
      "sister": 3157,
      "destroyed": 3158,
      "aily": 3159,
      "continued": 3160,
      "29": 3161,
      "LORD": 3162,
      "Chinese": 3163,
      "goes": 3164,
      "aksh": 3165,
      "sit": 3166,
      "Pras": 3167,
      "minor": 3168,
      "natural": 3169,
      "Kodiyer": 3170,
      "rich": 3171,
      "society": 3172,
      "Yet": 3173,
      "hundred": 3174,
      "45": 3175,
      "wedding": 3176,
      "House": 3177,
      "Develop": 3178,
      "princi": 3179,
      "launch": 3180,
      "Mot": 3181,
      "cutive": 3182,
      "headed": 3183,
      "save": 3184,
      "check": 3185,
      "Ministers": 3186,
      "omb": 3187,
      "ension": 3188,
      "Kodiyeri": 3189,
      "link": 3190,
      "verse": 3191,
      "oned": 3192,
      "disci": 3193,
      "committed": 3194,
      "itizens": 3195,
      "Donald": 3196,
      "Hyder": 3197,
      "Election": 3198,
      "composed": 3199,
      "cities": 3200,
      "quit": 3201,
      "recogn": 3202,
      "Heavy": 3203,
      "disput": 3204,
      "investigating": 3205,
      "jun": 3206,
      "script": 3207,
      "ium": 3208,
      "kids": 3209,
      "congregation": 3210,
      "Father": 3211,
      "gives": 3212,
      "thats": 3213,
      "RT": 3214,
      "ghan": 3215,
      "toll": 3216,
      "ggest": 3217,
      "favour": 3218,
      "itor": 3219,
      "roads": 3220,
      "instru": 3221,
      "alert": 3222,
      "border": 3223,
      "strength": 3224,
      "athan": 3225,
      "false": 3226,
      "thern": 3227,
      "docu": 3228,
      "elected": 3229,
      "iled": 3230,
      "introdu": 3231,
      "Az": 3232,
      "aim": 3233,
      "Tha": 3234,
      "thus": 3235,
      "American": 3236,
      "traf": 3237,
      "reward": 3238,
      "Bh": 3239,
      "sat": 3240,
      "Another": 3241,
      "Hyderabad": 3242,
      "jri": 3243,
      "traffic": 3244,
      "cher": 3245,
      "evening": 3246,
      "offered": 3247,
      "Ant": 3248,
      "Car": 3249,
      "conv": 3250,
      "mobile": 3251,
      "udd": 3252,
      "path": 3253,
      "ring": 3254,
      "Sol": 3255,
      "regular": 3256,
      "tran": 3257,
      "KS": 3258,
      "Mon": 3259,
      "aste": 3260,
      "Ger": 3261,
      "ene": 3262,
      "cris": 3263,
      "Kejri": 3264,
      "actions": 3265,
      "loved": 3266,
      "Council": 3267,
      "published": 3268,
      "Russia": 3269,
      "Mer": 3270,
      "ulture": 3271,
      "worth": 3272,
      "gri": 3273,
      "economy": 3274,
      "ceremony": 3275,
      "wat": 3276,
      "esters": 3277,
      "farmers": 3278,
      "surv": 3279,
      "litre": 3280,
      "space": 3281,
      "va": 3282,
      "log": 3283,
      "tweeted": 3284,
      "Students": 3285,
      "active": 3286,
      "strengthen": 3287,
      "saved": 3288,
      "participated": 3289,
      "ests": 3290,
      "gency": 3291,
      "udget": 3292,
      "Good": 3293,
      "performan": 3294,
      "aper": 3295,
      "suggest": 3296,
      "tele": 3297,
      "indra": 3298,
      "receive": 3299,
      "seek": 3300,
      "chay": 3301,
      "community": 3302,
      "prepared": 3303,
      "notice": 3304,
      "examination": 3305,
      "Muhammad": 3306,
      "ards": 3307,
      "ikh": 3308,
      "innings": 3309,
      "separ": 3310,
      "relatives": 3311,
      "aught": 3312,
      "quite": 3313,
      "anad": 3314,
      "Take": 3315,
      "icted": 3316,
      "positive": 3317,
      "Photo": 3318,
      "Sp": 3319,
      "Lanka": 3320,
      "efforts": 3321,
      "scheme": 3322,
      "female": 3323,
      "Kas": 3324,
      "commit": 3325,
      "carried": 3326,
      "Rep": 3327,
      "ication": 3328,
      "Amendment": 3329,
      "31": 3330,
      "attention": 3331,
      "IA": 3332,
      "hospitals": 3333,
      "movies": 3334,
      "seriously": 3335,
      "activities": 3336,
      "ternet": 3337,
      "Des": 3338,
      "wa": 3339,
      "whose": 3340,
      "quick": 3341,
      "hurt": 3342,
      "akash": 3343,
      "doctors": 3344,
      "yourself": 3345,
      "ization": 3346,
      "37": 3347,
      "Kejriwal": 3348,
      "vey": 3349,
      "shooting": 3350,
      "plann": 3351,
      "nearby": 3352,
      "someone": 3353,
      "deceased": 3354,
      "sun": 3355,
      "missing": 3356,
      "population": 3357,
      "capital": 3358,
      "fection": 3359,
      "Education": 3360,
      "waiting": 3361,
      "Water": 3362,
      "gment": 3363,
      "tro": 3364,
      "argu": 3365,
      "refused": 3366,
      "lands": 3367,
      "standing": 3368,
      "Governor": 3369,
      "deeds": 3370,
      "danger": 3371,
      "Afghan": 3372,
      "Children": 3373,
      "previ": 3374,
      "SA": 3375,
      "UV": 3376,
      "firm": 3377,
      "approached": 3378,
      "fif": 3379,
      "Offic": 3380,
      "ina": 3381,
      "Development": 3382,
      "Well": 3383,
      "Citizenship": 3384,
      "presided": 3385,
      "names": 3386,
      "emy": 3387,
      "daily": 3388,
      "helps": 3389,
      "pleas": 3390,
      "ODI": 3391,
      "therefore": 3392,
      "lose": 3393,
      "ometimes": 3394,
      "vants": 3395,
      "gree": 3396,
      "2018": 3397,
      "lled": 3398,
      "ns": 3399,
      "mercy": 3400,
      "review": 3401,
      "production": 3402,
      "Law": 3403,
      "GP": 3404,
      "Jap": 3405,
      "feet": 3406,
      "vironment": 3407,
      "freedom": 3408,
      "helped": 3409,
      "sound": 3410,
      "democracy": 3411,
      "rights": 3412,
      "harm": 3413,
      "hatt": 3414,
      "athi": 3415,
      "interview": 3416,
      "joint": 3417,
      "enced": 3418,
      "Deep": 3419,
      "vote": 3420,
      "199": 3421,
      "opin": 3422,
      "journey": 3423,
      "isher": 3424,
      "CCTV": 3425,
      "ange": 3426,
      "repe": 3427,
      "thi": 3428,
      "owned": 3429,
      "army": 3430,
      "Youth": 3431,
      "vari": 3432,
      "About": 3433,
      "cop": 3434,
      "mountain": 3435,
      "promise": 3436,
      "II": 3437,
      "cancell": 3438,
      "SC": 3439,
      "Come": 3440,
      "Sud": 3441,
      "cross": 3442,
      "Kan": 3443,
      "books": 3444,
      "urch": 3445,
      "Script": 3446,
      "mptoms": 3447,
      "torque": 3448,
      "ported": 3449,
      "neighb": 3450,
      "mix": 3451,
      "icial": 3452,
      "ami": 3453,
      "Because": 3454,
      "talks": 3455,
      "rally": 3456,
      "igation": 3457,
      "Lead": 3458,
      "appear": 3459,
      "Invest": 3460,
      "secret": 3461,
      "servants": 3462,
      "banks": 3463,
      "shock": 3464,
      "spor": 3465,
      "cru": 3466,
      "sens": 3467,
      "See": 3468,
      "Article": 3469,
      "deter": 3470,
      "writer": 3471,
      "exer": 3472,
      "note": 3473,
      "Look": 3474,
      "75": 3475,
      "Tem": 3476,
      "Know": 3477,
      "recorded": 3478,
      "Dep": 3479,
      "Ravi": 3480,
      "earch": 3481,
      "Pakistani": 3482,
      "higher": 3483,
      "score": 3484,
      "constituency": 3485,
      "Cur": 3486,
      "ND": 3487,
      "Rajnath": 3488,
      "Senior": 3489,
      "Defence": 3490,
      "prayer": 3491,
      "rescue": 3492,
      "encour": 3493,
      "online": 3494,
      "Mano": 3495,
      "crisis": 3496,
      "utes": 3497,
      "Japan": 3498,
      "alore": 3499,
      "Nm": 3500,
      "trave": 3501,
      "apped": 3502,
      "ams": 3503,
      "Baner": 3504,
      "doubt": 3505,
      "icke": 3506,
      "East": 3507,
      "Tata": 3508,
      "bats": 3509,
      "inary": 3510,
      "Jer": 3511,
      "dismissed": 3512,
      "Everything": 3513,
      "happens": 3514,
      "mater": 3515,
      "thew": 3516,
      "rect": 3517,
      "drug": 3518,
      "Prakash": 3519,
      "bhp": 3520,
      "Life": 3521,
      "vation": 3522,
      "tery": 3523,
      "une": 3524,
      "Lal": 3525,
      "anda": 3526,
      "load": 3527,
      "iting": 3528,
      "tray": 3529,
      "CA": 3530,
      "?\"\"\"": 3531,
      "debut": 3532,
      "speech": 3533,
      "cricke": 3534,
      "facing": 3535,
      "asan": 3536,
      "forget": 3537,
      "strike": 3538,
      "Ka": 3539,
      "mig": 3540,
      "grand": 3541,
      "Adity": 3542,
      "training": 3543,
      "150": 3544,
      "corruption": 3545,
      "begun": 3546,
      "angana": 3547,
      "prim": 3548,
      "Us": 3549,
      "ashes": 3550,
      "Banerjee": 3551,
      "Six": 3552,
      "48": 3553,
      "ED": 3554,
      "Apart": 3555,
      "afr": 3556,
      "Goa": 3557,
      "Abrah": 3558,
      "cially": 3559,
      "NCP": 3560,
      "fig": 3561,
      "Prot": 3562,
      "lay": 3563,
      "permission": 3564,
      "civil": 3565,
      "ny": 3566,
      "article": 3567,
      "ping": 3568,
      "afraid": 3569,
      "swe": 3570,
      "Board": 3571,
      "locals": 3572,
      "colour": 3573,
      "Mem": 3574,
      "Under": 3575,
      "akes": 3576,
      "south": 3577,
      "grat": 3578,
      "appoint": 3579,
      "Tal": 3580,
      "ato": 3581,
      "Tra": 3582,
      "ght": 3583,
      "below": 3584,
      "Therefore": 3585,
      "via": 3586,
      "iving": 3587,
      "opportunity": 3588,
      "ini": 3589,
      "shut": 3590,
      "nab": 3591,
      "character": 3592,
      "laws": 3593,
      "salt": 3594,
      "allegedly": 3595,
      "groups": 3596,
      "commission": 3597,
      "Prasad": 3598,
      "orders": 3599,
      "arent": 3600,
      "lat": 3601,
      "Security": 3602,
      "attacked": 3603,
      "ira": 3604,
      "send": 3605,
      "DM": 3606,
      "quality": 3607,
      "cum": 3608,
      "foc": 3609,
      "rule": 3610,
      "histor": 3611,
      "pressure": 3612,
      "Word": 3613,
      "appuram": 3614,
      "Since": 3615,
      "aran": 3616,
      "sexual": 3617,
      "leadership": 3618,
      "vention": 3619,
      "safety": 3620,
      "avoid": 3621,
      "subject": 3622,
      "recomm": 3623,
      "Hence": 3624,
      "teas": 3625,
      "whatever": 3626,
      "uni": 3627,
      "truck": 3628,
      "wamy": 3629,
      "omin": 3630,
      "Krish": 3631,
      "conduct": 3632,
      "forest": 3633,
      "Sanjay": 3634,
      "protesters": 3635,
      "asks": 3636,
      "ships": 3637,
      "military": 3638,
      "RSS": 3639,
      "ster": 3640,
      "storage": 3641,
      "Wayanad": 3642,
      "apart": 3643,
      "exe": 3644,
      "mankind": 3645,
      "arr": 3646,
      "critical": 3647,
      "remained": 3648,
      "Gold": 3649,
      "acting": 3650,
      "citizens": 3651,
      "successful": 3652,
      "motor": 3653,
      "remains": 3654,
      "hap": 3655,
      "extreme": 3656,
      "suffering": 3657,
      "Kul": 3658,
      "Arvind": 3659,
      "Malappuram": 3660,
      "British": 3661,
      "lif": 3662,
      "ipur": 3663,
      "Anil": 3664,
      "killing": 3665,
      "Bes": 3666,
      "booked": 3667,
      "pm": 3668,
      "ensure": 3669,
      "ological": 3670,
      "ndran": 3671,
      "chairman": 3672,
      "weight": 3673,
      "removed": 3674,
      "ades": 3675,
      "RAM": 3676,
      "inch": 3677,
      "suspect": 3678,
      "measures": 3679,
      "La": 3680,
      "ories": 3681,
      "partic": 3682,
      "attacks": 3683,
      "inder": 3684,
      "criminal": 3685,
      "cinema": 3686,
      "?\"": 3687,
      "apt": 3688,
      "36": 3689,
      "caught": 3690,
      "crores": 3691,
      "daughters": 3692,
      "exper": 3693,
      "reportedly": 3694,
      "bound": 3695,
      "options": 3696,
      "Sim": 3697,
      "ender": 3698,
      "ufact": 3699,
      "maintain": 3700,
      "cash": 3701,
      "Met": 3702,
      "voice": 3703,
      "ampion": 3704,
      "nations": 3705,
      "games": 3706,
      "deb": 3707,
      "Nit": 3708,
      "Corpor": 3709,
      "achin": 3710,
      "hair": 3711,
      "upcoming": 3712,
      "Salman": 3713,
      "iple": 3714,
      "text": 3715,
      "fish": 3716,
      "aches": 3717,
      "technology": 3718,
      "assu": 3719,
      "scient": 3720,
      "teachers": 3721,
      "lie": 3722,
      "Fe": 3723,
      "iday": 3724,
      "create": 3725,
      "benefits": 3726,
      "Vice": 3727,
      "bing": 3728,
      "influ": 3729,
      "Jew": 3730,
      "Abraham": 3731,
      "please": 3732,
      "Off": 3733,
      "etc": 3734,
      "target": 3735,
      "Techn": 3736,
      "Up": 3737,
      "faithful": 3738,
      "performance": 3739,
      "staff": 3740,
      "discussion": 3741,
      "Dha": 3742,
      "filled": 3743,
      "discussed": 3744,
      "urre": 3745,
      "green": 3746,
      "enge": 3747,
      "amed": 3748,
      "ximum": 3749,
      "broke": 3750,
      "appeared": 3751,
      "Ju": 3752,
      "sugar": 3753,
      "wall": 3754,
      "partner": 3755,
      "uals": 3756,
      "visited": 3757,
      "signific": 3758,
      "proved": 3759,
      "icated": 3760,
      "reply": 3761,
      "bear": 3762,
      "ras": 3763,
      "Messenger": 3764,
      "antly": 3765,
      "competition": 3766,
      "Road": 3767,
      "Group": 3768,
      "deploy": 3769,
      "Balakrishnan": 3770,
      "Surendran": 3771,
      "pie": 3772,
      "responded": 3773,
      "gun": 3774,
      "veget": 3775,
      "ift": 3776,
      "Koll": 3777,
      "Institute": 3778,
      "rub": 3779,
      "ounts": 3780,
      "arim": 3781,
      "Kannada": 3782,
      "Wash": 3783,
      "resh": 3784,
      "Though": 3785,
      "holy": 3786,
      "Yogi": 3787,
      "advis": 3788,
      "wish": 3789,
      "attempt": 3790,
      "garh": 3791,
      "medic": 3792,
      "file": 3793,
      "araj": 3794,
      "distrib": 3795,
      "phones": 3796,
      "responsible": 3797,
      "Saudi": 3798,
      "uled": 3799,
      "finis": 3800,
      "acts": 3801,
      "matters": 3802,
      "dig": 3803,
      "sor": 3804,
      "Dub": 3805,
      "employees": 3806,
      "fit": 3807,
      "appreci": 3808,
      "arrier": 3809,
      "Isa": 3810,
      "nament": 3811,
      "HC": 3812,
      "instit": 3813,
      "andran": 3814,
      "spokes": 3815,
      "inha": 3816,
      "bul": 3817,
      "Further": 3818,
      "itha": 3819,
      "contact": 3820,
      "Besides": 3821,
      "Afghanistan": 3822,
      "Sunil": 3823,
      "owd": 3824,
      "Thris": 3825,
      "soever": 3826,
      "anath": 3827,
      "America": 3828,
      "affect": 3829,
      "bid": 3830,
      "33": 3831,
      "site": 3832,
      "Associ": 3833,
      "Assam": 3834,
      "cred": 3835,
      "duty": 3836,
      "nu": 3837,
      "Mary": 3838,
      "craft": 3839,
      "amin": 3840,
      "projects": 3841,
      "difference": 3842,
      "Thrissur": 3843,
      "table": 3844,
      "Kollam": 3845,
      "Kal": 3846,
      "gra": 3847,
      "slow": 3848,
      "comment": 3849,
      ".'": 3850,
      "white": 3851,
      "rules": 3852,
      "policy": 3853,
      "calls": 3854,
      "concl": 3855,
      "aver": 3856,
      "Shankar": 3857,
      "version": 3858,
      "collap": 3859,
      "worlds": 3860,
      "WhatsApp": 3861,
      "touch": 3862,
      "trou": 3863,
      "wont": 3864,
      "yan": 3865,
      "walk": 3866,
      "Pate": 3867,
      "pred": 3868,
      "tur": 3869,
      "Far": 3870,
      "Pul": 3871,
      "ape": 3872,
      "players": 3873,
      "ulted": 3874,
      "research": 3875,
      "64": 3876,
      "bin": 3877,
      "Love": 3878,
      "France": 3879,
      "liter": 3880,
      "decide": 3881,
      ".\"\"": 3882,
      "Dal": 3883,
      "Srin": 3884,
      "dark": 3885,
      "Each": 3886,
      "haps": 3887,
      "brid": 3888,
      "Geor": 3889,
      "Out": 3890,
      "Vish": 3891,
      "cancelled": 3892,
      "hav": 3893,
      "refer": 3894,
      "coach": 3895,
      "transfer": 3896,
      "railway": 3897,
      "belief": 3898,
      "gas": 3899,
      "roll": 3900,
      "Qu": 3901,
      "UN": 3902,
      "questioned": 3903,
      "oth": 3904,
      "treated": 3905,
      "phase": 3906,
      "Dubai": 3907,
      "north": 3908,
      "Mamata": 3909,
      "Cricket": 3910,
      "increasing": 3911,
      "companies": 3912,
      "Mic": 3913,
      "pack": 3914,
      "protect": 3915,
      "Deputy": 3916,
      "aker": 3917,
      "hara": 3918,
      "particular": 3919,
      "BSP": 3920,
      "posted": 3921,
      "application": 3922,
      "Asia": 3923,
      "trade": 3924,
      "holds": 3925,
      "anch": 3926,
      "strict": 3927,
      "independ": 3928,
      "buy": 3929,
      "raj": 3930,
      "Satan": 3931,
      "defeat": 3932,
      "AR": 3933,
      "goal": 3934,
      "34": 3935,
      "ilty": 3936,
      "stra": 3937,
      "plans": 3938,
      "presence": 3939,
      "completely": 3940,
      "Public": 3941,
      "smo": 3942,
      "legisl": 3943,
      "Rao": 3944,
      "webs": 3945,
      "Does": 3946,
      "burn": 3947,
      "gap": 3948,
      "akkad": 3949,
      "Ple": 3950,
      "poster": 3951,
      "image": 3952,
      "ensive": 3953,
      "mentioned": 3954,
      "healthy": 3955,
      "iya": 3956,
      "Mur": 3957,
      "material": 3958,
      "aving": 3959,
      "implemented": 3960,
      "operations": 3961,
      "fathers": 3962,
      "centre": 3963,
      "faced": 3964,
      "guilty": 3965,
      "organised": 3966,
      "T20": 3967,
      "running": 3968,
      "winning": 3969,
      "Janata": 3970,
      "CCI": 3971,
      "Nath": 3972,
      "nine": 3973,
      "cooperation": 3974,
      "manufact": 3975,
      "External": 3976,
      "chaired": 3977,
      "thinking": 3978,
      "terrorists": 3979,
      "object": 3980,
      "igil": 3981,
      "flight": 3982,
      "2017": 3983,
      "pil": 3984,
      "appuzha": 3985,
      "rew": 3986,
      "Swar": 3987,
      "powder": 3988,
      "stage": 3989,
      "Jac": 3990,
      "Famil": 3991,
      "value": 3992,
      "humans": 3993,
      "itself": 3994,
      "Phil": 3995,
      "beginning": 3996,
      "oted": 3997,
      "descri": 3998,
      "track": 3999
    },
    "merges": [
      [
        "h",
        "e"
      ],
      [
        "i",
        "n"
      ],
      [
        "t",
        "he"
      ],
      [
        "r",
        "e"
      ],
      [
        "a",
        "n"
      ],
      [
        "o",
        "n"
      ],
      [
        "e",
        "r"
      ],
      [
        "i",
        "s"
      ],
      [
        "a",
        "t"
      ],
      [
        "e",
        "d"
      ],
      [
        "e",
        "n"
      ],
      [
        "a",
        "l"
      ],
      [
        "a",
        "s"
      ],
      [
        "t",
        "h"
      ],
      [
        "o",
        "r"
      ],
      [
        "a",
        "r"
      ],
      [
        "o",
        "u"
      ],
      [
        "e",
        "s"
      ],
      [
        "t",
        "o"
      ],
      [
        "an",
        "d"
      ],
      [
        "o",
        "f"
      ],
      [
        "in",
        "g"
      ],
      [
        "i",
        "t"
      ],
      [
        "i",
        "l"
      ],
      [
        "i",
        "c"
      ],
      [
        "s",
        "t"
      ],
      [
        "T",
        "he"
      ],
      [
        "i",
        "on"
      ],
      [
        "l",
        "e"
      ],
      [
        "o",
        "m"
      ],
      [
        "b",
        "e"
      ],
      [
        "en",
        "t"
      ],
      [
        "a",
        "d"
      ],
      [
        "i",
        "d"
      ],
      [
        "a",
        "m"
      ],
      [
        "v",
        "e"
      ],
      [
        "s",
        "e"
      ],
      [
        "a",
        "c"
      ],
      [
        "o",
        "l"
      ],
      [
        "o",
        "t"
      ],
      [
        "n",
        "d"
      ],
      [
        "h",
        "a"
      ],
      [
        "f",
        "or"
      ],
      [
        "v",
        "er"
      ],
      [
        "a",
        "y"
      ],
      [
        "t",
        "er"
      ],
      [
        "i",
        "r"
      ],
      [
        "i",
        "m"
      ],
      [
        "o",
        "w"
      ],
      [
        "a",
        "re"
      ],
      [
        "u",
        "r"
      ],
      [
        "w",
        "as"
      ],
      [
        "l",
        "y"
      ],
      [
        "r",
        "o"
      ],
      [
        "il",
        "l"
      ],
      [
        "c",
        "h"
      ],
      [
        "re",
        "s"
      ],
      [
        "w",
        "e"
      ],
      [
        "c",
        "t"
      ],
      [
        "d",
        "e"
      ],
      [
        "u",
        "t"
      ],
      [
        "i",
        "g"
      ],
      [
        "u",
        "s"
      ],
      [
        "at",
        "ion"
      ],
      [
        "th",
        "at"
      ],
      [
        "t",
        "r"
      ],
      [
        "a",
        "k"
      ],
      [
        "ou",
        "r"
      ],
      [
        "h",
        "as"
      ],
      [
        "o",
        "d"
      ],
      [
        "a",
        "g"
      ],
      [
        "w",
        "h"
      ],
      [
        "i",
        "th"
      ],
      [
        "p",
        "e"
      ],
      [
        "c",
        "e"
      ],
      [
        "n",
        "ot"
      ],
      [
        "c",
        "on"
      ],
      [
        "a",
        "in"
      ],
      [
        "h",
        "is"
      ],
      [
        "e",
        "t"
      ],
      [
        "a",
        "b"
      ],
      [
        "u",
        "l"
      ],
      [
        "m",
        "ent"
      ],
      [
        "ha",
        "ve"
      ],
      [
        "o",
        "p"
      ],
      [
        "l",
        "i"
      ],
      [
        "ic",
        "e"
      ],
      [
        "s",
        "o"
      ],
      [
        "c",
        "om"
      ],
      [
        "u",
        "n"
      ],
      [
        "w",
        "ill"
      ],
      [
        "w",
        "ith"
      ],
      [
        "al",
        "l"
      ],
      [
        "es",
        "t"
      ],
      [
        "y",
        "ou"
      ],
      [
        "n",
        "e"
      ],
      [
        "i",
        "a"
      ],
      [
        "s",
        "h"
      ],
      [
        "f",
        "r"
      ],
      [
        "l",
        "d"
      ],
      [
        "at",
        "e"
      ],
      [
        "the",
        "r"
      ],
      [
        "I",
        "nd"
      ],
      [
        "H",
        "e"
      ],
      [
        "b",
        "y"
      ],
      [
        "er",
        "s"
      ],
      [
        "a",
        "p"
      ],
      [
        "f",
        "e"
      ],
      [
        "s",
        "u"
      ],
      [
        "\"",
        "\""
      ],
      [
        "p",
        "l"
      ],
      [
        "t",
        "s"
      ],
      [
        "re",
        "d"
      ],
      [
        "m",
        "e"
      ],
      [
        "s",
        "a"
      ],
      [
        "t",
        "e"
      ],
      [
        "on",
        "e"
      ],
      [
        "m",
        "o"
      ],
      [
        "th",
        "is"
      ],
      [
        "l",
        "l"
      ],
      [
        "p",
        "ro"
      ],
      [
        "r",
        "i"
      ],
      [
        "l",
        "o"
      ],
      [
        "g",
        "o"
      ],
      [
        "we",
        "re"
      ],
      [
        "fr",
        "om"
      ],
      [
        "be",
        "en"
      ],
      [
        "u",
        "m"
      ],
      [
        "ol",
        "ice"
      ],
      [
        "ar",
        "t"
      ],
      [
        "a",
        "h"
      ],
      [
        "on",
        "g"
      ],
      [
        "p",
        "o"
      ],
      [
        "ig",
        "h"
      ],
      [
        "d",
        "i"
      ],
      [
        "sa",
        "id"
      ],
      [
        "ou",
        "t"
      ],
      [
        "h",
        "i"
      ],
      [
        "in",
        "is"
      ],
      [
        "es",
        "s"
      ],
      [
        "e",
        "x"
      ],
      [
        "d",
        "o"
      ],
      [
        "I",
        "t"
      ],
      [
        "u",
        "p"
      ],
      [
        "i",
        "es"
      ],
      [
        "r",
        "a"
      ],
      [
        "h",
        "o"
      ],
      [
        "h",
        "at"
      ],
      [
        "an",
        "y"
      ],
      [
        "Ind",
        "ia"
      ],
      [
        "p",
        "r"
      ],
      [
        "is",
        "t"
      ],
      [
        "ou",
        "ld"
      ],
      [
        "it",
        "y"
      ],
      [
        "h",
        "ad"
      ],
      [
        "s",
        "p"
      ],
      [
        "w",
        "or"
      ],
      [
        "q",
        "u"
      ],
      [
        "B",
        "ut"
      ],
      [
        "e",
        "l"
      ],
      [
        "ac",
        "t"
      ],
      [
        "al",
        "so"
      ],
      [
        "n",
        "o"
      ],
      [
        "en",
        "d"
      ],
      [
        "inis",
        "ter"
      ],
      [
        "o",
        "k"
      ],
      [
        "T",
        "his"
      ],
      [
        "the",
        "m"
      ],
      [
        "res",
        "s"
      ],
      [
        "g",
        "e"
      ],
      [
        "t",
        "ed"
      ],
      [
        "id",
        "ent"
      ],
      [
        "c",
        "i"
      ],
      [
        "the",
        "y"
      ],
      [
        "a",
        "v"
      ],
      [
        "ar",
        "d"
      ],
      [
        "i",
        "ve"
      ],
      [
        "im",
        "e"
      ],
      [
        "d",
        "is"
      ],
      [
        "p",
        "olice"
      ],
      [
        "as",
        "e"
      ],
      [
        ".",
        "."
      ],
      [
        "e",
        "f"
      ],
      [
        "wh",
        "o"
      ],
      [
        "p",
        "or"
      ],
      [
        "ou",
        "n"
      ],
      [
        "u",
        "st"
      ],
      [
        "e",
        "ver"
      ],
      [
        "g",
        "h"
      ],
      [
        "u",
        "d"
      ],
      [
        "an",
        "t"
      ],
      [
        "i",
        "f"
      ],
      [
        "i",
        "v"
      ],
      [
        "op",
        "le"
      ],
      [
        "p",
        "er"
      ],
      [
        "f",
        "il"
      ],
      [
        "k",
        "e"
      ],
      [
        "in",
        "d"
      ],
      [
        "in",
        "c"
      ],
      [
        "i",
        "an"
      ],
      [
        "ct",
        "ion"
      ],
      [
        "a",
        "f"
      ],
      [
        "m",
        "ed"
      ],
      [
        "c",
        "an"
      ],
      [
        "re",
        "n"
      ],
      [
        "igh",
        "t"
      ],
      [
        "om",
        "e"
      ],
      [
        "o",
        "ver"
      ],
      [
        "I",
        "n"
      ],
      [
        "w",
        "o"
      ],
      [
        "at",
        "ed"
      ],
      [
        "ou",
        "s"
      ],
      [
        "pe",
        "ople"
      ],
      [
        "W",
        "e"
      ],
      [
        "the",
        "ir"
      ],
      [
        "a",
        "u"
      ],
      [
        "M",
        "inister"
      ],
      [
        "0",
        "0"
      ],
      [
        "e",
        "v"
      ],
      [
        "ac",
        "k"
      ],
      [
        "P",
        "r"
      ],
      [
        "p",
        "art"
      ],
      [
        "o",
        "ther"
      ],
      [
        "he",
        "r"
      ],
      [
        "g",
        "r"
      ],
      [
        "u",
        "nd"
      ],
      [
        "id",
        "e"
      ],
      [
        "o",
        "re"
      ],
      [
        "n",
        "ow"
      ],
      [
        "C",
        "h"
      ],
      [
        "J",
        "P"
      ],
      [
        "t",
        "ak"
      ],
      [
        "or",
        "d"
      ],
      [
        "ag",
        "ain"
      ],
      [
        "h",
        "im"
      ],
      [
        "B",
        "JP"
      ],
      [
        "am",
        "e"
      ],
      [
        "The",
        "re"
      ],
      [
        "th",
        "ing"
      ],
      [
        "he",
        "n"
      ],
      [
        "a",
        "j"
      ],
      [
        "n",
        "ment"
      ],
      [
        "m",
        "an"
      ],
      [
        "e",
        "ar"
      ],
      [
        "at",
        "h"
      ],
      [
        "ag",
        "e"
      ],
      [
        "ac",
        "e"
      ],
      [
        "w",
        "ay"
      ],
      [
        "The",
        "y"
      ],
      [
        "b",
        "o"
      ],
      [
        "e",
        "m"
      ],
      [
        "as",
        "t"
      ],
      [
        "i",
        "p"
      ],
      [
        "fil",
        "m"
      ],
      [
        "y",
        "our"
      ],
      [
        "ar",
        "y"
      ],
      [
        "the",
        "re"
      ],
      [
        "re",
        "e"
      ],
      [
        "ou",
        "gh"
      ],
      [
        "d",
        "u"
      ],
      [
        "T",
        "h"
      ],
      [
        "an",
        "g"
      ],
      [
        "d",
        "ay"
      ],
      [
        "v",
        "i"
      ],
      [
        "ac",
        "c"
      ],
      [
        "re",
        "st"
      ],
      [
        "m",
        "y"
      ],
      [
        "of",
        "f"
      ],
      [
        "c",
        "ase"
      ],
      [
        "at",
        "er"
      ],
      [
        "a",
        "il"
      ],
      [
        "u",
        "re"
      ],
      [
        "e",
        "p"
      ],
      [
        "A",
        "ll"
      ],
      [
        "p",
        "le"
      ],
      [
        "again",
        "st"
      ],
      [
        "c",
        "r"
      ],
      [
        "ic",
        "t"
      ],
      [
        "W",
        "hat"
      ],
      [
        "ou",
        "nd"
      ],
      [
        "it",
        "s"
      ],
      [
        "i",
        "b"
      ],
      [
        "as",
        "s"
      ],
      [
        "an",
        "s"
      ],
      [
        "ol",
        "l"
      ],
      [
        "al",
        "ly"
      ],
      [
        "he",
        "d"
      ],
      [
        "is",
        "h"
      ],
      [
        "it",
        "ion"
      ],
      [
        "f",
        "ir"
      ],
      [
        "re",
        "g"
      ],
      [
        "c",
        "o"
      ],
      [
        "he",
        "re"
      ],
      [
        "t",
        "wo"
      ],
      [
        "k",
        "now"
      ],
      [
        "go",
        "ver"
      ],
      [
        "A",
        "nd"
      ],
      [
        "po",
        "s"
      ],
      [
        "\"\"",
        "\""
      ],
      [
        "ic",
        "h"
      ],
      [
        "ct",
        "ed"
      ],
      [
        "af",
        "ter"
      ],
      [
        "il",
        "d"
      ],
      [
        "H",
        "ow"
      ],
      [
        "p",
        "res"
      ],
      [
        "por",
        "t"
      ],
      [
        "al",
        "a"
      ],
      [
        "wh",
        "at"
      ],
      [
        "en",
        "ce"
      ],
      [
        "p",
        "p"
      ],
      [
        "ac",
        "h"
      ],
      [
        "C",
        "ong"
      ],
      [
        "our",
        "t"
      ],
      [
        "s",
        "er"
      ],
      [
        "l",
        "a"
      ],
      [
        "at",
        "t"
      ],
      [
        "ow",
        "n"
      ],
      [
        "in",
        "e"
      ],
      [
        "le",
        "ad"
      ],
      [
        "an",
        "k"
      ],
      [
        "gover",
        "nment"
      ],
      [
        "an",
        "ce"
      ],
      [
        "Cong",
        "ress"
      ],
      [
        "t",
        "ime"
      ],
      [
        "h",
        "ar"
      ],
      [
        "st",
        "ate"
      ],
      [
        "m",
        "b"
      ],
      [
        "d",
        "id"
      ],
      [
        "2",
        "0"
      ],
      [
        "us",
        "ed"
      ],
      [
        "G",
        "od"
      ],
      [
        "b",
        "r"
      ],
      [
        "und",
        "er"
      ],
      [
        "as",
        "h"
      ],
      [
        "s",
        "ay"
      ],
      [
        "tr",
        "y"
      ],
      [
        "it",
        "al"
      ],
      [
        "c",
        "re"
      ],
      [
        "ad",
        "e"
      ],
      [
        "ab",
        "out"
      ],
      [
        "o",
        "se"
      ],
      [
        "ic",
        "al"
      ],
      [
        "on",
        "s"
      ],
      [
        "il",
        "e"
      ],
      [
        "wor",
        "k"
      ],
      [
        "ic",
        "k"
      ],
      [
        "c",
        "oun"
      ],
      [
        "m",
        "it"
      ],
      [
        "am",
        "il"
      ],
      [
        "Ind",
        "ian"
      ],
      [
        "b",
        "ut"
      ],
      [
        "ne",
        "w"
      ],
      [
        ".",
        "\""
      ],
      [
        "ab",
        "le"
      ],
      [
        "b",
        "l"
      ],
      [
        "es",
        "h"
      ],
      [
        "od",
        "i"
      ],
      [
        "ol",
        "d"
      ],
      [
        "ation",
        "s"
      ],
      [
        "S",
        "t"
      ],
      [
        "wh",
        "ich"
      ],
      [
        "N",
        "o"
      ],
      [
        "p",
        "ers"
      ],
      [
        "u",
        "e"
      ],
      [
        "m",
        "er"
      ],
      [
        "com",
        "e"
      ],
      [
        "A",
        "s"
      ],
      [
        "P",
        "olice"
      ],
      [
        "ion",
        "s"
      ],
      [
        "i",
        "al"
      ],
      [
        "..",
        "."
      ],
      [
        "ci",
        "al"
      ],
      [
        "in",
        "v"
      ],
      [
        "s",
        "pe"
      ],
      [
        "ig",
        "n"
      ],
      [
        "Y",
        "ou"
      ],
      [
        "e",
        "w"
      ],
      [
        "T",
        "hat"
      ],
      [
        "R",
        "s"
      ],
      [
        "g",
        "et"
      ],
      [
        "f",
        "ul"
      ],
      [
        "en",
        "g"
      ],
      [
        "ver",
        "y"
      ],
      [
        "f",
        "ore"
      ],
      [
        "um",
        "b"
      ],
      [
        "fir",
        "st"
      ],
      [
        "in",
        "to"
      ],
      [
        "c",
        "ent"
      ],
      [
        "c",
        "k"
      ],
      [
        "f",
        "a"
      ],
      [
        "i",
        "re"
      ],
      [
        "ar",
        "rest"
      ],
      [
        "M",
        "odi"
      ],
      [
        "m",
        "ar"
      ],
      [
        "n",
        "t"
      ],
      [
        "p",
        "re"
      ],
      [
        "sp",
        "ital"
      ],
      [
        "ct",
        "or"
      ],
      [
        "an",
        "n"
      ],
      [
        "v",
        "ed"
      ],
      [
        "m",
        "at"
      ],
      [
        "w",
        "ould"
      ],
      [
        "sh",
        "ould"
      ],
      [
        "the",
        "n"
      ],
      [
        "con",
        "t"
      ],
      [
        "m",
        "is"
      ],
      [
        "a",
        "i"
      ],
      [
        "de",
        "c"
      ],
      [
        "ak",
        "e"
      ],
      [
        "mo",
        "re"
      ],
      [
        "s",
        "ome"
      ],
      [
        "i",
        "z"
      ],
      [
        "p",
        "t"
      ],
      [
        "st",
        "r"
      ],
      [
        "M",
        "o"
      ],
      [
        "en",
        "s"
      ],
      [
        "w",
        "hen"
      ],
      [
        "h",
        "y"
      ],
      [
        "ation",
        "al"
      ],
      [
        "ul",
        "t"
      ],
      [
        "in",
        "j"
      ],
      [
        "ha",
        "pp"
      ],
      [
        "li",
        "ke"
      ],
      [
        "e",
        "le"
      ],
      [
        "ch",
        "ild"
      ],
      [
        "at",
        "es"
      ],
      [
        "on",
        "t"
      ],
      [
        "inc",
        "ident"
      ],
      [
        "th",
        "ose"
      ],
      [
        "m",
        "ade"
      ],
      [
        "S",
        "he"
      ],
      [
        "m",
        "on"
      ],
      [
        "t",
        "ain"
      ],
      [
        "j",
        "e"
      ],
      [
        "All",
        "ah"
      ],
      [
        "w",
        "om"
      ],
      [
        "U",
        "n"
      ],
      [
        "w",
        "ard"
      ],
      [
        "ve",
        "l"
      ],
      [
        "is",
        "e"
      ],
      [
        "arrest",
        "ed"
      ],
      [
        "K",
        "er"
      ],
      [
        "or",
        "y"
      ],
      [
        "c",
        "ed"
      ],
      [
        "R",
        "aj"
      ],
      [
        "le",
        "g"
      ],
      [
        "se",
        "l"
      ],
      [
        "re",
        "at"
      ],
      [
        "A",
        "r"
      ],
      [
        "ne",
        "ed"
      ],
      [
        "w",
        "r"
      ],
      [
        "c",
        "ur"
      ],
      [
        "tak",
        "en"
      ],
      [
        "re",
        "ad"
      ],
      [
        "Ker",
        "ala"
      ],
      [
        "th",
        "an"
      ],
      [
        "i",
        "ous"
      ],
      [
        "ho",
        "spital"
      ],
      [
        "F",
        "or"
      ],
      [
        "1",
        "9"
      ],
      [
        "S",
        "o"
      ],
      [
        "m",
        "any"
      ],
      [
        "he",
        "l"
      ],
      [
        "ing",
        "s"
      ],
      [
        "u",
        "red"
      ],
      [
        "b",
        "od"
      ],
      [
        "ist",
        "an"
      ],
      [
        "s",
        "c"
      ],
      [
        "A",
        "n"
      ],
      [
        "on",
        "ly"
      ],
      [
        "I",
        "s"
      ],
      [
        "ur",
        "n"
      ],
      [
        "as",
        "ed"
      ],
      [
        "con",
        "d"
      ],
      [
        "pl",
        "ay"
      ],
      [
        "h",
        "an"
      ],
      [
        "v",
        "is"
      ],
      [
        "sh",
        "ip"
      ],
      [
        "C",
        "hi"
      ],
      [
        "be",
        "t"
      ],
      [
        "ent",
        "s"
      ],
      [
        "it",
        "e"
      ],
      [
        "Chi",
        "ef"
      ],
      [
        "c",
        "l"
      ],
      [
        "be",
        "li"
      ],
      [
        "be",
        "ing"
      ],
      [
        "ch",
        "i"
      ],
      [
        "th",
        "ree"
      ],
      [
        "k",
        "ill"
      ],
      [
        "c",
        "ourt"
      ],
      [
        "h",
        "ow"
      ],
      [
        "P",
        "ak"
      ],
      [
        "o",
        "b"
      ],
      [
        "r",
        "an"
      ],
      [
        "g",
        "u"
      ],
      [
        "re",
        "l"
      ],
      [
        "go",
        "od"
      ],
      [
        "l",
        "ed"
      ],
      [
        "J",
        "e"
      ],
      [
        "se",
        "e"
      ],
      [
        "s",
        "he"
      ],
      [
        "in",
        "k"
      ],
      [
        "w",
        "ar"
      ],
      [
        "inc",
        "l"
      ],
      [
        "Pr",
        "ime"
      ],
      [
        "v",
        "an"
      ],
      [
        "n",
        "ess"
      ],
      [
        "it",
        "ies"
      ],
      [
        "inv",
        "est"
      ],
      [
        "i",
        "ed"
      ],
      [
        "mis",
        "s"
      ],
      [
        "oll",
        "ow"
      ],
      [
        "c",
        "es"
      ],
      [
        "in",
        "t"
      ],
      [
        "ver",
        "s"
      ],
      [
        "for",
        "m"
      ],
      [
        "it",
        "u"
      ],
      [
        "o",
        "y"
      ],
      [
        "as",
        "k"
      ],
      [
        "ad",
        "d"
      ],
      [
        "y",
        "ear"
      ],
      [
        "Pak",
        "istan"
      ],
      [
        "j",
        "ust"
      ],
      [
        "acc",
        "used"
      ],
      [
        "t",
        "y"
      ],
      [
        "G",
        "and"
      ],
      [
        "l",
        "and"
      ],
      [
        "pl",
        "ain"
      ],
      [
        "v",
        "es"
      ],
      [
        "bod",
        "y"
      ],
      [
        "ren",
        "t"
      ],
      [
        "f",
        "l"
      ],
      [
        "com",
        "p"
      ],
      [
        "m",
        "inister"
      ],
      [
        "f",
        "amil"
      ],
      [
        "o",
        "g"
      ],
      [
        "g",
        "iv"
      ],
      [
        "ever",
        "y"
      ],
      [
        "R",
        "e"
      ],
      [
        "c",
        "ro"
      ],
      [
        "di",
        "re"
      ],
      [
        "li",
        "fe"
      ],
      [
        "we",
        "ll"
      ],
      [
        "th",
        "r"
      ],
      [
        "b",
        "ack"
      ],
      [
        "is",
        "su"
      ],
      [
        "dis",
        "tr"
      ],
      [
        "K",
        "o"
      ],
      [
        "de",
        "ath"
      ],
      [
        "h",
        "and"
      ],
      [
        "Je",
        "ho"
      ],
      [
        "pr",
        "ot"
      ],
      [
        "d",
        "own"
      ],
      [
        "Gand",
        "hi"
      ],
      [
        "c",
        "ar"
      ],
      [
        "sh",
        "all"
      ],
      [
        "ter",
        "n"
      ],
      [
        "b",
        "le"
      ],
      [
        "pl",
        "ace"
      ],
      [
        "t",
        "urn"
      ],
      [
        "ib",
        "le"
      ],
      [
        "v",
        "ah"
      ],
      [
        "Jeho",
        "vah"
      ],
      [
        "tak",
        "e"
      ],
      [
        "a",
        "ve"
      ],
      [
        "off",
        "ic"
      ],
      [
        "coun",
        "try"
      ],
      [
        "wor",
        "ld"
      ],
      [
        "me",
        "et"
      ],
      [
        "c",
        "au"
      ],
      [
        "ur",
        "ing"
      ],
      [
        "u",
        "res"
      ],
      [
        "o",
        "c"
      ],
      [
        "ter",
        "s"
      ],
      [
        "inj",
        "ured"
      ],
      [
        "c",
        "ame"
      ],
      [
        "How",
        "ever"
      ],
      [
        "r",
        "y"
      ],
      [
        "wh",
        "ile"
      ],
      [
        "m",
        "a"
      ],
      [
        "hel",
        "p"
      ],
      [
        "S",
        "ing"
      ],
      [
        "su",
        "ch"
      ],
      [
        "al",
        "th"
      ],
      [
        "S",
        "e"
      ],
      [
        "po",
        "st"
      ],
      [
        "ap",
        "p"
      ],
      [
        "t",
        "al"
      ],
      [
        "S",
        "h"
      ],
      [
        "um",
        "ar"
      ],
      [
        "m",
        "u"
      ],
      [
        "me",
        "mb"
      ],
      [
        "al",
        "s"
      ],
      [
        "vi",
        "e"
      ],
      [
        "m",
        "en"
      ],
      [
        "or",
        "s"
      ],
      [
        "happ",
        "en"
      ],
      [
        "pers",
        "on"
      ],
      [
        "invest",
        "ig"
      ],
      [
        "m",
        "ain"
      ],
      [
        "M",
        "an"
      ],
      [
        "c",
        "er"
      ],
      [
        "the",
        "se"
      ],
      [
        "te",
        "m"
      ],
      [
        "s",
        "s"
      ],
      [
        "c",
        "ould"
      ],
      [
        "f",
        "f"
      ],
      [
        "v",
        "en"
      ],
      [
        "st",
        "ud"
      ],
      [
        "mo",
        "vie"
      ],
      [
        "i",
        "x"
      ],
      [
        "bo",
        "ok"
      ],
      [
        "do",
        "es"
      ],
      [
        "c",
        "ess"
      ],
      [
        "d",
        "er"
      ],
      [
        "c",
        "all"
      ],
      [
        "an",
        "th"
      ],
      [
        "p",
        "h"
      ],
      [
        "child",
        "ren"
      ],
      [
        "to",
        "ok"
      ],
      [
        "Sing",
        "h"
      ],
      [
        "p",
        "ol"
      ],
      [
        "mo",
        "st"
      ],
      [
        "c",
        "y"
      ],
      [
        "nd",
        "ra"
      ],
      [
        "en",
        "er"
      ],
      [
        "st",
        "and"
      ],
      [
        "cau",
        "se"
      ],
      [
        "v",
        "ing"
      ],
      [
        "ev",
        "en"
      ],
      [
        "qu",
        "est"
      ],
      [
        "be",
        "fore"
      ],
      [
        "P",
        "M"
      ],
      [
        "at",
        "s"
      ],
      [
        "ick",
        "et"
      ],
      [
        "att",
        "ack"
      ],
      [
        "C",
        "om"
      ],
      [
        "D",
        "e"
      ],
      [
        "p",
        "ar"
      ],
      [
        "D",
        "el"
      ],
      [
        "1",
        "0"
      ],
      [
        "at",
        "ing"
      ],
      [
        "ch",
        "o"
      ],
      [
        "ol",
        "le"
      ],
      [
        "R",
        "ah"
      ],
      [
        "C",
        "ourt"
      ],
      [
        "w",
        "on"
      ],
      [
        "B",
        "o"
      ],
      [
        "go",
        "ing"
      ],
      [
        "c",
        "he"
      ],
      [
        "N",
        "are"
      ],
      [
        "f",
        "in"
      ],
      [
        "n",
        "ing"
      ],
      [
        "ch",
        "ar"
      ],
      [
        "i",
        "k"
      ],
      [
        "famil",
        "y"
      ],
      [
        "w",
        "ater"
      ],
      [
        "H",
        "is"
      ],
      [
        "l",
        "es"
      ],
      [
        "is",
        "ed"
      ],
      [
        "N",
        "ew"
      ],
      [
        "it",
        "ed"
      ],
      [
        "ur",
        "am"
      ],
      [
        "com",
        "plain"
      ],
      [
        "Nare",
        "ndra"
      ],
      [
        "cre",
        "t"
      ],
      [
        "f",
        "ound"
      ],
      [
        "se",
        "t"
      ],
      [
        "c",
        "le"
      ],
      [
        "lead",
        "er"
      ],
      [
        "n",
        "g"
      ],
      [
        "id",
        "ed"
      ],
      [
        "Del",
        "hi"
      ],
      [
        "l",
        "ong"
      ],
      [
        "g",
        "ed"
      ],
      [
        "med",
        "ia"
      ],
      [
        "m",
        "and"
      ],
      [
        "pro",
        "du"
      ],
      [
        "res",
        "p"
      ],
      [
        "f",
        "ollow"
      ],
      [
        "ou",
        "se"
      ],
      [
        "in",
        "s"
      ],
      [
        "st",
        "art"
      ],
      [
        "f",
        "fe"
      ],
      [
        "R",
        "am"
      ],
      [
        "r",
        "al"
      ],
      [
        "f",
        "ar"
      ],
      [
        "y",
        "a"
      ],
      [
        "he",
        "ad"
      ],
      [
        "ow",
        "er"
      ],
      [
        "A",
        "f"
      ],
      [
        "f",
        "our"
      ],
      [
        "res",
        "ident"
      ],
      [
        "we",
        "en"
      ],
      [
        "incl",
        "ud"
      ],
      [
        "part",
        "y"
      ],
      [
        "pres",
        "ent"
      ],
      [
        "A",
        "d"
      ],
      [
        "to",
        "o"
      ],
      [
        "a",
        "w"
      ],
      [
        "chi",
        "ef"
      ],
      [
        "bet",
        "ween"
      ],
      [
        "c",
        "as"
      ],
      [
        "ment",
        "s"
      ],
      [
        "A",
        "l"
      ],
      [
        "t",
        "en"
      ],
      [
        "m",
        "s"
      ],
      [
        "thr",
        "ough"
      ],
      [
        "w",
        "here"
      ],
      [
        "p",
        "ass"
      ],
      [
        "ut",
        "ion"
      ],
      [
        "t",
        "ing"
      ],
      [
        "re",
        "por"
      ],
      [
        "di",
        "ed"
      ],
      [
        "L",
        "ord"
      ],
      [
        "m",
        "ake"
      ],
      [
        "r",
        "un"
      ],
      [
        "g",
        "an"
      ],
      [
        "I",
        "ts"
      ],
      [
        "j",
        "ay"
      ],
      [
        "s",
        "on"
      ],
      [
        "f",
        "o"
      ],
      [
        "s",
        "ha"
      ],
      [
        "sel",
        "f"
      ],
      [
        "b",
        "u"
      ],
      [
        "ough",
        "t"
      ],
      [
        "act",
        "ion"
      ],
      [
        "d",
        "es"
      ],
      [
        "kill",
        "ed"
      ],
      [
        "O",
        "n"
      ],
      [
        "ir",
        "l"
      ],
      [
        "ele",
        "ction"
      ],
      [
        "r",
        "u"
      ],
      [
        "ic",
        "es"
      ],
      [
        "te",
        "am"
      ],
      [
        "l",
        "ater"
      ],
      [
        "te",
        "red"
      ],
      [
        "c",
        "us"
      ],
      [
        "D",
        "o"
      ],
      [
        "su",
        "b"
      ],
      [
        "ad",
        "esh"
      ],
      [
        "re",
        "as"
      ],
      [
        "n",
        "or"
      ],
      [
        "lo",
        "ok"
      ],
      [
        "m",
        "ay"
      ],
      [
        "Rah",
        "ul"
      ],
      [
        "pres",
        "ident"
      ],
      [
        "n",
        "at"
      ],
      [
        "reg",
        "is"
      ],
      [
        "00",
        "0"
      ],
      [
        "or",
        "t"
      ],
      [
        "Th",
        "ir"
      ],
      [
        "1",
        "5"
      ],
      [
        "tr",
        "u"
      ],
      [
        "p",
        "ri"
      ],
      [
        "s",
        "ur"
      ],
      [
        "cro",
        "re"
      ],
      [
        "S",
        "ha"
      ],
      [
        "so",
        "cial"
      ],
      [
        "The",
        "n"
      ],
      [
        "c",
        "lo"
      ],
      [
        "u",
        "bl"
      ],
      [
        "M",
        "al"
      ],
      [
        "tr",
        "a"
      ],
      [
        "pro",
        "v"
      ],
      [
        "p",
        "ut"
      ],
      [
        "mar",
        "k"
      ],
      [
        "I",
        "f"
      ],
      [
        "w",
        "in"
      ],
      [
        "giv",
        "en"
      ],
      [
        "c",
        "ap"
      ],
      [
        ")",
        ","
      ],
      [
        "i",
        "e"
      ],
      [
        "G",
        "over"
      ],
      [
        "s",
        "ent"
      ],
      [
        "G",
        "o"
      ],
      [
        "l",
        "ast"
      ],
      [
        "g",
        "ot"
      ],
      [
        "P",
        "resident"
      ],
      [
        "end",
        "ed"
      ],
      [
        "au",
        "gh"
      ],
      [
        "a",
        "ir"
      ],
      [
        "fa",
        "ther"
      ],
      [
        "V",
        "i"
      ],
      [
        "S",
        "up"
      ],
      [
        "r",
        "ight"
      ],
      [
        "b",
        "ro"
      ],
      [
        "re",
        "le"
      ],
      [
        "Thir",
        "u"
      ],
      [
        "am",
        "p"
      ],
      [
        "i",
        "fe"
      ],
      [
        "cont",
        "in"
      ],
      [
        "ak",
        "h"
      ],
      [
        "se",
        "cond"
      ],
      [
        "miss",
        "ion"
      ],
      [
        "cret",
        "ary"
      ],
      [
        "wom",
        "en"
      ],
      [
        "ap",
        "uram"
      ],
      [
        "r",
        "ain"
      ],
      [
        "pos",
        "ition"
      ],
      [
        "d",
        "uring"
      ],
      [
        "1",
        "2"
      ],
      [
        "n",
        "umb"
      ],
      [
        "la",
        "w"
      ],
      [
        "mit",
        "ted"
      ],
      [
        "ar",
        "s"
      ],
      [
        "je",
        "ct"
      ],
      [
        "le",
        "t"
      ],
      [
        "k",
        "ing"
      ],
      [
        "K",
        "umar"
      ],
      [
        "M",
        "e"
      ],
      [
        "pol",
        "it"
      ],
      [
        "f",
        "t"
      ],
      [
        "s",
        "y"
      ],
      [
        "ex",
        "am"
      ],
      [
        "Ch",
        "r"
      ],
      [
        "Thiru",
        "van"
      ],
      [
        "S",
        "u"
      ],
      [
        "is",
        "ion"
      ],
      [
        "on",
        "d"
      ],
      [
        "distr",
        "ict"
      ],
      [
        "complain",
        "t"
      ],
      [
        "e",
        "ve"
      ],
      [
        "S",
        "ab"
      ],
      [
        "U",
        "S"
      ],
      [
        "anth",
        "apuram"
      ],
      [
        "am",
        "ong"
      ],
      [
        "di",
        "ffe"
      ],
      [
        "p",
        "ur"
      ],
      [
        "Thiruvan",
        "anthapuram"
      ],
      [
        "al",
        "leg"
      ],
      [
        "ne",
        "ver"
      ],
      [
        "y",
        "et"
      ],
      [
        "M",
        "ah"
      ],
      [
        "con",
        "s"
      ],
      [
        "g",
        "irl"
      ],
      [
        "P",
        "ar"
      ],
      [
        "ch",
        "an"
      ],
      [
        "are",
        "d"
      ],
      [
        "M",
        "y"
      ],
      [
        "B",
        "e"
      ],
      [
        "pers",
        "ons"
      ],
      [
        "s",
        "to"
      ],
      [
        "at",
        "a"
      ],
      [
        "h",
        "ome"
      ],
      [
        "c",
        "or"
      ],
      [
        "meet",
        "ing"
      ],
      [
        "m",
        "or"
      ],
      [
        "at",
        "i"
      ],
      [
        "read",
        "y"
      ],
      [
        "a",
        "way"
      ],
      [
        "h",
        "ouse"
      ],
      [
        "St",
        "ate"
      ],
      [
        "mat",
        "ter"
      ],
      [
        "P",
        "e"
      ],
      [
        "W",
        "hy"
      ],
      [
        "re",
        "me"
      ],
      [
        "thing",
        "s"
      ],
      [
        "l",
        "im"
      ],
      [
        "ic",
        "s"
      ],
      [
        "pro",
        "ble"
      ],
      [
        "v",
        "ir"
      ],
      [
        "is",
        "ts"
      ],
      [
        "su",
        "p"
      ],
      [
        "regis",
        "tered"
      ],
      [
        "say",
        "s"
      ],
      [
        "lo",
        "c"
      ],
      [
        "investig",
        "ation"
      ],
      [
        "T",
        "amil"
      ],
      [
        "reg",
        "ard"
      ],
      [
        "pe",
        "ct"
      ],
      [
        "p",
        "ress"
      ],
      [
        "way",
        "s"
      ],
      [
        "st",
        "it"
      ],
      [
        "K",
        "ar"
      ],
      [
        "str",
        "u"
      ],
      [
        "lo",
        "ve"
      ],
      [
        "re",
        "ce"
      ],
      [
        "cho",
        "ol"
      ],
      [
        "in",
        "ter"
      ],
      [
        "e",
        "ach"
      ],
      [
        "T",
        "r"
      ],
      [
        "s",
        "ame"
      ],
      [
        "c",
        "ord"
      ],
      [
        "M",
        "umb"
      ],
      [
        "vel",
        "op"
      ],
      [
        "su",
        "re"
      ],
      [
        "u",
        "al"
      ],
      [
        "ord",
        "er"
      ],
      [
        "m",
        "ir"
      ],
      [
        "h",
        "igh"
      ],
      [
        "bo",
        "th"
      ],
      [
        "d",
        "ont"
      ],
      [
        "offic",
        "ial"
      ],
      [
        "numb",
        "er"
      ],
      [
        "Mumb",
        "ai"
      ],
      [
        "prot",
        "est"
      ],
      [
        "x",
        "t"
      ],
      [
        "1",
        "8"
      ],
      [
        "other",
        "s"
      ],
      [
        "Chr",
        "ist"
      ],
      [
        "g",
        "ive"
      ],
      [
        "W",
        "or"
      ],
      [
        "ser",
        "v"
      ],
      [
        "in",
        "ce"
      ],
      [
        "mo",
        "ther"
      ],
      [
        "j",
        "o"
      ],
      [
        "Ch",
        "in"
      ],
      [
        "b",
        "us"
      ],
      [
        "f",
        "ire"
      ],
      [
        "5",
        "0"
      ],
      [
        "ot",
        "e"
      ],
      [
        "day",
        "s"
      ],
      [
        "m",
        "ust"
      ],
      [
        "im",
        "es"
      ],
      [
        "m",
        "ur"
      ],
      [
        "d",
        "en"
      ],
      [
        "he",
        "alth"
      ],
      [
        "l",
        "akh"
      ],
      [
        "w",
        "ent"
      ],
      [
        "dec",
        "ision"
      ],
      [
        "act",
        "or"
      ],
      [
        "p",
        "ower"
      ],
      [
        "Vi",
        "jay"
      ],
      [
        ")",
        "."
      ],
      [
        "d",
        "one"
      ],
      [
        "w",
        "ant"
      ],
      [
        "com",
        "m"
      ],
      [
        "Pr",
        "adesh"
      ],
      [
        "se",
        "ats"
      ],
      [
        "A",
        "t"
      ],
      [
        "ul",
        "ar"
      ],
      [
        "ro",
        "ad"
      ],
      [
        "B",
        "I"
      ],
      [
        "con",
        "ne"
      ],
      [
        "W",
        "hen"
      ],
      [
        "E",
        "x"
      ],
      [
        "c",
        "ha"
      ],
      [
        "1",
        "4"
      ],
      [
        "v",
        "ar"
      ],
      [
        "s",
        "m"
      ],
      [
        "ol",
        "og"
      ],
      [
        "O",
        "ne"
      ],
      [
        "h",
        "um"
      ],
      [
        "J",
        "es"
      ],
      [
        "he",
        "av"
      ],
      [
        "ann",
        "oun"
      ],
      [
        "ak",
        "ing"
      ],
      [
        "for",
        "med"
      ],
      [
        "Gover",
        "nment"
      ],
      [
        "op",
        "er"
      ],
      [
        "repor",
        "ted"
      ],
      [
        "con",
        "tr"
      ],
      [
        "w",
        "it"
      ],
      [
        "mon",
        "th"
      ],
      [
        "f",
        "ive"
      ],
      [
        "an",
        "a"
      ],
      [
        "olle",
        "ge"
      ],
      [
        "g",
        "reat"
      ],
      [
        "fr",
        "i"
      ],
      [
        "T",
        "wo"
      ],
      [
        "L",
        "e"
      ],
      [
        "Jes",
        "us"
      ],
      [
        "il",
        "ity"
      ],
      [
        "on",
        "es"
      ],
      [
        "n",
        "ame"
      ],
      [
        "l",
        "ar"
      ],
      [
        "ear",
        "th"
      ],
      [
        "ag",
        "es"
      ],
      [
        "mu",
        "ch"
      ],
      [
        "t",
        "a"
      ],
      [
        "ubl",
        "ic"
      ],
      [
        "w",
        "ife"
      ],
      [
        "fri",
        "end"
      ],
      [
        "m",
        "in"
      ],
      [
        "al",
        "e"
      ],
      [
        "st",
        "ill"
      ],
      [
        "W",
        "ho"
      ],
      [
        "h",
        "u"
      ],
      [
        ".",
        "\"\"\""
      ],
      [
        "for",
        "mer"
      ],
      [
        "M",
        "any"
      ],
      [
        "he",
        "ld"
      ],
      [
        "wr",
        "it"
      ],
      [
        "ener",
        "al"
      ],
      [
        "vi",
        "ew"
      ],
      [
        "f",
        "ac"
      ],
      [
        "ide",
        "o"
      ],
      [
        "o",
        "h"
      ],
      [
        "ask",
        "ed"
      ],
      [
        "start",
        "ed"
      ],
      [
        "sh",
        "ow"
      ],
      [
        "u",
        "se"
      ],
      [
        "wor",
        "d"
      ],
      [
        "se",
        "mb"
      ],
      [
        "n",
        "am"
      ],
      [
        "Sab",
        "ha"
      ],
      [
        "s",
        "ol"
      ],
      [
        "th",
        "ink"
      ],
      [
        "im",
        "port"
      ],
      [
        "happen",
        "ed"
      ],
      [
        "c",
        "hed"
      ],
      [
        "P",
        "ro"
      ],
      [
        "includ",
        "ing"
      ],
      [
        "an",
        "ts"
      ],
      [
        "l",
        "it"
      ],
      [
        "wom",
        "an"
      ],
      [
        "y",
        "e"
      ],
      [
        "h",
        "old"
      ],
      [
        "s",
        "ing"
      ],
      [
        "M",
        "us"
      ],
      [
        "v",
        "ent"
      ],
      [
        "M",
        "ar"
      ],
      [
        "l",
        "ess"
      ],
      [
        "beli",
        "eve"
      ],
      [
        "fil",
        "ed"
      ],
      [
        "g",
        "est"
      ],
      [
        "K",
        "ash"
      ],
      [
        "so",
        "on"
      ],
      [
        "c",
        "our"
      ],
      [
        "J",
        "ust"
      ],
      [
        "c",
        "a"
      ],
      [
        "t",
        "ar"
      ],
      [
        "com",
        "ing"
      ],
      [
        "C",
        "on"
      ],
      [
        "diffe",
        "rent"
      ],
      [
        "ce",
        "pt"
      ],
      [
        "ou",
        "th"
      ],
      [
        "b",
        "ig"
      ],
      [
        "b",
        "en"
      ],
      [
        "id",
        "es"
      ],
      [
        "w",
        "al"
      ],
      [
        "n",
        "er"
      ],
      [
        "Af",
        "ter"
      ],
      [
        "i",
        "red"
      ],
      [
        "an",
        "other"
      ],
      [
        "h",
        "ic"
      ],
      [
        "sp",
        "ot"
      ],
      [
        "That",
        "s"
      ],
      [
        "issu",
        "e"
      ],
      [
        "oun",
        "t"
      ],
      [
        "um",
        "p"
      ],
      [
        "per",
        "i"
      ],
      [
        "Kash",
        "mir"
      ],
      [
        "N",
        "ational"
      ],
      [
        "E",
        "ng"
      ],
      [
        "k",
        "ar"
      ],
      [
        "th",
        "or"
      ],
      [
        "v",
        "ideo"
      ],
      [
        "h",
        "am"
      ],
      [
        "iv",
        "ed"
      ],
      [
        "A",
        "b"
      ],
      [
        "one",
        "y"
      ],
      [
        "sp",
        "ir"
      ],
      [
        "re",
        "f"
      ],
      [
        "Sup",
        "reme"
      ],
      [
        "s",
        "ign"
      ],
      [
        "s",
        "ed"
      ],
      [
        "1",
        "6"
      ],
      [
        "re",
        "main"
      ],
      [
        "s",
        "itu"
      ],
      [
        "s",
        "l"
      ],
      [
        "er",
        "ing"
      ],
      [
        "po",
        "in"
      ],
      [
        "n",
        "ed"
      ],
      [
        "M",
        "ed"
      ],
      [
        "C",
        "ent"
      ],
      [
        "pr",
        "om"
      ],
      [
        "is",
        "m"
      ],
      [
        "ad",
        "u"
      ],
      [
        "stud",
        "ents"
      ],
      [
        "A",
        "ct"
      ],
      [
        "la",
        "im"
      ],
      [
        "E",
        "very"
      ],
      [
        "ri",
        "ed"
      ],
      [
        "d",
        "r"
      ],
      [
        "op",
        "en"
      ],
      [
        "semb",
        "ly"
      ],
      [
        "ur",
        "al"
      ],
      [
        "d",
        "om"
      ],
      [
        "av",
        "ail"
      ],
      [
        "r",
        "or"
      ],
      [
        "year",
        "s"
      ],
      [
        "ap",
        "pro"
      ],
      [
        "quest",
        "ion"
      ],
      [
        "pe",
        "t"
      ],
      [
        "if",
        "ic"
      ],
      [
        "ir",
        "d"
      ],
      [
        "b",
        "re"
      ],
      [
        "memb",
        "er"
      ],
      [
        "de",
        "velop"
      ],
      [
        "re",
        "turn"
      ],
      [
        "1",
        "7"
      ],
      [
        "call",
        "ed"
      ],
      [
        "mur",
        "der"
      ],
      [
        "1",
        "3"
      ],
      [
        "de",
        "ad"
      ],
      [
        "B",
        "eng"
      ],
      [
        "du",
        "e"
      ],
      [
        "at",
        "ive"
      ],
      [
        "i",
        "vers"
      ],
      [
        "T",
        "o"
      ],
      [
        "ag",
        "ed"
      ],
      [
        "c",
        "laim"
      ],
      [
        "Sha",
        "h"
      ],
      [
        "all",
        "ow"
      ],
      [
        "fe",
        "at"
      ],
      [
        "pos",
        "s"
      ],
      [
        "l",
        "ot"
      ],
      [
        "ne",
        "xt"
      ],
      [
        "cle",
        "ar"
      ],
      [
        "ch",
        "ang"
      ],
      [
        "M",
        "u"
      ],
      [
        "Beng",
        "al"
      ],
      [
        ",",
        "\"\""
      ],
      [
        "ur",
        "ther"
      ],
      [
        "ou",
        "p"
      ],
      [
        "us",
        "h"
      ],
      [
        "L",
        "ok"
      ],
      [
        "a",
        "z"
      ],
      [
        "he",
        "ar"
      ],
      [
        "s",
        "chool"
      ],
      [
        "d",
        "augh"
      ],
      [
        "ac",
        "hed"
      ],
      [
        "li",
        "er"
      ],
      [
        "2",
        "00"
      ],
      [
        "in",
        "te"
      ],
      [
        "are",
        "n"
      ],
      [
        "g",
        "ar"
      ],
      [
        "ff",
        "ic"
      ],
      [
        "d",
        "on"
      ],
      [
        "C",
        "hen"
      ],
      [
        "S",
        "ome"
      ],
      [
        "a",
        "id"
      ],
      [
        "Un",
        "ion"
      ],
      [
        "C",
        "C"
      ],
      [
        "be",
        "cause"
      ],
      [
        "iz",
        "ed"
      ],
      [
        "Wor",
        "ld"
      ],
      [
        "d",
        "ri"
      ],
      [
        "aj",
        "or"
      ],
      [
        "cas",
        "es"
      ],
      [
        "to",
        "p"
      ],
      [
        "cur",
        "ity"
      ],
      [
        "B",
        "ible"
      ],
      [
        "l",
        "ist"
      ],
      [
        "j",
        "ud"
      ],
      [
        "T",
        "e"
      ],
      [
        "t",
        "reat"
      ],
      [
        "F",
        "r"
      ],
      [
        "Bo",
        "th"
      ],
      [
        "memb",
        "ers"
      ],
      [
        "conne",
        "ction"
      ],
      [
        "he",
        "s"
      ],
      [
        "import",
        "ant"
      ],
      [
        "ate",
        "ly"
      ],
      [
        "su",
        "c"
      ],
      [
        "so",
        "ci"
      ],
      [
        "com",
        "ple"
      ],
      [
        "fe",
        "w"
      ],
      [
        "G",
        "u"
      ],
      [
        "re",
        "port"
      ],
      [
        "s",
        "ix"
      ],
      [
        "fe",
        "ct"
      ],
      [
        "J",
        "am"
      ],
      [
        "se",
        "cretary"
      ],
      [
        "r",
        "it"
      ],
      [
        "ne",
        "ar"
      ],
      [
        "r",
        "ic"
      ],
      [
        "I",
        "m"
      ],
      [
        "t",
        "est"
      ],
      [
        "com",
        "es"
      ],
      [
        "M",
        "ad"
      ],
      [
        "to",
        "ld"
      ],
      [
        "ap",
        "pe"
      ],
      [
        "c",
        "ut"
      ],
      [
        "e",
        "k"
      ],
      [
        "pos",
        "ed"
      ],
      [
        "ro",
        "le"
      ],
      [
        "H",
        "igh"
      ],
      [
        "bro",
        "ther"
      ],
      [
        "de",
        "mand"
      ],
      [
        "C",
        "BI"
      ],
      [
        "S",
        "har"
      ],
      [
        "up",
        "on"
      ],
      [
        "can",
        "not"
      ],
      [
        "s",
        "im"
      ],
      [
        "Chen",
        "n"
      ],
      [
        "ph",
        "one"
      ],
      [
        "ex",
        "t"
      ],
      [
        "ve",
        "hic"
      ],
      [
        "al",
        "am"
      ],
      [
        "w",
        "icket"
      ],
      [
        "b",
        "est"
      ],
      [
        "no",
        "thing"
      ],
      [
        "iv",
        "es"
      ],
      [
        "ang",
        "u"
      ],
      [
        "sup",
        "port"
      ],
      [
        "be",
        "g"
      ],
      [
        "se",
        "ver"
      ],
      [
        "v",
        "al"
      ],
      [
        "tr",
        "ans"
      ],
      [
        "b",
        "ed"
      ],
      [
        "lead",
        "ers"
      ],
      [
        "u",
        "c"
      ],
      [
        "if",
        "ied"
      ],
      [
        "The",
        "se"
      ],
      [
        "tru",
        "th"
      ],
      [
        "F",
        "ace"
      ],
      [
        "lo",
        "od"
      ],
      [
        "Mah",
        "ar"
      ],
      [
        "3",
        "0"
      ],
      [
        "ian",
        "s"
      ],
      [
        "dire",
        "cted"
      ],
      [
        "la",
        "un"
      ],
      [
        "c",
        "are"
      ],
      [
        "form",
        "ation"
      ],
      [
        "election",
        "s"
      ],
      [
        "Chin",
        "a"
      ],
      [
        "A",
        "m"
      ],
      [
        "pl",
        "oy"
      ],
      [
        "b",
        "er"
      ],
      [
        "se",
        "en"
      ],
      [
        "ic",
        "ip"
      ],
      [
        "h",
        "al"
      ],
      [
        "t",
        "ail"
      ],
      [
        "med",
        "i"
      ],
      [
        "aren",
        "ts"
      ],
      [
        "rele",
        "ased"
      ],
      [
        "2",
        "5"
      ],
      [
        "are",
        "a"
      ],
      [
        "chan",
        "ge"
      ],
      [
        "acc",
        "ident"
      ],
      [
        "1",
        "1"
      ],
      [
        "S",
        "hi"
      ],
      [
        "sever",
        "al"
      ],
      [
        "gr",
        "am"
      ],
      [
        "and",
        "id"
      ],
      [
        "ward",
        "s"
      ],
      [
        "f",
        "all"
      ],
      [
        "Face",
        "book"
      ],
      [
        "is",
        "hed"
      ],
      [
        "ar",
        "ound"
      ],
      [
        "be",
        "come"
      ],
      [
        "ge",
        "ther"
      ],
      [
        "A",
        "c"
      ],
      [
        "s",
        "us"
      ],
      [
        "i",
        "or"
      ],
      [
        "al",
        "ready"
      ],
      [
        "en",
        "cy"
      ],
      [
        "ser",
        "ious"
      ],
      [
        "or",
        "gan"
      ],
      [
        "te",
        "e"
      ],
      [
        "vi",
        "ol"
      ],
      [
        "ak",
        "a"
      ],
      [
        "c",
        "ol"
      ],
      [
        "fa",
        "ith"
      ],
      [
        "pl",
        "ac"
      ],
      [
        "ar",
        "ay"
      ],
      [
        "situ",
        "ation"
      ],
      [
        "e",
        "as"
      ],
      [
        "n",
        "a"
      ],
      [
        "k",
        "ind"
      ],
      [
        "in",
        "es"
      ],
      [
        "avail",
        "able"
      ],
      [
        "in",
        "di"
      ],
      [
        "d",
        "y"
      ],
      [
        "il",
        "y"
      ],
      [
        "know",
        "n"
      ],
      [
        "r",
        "is"
      ],
      [
        "a",
        "it"
      ],
      [
        "in",
        "ess"
      ],
      [
        "D",
        "ay"
      ],
      [
        "tr",
        "ain"
      ],
      [
        "c",
        "ity"
      ],
      [
        "wr",
        "ong"
      ],
      [
        "o",
        "de"
      ],
      [
        "f",
        "ace"
      ],
      [
        "B",
        "ank"
      ],
      [
        "m",
        "oney"
      ],
      [
        "f",
        "ind"
      ],
      [
        "to",
        "gether"
      ],
      [
        "an",
        "i"
      ],
      [
        "N",
        "ot"
      ],
      [
        "run",
        "s"
      ],
      [
        "et",
        "y"
      ],
      [
        "v",
        "ict"
      ],
      [
        "O",
        "p"
      ],
      [
        "M",
        "L"
      ],
      [
        "p",
        "oll"
      ],
      [
        "m",
        "ajor"
      ],
      [
        "his",
        "t"
      ],
      [
        "cr",
        "it"
      ],
      [
        "S",
        "en"
      ],
      [
        "in",
        "de"
      ],
      [
        "s",
        "al"
      ],
      [
        "mo",
        "ve"
      ],
      [
        "any",
        "thing"
      ],
      [
        "alleg",
        "ed"
      ],
      [
        "in",
        "ed"
      ],
      [
        "re",
        "al"
      ],
      [
        "O",
        "ur"
      ],
      [
        "inis",
        "try"
      ],
      [
        "n",
        "ational"
      ],
      [
        "h",
        "on"
      ],
      [
        "c",
        "andid"
      ],
      [
        "pri",
        "v"
      ],
      [
        "M",
        "a"
      ],
      [
        "h",
        "us"
      ],
      [
        "ar",
        "ch"
      ],
      [
        "pe",
        "cted"
      ],
      [
        "ar",
        "ri"
      ],
      [
        "o",
        "s"
      ],
      [
        "spe",
        "cial"
      ],
      [
        "cur",
        "rent"
      ],
      [
        "b",
        "and"
      ],
      [
        "con",
        "du"
      ],
      [
        "ash",
        "tra"
      ],
      [
        "tern",
        "ational"
      ],
      [
        "ro",
        "ss"
      ],
      [
        "un",
        "to"
      ],
      [
        "A",
        "mit"
      ],
      [
        "A",
        "ust"
      ],
      [
        "lo",
        "ck"
      ],
      [
        "new",
        "s"
      ],
      [
        "wh",
        "y"
      ],
      [
        "contin",
        "u"
      ],
      [
        "did",
        "nt"
      ],
      [
        "ke",
        "ep"
      ],
      [
        "M",
        "P"
      ],
      [
        "le",
        "ar"
      ],
      [
        "rel",
        "ig"
      ],
      [
        "it",
        "iz"
      ],
      [
        "proble",
        "m"
      ],
      [
        "g",
        "re"
      ],
      [
        "pl",
        "an"
      ],
      [
        "rece",
        "ived"
      ],
      [
        "m",
        "i"
      ],
      [
        "m",
        "ight"
      ],
      [
        "Kar",
        "nat"
      ],
      [
        "con",
        "om"
      ],
      [
        "p",
        "ublic"
      ],
      [
        "s",
        "en"
      ],
      [
        "lo",
        "st"
      ],
      [
        "de",
        "l"
      ],
      [
        "t",
        "imes"
      ],
      [
        "sel",
        "ves"
      ],
      [
        "te",
        "ll"
      ],
      [
        "ur",
        "y"
      ],
      [
        "Karnat",
        "aka"
      ],
      [
        "Mahar",
        "ashtra"
      ],
      [
        "H",
        "o"
      ],
      [
        "le",
        "ft"
      ],
      [
        "Mal",
        "ay"
      ],
      [
        "f",
        "act"
      ],
      [
        "vis",
        "it"
      ],
      [
        "h",
        "ind"
      ],
      [
        "m",
        "il"
      ],
      [
        "sh",
        "o"
      ],
      [
        "m",
        "ind"
      ],
      [
        "D",
        "is"
      ],
      [
        "e",
        "y"
      ],
      [
        "polit",
        "ical"
      ],
      [
        "am",
        "ent"
      ],
      [
        "H",
        "im"
      ],
      [
        "Ch",
        "and"
      ],
      [
        "f",
        "urther"
      ],
      [
        "fa",
        "ir"
      ],
      [
        "dis",
        "cus"
      ],
      [
        "Mus",
        "lim"
      ],
      [
        "u",
        "b"
      ],
      [
        "p",
        "arents"
      ],
      [
        "d",
        "am"
      ],
      [
        "Aust",
        "ral"
      ],
      [
        "treat",
        "ment"
      ],
      [
        "tr",
        "ue"
      ],
      [
        "hi",
        "k"
      ],
      [
        "am",
        "b"
      ],
      [
        "st",
        "em"
      ],
      [
        "li",
        "ve"
      ],
      [
        "mat",
        "ch"
      ],
      [
        "mit",
        "tee"
      ],
      [
        "et",
        "s"
      ],
      [
        "u",
        "de"
      ],
      [
        "id",
        "ence"
      ],
      [
        "in",
        "formed"
      ],
      [
        "R",
        "es"
      ],
      [
        "n",
        "ight"
      ],
      [
        "fo",
        "od"
      ],
      [
        "daugh",
        "ter"
      ],
      [
        "ut",
        "e"
      ],
      [
        "K",
        "han"
      ],
      [
        "al",
        "ong"
      ],
      [
        "th",
        "ird"
      ],
      [
        "L",
        "o"
      ],
      [
        "at",
        "ch"
      ],
      [
        "st",
        "ates"
      ],
      [
        "announ",
        "ced"
      ],
      [
        "qu",
        "e"
      ],
      [
        "f",
        "un"
      ],
      [
        "pet",
        "ition"
      ],
      [
        "fe",
        "el"
      ],
      [
        "bu",
        "ild"
      ],
      [
        "Th",
        "ree"
      ],
      [
        "r",
        "ish"
      ],
      [
        "re",
        "qu"
      ],
      [
        "he",
        "art"
      ],
      [
        "de",
        "tail"
      ],
      [
        "part",
        "ment"
      ],
      [
        "inc",
        "re"
      ],
      [
        "s",
        "po"
      ],
      [
        "a",
        "ther"
      ],
      [
        "st",
        "ar"
      ],
      [
        "p",
        "ay"
      ],
      [
        "wo",
        "od"
      ],
      [
        "s",
        "ince"
      ],
      [
        "igh",
        "ts"
      ],
      [
        "reas",
        "on"
      ],
      [
        "p",
        "op"
      ],
      [
        "W",
        "h"
      ],
      [
        "ren",
        "ce"
      ],
      [
        "Med",
        "ical"
      ],
      [
        "add",
        "ed"
      ],
      [
        "ad",
        "mitted"
      ],
      [
        "tr",
        "ies"
      ],
      [
        "P",
        "art"
      ],
      [
        "cer",
        "tain"
      ],
      [
        "th",
        "ough"
      ],
      [
        "w",
        "er"
      ],
      [
        "ter",
        "ror"
      ],
      [
        "g",
        "es"
      ],
      [
        "pl",
        "es"
      ],
      [
        "l",
        "ine"
      ],
      [
        "di",
        "es"
      ],
      [
        "God",
        "s"
      ],
      [
        "au",
        "thor"
      ],
      [
        "N",
        "e"
      ],
      [
        "che",
        "s"
      ],
      [
        "g",
        "l"
      ],
      [
        "film",
        "s"
      ],
      [
        "W",
        "ith"
      ],
      [
        "T",
        "est"
      ],
      [
        "C",
        "ollege"
      ],
      [
        "C",
        "P"
      ],
      [
        "tal",
        "k"
      ],
      [
        "follow",
        "ing"
      ],
      [
        "m",
        "et"
      ],
      [
        "l",
        "angu"
      ],
      [
        "m",
        "us"
      ],
      [
        "ur",
        "u"
      ],
      [
        "gr",
        "oup"
      ],
      [
        "A",
        "ir"
      ],
      [
        "i",
        "ther"
      ],
      [
        "se",
        "curity"
      ],
      [
        "b",
        "ased"
      ],
      [
        "t",
        "le"
      ],
      [
        "pro",
        "ject"
      ],
      [
        "with",
        "out"
      ],
      [
        "C",
        "o"
      ],
      [
        "ho",
        "to"
      ],
      [
        "Pe",
        "ople"
      ],
      [
        "cond",
        "ition"
      ],
      [
        "dire",
        "ctor"
      ],
      [
        "you",
        "ng"
      ],
      [
        "ar",
        "am"
      ],
      [
        "ivers",
        "ity"
      ],
      [
        "be",
        "hind"
      ],
      [
        "H",
        "ind"
      ],
      [
        "Tr",
        "ump"
      ],
      [
        "in",
        "ation"
      ],
      [
        "how",
        "ever"
      ],
      [
        "ur",
        "ies"
      ],
      [
        "b",
        "ank"
      ],
      [
        "under",
        "stand"
      ],
      [
        "S",
        "on"
      ],
      [
        "resp",
        "ons"
      ],
      [
        "al",
        "ed"
      ],
      [
        "P",
        "a"
      ],
      [
        "im",
        "medi"
      ],
      [
        "re",
        "cord"
      ],
      [
        "s",
        "es"
      ],
      [
        "suc",
        "cess"
      ],
      [
        "re",
        "ve"
      ],
      [
        "ev",
        "ent"
      ],
      [
        "ac",
        "ross"
      ],
      [
        "ie",
        "ld"
      ],
      [
        "qu",
        "al"
      ],
      [
        "ch",
        "n"
      ],
      [
        "Is",
        "ra"
      ],
      [
        "S",
        "an"
      ],
      [
        "ction",
        "s"
      ],
      [
        "w",
        "an"
      ],
      [
        "Just",
        "ice"
      ],
      [
        "var",
        "ious"
      ],
      [
        "j",
        "ar"
      ],
      [
        "fe",
        "ar"
      ],
      [
        "o",
        "or"
      ],
      [
        "comp",
        "any"
      ],
      [
        "str",
        "ong"
      ],
      [
        "C",
        "PM"
      ],
      [
        "act",
        "iv"
      ],
      [
        "v",
        "ot"
      ],
      [
        "l",
        "od"
      ],
      [
        "C",
        "or"
      ],
      [
        "act",
        "ress"
      ],
      [
        "cus",
        "to"
      ],
      [
        "we",
        "ek"
      ],
      [
        "P",
        "ri"
      ],
      [
        "c",
        "ri"
      ],
      [
        "re",
        "p"
      ],
      [
        "pr",
        "ay"
      ],
      [
        "wh",
        "om"
      ],
      [
        "t",
        "re"
      ],
      [
        "th",
        "y"
      ],
      [
        "gr",
        "ow"
      ],
      [
        "f",
        "ight"
      ],
      [
        "f",
        "ic"
      ],
      [
        "do",
        "ing"
      ],
      [
        "official",
        "s"
      ],
      [
        "b",
        "as"
      ],
      [
        "olog",
        "y"
      ],
      [
        "ol",
        "ly"
      ],
      [
        "po",
        "int"
      ],
      [
        "b",
        "all"
      ],
      [
        "M",
        "ore"
      ],
      [
        "p",
        "end"
      ],
      [
        "D",
        "on"
      ],
      [
        "p",
        "an"
      ],
      [
        "pl",
        "ic"
      ],
      [
        "i",
        "as"
      ],
      [
        "S",
        "outh"
      ],
      [
        "d",
        "ra"
      ],
      [
        "s",
        "k"
      ],
      [
        "our",
        "s"
      ],
      [
        "sy",
        "stem"
      ],
      [
        "ic",
        "ts"
      ],
      [
        "inte",
        "rest"
      ],
      [
        "br",
        "ing"
      ],
      [
        "coun",
        "tries"
      ],
      [
        "issu",
        "ed"
      ],
      [
        "l",
        "ight"
      ],
      [
        "Jehovah",
        "s"
      ],
      [
        "pro",
        "be"
      ],
      [
        "u",
        "ally"
      ],
      [
        "p",
        "ati"
      ],
      [
        "B",
        "al"
      ],
      [
        "h",
        "it"
      ],
      [
        "P",
        "un"
      ],
      [
        "ic",
        "a"
      ],
      [
        "B",
        "i"
      ],
      [
        "in",
        "formation"
      ],
      [
        "l",
        "ow"
      ],
      [
        "p",
        "ain"
      ],
      [
        "ben",
        "ef"
      ],
      [
        "say",
        "ing"
      ],
      [
        "to",
        "tal"
      ],
      [
        "G",
        "r"
      ],
      [
        "a",
        "ut"
      ],
      [
        "re",
        "co"
      ],
      [
        "un",
        "t"
      ],
      [
        "Shi",
        "v"
      ],
      [
        "ent",
        "ly"
      ],
      [
        "un",
        "ity"
      ],
      [
        "hum",
        "an"
      ],
      [
        "er",
        "y"
      ],
      [
        "Isra",
        "el"
      ],
      [
        "F",
        "in"
      ],
      [
        "se",
        "arch"
      ],
      [
        "Ko",
        "chi"
      ],
      [
        "in",
        "aray"
      ],
      [
        "fin",
        "al"
      ],
      [
        "Mo",
        "st"
      ],
      [
        "O",
        "r"
      ],
      [
        "con",
        "f"
      ],
      [
        "T",
        "el"
      ],
      [
        "ac",
        "y"
      ],
      [
        "c",
        "amp"
      ],
      [
        "hus",
        "band"
      ],
      [
        "e",
        "conom"
      ],
      [
        "eng",
        "ers"
      ],
      [
        "ol",
        "es"
      ],
      [
        "clo",
        "se"
      ],
      [
        "m",
        "ak"
      ],
      [
        "o",
        "st"
      ],
      [
        "le",
        "vel"
      ],
      [
        "N",
        "adu"
      ],
      [
        "Austral",
        "ia"
      ],
      [
        "j",
        "our"
      ],
      [
        "s",
        "ide"
      ],
      [
        "re",
        "ed"
      ],
      [
        "ke",
        "y"
      ],
      [
        "r",
        "ul"
      ],
      [
        "stit",
        "ution"
      ],
      [
        "2",
        "4"
      ],
      [
        "B",
        "ang"
      ],
      [
        "be",
        "came"
      ],
      [
        "b",
        "or"
      ],
      [
        "g",
        "one"
      ],
      [
        "j",
        "oy"
      ],
      [
        "ser",
        "ies"
      ],
      [
        "prot",
        "e"
      ],
      [
        "pr",
        "is"
      ],
      [
        "contin",
        "ue"
      ],
      [
        "li",
        "ament"
      ],
      [
        "st",
        "ep"
      ],
      [
        "Vijay",
        "an"
      ],
      [
        "sm",
        "all"
      ],
      [
        "c",
        "u"
      ],
      [
        "con",
        "fir"
      ],
      [
        "d",
        "est"
      ],
      [
        "g",
        "ave"
      ],
      [
        "ro",
        "om"
      ],
      [
        "P",
        "inaray"
      ],
      [
        "er",
        "a"
      ],
      [
        "Pinaray",
        "i"
      ],
      [
        "ank",
        "a"
      ],
      [
        "Part",
        "y"
      ],
      [
        "Ko",
        "z"
      ],
      [
        "b",
        "it"
      ],
      [
        "some",
        "thing"
      ],
      [
        "ex",
        "pected"
      ],
      [
        "re",
        "ached"
      ],
      [
        "us",
        "hed"
      ],
      [
        "Shar",
        "ma"
      ],
      [
        "st",
        "ay"
      ],
      [
        "Ho",
        "spital"
      ],
      [
        "1",
        "00"
      ],
      [
        "C",
        "an"
      ],
      [
        "For",
        "mer"
      ],
      [
        "Com",
        "mission"
      ],
      [
        "v",
        "ice"
      ],
      [
        "Malay",
        "alam"
      ],
      [
        "S",
        "pe"
      ],
      [
        "priv",
        "ate"
      ],
      [
        "H",
        "ar"
      ],
      [
        "b",
        "ad"
      ],
      [
        "c",
        "am"
      ],
      [
        "Koz",
        "hik"
      ],
      [
        "med",
        "ical"
      ],
      [
        "W",
        "est"
      ],
      [
        "ab",
        "ad"
      ],
      [
        "lod",
        "ged"
      ],
      [
        "for",
        "t"
      ],
      [
        "ce",
        "ll"
      ],
      [
        "sha",
        "red"
      ],
      [
        "je",
        "cted"
      ],
      [
        "mus",
        "ic"
      ],
      [
        "p",
        "ict"
      ],
      [
        "b",
        "al"
      ],
      [
        "C",
        "r"
      ],
      [
        "E",
        "le"
      ],
      [
        "Gu",
        "jar"
      ],
      [
        "bet",
        "ter"
      ],
      [
        "produ",
        "ced"
      ],
      [
        "ctor",
        "s"
      ],
      [
        "He",
        "re"
      ],
      [
        "Kozhik",
        "ode"
      ],
      [
        "w",
        "n"
      ],
      [
        "ed",
        "uc"
      ],
      [
        "ever",
        "s"
      ],
      [
        "wicket",
        "s"
      ],
      [
        "id",
        "er"
      ],
      [
        "br",
        "ought"
      ],
      [
        "writ",
        "ten"
      ],
      [
        "l",
        "ish"
      ],
      [
        "ac",
        "her"
      ],
      [
        "p",
        "ed"
      ],
      [
        "j",
        "u"
      ],
      [
        "ad",
        "i"
      ],
      [
        "tem",
        "ple"
      ],
      [
        "g",
        "y"
      ],
      [
        "S",
        "P"
      ],
      [
        "ic",
        "ide"
      ],
      [
        "res",
        "ign"
      ],
      [
        "con",
        "st"
      ],
      [
        "pro",
        "gram"
      ],
      [
        "T",
        "V"
      ],
      [
        "Op",
        "position"
      ],
      [
        "w",
        "he"
      ],
      [
        "al",
        "ways"
      ],
      [
        "t",
        "our"
      ],
      [
        "olly",
        "wood"
      ],
      [
        "H",
        "ome"
      ],
      [
        "As",
        "sembly"
      ],
      [
        "h",
        "ig"
      ],
      [
        "f",
        "ree"
      ],
      [
        "co",
        "st"
      ],
      [
        "C",
        "M"
      ],
      [
        "f",
        "ail"
      ],
      [
        "v",
        "ill"
      ],
      [
        "in",
        "st"
      ],
      [
        "friend",
        "s"
      ],
      [
        "ear",
        "lier"
      ],
      [
        "Ko",
        "h"
      ],
      [
        "What",
        "s"
      ],
      [
        "vis",
        "ion"
      ],
      [
        "al",
        "i"
      ],
      [
        "inv",
        "ol"
      ],
      [
        "part",
        "icip"
      ],
      [
        "pro",
        "cess"
      ],
      [
        "m",
        "ad"
      ],
      [
        "pr",
        "ice"
      ],
      [
        "ex",
        "peri"
      ],
      [
        "U",
        "t"
      ],
      [
        "L",
        "et"
      ],
      [
        "S",
        "am"
      ],
      [
        "H",
        "er"
      ],
      [
        "P",
        "l"
      ],
      [
        "fr",
        "ont"
      ],
      [
        "m",
        "ot"
      ],
      [
        "ib",
        "ility"
      ],
      [
        "ve",
        "red"
      ],
      [
        "Jam",
        "mu"
      ],
      [
        "Ad",
        "d"
      ],
      [
        "m",
        "ess"
      ],
      [
        "need",
        "s"
      ],
      [
        "p",
        "un"
      ],
      [
        "res",
        "pect"
      ],
      [
        "play",
        "ed"
      ],
      [
        "Koh",
        "li"
      ],
      [
        "9",
        "9"
      ],
      [
        "mo",
        "ved"
      ],
      [
        "er",
        "t"
      ],
      [
        "Un",
        "iversity"
      ],
      [
        "G",
        "eneral"
      ],
      [
        "2",
        "1"
      ],
      [
        "W",
        "here"
      ],
      [
        "r",
        "up"
      ],
      [
        "immedi",
        "ately"
      ],
      [
        "state",
        "ment"
      ],
      [
        "ne",
        "l"
      ],
      [
        "ul",
        "l"
      ],
      [
        "dec",
        "ided"
      ],
      [
        "g",
        "old"
      ],
      [
        "Gujar",
        "at"
      ],
      [
        "st",
        "ory"
      ],
      [
        "A",
        "u"
      ],
      [
        "Sh",
        "ri"
      ],
      [
        "g",
        "eneral"
      ],
      [
        "M",
        "ay"
      ],
      [
        "poin",
        "ted"
      ],
      [
        "current",
        "ly"
      ],
      [
        "O",
        "f"
      ],
      [
        "dec",
        "l"
      ],
      [
        "C",
        "ha"
      ],
      [
        "s",
        "is"
      ],
      [
        "an",
        "while"
      ],
      [
        "p",
        "s"
      ],
      [
        "4",
        "0"
      ],
      [
        "p",
        "he"
      ],
      [
        "inj",
        "uries"
      ],
      [
        "h",
        "ard"
      ],
      [
        "poss",
        "ible"
      ],
      [
        "it",
        "i"
      ],
      [
        "T",
        "ho"
      ],
      [
        "2",
        "2"
      ],
      [
        "con",
        "cer"
      ],
      [
        "w",
        "am"
      ],
      [
        "st",
        "ars"
      ],
      [
        "y",
        "ing"
      ],
      [
        "G",
        "B"
      ],
      [
        "Ut",
        "tar"
      ],
      [
        "ren",
        "g"
      ],
      [
        "ab",
        "in"
      ],
      [
        "us",
        "s"
      ],
      [
        "detail",
        "s"
      ],
      [
        "e",
        "ase"
      ],
      [
        "K",
        "ing"
      ],
      [
        "tain",
        "ed"
      ],
      [
        "j",
        "ob"
      ],
      [
        "ness",
        "es"
      ],
      [
        "F",
        "ollow"
      ],
      [
        "cr",
        "icket"
      ],
      [
        "K",
        "e"
      ],
      [
        "em",
        "ploy"
      ],
      [
        "D",
        "ev"
      ],
      [
        "cont",
        "est"
      ],
      [
        "t",
        "or"
      ],
      [
        "K",
        "ann"
      ],
      [
        "en",
        "ces"
      ],
      [
        "ex",
        "press"
      ],
      [
        "v",
        "id"
      ],
      [
        "c",
        "ies"
      ],
      [
        "W",
        "ill"
      ],
      [
        "J",
        "ay"
      ],
      [
        "ill",
        "ion"
      ],
      [
        "u",
        "k"
      ],
      [
        "Un",
        "ited"
      ],
      [
        "Tho",
        "se"
      ],
      [
        "to",
        "day"
      ],
      [
        "de",
        "red"
      ],
      [
        "O",
        "ther"
      ],
      [
        "h",
        "ol"
      ],
      [
        "beli",
        "evers"
      ],
      [
        "incl",
        "ude"
      ],
      [
        "He",
        "alth"
      ],
      [
        "hist",
        "ory"
      ],
      [
        "el",
        "s"
      ],
      [
        "D",
        "ont"
      ],
      [
        "like",
        "ly"
      ],
      [
        "Mo",
        "han"
      ],
      [
        "su",
        "icide"
      ],
      [
        "develop",
        "ment"
      ],
      [
        "Mo",
        "ham"
      ],
      [
        "f",
        "ield"
      ],
      [
        "work",
        "ers"
      ],
      [
        "ans",
        "wer"
      ],
      [
        "laun",
        "ched"
      ],
      [
        "t",
        "ion"
      ],
      [
        "Ram",
        "esh"
      ],
      [
        "Se",
        "cretary"
      ],
      [
        "beli",
        "ev"
      ],
      [
        "I",
        "P"
      ],
      [
        "se",
        "qu"
      ],
      [
        "V",
        "ir"
      ],
      [
        "tak",
        "ing"
      ],
      [
        "m",
        "aking"
      ],
      [
        "add",
        "ress"
      ],
      [
        "loc",
        "al"
      ],
      [
        "su",
        "m"
      ],
      [
        "re",
        "cent"
      ],
      [
        "spe",
        "ak"
      ],
      [
        "word",
        "s"
      ],
      [
        "se",
        "ven"
      ],
      [
        "chang",
        "ed"
      ],
      [
        "proble",
        "ms"
      ],
      [
        "un",
        "g"
      ],
      [
        "A",
        "mer"
      ],
      [
        "sh",
        "if"
      ],
      [
        "st",
        "reng"
      ],
      [
        "r",
        "am"
      ],
      [
        "M",
        "inistry"
      ],
      [
        "g",
        "ress"
      ],
      [
        "us",
        "ing"
      ],
      [
        "ar",
        "ing"
      ],
      [
        "E",
        "ar"
      ],
      [
        "de",
        "al"
      ],
      [
        "mark",
        "et"
      ],
      [
        "ele",
        "ct"
      ],
      [
        "w",
        "ait"
      ],
      [
        "cap",
        "tain"
      ],
      [
        "d",
        "ou"
      ],
      [
        "n",
        "an"
      ],
      [
        "allow",
        "ed"
      ],
      [
        "abin",
        "et"
      ],
      [
        "hy",
        "a"
      ],
      [
        "A",
        "k"
      ],
      [
        "are",
        "as"
      ],
      [
        "bo",
        "y"
      ],
      [
        "D",
        "ire"
      ],
      [
        "R",
        "o"
      ],
      [
        "7",
        "0"
      ],
      [
        "happ",
        "y"
      ],
      [
        "A",
        "re"
      ],
      [
        "Eng",
        "land"
      ],
      [
        "Ind",
        "ias"
      ],
      [
        "S",
        "al"
      ],
      [
        "vir",
        "al"
      ],
      [
        "a",
        "ward"
      ],
      [
        "es",
        "e"
      ],
      [
        "S",
        "ri"
      ],
      [
        "c",
        "over"
      ],
      [
        "s",
        "co"
      ],
      [
        "av",
        "ir"
      ],
      [
        "Me",
        "anwhile"
      ],
      [
        "re",
        "ally"
      ],
      [
        "st",
        "or"
      ],
      [
        "tr",
        "ol"
      ],
      [
        "v",
        "o"
      ],
      [
        "N",
        "or"
      ],
      [
        "ar",
        "a"
      ],
      [
        "oper",
        "ation"
      ],
      [
        "ch",
        "all"
      ],
      [
        "e",
        "red"
      ],
      [
        "we",
        "et"
      ],
      [
        "sh",
        "ot"
      ],
      [
        "fe",
        "ll"
      ],
      [
        "exam",
        "ple"
      ],
      [
        "li",
        "ves"
      ],
      [
        "ot",
        "t"
      ],
      [
        "avir",
        "us"
      ],
      [
        "I",
        "D"
      ],
      [
        "mar",
        "ried"
      ],
      [
        "tr",
        "ict"
      ],
      [
        "m",
        "p"
      ],
      [
        "b",
        "ur"
      ],
      [
        "fo",
        "ot"
      ],
      [
        "discus",
        "s"
      ],
      [
        "st",
        "ri"
      ],
      [
        "gr",
        "ap"
      ],
      [
        "every",
        "thing"
      ],
      [
        "work",
        "ing"
      ],
      [
        "F",
        "our"
      ],
      [
        "C",
        "O"
      ],
      [
        "on",
        "avirus"
      ],
      [
        "wit",
        "ter"
      ],
      [
        "S",
        "ay"
      ],
      [
        "S",
        "un"
      ],
      [
        "distr",
        "icts"
      ],
      [
        "ey",
        "es"
      ],
      [
        "B",
        "ollywood"
      ],
      [
        "pp",
        "ed"
      ],
      [
        "d",
        "ist"
      ],
      [
        "E",
        "n"
      ],
      [
        "Raj",
        "as"
      ],
      [
        "W",
        "om"
      ],
      [
        "resp",
        "ond"
      ],
      [
        "th",
        "ou"
      ],
      [
        "ia",
        "h"
      ],
      [
        "qu",
        "ir"
      ],
      [
        "R",
        "ed"
      ],
      [
        "re",
        "am"
      ],
      [
        "wor",
        "ship"
      ],
      [
        "led",
        "ge"
      ],
      [
        "serv",
        "ice"
      ],
      [
        "con",
        "stru"
      ],
      [
        "ra",
        "ised"
      ],
      [
        "J",
        "an"
      ],
      [
        "hal",
        "f"
      ],
      [
        "Pa",
        "ul"
      ],
      [
        "fair",
        "s"
      ],
      [
        "char",
        "ge"
      ],
      [
        "Chenn",
        "ai"
      ],
      [
        "lar",
        "ge"
      ],
      [
        "itiz",
        "en"
      ],
      [
        "lit",
        "tle"
      ],
      [
        "H",
        "indi"
      ],
      [
        "S",
        "at"
      ],
      [
        "on",
        "se"
      ],
      [
        "po",
        "se"
      ],
      [
        "z",
        "e"
      ],
      [
        "b",
        "ar"
      ],
      [
        "Follow",
        "ing"
      ],
      [
        "k",
        "id"
      ],
      [
        "acc",
        "ount"
      ],
      [
        "ta",
        "x"
      ],
      [
        "r",
        "ushed"
      ],
      [
        "in",
        "al"
      ],
      [
        "ous",
        "es"
      ],
      [
        "On",
        "ly"
      ],
      [
        "St",
        "ates"
      ],
      [
        "ad",
        "av"
      ],
      [
        "c",
        "olle"
      ],
      [
        "s",
        "ong"
      ],
      [
        "be",
        "gan"
      ],
      [
        "b",
        "s"
      ],
      [
        "A",
        "fr"
      ],
      [
        "reve",
        "aled"
      ],
      [
        "ce",
        "le"
      ],
      [
        "b",
        "ail"
      ],
      [
        "li",
        "es"
      ],
      [
        "claim",
        "ed"
      ],
      [
        "m",
        "ers"
      ],
      [
        "att",
        "ended"
      ],
      [
        "any",
        "one"
      ],
      [
        "D",
        "r"
      ],
      [
        "Ac",
        "cord"
      ],
      [
        "J",
        "oh"
      ],
      [
        "y",
        "er"
      ],
      [
        "de",
        "ep"
      ],
      [
        "act",
        "ed"
      ],
      [
        "J",
        "o"
      ],
      [
        "T",
        "witter"
      ],
      [
        "plac",
        "es"
      ],
      [
        "p",
        "ted"
      ],
      [
        "J",
        "ose"
      ],
      [
        "il",
        "ar"
      ],
      [
        "Rajas",
        "than"
      ],
      [
        "comp",
        "an"
      ],
      [
        "ic",
        "le"
      ],
      [
        "lo",
        "ss"
      ],
      [
        "tern",
        "al"
      ],
      [
        "n",
        "ation"
      ],
      [
        "vehic",
        "les"
      ],
      [
        "mo",
        "cr"
      ],
      [
        "h",
        "ur"
      ],
      [
        "sh",
        "ort"
      ],
      [
        "dis",
        "ease"
      ],
      [
        "c",
        "ir"
      ],
      [
        "ri",
        "age"
      ],
      [
        "b",
        "an"
      ],
      [
        "prov",
        "ided"
      ],
      [
        "fun",
        "ction"
      ],
      [
        "Accord",
        "ing"
      ],
      [
        "ro",
        "y"
      ],
      [
        "l",
        "am"
      ],
      [
        "se",
        "x"
      ],
      [
        "de",
        "f"
      ],
      [
        "as",
        "ter"
      ],
      [
        "Cent",
        "ral"
      ],
      [
        "b",
        "at"
      ],
      [
        "ap",
        "pointed"
      ],
      [
        "au",
        "g"
      ],
      [
        "re",
        "t"
      ],
      [
        "c",
        "ul"
      ],
      [
        "spe",
        "ed"
      ],
      [
        "C",
        "up"
      ],
      [
        "inde",
        "ed"
      ],
      [
        "ag",
        "ar"
      ],
      [
        "acc",
        "ord"
      ],
      [
        "cele",
        "br"
      ],
      [
        "k",
        "es"
      ],
      [
        "c",
        "oll"
      ],
      [
        "L",
        "ater"
      ],
      [
        "hu",
        "ge"
      ],
      [
        "sing",
        "le"
      ],
      [
        "A",
        "h"
      ],
      [
        "st",
        "ated"
      ],
      [
        "The",
        "ir"
      ],
      [
        "ci",
        "ent"
      ],
      [
        "ful",
        "l"
      ],
      [
        "in",
        "n"
      ],
      [
        "crit",
        "ic"
      ],
      [
        "lar",
        "gest"
      ],
      [
        "c",
        "ing"
      ],
      [
        "pe",
        "ace"
      ],
      [
        "r",
        "ate"
      ],
      [
        "ful",
        "ly"
      ],
      [
        "b",
        "ir"
      ],
      [
        "c",
        "ult"
      ],
      [
        "S",
        "ure"
      ],
      [
        "F",
        "il"
      ],
      [
        "ul",
        "ts"
      ],
      [
        "Joh",
        "n"
      ],
      [
        "k",
        "s"
      ],
      [
        "at",
        "ives"
      ],
      [
        "cre",
        "ated"
      ],
      [
        "re",
        "jected"
      ],
      [
        "him",
        "self"
      ],
      [
        "A",
        "N"
      ],
      [
        "at",
        "ure"
      ],
      [
        "R",
        "an"
      ],
      [
        "l",
        "al"
      ],
      [
        "g",
        "g"
      ],
      [
        "I",
        "S"
      ],
      [
        "R",
        "av"
      ],
      [
        "sp",
        "read"
      ],
      [
        "com",
        "mittee"
      ],
      [
        "le",
        "ave"
      ],
      [
        "k",
        "en"
      ],
      [
        "w",
        "ed"
      ],
      [
        "Y",
        "adav"
      ],
      [
        "dri",
        "ver"
      ],
      [
        "c",
        "ast"
      ],
      [
        "di",
        "ffic"
      ],
      [
        "diffic",
        "ult"
      ],
      [
        "poin",
        "ts"
      ],
      [
        "s",
        "ou"
      ],
      [
        "candid",
        "ate"
      ],
      [
        "M",
        "am"
      ],
      [
        "cour",
        "se"
      ],
      [
        "di",
        "v"
      ],
      [
        "he",
        "ard"
      ],
      [
        "pr",
        "ices"
      ],
      [
        "eng",
        "ine"
      ],
      [
        "M",
        "ess"
      ],
      [
        "u",
        "gu"
      ],
      [
        "K",
        "ap"
      ],
      [
        "you",
        "th"
      ],
      [
        "sus",
        "p"
      ],
      [
        "d",
        "ate"
      ],
      [
        "r",
        "ap"
      ],
      [
        "hand",
        "s"
      ],
      [
        "v",
        "ind"
      ],
      [
        "ef",
        "fect"
      ],
      [
        "oc",
        "cur"
      ],
      [
        "b",
        "ab"
      ],
      [
        "stud",
        "y"
      ],
      [
        "r",
        "id"
      ],
      [
        "Par",
        "liament"
      ],
      [
        "r",
        "ow"
      ],
      [
        "w",
        "ide"
      ],
      [
        "them",
        "selves"
      ],
      [
        "Y",
        "es"
      ],
      [
        "off",
        "ice"
      ],
      [
        "r",
        "oles"
      ],
      [
        "try",
        "ing"
      ],
      [
        "unt",
        "il"
      ],
      [
        "f",
        "av"
      ],
      [
        "ve",
        "re"
      ],
      [
        "b",
        "lood"
      ],
      [
        "ess",
        "ion"
      ],
      [
        "j",
        "ab"
      ],
      [
        "ad",
        "a"
      ],
      [
        "ex",
        "p"
      ],
      [
        "op",
        "s"
      ],
      [
        "P",
        "h"
      ],
      [
        "p",
        "hoto"
      ],
      [
        "pr",
        "of"
      ],
      [
        "fe",
        "rence"
      ],
      [
        "res",
        "ult"
      ],
      [
        "S",
        "er"
      ],
      [
        "te",
        "chn"
      ],
      [
        "gr",
        "ound"
      ],
      [
        "el",
        "se"
      ],
      [
        "P",
        "er"
      ],
      [
        "resp",
        "onse"
      ],
      [
        "ent",
        "ion"
      ],
      [
        "g",
        "ener"
      ],
      [
        "te",
        "acher"
      ],
      [
        "pass",
        "ed"
      ],
      [
        "heav",
        "y"
      ],
      [
        "k",
        "m"
      ],
      [
        "work",
        "s"
      ],
      [
        "shif",
        "ted"
      ],
      [
        "quest",
        "ions"
      ],
      [
        "ev",
        "il"
      ],
      [
        "sc",
        "he"
      ],
      [
        "6",
        "0"
      ],
      [
        "Christ",
        "ian"
      ],
      [
        "Y",
        "our"
      ],
      [
        "D",
        "av"
      ],
      [
        "c",
        "ollege"
      ],
      [
        "turn",
        "ed"
      ],
      [
        "ho",
        "pe"
      ],
      [
        "ous",
        "and"
      ],
      [
        "fe",
        "cted"
      ],
      [
        "th",
        "ought"
      ],
      [
        "Pun",
        "jab"
      ],
      [
        "R",
        "a"
      ],
      [
        "ul",
        "am"
      ],
      [
        "m",
        "al"
      ],
      [
        "p",
        "ow"
      ],
      [
        "ag",
        "ue"
      ],
      [
        "feat",
        "ures"
      ],
      [
        "person",
        "al"
      ],
      [
        "ex",
        "cept"
      ],
      [
        "quir",
        "y"
      ],
      [
        "au",
        "di"
      ],
      [
        "ple",
        "ment"
      ],
      [
        "eas",
        "y"
      ],
      [
        "iz",
        "e"
      ],
      [
        "li",
        "ance"
      ],
      [
        "S",
        "a"
      ],
      [
        "g",
        "ain"
      ],
      [
        "b",
        "es"
      ],
      [
        "build",
        "ing"
      ],
      [
        "dr",
        "ink"
      ],
      [
        "com",
        "mand"
      ],
      [
        "P",
        "al"
      ],
      [
        "b",
        "ow"
      ],
      [
        "H",
        "y"
      ],
      [
        "in",
        "em"
      ],
      [
        "P",
        "re"
      ],
      [
        "know",
        "ledge"
      ],
      [
        "mil",
        "it"
      ],
      [
        "me",
        "an"
      ],
      [
        "b",
        "i"
      ],
      [
        "n",
        "al"
      ],
      [
        "ind",
        "ust"
      ],
      [
        "e",
        "at"
      ],
      [
        "rel",
        "ation"
      ],
      [
        "poll",
        "s"
      ],
      [
        "demand",
        "ed"
      ],
      [
        "g",
        "lo"
      ],
      [
        "st",
        "ation"
      ],
      [
        "f",
        "er"
      ],
      [
        "contr",
        "ol"
      ],
      [
        "f",
        "ast"
      ],
      [
        "sho",
        "ot"
      ],
      [
        "bre",
        "ak"
      ],
      [
        "we",
        "l"
      ],
      [
        "R",
        "uss"
      ],
      [
        "se",
        "at"
      ],
      [
        "rele",
        "ase"
      ],
      [
        "l",
        "ing"
      ],
      [
        "end",
        "s"
      ],
      [
        "om",
        "as"
      ],
      [
        "g",
        "od"
      ],
      [
        "R",
        "oh"
      ],
      [
        "langu",
        "age"
      ],
      [
        "issu",
        "es"
      ],
      [
        "s",
        "le"
      ],
      [
        "in",
        "ternational"
      ],
      [
        "c",
        "ou"
      ],
      [
        "su",
        "ff"
      ],
      [
        "an",
        "cial"
      ],
      [
        "t",
        "ill"
      ],
      [
        "comple",
        "te"
      ],
      [
        "C",
        "oun"
      ],
      [
        "serv",
        "ices"
      ],
      [
        "m",
        "om"
      ],
      [
        "in",
        "iti"
      ],
      [
        "Ar",
        "my"
      ],
      [
        "rish",
        "nan"
      ],
      [
        "ach",
        "ing"
      ],
      [
        "p",
        "al"
      ],
      [
        "bus",
        "iness"
      ],
      [
        "as",
        "sembly"
      ],
      [
        "mb",
        "er"
      ],
      [
        "h",
        "ouses"
      ],
      [
        "ar",
        "i"
      ],
      [
        "o",
        "il"
      ],
      [
        "c",
        "al"
      ],
      [
        "me",
        "ans"
      ],
      [
        "mar",
        "riage"
      ],
      [
        "pun",
        "ish"
      ],
      [
        "B",
        "ab"
      ],
      [
        "Dis",
        "trict"
      ],
      [
        "educ",
        "ation"
      ],
      [
        "I",
        "ran"
      ],
      [
        "de",
        "v"
      ],
      [
        "Cent",
        "re"
      ],
      [
        "W",
        "it"
      ],
      [
        "The",
        "res"
      ],
      [
        "5",
        "00"
      ],
      [
        "Tel",
        "ugu"
      ],
      [
        "ut",
        "y"
      ],
      [
        "A",
        "sh"
      ],
      [
        "ha",
        "ving"
      ],
      [
        "ed",
        "s"
      ],
      [
        "ut",
        "ure"
      ],
      [
        "clo",
        "sed"
      ],
      [
        "par",
        "ts"
      ],
      [
        "sa",
        "w"
      ],
      [
        "he",
        "st"
      ],
      [
        "ang",
        "er"
      ],
      [
        "beg",
        "in"
      ],
      [
        "relig",
        "ion"
      ],
      [
        "att",
        "end"
      ],
      [
        "am",
        "ount"
      ],
      [
        "know",
        "s"
      ],
      [
        "jud",
        "ge"
      ],
      [
        "ne",
        "y"
      ],
      [
        "ent",
        "er"
      ],
      [
        "condu",
        "cted"
      ],
      [
        "dest",
        "roy"
      ],
      [
        "f",
        "ill"
      ],
      [
        "se",
        "c"
      ],
      [
        "t",
        "weet"
      ],
      [
        "ar",
        "k"
      ],
      [
        "Hind",
        "u"
      ],
      [
        "2",
        "3"
      ],
      [
        "it",
        "es"
      ],
      [
        "p",
        "hy"
      ],
      [
        "part",
        "ies"
      ],
      [
        "Th",
        "omas"
      ],
      [
        "p",
        "ast"
      ],
      [
        "am",
        "es"
      ],
      [
        "O",
        "D"
      ],
      [
        "al",
        "one"
      ],
      [
        "m",
        "ag"
      ],
      [
        "cam",
        "era"
      ],
      [
        "giv",
        "ing"
      ],
      [
        "w",
        "ind"
      ],
      [
        "const",
        "itu"
      ],
      [
        "polit",
        "ics"
      ],
      [
        "B",
        "har"
      ],
      [
        "ran",
        "ge"
      ],
      [
        "me",
        "as"
      ],
      [
        "e",
        "ight"
      ],
      [
        "for",
        "ce"
      ],
      [
        "if",
        "y"
      ],
      [
        "se",
        "as"
      ],
      [
        "peri",
        "od"
      ],
      [
        "month",
        "s"
      ],
      [
        "20",
        "20"
      ],
      [
        "Dav",
        "id"
      ],
      [
        "with",
        "in"
      ],
      [
        "A",
        "M"
      ],
      [
        "every",
        "one"
      ],
      [
        "ou",
        "d"
      ],
      [
        "custo",
        "dy"
      ],
      [
        "ad",
        "m"
      ],
      [
        "qu",
        "ar"
      ],
      [
        "den",
        "ied"
      ],
      [
        "G",
        "e"
      ],
      [
        "confir",
        "med"
      ],
      [
        "A",
        "li"
      ],
      [
        "pre",
        "p"
      ],
      [
        "Vir",
        "at"
      ],
      [
        "c",
        "ant"
      ],
      [
        "g",
        "ame"
      ],
      [
        "S",
        "y"
      ],
      [
        "op",
        "port"
      ],
      [
        "Is",
        "lam"
      ],
      [
        "be",
        "long"
      ],
      [
        "se",
        "a"
      ],
      [
        "Dire",
        "ctor"
      ],
      [
        "did",
        "n"
      ],
      [
        "be",
        "aut"
      ],
      [
        "im",
        "plement"
      ],
      [
        "B",
        "y"
      ],
      [
        "ak",
        "k"
      ],
      [
        "ic",
        "ally"
      ],
      [
        "play",
        "ing"
      ],
      [
        "c",
        "il"
      ],
      [
        "n",
        "ath"
      ],
      [
        "pro",
        "per"
      ],
      [
        "sc",
        "ri"
      ],
      [
        "s",
        "il"
      ],
      [
        "l",
        "t"
      ],
      [
        "eng",
        "er"
      ],
      [
        "w",
        "ise"
      ],
      [
        "s",
        "cre"
      ],
      [
        "cl",
        "ass"
      ],
      [
        "por",
        "ts"
      ],
      [
        "sp",
        "ort"
      ],
      [
        "us",
        "es"
      ],
      [
        "r",
        "ound"
      ],
      [
        "need",
        "ed"
      ],
      [
        "sen",
        "ior"
      ],
      [
        "u",
        "ary"
      ],
      [
        "S",
        "S"
      ],
      [
        "g",
        "n"
      ],
      [
        "d",
        "ict"
      ],
      [
        "Bengal",
        "uru"
      ],
      [
        "u",
        "z"
      ],
      [
        "ay",
        "am"
      ],
      [
        "2",
        "8"
      ],
      [
        "st",
        "u"
      ],
      [
        "No",
        "body"
      ],
      [
        "op",
        "position"
      ],
      [
        "itizen",
        "ship"
      ],
      [
        "prov",
        "ide"
      ],
      [
        "the",
        "e"
      ],
      [
        "to",
        "wards"
      ],
      [
        "le",
        "ast"
      ],
      [
        "cons",
        "ider"
      ],
      [
        "bor",
        "n"
      ],
      [
        "u",
        "el"
      ],
      [
        "li",
        "ving"
      ],
      [
        "vehic",
        "le"
      ],
      [
        "f",
        "uture"
      ],
      [
        "team",
        "s"
      ],
      [
        "t",
        "on"
      ],
      [
        "V",
        "ar"
      ],
      [
        "e",
        "ed"
      ],
      [
        "author",
        "ities"
      ],
      [
        "S",
        "ever"
      ],
      [
        "ic",
        "an"
      ],
      [
        "Bang",
        "l"
      ],
      [
        "A",
        "p"
      ],
      [
        "ap",
        "plic"
      ],
      [
        "ac",
        "cept"
      ],
      [
        "oc",
        "cas"
      ],
      [
        "Chenn",
        "ith"
      ],
      [
        "com",
        "mon"
      ],
      [
        "le",
        "y"
      ],
      [
        "igh",
        "te"
      ],
      [
        "Sever",
        "al"
      ],
      [
        "to",
        "wn"
      ],
      [
        "sure",
        "ly"
      ],
      [
        "it",
        "ive"
      ],
      [
        "ce",
        "ed"
      ],
      [
        "accord",
        "ing"
      ],
      [
        "Bi",
        "har"
      ],
      [
        "i",
        "y"
      ],
      [
        "Chennith",
        "ala"
      ],
      [
        "follow",
        "ed"
      ],
      [
        "incre",
        "ase"
      ],
      [
        "res",
        "ol"
      ],
      [
        "ne",
        "cess"
      ],
      [
        "nam",
        "ed"
      ],
      [
        "in",
        "ci"
      ],
      [
        "be",
        "at"
      ],
      [
        "A",
        "I"
      ],
      [
        "und",
        "red"
      ],
      [
        "ad",
        "v"
      ],
      [
        "ou",
        "ts"
      ],
      [
        "CP",
        "I"
      ],
      [
        "g",
        "ing"
      ],
      [
        "respons",
        "ibility"
      ],
      [
        "as",
        "soci"
      ],
      [
        "ab",
        "o"
      ],
      [
        "pass",
        "engers"
      ],
      [
        "leg",
        "al"
      ],
      [
        "reg",
        "ion"
      ],
      [
        "B",
        "est"
      ],
      [
        "spir",
        "itu"
      ],
      [
        "O",
        "R"
      ],
      [
        "sco",
        "red"
      ],
      [
        "bir",
        "th"
      ],
      [
        "ul",
        "ation"
      ],
      [
        "Every",
        "one"
      ],
      [
        "Eng",
        "lish"
      ],
      [
        "p",
        "has"
      ],
      [
        "sol",
        "di"
      ],
      [
        "wr",
        "ote"
      ],
      [
        "ct",
        "s"
      ],
      [
        "ol",
        "k"
      ],
      [
        "C",
        "l"
      ],
      [
        "Bo",
        "ok"
      ],
      [
        "bo",
        "ard"
      ],
      [
        "vict",
        "im"
      ],
      [
        "ev",
        "idence"
      ],
      [
        "ous",
        "ly"
      ],
      [
        "repor",
        "ts"
      ],
      [
        "ML",
        "A"
      ],
      [
        "se",
        "ized"
      ],
      [
        "pop",
        "ular"
      ],
      [
        "ick",
        "ed"
      ],
      [
        "f",
        "ine"
      ],
      [
        "ro",
        "g"
      ],
      [
        "Sen",
        "a"
      ],
      [
        "mor",
        "ning"
      ],
      [
        "tr",
        "ib"
      ],
      [
        "per",
        "cent"
      ],
      [
        "de",
        "partment"
      ],
      [
        "protest",
        "s"
      ],
      [
        "th",
        "ank"
      ],
      [
        "C",
        "abinet"
      ],
      [
        "M",
        "r"
      ],
      [
        "om",
        "et"
      ],
      [
        "j",
        "i"
      ],
      [
        "F",
        "ir"
      ],
      [
        "b",
        "ann"
      ],
      [
        "av",
        "y"
      ],
      [
        "ut",
        "ed"
      ],
      [
        "tr",
        "ad"
      ],
      [
        "reas",
        "ons"
      ],
      [
        "V",
        "e"
      ],
      [
        "N",
        "ow"
      ],
      [
        "on",
        "ce"
      ],
      [
        "of",
        "ten"
      ],
      [
        "ir",
        "man"
      ],
      [
        "get",
        "ting"
      ],
      [
        "Christ",
        "ians"
      ],
      [
        "invol",
        "ved"
      ],
      [
        "be",
        "y"
      ],
      [
        "ac",
        "hi"
      ],
      [
        "mo",
        "b"
      ],
      [
        "m",
        "illion"
      ],
      [
        "st",
        "e"
      ],
      [
        "O",
        "ver"
      ],
      [
        "p",
        "en"
      ],
      [
        "F",
        "I"
      ],
      [
        "viol",
        "ence"
      ],
      [
        "Bangl",
        "adesh"
      ],
      [
        "h",
        "ot"
      ],
      [
        "ition",
        "al"
      ],
      [
        "ke",
        "pt"
      ],
      [
        "relation",
        "ship"
      ],
      [
        "s",
        "our"
      ],
      [
        "ear",
        "ly"
      ],
      [
        "il",
        "t"
      ],
      [
        "E",
        "r"
      ],
      [
        "Pri",
        "y"
      ],
      [
        "bl",
        "ess"
      ],
      [
        "cor",
        "onavirus"
      ],
      [
        "experi",
        "ence"
      ],
      [
        "U",
        "P"
      ],
      [
        "regard",
        "ing"
      ],
      [
        "rain",
        "s"
      ],
      [
        "S",
        "ar"
      ],
      [
        "t",
        "ou"
      ],
      [
        "m",
        "ale"
      ],
      [
        "ML",
        "As"
      ],
      [
        "m",
        "od"
      ],
      [
        "D",
        "F"
      ],
      [
        "In",
        "ternational"
      ],
      [
        "il",
        "ities"
      ],
      [
        "in",
        "aug"
      ],
      [
        "ci",
        "ence"
      ],
      [
        "B",
        "l"
      ],
      [
        "stud",
        "ent"
      ],
      [
        "bod",
        "ies"
      ],
      [
        "I",
        "T"
      ],
      [
        "ho",
        "st"
      ],
      [
        "let",
        "ter"
      ],
      [
        "jo",
        "ined"
      ],
      [
        "sha",
        "re"
      ],
      [
        "H",
        "ave"
      ],
      [
        "dra",
        "w"
      ],
      [
        "ag",
        "ree"
      ],
      [
        "cent",
        "ral"
      ],
      [
        "red",
        "u"
      ],
      [
        "st",
        "at"
      ],
      [
        "Y",
        "og"
      ],
      [
        "ut",
        "ions"
      ],
      [
        "spir",
        "it"
      ],
      [
        "St",
        "ud"
      ],
      [
        "reco",
        "vered"
      ],
      [
        "f",
        "und"
      ],
      [
        "E",
        "ven"
      ],
      [
        "hand",
        "ed"
      ],
      [
        "Z",
        "e"
      ],
      [
        "r",
        "ighte"
      ],
      [
        "ident",
        "ified"
      ],
      [
        "an",
        "ces"
      ],
      [
        "tr",
        "i"
      ],
      [
        "al",
        "and"
      ],
      [
        "en",
        "ed"
      ],
      [
        "does",
        "nt"
      ],
      [
        "s",
        "am"
      ],
      [
        "s",
        "ons"
      ],
      [
        "je",
        "e"
      ],
      [
        "p",
        "age"
      ],
      [
        "S",
        "m"
      ],
      [
        "al",
        "y"
      ],
      [
        "wan",
        "ted"
      ],
      [
        "under",
        "way"
      ],
      [
        "est",
        "ab"
      ],
      [
        "er",
        "n"
      ],
      [
        "Mohan",
        "lal"
      ],
      [
        "8",
        "0"
      ],
      [
        "Ch",
        "ild"
      ],
      [
        "d",
        "ing"
      ],
      [
        "Mad",
        "hya"
      ],
      [
        "A",
        "pp"
      ],
      [
        "tr",
        "ied"
      ],
      [
        "ser",
        "ved"
      ],
      [
        "comm",
        "un"
      ],
      [
        "tra",
        "vel"
      ],
      [
        "mor",
        "tem"
      ],
      [
        "an",
        "e"
      ],
      [
        "af",
        "f"
      ],
      [
        "char",
        "ges"
      ],
      [
        "u",
        "es"
      ],
      [
        "jo",
        "in"
      ],
      [
        "Wit",
        "nesses"
      ],
      [
        "Re",
        "ad"
      ],
      [
        "re",
        "quest"
      ],
      [
        "announ",
        "ce"
      ],
      [
        "punish",
        "ment"
      ],
      [
        "Af",
        "fairs"
      ],
      [
        "I",
        "C"
      ],
      [
        "D",
        "ile"
      ],
      [
        "ank",
        "ar"
      ],
      [
        "De",
        "partment"
      ],
      [
        "iv",
        "al"
      ],
      [
        "wit",
        "ness"
      ],
      [
        "A",
        "P"
      ],
      [
        "for",
        "ward"
      ],
      [
        "abo",
        "ve"
      ],
      [
        "c",
        "ard"
      ],
      [
        "of",
        "fe"
      ],
      [
        "at",
        "tem"
      ],
      [
        "mon",
        "y"
      ],
      [
        "po",
        "or"
      ],
      [
        "w",
        "atch"
      ],
      [
        "Ear",
        "lier"
      ],
      [
        "ac",
        "ce"
      ],
      [
        "at",
        "or"
      ],
      [
        "J",
        "ud"
      ],
      [
        "di",
        "e"
      ],
      [
        "en",
        "joy"
      ],
      [
        "decl",
        "ared"
      ],
      [
        "sto",
        "p"
      ],
      [
        "offic",
        "er"
      ],
      [
        "c",
        "up"
      ],
      [
        "death",
        "s"
      ],
      [
        "tr",
        "ust"
      ],
      [
        "tr",
        "ation"
      ],
      [
        "en",
        "ough"
      ],
      [
        "Roh",
        "it"
      ],
      [
        "B",
        "en"
      ],
      [
        "fl",
        "u"
      ],
      [
        "n",
        "ak"
      ],
      [
        "se",
        "ctor"
      ],
      [
        "Muslim",
        "s"
      ],
      [
        "Afr",
        "ica"
      ],
      [
        "v",
        "t"
      ],
      [
        "g",
        "reg"
      ],
      [
        "fin",
        "ancial"
      ],
      [
        "tr",
        "ial"
      ],
      [
        "it",
        "ation"
      ],
      [
        "Su",
        "ch"
      ],
      [
        "cle",
        "an"
      ],
      [
        "ra",
        "il"
      ],
      [
        "l",
        "ic"
      ],
      [
        "famil",
        "ies"
      ],
      [
        "L",
        "i"
      ],
      [
        "de",
        "mocr"
      ],
      [
        "e",
        "ch"
      ],
      [
        "Fil",
        "m"
      ],
      [
        "Mo",
        "ses"
      ],
      [
        "hig",
        "hest"
      ],
      [
        "ive",
        "ly"
      ],
      [
        "Su",
        "b"
      ],
      [
        "ll",
        "ing"
      ],
      [
        "sequ",
        "ently"
      ],
      [
        "alleg",
        "ations"
      ],
      [
        "at",
        "ors"
      ],
      [
        "pati",
        "ents"
      ],
      [
        "V",
        "en"
      ],
      [
        "d",
        "ro"
      ],
      [
        "sim",
        "ilar"
      ],
      [
        "nd",
        "er"
      ],
      [
        "incre",
        "ased"
      ],
      [
        "if",
        "ul"
      ],
      [
        "in",
        "quiry"
      ],
      [
        "CO",
        "V"
      ],
      [
        "an",
        "im"
      ],
      [
        "Son",
        "ia"
      ],
      [
        "righte",
        "ous"
      ],
      [
        "cr",
        "im"
      ],
      [
        "ab",
        "les"
      ],
      [
        "Jose",
        "ph"
      ],
      [
        "T",
        "ri"
      ],
      [
        "ra",
        "pe"
      ],
      [
        "heav",
        "ens"
      ],
      [
        "ent",
        "ire"
      ],
      [
        "ct",
        "ure"
      ],
      [
        "bas",
        "is"
      ],
      [
        "vill",
        "age"
      ],
      [
        "b",
        "att"
      ],
      [
        "return",
        "ed"
      ],
      [
        "Dile",
        "ep"
      ],
      [
        "Ar",
        "t"
      ],
      [
        "t",
        "w"
      ],
      [
        "is",
        "s"
      ],
      [
        "ple",
        "a"
      ],
      [
        "is",
        "ation"
      ],
      [
        "ly",
        "ing"
      ],
      [
        "pr",
        "act"
      ],
      [
        "for",
        "ts"
      ],
      [
        "Mu",
        "k"
      ],
      [
        "Fin",
        "ance"
      ],
      [
        "im",
        "um"
      ],
      [
        "off",
        "er"
      ],
      [
        "p",
        "ubl"
      ],
      [
        "v",
        "est"
      ],
      [
        "spe",
        "ci"
      ],
      [
        "e",
        "th"
      ],
      [
        "i",
        "ent"
      ],
      [
        "a",
        "x"
      ],
      [
        "end",
        "ra"
      ],
      [
        "R",
        "ail"
      ],
      [
        "brother",
        "s"
      ],
      [
        "ter",
        "m"
      ],
      [
        "or",
        "dered"
      ],
      [
        "har",
        "an"
      ],
      [
        "recent",
        "ly"
      ],
      [
        "s",
        "qu"
      ],
      [
        "get",
        "s"
      ],
      [
        "Fr",
        "om"
      ],
      [
        "em",
        "er"
      ],
      [
        "D",
        "uring"
      ],
      [
        "3",
        "5"
      ],
      [
        "mo",
        "del"
      ],
      [
        "f",
        "lood"
      ],
      [
        "J",
        "D"
      ],
      [
        "\"\"",
        ".\""
      ],
      [
        "e",
        "qu"
      ],
      [
        "a",
        "head"
      ],
      [
        "S",
        "ur"
      ],
      [
        "pro",
        "ve"
      ],
      [
        "k",
        "ed"
      ],
      [
        "ins",
        "ide"
      ],
      [
        "2",
        "6"
      ],
      [
        "B",
        "r"
      ],
      [
        "as",
        "sa"
      ],
      [
        "believ",
        "ed"
      ],
      [
        "ific",
        "ation"
      ],
      [
        "char",
        "ged"
      ],
      [
        "f",
        "are"
      ],
      [
        "King",
        "dom"
      ],
      [
        "ow",
        "s"
      ],
      [
        "m",
        "un"
      ],
      [
        "Moham",
        "med"
      ],
      [
        "for",
        "th"
      ],
      [
        "fore",
        "ign"
      ],
      [
        "is",
        "ing"
      ],
      [
        "lead",
        "ing"
      ],
      [
        "COV",
        "ID"
      ],
      [
[...]
