{
  "version": "1.0",
  "truncation": null,
  "padding": null,
  "added_tokens": [
    {
      "id": 0,
      "content": "<bos>",
      "single_word": false,
      "lstrip": false,
      "rstrip": false,
      "normalized": false,
      "special": true
    },
    {
      "id": 1,
      "content": "<eos>",
      "single_word": false,
      "lstrip": false,
      "rstrip": false,
      "normalized": false,
      "special": true
    },
    {
      "id": 2,
      "content": "<pad>",
      "single_word": false,
      "lstrip": false,
      "rstrip": false,
      "normalized": false,
      "special": true
    },
    {
      "id": 3,
      "content": "<unk>",
      "single_word": false,
      "lstrip": false,
      "rstrip": false,
      "normalized": false,
      "special": true
    }
  ],
  "normalizer": null,
  "pre_tokenizer": {
    "type": "ByteLevel",
    "add_prefix_space": true,
    "trim_offsets": true,
    "use_regex": true
  },
  "post_processor": {
    "type": "TemplateProcessing",
    "single": [
      {
        "SpecialToken": {
          "id": "<bos>",
          "type_id": 0
        }
      },
      {
        "Sequence": {
          "id": "A",
          "type_id": 0
        }
      },
      {
        "SpecialToken": {
          "id": "<eos>",
          "type_id": 0
        }
      }
    ],
    "pair": [
      {
        "Sequence": {
          "id": "A",
          "type_id": 0
        }
      },
      {
        "Sequence": {
          "id": "B",
          "type_id": 1
        }
      }
    ],
    "special_tokens": {
      "<bos>": {
        "id": "<bos>",
        "ids": [
          0
        ],
        "tokens": [
          "<bos>"
        ]
      },
      "<eos>": {
        "id": "<eos>",
        "ids": [
          1
        ],
        "tokens": [
          "<eos>"
        ]
      }
    }
  },
  "decoder": {
    "type": "ByteLevel",
    "add_prefix_space": true,
    "trim_offsets": true,
    "use_regex": true
  },
  "model": {
    "type": "BPE",
    "dropout": null,
    "unk_token": "<unk>",
    "continuing_subword_prefix": null,
    "end_of_word_suffix": null,
    "fuse_unk": false,
    "byte_fallback": false,
    "ignore_merges": false,
    "vocab": {
      "<bos>": 0,
      "<eos>": 1,
      "<pad>": 2,
      "<unk>": 3,
      "!": 4,
      "\"": 5,
      "#": 6,
      "$": 7,
      "%": 8,
      "&": 9,
      "'": 10,
      "(": 11,
      ")": 12,
      "*": 13,
      "+": 14,
      ",": 15,
      "-": 16,
      ".": 17,
      "/": 18,
      "0": 19,
      "1": 20,
      "2": 21,
      "3": 22,
      "4": 23,
      "5": 24,
      "6": 25,
      "7": 26,
      "8": 27,
      "9": 28,
      ":": 29,
      "<": 30,
      "=": 31,
      ">": 32,
      "?": 33,
      "@": 34,
      "A": 35,
      "B": 36,
      "C": 37,
      "D": 38,
      "E": 39,
      "F": 40,
      "G": 41,
      "H": 42,
      "I": 43,
      "J": 44,
      "K": 45,
      "L": 46,
      "M": 47,
      "N": 48,
      "O": 49,
      "P": 50,
      "Q": 51,
      "R": 52,
      "S": 53,
      "T": 54,
      "U": 55,
      "V": 56,
      "W": 57,
      "X": 58,
      "Y": 59,
      "Z": 60,
      "[": 61,
      "\\": 62,
      "]": 63,
      "^": 64,
      "_": 65,
      "`": 66,
      "a": 67,
      "b": 68,
      "c": 69,
      "d": 70,
      "e": 71,
      "f": 72,
      "g": 73,
      "h": 74,
      "i": 75,
      "j": 76,
      "k": 77,
      "l": 78,
      "m": 79,
      "n": 80,
      "o": 81,
      "p": 82,
      "q": 83,
      "r": 84,
      "s": 85,
      "t": 86,
      "u": 87,
      "v": 88,
      "w": 89,
      "x": 90,
      "y": 91,
      "z": 92,
      "{": 93,
      "|": 94,
      "}": 95,
      "~": 96,
      "Ċ": 97,
      "Ġ": 98,
      "Ġt": 99,
      "he": 100,
      "Ġa": 101,
      "in": 102,
      "re": 103,
      "Ġthe": 104,
      "on": 105,
      "er": 106,
      "Ġw": 107,
      "is": 108,
      "Ġs": 109,
      "ha": 110,
      "ed": 111,
      "nd": 112,
      "en": 113,
      "Ġo": 114,
      "Ġc": 115,
      "Ġb": 116,
      "Ġf": 117,
      "it": 118,
      "Ġp": 119,
      "es": 120,
      "at": 121,
      "ĠT": 122,
      "or": 123,
      "Ġin": 124,
      "an": 125,
      "ou": 126,
      "al": 127,
      "ar": 128,
      "ing": 129,
      "Ġof": 130,
      "Ġd": 131,
      "Ġm": 132,
      "Ġto": 133,
      "as": 134,
      "il": 135,
      "Ġand": 136,
      "ic": 137,
      "ĠI": 138,
      "ĠThe": 139,
      "ion": 140,
      "Ġha": 141,
      "le": 142,
      "om": 143,
      "ĠS": 144,
      "ĠA": 145,
      "ent": 146,
      "Ġis": 147,
      "Ġn": 148,
      "Ġbe": 149,
      "ot": 150,
      "id": 151,
      "ĠM": 152,
      "ve": 153,
      "Ġre": 154,
      "st": 155,
      "ol": 156,
      "Ġl": 157,
      "ĠC": 158,
      "hat": 159,
      "am": 160,
      "ĠB": 161,
      "Ġg": 162,
      "ĠP": 163,
      "Ġh": 164,
      "ct": 165,
      "Ġe": 166,
      "ĠH": 167,
      "ver": 168,
      "ay": 169,
      "ut": 170,
      "ad": 171,
      "ur": 172,
      "ir": 173,
      "im": 174,
      "ow": 175,
      "ter": 176,
      "Ġth": 177,
      "Ġfor": 178,
      "Ġon": 179,
      "Ġwas": 180,
      "et": 181,
      "el": 182,
      "Ġy": 183,
      "ill": 184,
      "ro": 185,
      "Ġhe": 186,
      "us": 187,
      "ĠW": 188,
      "Ġst": 189,
      "ce": 190,
      "ĠR": 191,
      "ra": 192,
      "ig": 193,
      "ly": 194,
      "od": 195,
      "ation": 196,
      "Ġal": 197,
      "Ġthat": 198,
      "ĠK": 199,
      "Ġyou": 200,
      "ak": 201,
      "ere": 202,
      "Ġare": 203,
      "Ġhas": 204,
      "res": 205,
      "os": 206,
      "ĠN": 207,
      "ith": 208,
      "Ġnot": 209,
      "ĠG": 210,
      "ĠD": 211,
      "Ġit": 212,
      "ch": 213,
      "ul": 214,
      "her": 215,
      "ist": 216,
      "ri": 217,
      "Ġhave": 218,
      "Ġan": 219,
      "ice": 220,
      "un": 221,
      "ment": 222,
      "est": 223,
      "Ġwill": 224,
      "Ġwith": 225,
      "ain": 226,
      "ia": 227,
      "Ġde": 228,
      "ers": 229,
      "Ġcon": 230,
      "Ġse": 231,
      "pp": 232,
      "ld": 233,
      "hi": 234,
      "Ġas": 235,
      "Ġat": 236,
      "ĠInd": 237,
      "Ġwh": 238,
      "op": 239,
      "\"\"": 240,
      "Ġby": 241,
      "ĠJ": 242,
      "and": 243,
      "th": 244,
      "ĠF": 245,
      "if": 246,
      "ĠHe": 247,
      "ate": 248,
      "Ġcom": 249,
      "rom": 250,
      "Ġ1": 251,
      "ĠTh": 252,
      "Ġsa": 253,
      "ge": 254,
      "Ġthis": 255,
      "nt": 256,
      "ĠL": 257,
      "um": 258,
      "our": 259,
      "ac": 260,
      "Ġwere": 261,
      "Ġv": 262,
      "Ġbeen": 263,
      "art": 264,
      "Ġfrom": 265,
      "Ġk": 266,
      "ht": 267,
      "se": 268,
      "olice": 269,
      "ĠIt": 270,
      "ong": 271,
      "Ġne": 272,
      "Ġpro": 273,
      "ab": 274,
      "ant": 275,
      "Ġgo": 276,
      "Ġsaid": 277,
      "han": 278,
      "Ġr": 279,
      "ĠO": 280,
      "ore": 281,
      "ort": 282,
      "ĠE": 283,
      "up": 284,
      "ies": 285,
      "ess": 286,
      "Ġle": 287,
      "so": 288,
      "ud": 289,
      "iv": 290,
      "la": 291,
      "em": 292,
      "red": 293,
      "ok": 294,
      "Ġsu": 295,
      "pe": 296,
      "Ġex": 297,
      "Ġdo": 298,
      "Ġ2": 299,
      "ister": 300,
      "'s": 301,
      "ĠIndia": 302,
      "ould": 303,
      "ity": 304,
      "ction": 305,
      "qu": 306,
      "Ġhis": 307,
      "ive": 308,
      "ĠBut": 309,
      "Ġhad": 310,
      "Ġalso": 311,
      "Ġ(": 312,
      "inister": 313,
      "ress": 314,
      "Ġthem": 315,
      "ust": 316,
      "ĠThis": 317,
      "ident": 318,
      "Ġwor": 319,
      "cc": 320,
      "Ġthey": 321,
      "ie": 322,
      "ight": 323,
      "ĠV": 324,
      "ĠU": 325,
      "Ġpolice": 326,
      "Ġme": 327,
      "ime": 328,
      "Ġall": 329,
      "Ġpe": 330,
      "ial": 331,
      "..": 332,
      "ard": 333,
      "ase": 334,
      "one": 335,
      "ome": 336,
      "Ġor": 337,
      "ian": 338,
      "oc": 339,
      "ov": 340,
      "Ġag": 341,
      "ost": 342,
      "Ġsh": 343,
      "ople": 344,
      "Ġwho": 345,
      "ĠY": 346,
      "Ġar": 347,
      "Ġwe": 348,
      "Ġinc": 349,
      "Ġfil": 350,
      "Ġj": 351,
      "ind": 352,
      "ther": 353,
      "ry": 354,
      "ĠAl": 355,
      "ast": 356,
      "ag": 357,
      "Ġcan": 358,
      "ated": 359,
      "ous": 360,
      "har": 361,
      "ric": 362,
      "Ġab": 363,
      "Ġpeople": 364,
      "Ġtheir": 365,
      "ĠRa": 366,
      "wo": 367,
      "Ġno": 368,
      "ĠMinister": 369,
      "ĠIn": 370,
      "00": 371,
      "ef": 372,
      "ep": 373,
      "hen": 374,
      "vern": 375,
      "und": 376,
      "ell": 377,
      "pl": 378,
      "ik": 379,
      "out": 380,
      "Ġres": 381,
      "av": 382,
      "JP": 383,
      "ose": 384,
      "all": 385,
      "very": 386,
      "ue": 387,
      "Ġagain": 388,
      "Ġone": 389,
      "Ġman": 390,
      "are": 391,
      "ĠWe": 392,
      "ire": 393,
      "ame": 394,
      "Ġtak": 395,
      "ĠThere": 396,
      "ĠBJP": 397,
      "Ġup": 398,
      "Ġhim": 399,
      "ide": 400,
      "fter": 401,
      "ure": 402,
      "ted": 403,
      "vernment": 404,
      "ack": 405,
      "Ġdis": 406,
      "Ġun": 407,
      "Ġfilm": 408,
      "ff": 409,
      "Ġyour": 410,
      "ĠPr": 411,
      "Ġus": 412,
      "ĠThey": 413,
      "Ġthere": 414,
      "Ġacc": 415,
      "Ġint": 416,
      "ath": 417,
      "port": 418,
      "ree": 419,
      "oug": 420,
      "ary": 421,
      "Ġpl": 422,
      "Ġ\"\"": 423,
      "Ġpr": 424,
      "Ġad": 425,
      "Ġpart": 426,
      "Ġout": 427,
      "ount": 428,
      "Ġoff": 429,
      "ctor": 430,
      "now": 431,
      "Ġcase": 432,
      "cted": 433,
      "Ġso": 434,
      "ater": 435,
      "ord": 436,
      "hil": 437,
      "end": 438,
      "pt": 439,
      "Ġagainst": 440,
      "ays": 441,
      "ound": 442,
      "hed": 443,
      "ll": 444,
      "age": 445,
      "Ġother": 446,
      "ĠWhat": 447,
      "ear": 448,
      "ourt": 449,
      "ble": 450,
      "Ġim": 451,
      "Ġwhat": 452,
      "Ġtr": 453,
      "ish": 454,
      "ition": 455,
      "ook": 456,
      "Ġcont": 457,
      "ĠSt": 458,
      "Ġtwo": 459,
      "ever": 460,
      "oll": 461,
      "Ġsp": 462,
      "ical": 463,
      "Ġover": 464,
      "ence": 465,
      "ail": 466,
      "Ġany": 467,
      "ĠHow": 468,
      "eral": 469,
      "ĠAnd": 470,
      "ĠCong": 471,
      "ah": 472,
      "ich": 473,
      "Ġgovernment": 474,
      "ine": 475,
      "Ġam": 476,
      "Ġlead": 477,
      "ans": 478,
      "hief": 479,
      "du": 480,
      "ug": 481,
      "Ġknow": 482,
      "under": 483,
      "ĠCongress": 484,
      "Ġdid": 485,
      "Ġmy": 486,
      "Ġstate": 487,
      "ations": 488,
      "ered": 489,
      "ied": 490,
      "ons": 491,
      "ĠGod": 492,
      "Ġper": 493,
      "ings": 494,
      "Ġafter": 495,
      "Ġatt": 496,
      "orm": 497,
      "ass": 498,
      "mit": 499,
      "Ġunder": 500,
      "Ġtime": 501,
      "Ġapp": 502,
      "ital": 503,
      "ne": 504,
      "Ġ3": 505,
      "ens": 506,
      "Ġreg": 507,
      "Ġabout": 508,
      "ple": 509,
      "other": 510,
      "Ġher": 511,
      "ade": 512,
      "Ġfir": 513,
      "ach": 514,
      "ĠCh": 515,
      "amil": 516,
      "og": 517,
      "Ġte": 518,
      "Ġev": 519,
      ".\"": 520,
      "ber": 521,
      "ĠIndian": 522,
      "Ġsc": 523,
      "Ġsha": 524,
      "ance": 525,
      "esh": 526,
      "odi": 527,
      "Ġsec": 528,
      "ap": 529,
      "ife": 530,
      "Ġwhich": 531,
      "Ġpres": 532,
      "ond": 533,
      "ign": 534,
      "ĠPolice": 535,
      "ove": 536,
      "Ġser": 537,
      "...": 538,
      "ĠAs": 539,
      "rest": 540,
      "ged": 541,
      "osp": 542,
      "ult": 543,
      "Ġwork": 544,
      "Ġinv": 545,
      "old": 546,
      "Ġqu": 547,
      "Ġen": 548,
      "Ġra": 549,
      "rit": 550,
      "Ġbut": 551,
      "ions": 552,
      "ang": 553,
      "ĠYou": 554,
      "ew": 555,
      "ub": 556,
      "ĠThat": 557,
      "ough": 558,
      "ĠRs": 559,
      "Ġnew": 560,
      "Ġfirst": 561,
      "Ġdec": 562,
      "Ġarrest": 563,
      "Ġinto": 564,
      "eh": 565,
      "ospital": 566,
      "Ġ\"": 567,
      "iz": 568,
      "Ġpers": 569,
      "ious": 570,
      "ĠModi": 571,
      "hild": 572,
      "Ġwould": 573,
      "ren": 574,
      "Ġshould": 575,
      "Ġbr": 576,
      "ont": 577,
      "ally": 578,
      "ake": 579,
      "ank": 580,
      "Ġits": 581,
      "oin": 582,
      "able": 583,
      "Ġour": 584,
      "reat": 585,
      "iss": 586,
      "Ġwhen": 587,
      "used": 588,
      "ai": 589,
      "ĠNo": 590,
      "Ġcl": 591,
      "ĠMan": 592,
      "'t": 593,
      "ood": 594,
      "oy": 595,
      "own": 596,
      "vers": 597,
      "oth": 598,
      "Ġmed": 599,
      "lah": 600,
      "Ġlik": 601,
      "ational": 602,
      "Ġmore": 603,
      "Ġcount": 604,
      "Ġspe": 605,
      "ace": 606,
      "ates": 607,
      "Ġrec": 608,
      "Ġro": 609,
      "Ġ20": 610,
      "Ġgr": 611,
      "Ġinj": 612,
      "ash": 613,
      "Ġhapp": 614,
      "ile": 615,
      "Ġchild": 616,
      "Ġincident": 617,
      "Ġthen": 618,
      "Ġcomp": 619,
      "igh": 620,
      "ick": 621,
      "ced": 622,
      "Ġthose": 623,
      "li": 624,
      "per": 625,
      "je": 626,
      "ured": 627,
      "ĠAn": 628,
      "hy": 629,
      "Ġmade": 630,
      "ĠShe": 631,
      "ely": 632,
      "ise": 633,
      "vel": 634,
      "Ġ-": 635,
      "rict": 636,
      "Ġarrested": 637,
      "Ġmov": 638,
      "Ġ5": 639,
      "Ġbec": 640,
      "ĠKeral": 641,
      "ĠAllah": 642,
      "ark": 643,
      "Ġdist": 644,
      "Ġ\"\"\"": 645,
      "Ġneed": 646,
      "ody": 647,
      "ved": 648,
      "Ġwom": 649,
      "ĠUn": 650,
      "mer": 651,
      "aj": 652,
      "med": 653,
      "Ġhospital": 654,
      "ward": 655,
      "Ġ4": 656,
      "form": 657,
      "ĠKerala": 658,
      "ory": 659,
      "Ġtaken": 660,
      "der": 661,
      "ĠRaj": 662,
      "arn": 663,
      "we": 664,
      "Ġmat": 665,
      "urn": 666,
      "Ġla": 667,
      "ĠIs": 668,
      "Ġbel": 669,
      "here": 670,
      "Ġonly": 671,
      "Ġrem": 672,
      "ict": 673,
      "Ġcourt": 674,
      "istan": 675,
      "ru": 676,
      "Ġpre": 677,
      "eng": 678,
      "Ġsay": 679,
      "ents": 680,
      "Ġele": 681,
      "ased": 682,
      "Ġtra": 683,
      "Ġmany": 684,
      "hip": 685,
      "ob": 686,
      "way": 687,
      "Ġsome": 688,
      "Ġrel": 689,
      "lud": 690,
      "Ġreport": 691,
      "ĠChief": 692,
      "Ġbl": 693,
      "Ġthree": 694,
      "Ġbeing": 695,
      "fore": 696,
      "use": 697,
      "ck": 698,
      "Ġgood": 699,
      "Ġca": 700,
      "Ġshe": 701,
      "Ġthan": 702,
      "ces": 703,
      "Ġbet": 704,
      "ndra": 705,
      "ĠPak": 706,
      "ink": 707,
      "ather": 708,
      "ness": 709,
      "ec": 710,
      "oun": 711,
      "ip": 712,
      "Ġday": 713,
      "Ġact": 714,
      "ĠPrime": 715,
      "ollow": 716,
      "ful": 717,
      "Ġinvest": 718,
      "ĠAr": 719,
      "Ġget": 720,
      "Ġhel": 721,
      "Ġear": 722,
      "aint": 723,
      "Ġhow": 724,
      "Ġif": 725,
      "Ġkill": 726,
      "ities": 727,
      "me": 728,
      "Ġaccused": 729,
      "man": 730,
      "ĠGand": 731,
      "Ġlike": 732,
      "Ġsee": 733,
      "Ġstud": 734,
      "Ġinclud": 735,
      "ret": 736,
      "Ġvery": 737,
      "ĠPakistan": 738,
      "ĠSo": 739,
      "Ġfe": 740,
      "Ġfamil": 741,
      "Ġminister": 742,
      "Ġevery": 743,
      "ite": 744,
      "Ġprot": 745,
      "tern": 746,
      "lace": 747,
      "ĠGo": 748,
      "ures": 749,
      "Ġdeath": 750,
      "pur": 751,
      "ĠJeh": 752,
      "ran": 753,
      "Ġiss": 754,
      "cial": 755,
      "Ġcome": 756,
      "Ġdire": 757,
      "ible": 758,
      "uring": 759,
      "ĠGandhi": 760,
      "Ġfl": 761,
      "Ġshall": 762,
      "iff": 763,
      "ovah": 764,
      "Ġcro": 765,
      "ham": 766,
      "ĠJehovah": 767,
      "Ġcountry": 768,
      "Ġjust": 769,
      "Ġlife": 770,
      "Ġoffic": 771,
      "Ġthr": 772,
      "Ġinjured": 773,
      "Ġworld": 774,
      "les": 775,
      "Ġhelp": 776,
      "Ġmeet": 777,
      "uth": 778,
      "ĠHowever": 779,
      "van": 780,
      "ĠSing": 781,
      "Ġsuch": 782,
      "als": 783,
      "Ġadd": 784,
      "sel": 785,
      "olle": 786,
      "Ġtake": 787,
      "umar": 788,
      "Ġcent": 789,
      "Ġhere": 790,
      "ision": 791,
      "umb": 792,
      "cy": 793,
      "ised": 794,
      "Ġchan": 795,
      "ci": 796,
      "itu": 797,
      "Ġhappen": 798,
      "Ġinvestig": 799,
      "Ġpost": 800,
      "ix": 801,
      "ng": 802,
      "Ġthese": 803,
      "alth": 804,
      "Ġcould": 805,
      "Ġcar": 806,
      "Ġplace": 807,
      "Ġmovie": 808,
      "Ġac": 809,
      "Ġdoes": 810,
      "Ġright": 811,
      "lic": 812,
      "Ġcompl": 813,
      "Ġind": 814,
      "ĠKo": 815,
      "Ġdistrict": 816,
      "Ġdiff": 817,
      "Ġplay": 818,
      "ĠSingh": 819,
      "Ġback": 820,
      "Ġcha": 821,
      "Ġchildren": 822,
      "ĠCourt": 823,
      "hes": 824,
      "Ġcomm": 825,
      "ked": 826,
      "Ġtook": 827,
      "ctions": 828,
      "ats": 829,
      "ĠSha": 830,
      "Ġfa": 831,
      "ĠAll": 832,
      "Ġsoc": 833,
      "Ġgiv": 834,
      "get": 835,
      "Ġbefore": 836,
      "ĠFor": 837,
      "Ġ6": 838,
      "ĠMa": 839,
      "Ġattack": 840,
      "Ġcons": 841,
      "mb": 842,
      "ĠDel": 843,
      "Ġbelie": 844,
      "Ġstart": 845,
      "Ġwell": 846,
      "wn": 847,
      "Ġdown": 848,
      "ĠCom": 849,
      "ya": 850,
      "ven": 851,
      "ool": 852,
      "Ġyear": 853,
      "Ġfamily": 854,
      "Ġcall": 855,
      "ited": 856,
      "arendra": 857,
      "Ġwant": 858,
      "ower": 859,
      "Ġpol": 860,
      "ho": 861,
      "Ġhand": 862,
      "ĠNarendra": 863,
      "ided": 864,
      "ĠHis": 865,
      "Ġmedia": 866,
      "hing": 867,
      "ating": 868,
      "ĠNew": 869,
      "ral": 870,
      "ouse": 871,
      "Ġwater": 872,
      "ft": 873,
      "Ġfollow": 874,
      "ĠDelhi": 875,
      "ĠAd": 876,
      "ought": 877,
      "Ġ19": 878,
      "Ġfound": 879,
      "ĠRah": 880,
      "Ġconf": 881,
      "ave": 882,
      "eep": 883,
      "Ġ'": 884,
      "ĠRam": 885,
      "ma": 886,
      "ters": 887,
      "ween": 888,
      "led": 889,
      "ments": 890,
      "ks": 891,
      "ors": 892,
      "oss": 893,
      "Ġperson": 894,
      "Ġfour": 895,
      "Ġbetween": 896,
      "\"\"\"": 897,
      "ann": 898,
      "ution": 899,
      "Ġparty": 900,
      "Ġresp": 901,
      "ib": 902,
      "Ġprodu": 903,
      "Ġeven": 904,
      "Ġpass": 905,
      "Ġthrough": 906,
      "ert": 907,
      "ets": 908,
      "ĠIts": 909,
      "te": 910,
      "jay": 911,
      "ĠLord": 912,
      "Ġfar": 913,
      "Ġchief": 914,
      "Ġmem": 915,
      "Ġtoo": 916,
      "read": 917,
      "Ġprov": 918,
      "irl": 919,
      "Ġfin": 920,
      "aug": 921,
      "Ġway": 922,
      "gan": 923,
      "uch": 924,
      "Ġmake": 925,
      "Ġloc": 926,
      "Ġdem": 927,
      "Ġmost": 928,
      "Ġkilled": 929,
      "rong": 930,
      "Ġteam": 931,
      "Ġlater": 932,
      "Ġwon": 933,
      "Ġdisc": 934,
      "Ġret": 935,
      "thing": 936,
      "ting": 937,
      "Ġsupp": 938,
      "ĠRe": 939,
      "adesh": 940,
      "ins": 941,
      "ission": 942,
      "Ġsub": 943,
      "Ġcr": 944,
      "ĠSh": 945,
      "Ġcomplaint": 946,
      "ĠOn": 947,
      "Ġent": 948,
      "ĠCha": 949,
      "resident": 950,
      "riv": 951,
      "000": 952,
      "antha": 953,
      "ars": 954,
      "Ġdied": 955,
      "ty": 956,
      "Ġleader": 957,
      "ĠRahul": 958,
      "ĠThir": 959,
      "Ġco": 960,
      "Ġter": 961,
      "Ġ7": 962,
      "Ġsocial": 963,
      "Ġmay": 964,
      "ram": 965,
      "Ġset": 966,
      "Ġlook": 967,
      "Ġann": 968,
      "Ġsm": 969,
      "Ġgu": 970,
      "Ġcrore": 971,
      "),": 972,
      "Ġdes": 973,
      "Ġpresident": 974,
      "Ġinform": 975,
      "Ġwhile": 976,
      "ĠAb": 977,
      "ĠMo": 978,
      "Ġ10": 979,
      "Ġass": 980,
      "fe": 981,
      "rib": 982,
      "ĠMal": 983,
      "ĠDe": 984,
      "ained": 985,
      "Ġserv": 986,
      "uvan": 987,
      "retary": 988,
      "akh": 989,
      "osition": 990,
      "Ġrele": 991,
      "ives": 992,
      "mitted": 993,
      "ĠThen": 994,
      "ĠDo": 995,
      "Ġcame": 996,
      "Ġquest": 997,
      "Ġsecond": 998,
      "Ġmon": 999,
      "Ġduring": 1000,
      "ject": 1001,
      "Ġwomen": 1002,
      "ĠPresident": 1003,
      "Ġregist": 1004,
      "uss": 1005,
      "rist": 1006,
      "Ġ201": 1007,
      "ĠTr": 1008,
      "puram": 1009,
      "Ġrun": 1010,
      "ĠKumar": 1011,
      "xt": 1012,
      "oint": 1013,
      "Ġalle": 1014,
      "Ġcontin": 1015,
      "Ġ8": 1016,
      "ĠVi": 1017,
      "ĠThiruvan": 1018,
      "oot": 1019,
      "Ġexam": 1020,
      "anthapuram": 1021,
      "ĠSab": 1022,
      "pect": 1023,
      "Ġnum": 1024,
      "Ġamong": 1025,
      "ried": 1026,
      "ual": 1027,
      "Ġfather": 1028,
      "Ġlast": 1029,
      "blem": 1030,
      "its": 1031,
      "ĠThiruvananthapuram": 1032,
      "Ġyet": 1033,
      "Ġpresent": 1034,
      "day": 1035,
      "ning": 1036,
      "Ġgirl": 1037,
      "osed": 1038,
      "ases": 1039,
      "ves": 1040,
      "ata": 1041,
      "Ġsent": 1042,
      "Ġpolit": 1043,
      "Ġob": 1044,
      "ĠSup": 1045,
      "Ġdiffere": 1046,
      "Ġav": 1047,
      "Ġconst": 1048,
      "ĠIf": 1049,
      "Ġwhere": 1050,
      "Ġmeeting": 1051,
      "Ġgiven": 1052,
      "Ġop": 1053,
      "Ġgoing": 1054,
      "Ġactor": 1055,
      "Ġmatter": 1056,
      "Ġmar": 1057,
      "Ġofficial": 1058,
      "Ġproblem": 1059,
      "Ġhome": 1060,
      "ĠState": 1061,
      "Ġpersons": 1062,
      "Ġsays": 1063,
      "Ġregistered": 1064,
      "Ġaway": 1065,
      "Ġph": 1066,
      "ĠMe": 1067,
      "Ġinvestigation": 1068,
      "Ġnever": 1069,
      "Ġopp": 1070,
      "Ġthings": 1071,
      "ĠChrist": 1072,
      "Ġunt": 1073,
      "Ġvis": 1074,
      "Ġaction": 1075,
      "ĠTamil": 1076,
      "ists": 1077,
      "uk": 1078,
      "ati": 1079,
      "Ġend": 1080,
      "Ġhouse": 1081,
      "ants": 1082,
      "Ġve": 1083,
      "chool": 1084,
      "Ġregard": 1085,
      "ges": 1086,
      "Ġ[": 1087,
      "velop": 1088,
      "Ġlove": 1089,
      "ĠUS": 1090,
      "Ġsame": 1091,
      "Ġrece": 1092,
      "Ġbu": 1093,
      "Ġcor": 1094,
      "Ġ12": 1095,
      "Ġrep": 1096,
      "Ġgot": 1097,
      "ause": 1098,
      "urre": 1099,
      "ss": 1100,
      "ĠWhy": 1101,
      "ote": 1102,
      "Ġdont": 1103,
      "act": 1104,
      "ĠMumb": 1105,
      "ued": 1106,
      "Ġdet": 1107,
      "ĠAt": 1108,
      "aw": 1109,
      "Ġcle": 1110,
      "riend": 1111,
      "Ġnumber": 1112,
      "Ġprotest": 1113,
      "Ġboth": 1114,
      "Ġson": 1115,
      "ĠMy": 1116,
      "Ġhigh": 1117,
      "Ġhead": 1118,
      "Ġbody": 1119,
      "kar": 1120,
      "Ġwrit": 1121,
      "Ġeach": 1122,
      "ĠMumbai": 1123,
      "Ġwin": 1124,
      "Ġ15": 1125,
      "inist": 1126,
      "oh": 1127,
      "Ġexp": 1128,
      "ived": 1129,
      "imes": 1130,
      "Ġlaw": 1131,
      "Ġmust": 1132,
      "Ġinter": 1133,
      "Ġimp": 1134,
      "ince": 1135,
      "Ġlong": 1136,
      "Ġlakh": 1137,
      "Ġdecision": 1138,
      "oor": 1139,
      "ics": 1140,
      "iew": 1141,
      "Ġothers": 1142,
      "air": 1143,
      "ey": 1144,
      "ues": 1145,
      "aking": 1146,
      "ĠWor": 1147,
      ").": 1148,
      "Ġlet": 1149,
      "eneral": 1150,
      "Ġmur": 1151,
      "Ġhealth": 1152,
      "Ġdone": 1153,
      "ĠPradesh": 1154,
      "Ġseats": 1155,
      "ular": 1156,
      "ĠVijay": 1157,
      "olog": 1158,
      "Ġbus": 1159,
      "Ġmother": 1160,
      "Ġcam": 1161,
      "ps": 1162,
      "ĠChin": 1163,
      "BI": 1164,
      "land": 1165,
      "Ġannoun": 1166,
      "Ġown": 1167,
      "Ġheav": 1168,
      "cess": 1169,
      "ĠHind": 1170,
      "ĠLe": 1171,
      "reme": 1172,
      "Ġreported": 1173,
      "ollege": 1174,
      "ched": 1175,
      "Ġimport": 1176,
      "Ġread": 1177,
      "ĠGovernment": 1178,
      "Ġref": 1179,
      "esus": 1180,
      "Ġconne": 1181,
      "ten": 1182,
      "Ġsur": 1183,
      "ility": 1184,
      "ĠOne": 1185,
      "ĠPar": 1186,
      "Ġgreat": 1187,
      "app": 1188,
      "ublic": 1189,
      "ĠTwo": 1190,
      "ĠPro": 1191,
      "mir": 1192,
      "ative": 1193,
      "Ġdays": 1194,
      "ĠEx": 1195,
      "Ġearth": 1196,
      "Ġfive": 1197,
      "Ġmuch": 1198,
      "ffe": 1199,
      "Ġhar": 1200,
      "ax": 1201,
      "ĠPe": 1202,
      ".\"\"\"": 1203,
      "ific": 1204,
      "Ġfire": 1205,
      "Ġchar": 1206,
      "cept": 1207,
      "ana": 1208,
      "ĠJesus": 1209,
      "ĠMany": 1210,
      "ism": 1211,
      "Ġinst": 1212,
      "Ġstarted": 1213,
      "rick": 1214,
      "Ġmonth": 1215,
      "ĠSabha": 1216,
      "ason": 1217,
      "Ġwife": 1218,
      "Ġpower": 1219,
      "bers": 1220,
      "part": 1221,
      "Ġstill": 1222,
      "Ġhappened": 1223,
      "ĠWhen": 1224,
      "Ġleaders": 1225,
      "ĠPM": 1226,
      "Ġappro": 1227,
      "Ġtem": 1228,
      "Ġtrans": 1229,
      "Ġasked": 1230,
      "Ġgive": 1231,
      "Ġformer": 1232,
      "Ġsupport": 1233,
      "Ġtal": 1234,
      "ĠCP": 1235,
      "Ġins": 1236,
      "ild": 1237,
      "omet": 1238,
      "ural": 1239,
      "ired": 1240,
      "Ġthink": 1241,
      "king": 1242,
      "mission": 1243,
      "Ġsy": 1244,
      "semb": 1245,
      "ages": 1246,
      "Ġincluding": 1247,
      "Ġland": 1248,
      "Ġwoman": 1249,
      "Ġmen": 1250,
      "Ġfiled": 1251,
      "Ġwent": 1252,
      "self": 1253,
      "Ġem": 1254,
      "eed": 1255,
      "ivers": 1256,
      "ĠKash": 1257,
      "ĠJust": 1258,
      "Ġvar": 1259,
      "ides": 1260,
      "Ġ9": 1261,
      "ices": 1262,
      "Ġdifferent": 1263,
      "Ġname": 1264,
      "Ġshow": 1265,
      "outh": 1266,
      "Ġheld": 1267,
      "gest": 1268,
      "20": 1269,
      "be": 1270,
      "ump": 1271,
      "Ġturn": 1272,
      "Ġanother": 1273,
      "Ġfriend": 1274,
      "ently": 1275,
      "ĠSe": 1276,
      "ĠThats": 1277,
      "Ġvide": 1278,
      "lim": 1279,
      "ĠAfter": 1280,
      "Ġbig": 1281,
      "oney": 1282,
      "Ġben": 1283,
      "vent": 1284,
      "ries": 1285,
      "Ġused": 1286,
      "Ġissue": 1287,
      "ĠAm": 1288,
      "ĠKashmir": 1289,
      "ĠSupreme": 1290,
      "Ġcre": 1291,
      "Ġsitu": 1292,
      "ĠNational": 1293,
      "tle": 1294,
      "ĠMus": 1295,
      "Ġsign": 1296,
      "Ġbook": 1297,
      "Ġsoon": 1298,
      "ĠSec": 1299,
      "ĠEng": 1300,
      "cer": 1301,
      "arent": 1302,
      "laim": 1303,
      "Ġopen": 1304,
      "Ġmark": 1305,
      "Ġstudents": 1306,
      "Ġhum": 1307,
      "ĠMed": 1308,
      "ode": 1309,
      "Ġincre": 1310,
      "ĠAct": 1311,
      "sembly": 1312,
      "ĠCent": 1313,
      "ĠZ": 1314,
      "Ġwick": 1315,
      "augh": 1316,
      "pend": 1317,
      "Ġspot": 1318,
      "ird": 1319,
      "Ġdr": 1320,
      "pped": 1321,
      "ract": 1322,
      "ror": 1323,
      "Ġstand": 1324,
      "ished": 1325,
      "Ġcond": 1326,
      "Ġlar": 1327,
      "ared": 1328,
      "Ġquestion": 1329,
      "urity": 1330,
      "Ġreturn": 1331,
      "rol": 1332,
      "Ġavail": 1333,
      "ale": 1334,
      "ering": 1335,
      "ĠEvery": 1336,
      "Ġdead": 1337,
      "Ġrequ": 1338,
      "Ġdevelop": 1339,
      "Ġocc": 1340,
      "con": 1341,
      "Ġfore": 1342,
      "Ġyears": 1343,
      "Ġext": 1344,
      "Ġnext": 1345,
      "engal": 1346,
      "Ġbest": 1347,
      "Ġmurder": 1348,
      ",\"\"": 1349,
      "ament": 1350,
      "urther": 1351,
      "itness": 1352,
      "ĠShah": 1353,
      "els": 1354,
      "not": 1355,
      "Ġdue": 1356,
      "Ġmembers": 1357,
      "Ġheart": 1358,
      "ached": 1359,
      "urrent": 1360,
      "ified": 1361,
      "Ġschool": 1362,
      "ĠLok": 1363,
      "ĠBengal": 1364,
      "Ġfac": 1365,
      "Ġprom": 1366,
      "lier": 1367,
      "ways": 1368,
      "Ġvir": 1369,
      "Ġbelieve": 1370,
      "body": 1371,
      "ized": 1372,
      "na": 1373,
      "Ġword": 1374,
      "ĠChen": 1375,
      "sw": 1376,
      "Ġdaugh": 1377,
      "Ġcalled": 1378,
      "uc": 1379,
      "vi": 1380,
      "ajor": 1381,
      "hic": 1382,
      "ĠUnion": 1383,
      "ĠWho": 1384,
      "Ġbecause": 1385,
      "ĠBible": 1386,
      "ĠWorld": 1387,
      "ala": 1388,
      "Ġbo": 1389,
      "Ġorder": 1390,
      "ately": 1391,
      "The": 1392,
      "Ġch": 1393,
      "Ġprog": 1394,
      "Ġdon": 1395,
      "Ġcases": 1396,
      "ĠBoth": 1397,
      "Ġimportant": 1398,
      "ute": 1399,
      "any": 1400,
      "Ġgl": 1401,
      "hile": 1402,
      "ended": 1403,
      "az": 1404,
      "book": 1405,
      "adu": 1406,
      "Ġ11": 1407,
      "Ġbeg": 1408,
      "Ġtreat": 1409,
      "eth": 1410,
      "Ġsecretary": 1411,
      "uthor": 1412,
      "Ġcomple": 1413,
      "Ġsix": 1414,
      "ording": 1415,
      "Ġnews": 1416,
      "Ġnear": 1417,
      "ĠJam": 1418,
      "Ġdemand": 1419,
      "Ġroad": 1420,
      "ĠTe": 1421,
      "hal": 1422,
      "Ġple": 1423,
      "ĠHigh": 1424,
      "Ġcannot": 1425,
      "Ġbrother": 1426,
      "Ġconnection": 1427,
      "Ġallow": 1428,
      "atch": 1429,
      "asht": 1430,
      "ĠMad": 1431,
      "Ġlist": 1432,
      "ĠGu": 1433,
      "Ġvehic": 1434,
      "ĠCBI": 1435,
      "Ġnow": 1436,
      "ĠIm": 1437,
      "ĠChenn": 1438,
      "Ġnothing": 1439,
      "Ġsim": 1440,
      "Ġposs": 1441,
      "ior": 1442,
      "ines": 1443,
      "ope": 1444,
      "Ġfew": 1445,
      "hik": 1446,
      "Ġlot": 1447,
      "ock": 1448,
      "alam": 1449,
      "Ġed": 1450,
      "Ġ14": 1451,
      "war": 1452,
      "ĠSome": 1453,
      "ready": 1454,
      "Ġair": 1455,
      "Ġsever": 1456,
      "Ġtruth": 1457,
      "Ġvideo": 1458,
      "Ġdirected": 1459,
      "Ġtest": 1460,
      "Ġupon": 1461,
      "acebook": 1462,
      "Ġ200": 1463,
      "icip": 1464,
      "Ġlaun": 1465,
      "Ġlit": 1466,
      "Ġclaim": 1467,
      "stand": 1468,
      "Ġform": 1469,
      "Ġdel": 1470,
      "arents": 1471,
      "arch": 1472,
      "Ġreleased": 1473,
      "angu": 1474,
      "ploy": 1475,
      "Ġaccident": 1476,
      "andid": 1477,
      "Ġarea": 1478,
      "Ġseveral": 1479,
      "Ġtold": 1480,
      "ains": 1481,
      "ffic": 1482,
      "ĠThese": 1483,
      "ts": 1484,
      "elf": 1485,
      "Ġsl": 1486,
      "aray": 1487,
      "ĠFacebook": 1488,
      "Ġbecome": 1489,
      "Ġrole": 1490,
      "ving": 1491,
      "men": 1492,
      "Ġalready": 1493,
      "ait": 1494,
      "iol": 1495,
      "Ġserious": 1496,
      "Ġaround": 1497,
      "ĠKhan": 1498,
      "aka": 1499,
      "iet": 1500,
      "Ġsituation": 1501,
      "Ġsus": 1502,
      "ency": 1503,
      "Ġful": 1504,
      "orn": 1505,
      "Ġrest": 1506,
      "Ġelections": 1507,
      "Ġpet": 1508,
      "ily": 1509,
      "ashtra": 1510,
      "iness": 1511,
      "pected": 1512,
      "Ġjud": 1513,
      "Ġput": 1514,
      "Ġviol": 1515,
      "Ġavailable": 1516,
      "Ġansw": 1517,
      "LA": 1518,
      "ĠShar": 1519,
      "Ġwrong": 1520,
      "ĠBank": 1521,
      "Ġclear": 1522,
      "Ġfind": 1523,
      "Ġfaith": 1524,
      "ĠSa": 1525,
      "Ġ18": 1526,
      "Ġmoney": 1527,
      "Ġbeh": 1528,
      "Ġ25": 1529,
      "ĠChristian": 1530,
      "Ġspecial": 1531,
      "wards": 1532,
      "Ġruns": 1533,
      "ross": 1534,
      "ĠKarn": 1535,
      "my": 1536,
      "ĠChina": 1537,
      "ature": 1538,
      "ĠTo": 1539,
      "Ġalleged": 1540,
      "Ġmajor": 1541,
      "inistry": 1542,
      "ĠNot": 1543,
      "Ġanything": 1544,
      "Ġcandid": 1545,
      "mitte": 1546,
      "Ġfr": 1547,
      "Ġseen": 1548,
      "ani": 1549,
      "ĠMahar": 1550,
      "ĠSen": 1551,
      "Ġcity": 1552,
      "Ġcol": 1553,
      "ternational": 1554,
      "Ġpolitical": 1555,
      "ĠCon": 1556,
      "Ġcurrent": 1557,
      "ience": 1558,
      "gr": 1559,
      "Ġdidnt": 1560,
      "iving": 1561,
      "itiz": 1562,
      "Ġorgan": 1563,
      "Ġexper": 1564,
      "ĠAmit": 1565,
      "Ġwhy": 1566,
      "mon": 1567,
      "Ġnor": 1568,
      "Ġpriv": 1569,
      "ury": 1570,
      "ĠQ": 1571,
      "ataka": 1572,
      "Ġreal": 1573,
      "Ġpoint": 1574,
      "Ġcondu": 1575,
      "Ġtoget": 1576,
      "Ġtogether": 1577,
      "Ġspir": 1578,
      "Ġrelig": 1579,
      "Ġreceived": 1580,
      "Ġcrick": 1581,
      "Ġnational": 1582,
      "Ġ13": 1583,
      "ĠAust": 1584,
      "Ġkeep": 1585,
      "Ġlost": 1586,
      "ĠMaharashtra": 1587,
      "Ġtimes": 1588,
      "ek": 1589,
      "com": 1590,
      "ĠDay": 1591,
      "Ġcare": 1592,
      "Ġpur": 1593,
      "ush": 1594,
      "conom": 1595,
      "Ġresult": 1596,
      "Ġthing": 1597,
      "Ġrain": 1598,
      "ĠAf": 1599,
      "Ġpublic": 1600,
      "Ġvisit": 1601,
      "Ġsucc": 1602,
      "ĠKarnataka": 1603,
      "Ġleft": 1604,
      "selves": 1605,
      "Ġsk": 1606,
      "eal": 1607,
      "Ġdef": 1608,
      "river": 1609,
      "Ġfurther": 1610,
      "Ġhist": 1611,
      "ertain": 1612,
      "Ġdiscuss": 1613,
      "rying": 1614,
      "mi": 1615,
      "Ġsomet": 1616,
      "ination": 1617,
      "Ġtreatment": 1618,
      "ris": 1619,
      "Ġconsid": 1620,
      "Ġcrit": 1621,
      "ĠHim": 1622,
      "mittee": 1623,
      "idence": 1624,
      "medi": 1625,
      "ph": 1626,
      "Ġfood": 1627,
      "ined": 1628,
      "Ġinformed": 1629,
      "Ġtre": 1630,
      "ember": 1631,
      "Ġeng": 1632,
      "ĠMLA": 1633,
      "iversity": 1634,
      "Ġunto": 1635,
      "Ġparents": 1636,
      "Ġalong": 1637,
      "ctors": 1638,
      "cha": 1639,
      "aged": 1640,
      "Ġannounced": 1641,
      "ĠPart": 1642,
      "ĠAustral": 1643,
      "Ġsing": 1644,
      "reen": 1645,
      "Ġdam": 1646,
      "ails": 1647,
      "Ġbre": 1648,
      "ĠThree": 1649,
      "ĠShi": 1650,
      "ention": 1651,
      "chi": 1652,
      "stem": 1653,
      "elie": 1654,
      "band": 1655,
      "Ġstates": 1656,
      "Ġtrue": 1657,
      "dom": 1658,
      "Ġsince": 1659,
      "Ġsw": 1660,
      "ĠOur": 1661,
      "arat": 1662,
      "oup": 1663,
      "Ġdaughter": 1664,
      "uck": 1665,
      "Ġadmitted": 1666,
      "ither": 1667,
      "the": 1668,
      "ĠMedical": 1669,
      "Ġden": 1670,
      "Ġadded": 1671,
      "Ġchange": 1672,
      "Ġmil": 1673,
      "rish": 1674,
      "Ġvict": 1675,
      "tal": 1676,
      "Ġsuff": 1677,
      "Ġthird": 1678,
      "Ġfun": 1679,
      "Ġfilms": 1680,
      "Ġoper": 1681,
      "ĠCollege": 1682,
      "ĠHere": 1683,
      "Ġjoin": 1684,
      "ĠRes": 1685,
      "Ġ16": 1686,
      "ĠGods": 1687,
      "nce": 1688,
      "Ġmight": 1689,
      "erv": 1690,
      "ĠMuslim": 1691,
      "Ġfollowing": 1692,
      "ner": 1693,
      "Ġadv": 1694,
      "erest": 1695,
      "ĠTest": 1696,
      "Ġdest": 1697,
      "Ġleg": 1698,
      "Ġreason": 1699,
      "Ġproject": 1700,
      "Ġey": 1701,
      "Ġuse": 1702,
      "eld": 1703,
      "ĠWith": 1704,
      "Ġauthor": 1705,
      "Ġbehind": 1706,
      "ĠPat": 1707,
      "Ġyoung": 1708,
      "Ġwithout": 1709,
      "Ġart": 1710,
      "ches": 1711,
      "Ġlangu": 1712,
      "ored": 1713,
      "ours": 1714,
      "uries": 1715,
      "Ġterror": 1716,
      "Ġpop": 1717,
      "stit": 1718,
      "Ġmus": 1719,
      "Ġtell": 1720,
      "ourn": 1721,
      "ĠBe": 1722,
      "Ġpoll": 1723,
      "Ġexpl": 1724,
      "Ġfear": 1725,
      "Ġsecurity": 1726,
      "Ġnam": 1727,
      "Ġhowever": 1728,
      "Ġbat": 1729,
      "Ġsure": 1730,
      "Ġplac": 1731,
      "ples": 1732,
      "ones": 1733,
      "Ġimmedi": 1734,
      "Ġinf": 1735,
      "Ġgra": 1736,
      "chn": 1737,
      "tar": 1738,
      "Ġye": 1739,
      "ĠAir": 1740,
      "ery": 1741,
      "Ġmin": 1742,
      "Ġmod": 1743,
      "ele": 1744,
      "ĠSon": 1745,
      "Ġche": 1746,
      "Ġknown": 1747,
      "Ġcondition": 1748,
      "Ġacross": 1749,
      "Ġcomes": 1750,
      "usband": 1751,
      "Ġreve": 1752,
      "Ġnight": 1753,
      "go": 1754,
      "Ġunderstand": 1755,
      "CC": 1756,
      "Ġrespons": 1757,
      "less": 1758,
      "ually": 1759,
      "Ġeas": 1760,
      "ĠPeople": 1761,
      "Ġled": 1762,
      "Ġbuild": 1763,
      "Ġvarious": 1764,
      "Ġbank": 1765,
      "Ġver": 1766,
      "reed": 1767,
      "ĠJustice": 1768,
      "ĠIsra": 1769,
      "ĠMalay": 1770,
      "Ġfeel": 1771,
      "ĠCPM": 1772,
      "of": 1773,
      "Ġsuccess": 1774,
      "Ġevent": 1775,
      "ship": 1776,
      "Ġaccount": 1777,
      "Ġactress": 1778,
      "ike": 1779,
      "Ġcust": 1780,
      "Ġ50": 1781,
      "itizens": 1782,
      "ffect": 1783,
      "Ġmet": 1784,
      "Ġstrong": 1785,
      "ling": 1786,
      "que": 1787,
      "ĠTrump": 1788,
      "Ġofficials": 1789,
      "uru": 1790,
      "ology": 1791,
      "Ġface": 1792,
      "Ġold": 1793,
      "bs": 1794,
      "Ġlod": 1795,
      "olly": 1796,
      "ias": 1797,
      "Ġactiv": 1798,
      "ointed": 1799,
      "Ġever": 1800,
      "ĠAcc": 1801,
      "Ġmove": 1802,
      "ĠMore": 1803,
      "Ġprop": 1804,
      "uty": 1805,
      "Ġcause": 1806,
      "aring": 1807,
      "Ġ.": 1808,
      "Ġrecord": 1809,
      "Ġelection": 1810,
      "Ġgrow": 1811,
      "wood": 1812,
      "ĠIsrael": 1813,
      "ressed": 1814,
      "Ġcountries": 1815,
      "Ġphone": 1816,
      "uge": 1817,
      "Ġissued": 1818,
      "Ġexc": 1819,
      "Ġinterest": 1820,
      "Ġprobe": 1821,
      "Ġ17": 1822,
      "Ġdirector": 1823,
      "Ġwar": 1824,
      "Ġbring": 1825,
      "ĠJehovahs": 1826,
      "ield": 1827,
      "Ġspok": 1828,
      "aram": 1829,
      "ging": 1830,
      "Ġpric": 1831,
      "ms": 1832,
      "Ġord": 1833,
      "inaray": 1834,
      "idd": 1835,
      "Ġbenef": 1836,
      "Ġcapt": 1837,
      "Ġcolle": 1838,
      "Ġtop": 1839,
      "Ġel": 1840,
      "ĠSouth": 1841,
      "Ġtotal": 1842,
      "wal": 1843,
      "itha": 1844,
      "ĠFin": 1845,
      "Ġpray": 1846,
      "hand": 1847,
      "Ġcoming": 1848,
      "ĠForm": 1849,
      "ĠBal": 1850,
      "oles": 1851,
      "ott": 1852,
      "Ġinformation": 1853,
      "lish": 1854,
      "Ġcompany": 1855,
      "aul": 1856,
      "ke": 1857,
      "iver": 1858,
      "engers": 1859,
      "ĠShiv": 1860,
      "Ġmatch": 1861,
      "ĠKochi": 1862,
      "ĠOpp": 1863,
      "ĠMost": 1864,
      "ĠPun": 1865,
      "ĠTel": 1866,
      "ĠSc": 1867,
      "Ġsystem": 1868,
      "Ġwhom": 1869,
      "Ġpati": 1870,
      "eration": 1871,
      "Ġdoing": 1872,
      "Ġfight": 1873,
      "Ġhusband": 1874,
      "aled": 1875,
      "ĠNadu": 1876,
      "Ġhold": 1877,
      "era": 1878,
      "meric": 1879,
      "ĠDep": 1880,
      "Ġbecame": 1881,
      "gation": 1882,
      "Ġeconom": 1883,
      "Ġ&": 1884,
      "ĠCor": 1885,
      "Ġbas": 1886,
      "ams": 1887,
      "ĠBi": 1888,
      "ĠDon": 1889,
      "ying": 1890,
      "Ġdise": 1891,
      "liament": 1892,
      "ĠOr": 1893,
      "ĠVijayan": 1894,
      "Ġsaying": 1895,
      "Ġhuman": 1896,
      "ushed": 1897,
      "gar": 1898,
      "Ġgeneral": 1899,
      "inarayi": 1900,
      "'m": 1901,
      "Ġplan": 1902,
      "Ġsmall": 1903,
      "Ġconfir": 1904,
      "'re": 1905,
      "br": 1906,
      "ĠPinarayi": 1907,
      "Ġmedical": 1908,
      "zhik": 1909,
      "Ġcontinue": 1910,
      "Ġprote": 1911,
      "anka": 1912,
      "ript": 1913,
      "ĠSharma": 1914,
      "ĠParty": 1915,
      "ĠAustralia": 1916,
      "Ġreached": 1917,
      "Ġest": 1918,
      "ĠHospital": 1919,
      "Ġseries": 1920,
      "Ġlearn": 1921,
      "ĠBang": 1922,
      "ĠCommission": 1923,
      "Ġsomething": 1924,
      "ĠGuj": 1925,
      "jected": 1926,
      "ĠSan": 1927,
      "zhikode": 1928,
      "Ġkind": 1929,
      "Ġrev": 1930,
      "Ġgave": 1931,
      "Ġshared": 1932,
      "Ġprivate": 1933,
      "Ġmusic": 1934,
      "Ġlodged": 1935,
      "acher": 1936,
      "ĠMalayalam": 1937,
      "has": 1938,
      "Ġcap": 1939,
      "Ġbetter": 1940,
      "Ġsal": 1941,
      "ĠFormer": 1942,
      "soci": 1943,
      "ĠMP": 1944,
      "Ġbrought": 1945,
      "Ġwickets": 1946,
      "adi": 1947,
      "oses": 1948,
      "ĠKozhikode": 1949,
      "Ġtri": 1950,
      "Ġgone": 1951,
      "Ġdeb": 1952,
      "Ġtemple": 1953,
      "belie": 1954,
      "Ġcommun": 1955,
      "uz": 1956,
      "ĠEle": 1957,
      "Ġmind": 1958,
      "amb": 1959,
      "mu": 1960,
      "icide": 1961,
      "Ġshi": 1962,
      "Ġresign": 1963,
      "Ġfeat": 1964,
      "Ġrul": 1965,
      "pr": 1966,
      "Ġremain": 1967,
      "19": 1968,
      "while": 1969,
      "ffair": 1970,
      "ĠOpposition": 1971,
      "ollywood": 1972,
      "aid": 1973,
      "ality": 1974,
      "Ġprogram": 1975,
      "Ġdiv": 1976,
      "itter": 1977,
      "Ġeduc": 1978,
      "ĠAssembly": 1979,
      "Ġview": 1980,
      "Ġalways": 1981,
      "olved": 1982,
      "Ġmain": 1983,
      "ĠUt": 1984,
      "Ġdev": 1985,
      "Ġmis": 1986,
      "edd": 1987,
      "ortun": 1988,
      "ĠKoh": 1989,
      "ĠSpe": 1990,
      "Ġ30": 1991,
      "Ġearlier": 1992,
      "Ġident": 1993,
      "inal": 1994,
      "Ġpict": 1995,
      "ailed": 1996,
      "Ġvot": 1997,
      "Ġwritten": 1998,
      "Ġproduced": 1999,
      "ĠWest": 2000,
      "Ġfriends": 2001,
      "Ġparticip": 2002,
      "Ġlive": 2003,
      "ĠFr": 2004,
      "Ġfinal": 2005,
      "ept": 2006,
      "ibility": 2007,
      "ĠPra": 2008,
      "ĠWhats": 2009,
      "Ġvill": 2010,
      "ĠTw": 2011,
      "Ġprocess": 2012,
      "Ġsen": 2013,
      "Ġpeace": 2014,
      "ung": 2015,
      "Ġneeds": 2016,
      "Ġprice": 2017,
      "Ġpay": 2018,
      "Ġhig": 2019,
      "Ġmess": 2020,
      "abad": 2021,
      "ĠAdd": 2022,
      "Ġprep": 2023,
      "rup": 2024,
      "Ġstay": 2025,
      "ĠKohli": 2026,
      "ĠUniversity": 2027,
      "Ġimmediately": 2028,
      "ĠJammu": 2029,
      "akes": 2030,
      "cing": 2031,
      "Ġval": 2032,
      "oon": 2033,
      "ops": 2034,
      "cent": 2035,
      "Ġbased": 2036,
      "ĠCan": 2037,
      "Ġdecided": 2038,
      "Ġcost": 2039,
      "Ġfall": 2040,
      "Ġgold": 2041,
      "ĠHome": 2042,
      "Ġang": 2043,
      "Ġwarn": 2044,
      "anwhile": 2045,
      "gy": 2046,
      "overed": 2047,
      "lam": 2048,
      "Ġmor": 2049,
      "Ġcertain": 2050,
      "Ġjob": 2051,
      "ĠGujarat": 2052,
      "Ġstory": 2053,
      "Ġcurrently": 2054,
      "ĠJos": 2055,
      "Ġstatement": 2056,
      "Ġlo": 2057,
      "Ġinjuries": 2058,
      "Ġes": 2059,
      "inet": 2060,
      "ĠPri": 2061,
      "ient": 2062,
      "Ġperform": 2063,
      "ĠGeneral": 2064,
      "ences": 2065,
      "por": 2066,
      "reng": 2067,
      "Ġthought": 2068,
      "Ġexpected": 2069,
      "cies": 2070,
      "Ġdetails": 2071,
      "Ġpun": 2072,
      "Ġap": 2073,
      "ĠMar": 2074,
      "ĠHer": 2075,
      "Ġgen": 2076,
      "ned": 2077,
      "Ġdepart": 2078,
      "ĠLet": 2079,
      "ĠShri": 2080,
      "Ġstr": 2081,
      "ĠKing": 2082,
      "Ġtrain": 2083,
      "Ġhit": 2084,
      "Ġcontest": 2085,
      "illion": 2086,
      "Ġrelations": 2087,
      "Ġpri": 2088,
      "ĠUttar": 2089,
      "Ġcricket": 2090,
      "ĠFollow": 2091,
      "ĠKann": 2092,
      "Ġlight": 2093,
      "ĠChand": 2094,
      "iful": 2095,
      "Ġpress": 2096,
      "Ġinclude": 2097,
      "Ġtoday": 2098,
      "Ġhistory": 2099,
      "ĠMohan": 2100,
      "ĠMay": 2101,
      "ĠJay": 2102,
      "ĠDont": 2103,
      "ration": 2104,
      "ĠRamesh": 2105,
      "Ġanswer": 2106,
      "Ġ100": 2107,
      "Ġsuicide": 2108,
      "hu": 2109,
      "ĠHealth": 2110,
      "ĠOther": 2111,
      "Ġcamp": 2112,
      "Ġworkers": 2113,
      "Ġlaunched": 2114,
      "Ġage": 2115,
      "irus": 2116,
      "ĠSecretary": 2117,
      "wam": 2118,
      "Ġdies": 2119,
      "Ġdevelopment": 2120,
      "ĠCM": 2121,
      "Ġproblems": 2122,
      "ĠWhere": 2123,
      "oura": 2124,
      "ĠUnited": 2125,
      "Ġsold": 2126,
      "Ġspeak": 2127,
      "Ġconcer": 2128,
      "Ġstars": 2129,
      "Ġlevel": 2130,
      "Ġstreng": 2131,
      "int": 2132,
      "Ġrespect": 2133,
      "ĠWill": 2134,
      "oms": 2135,
      "hya": 2136,
      "ĠMinistry": 2137,
      "ude": 2138,
      "ĠSal": 2139,
      "abinet": 2140,
      "Ġfront": 2141,
      "Ġaward": 2142,
      "ĠOf": 2143,
      "Ġareas": 2144,
      "hest": 2145,
      "Ġmot": 2146,
      "Ġbro": 2147,
      "Ġdou": 2148,
      "weet": 2149,
      "irc": 2150,
      "icle": 2151,
      "Ġequ": 2152,
      "ĠDire": 2153,
      "Ġmarket": 2154,
      "ĠIndias": 2155,
      "ĠThose": 2156,
      "Ġplayed": 2157,
      "Ġviral": 2158,
      "ĠAre": 2159,
      "Ġweek": 2160,
      "Ġdep": 2161,
      "uted": 2162,
      "ĠMeanwhile": 2163,
      "Ġhard": 2164,
      "Ġdra": 2165,
      "Ġreally": 2166,
      "Ġenc": 2167,
      "nel": 2168,
      "ĠAg": 2169,
      "ĠVir": 2170,
      "ĠNe": 2171,
      "Ġlikely": 2172,
      "itnesses": 2173,
      "Ġpar": 2174,
      "Ġexample": 2175,
      "iety": 2176,
      "avirus": 2177,
      "ĠEar": 2178,
      "ĠSat": 2179,
      "Ġchall": 2180,
      "Ġmaking": 2181,
      "Ġfree": 2182,
      "'ll": 2183,
      "nan": 2184,
      "Ġinit": 2185,
      "ĠEngland": 2186,
      "Ġ24": 2187,
      "ows": 2188,
      "Ġboy": 2189,
      "onavirus": 2190,
      "Ġwords": 2191,
      "Ġdeal": 2192,
      "oved": 2193,
      "Ġeverything": 2194,
      "Ġdistricts": 2195,
      "Ġpetition": 2196,
      "ĠBollywood": 2197,
      "Ġstep": 2198,
      "Ġclose": 2199,
      "Ġeyes": 2200,
      "by": 2201,
      "ta": 2202,
      "atives": 2203,
      "Ġbad": 2204,
      "ĠPl": 2205,
      "ĠDr": 2206,
      "Ġthou": 2207,
      "ĠSun": 2208,
      "mad": 2209,
      "Ġallowed": 2210,
      "ledge": 2211,
      "Ġhal": 2212,
      "onse": 2213,
      "Ġsol": 2214,
      "ĠWom": 2215,
      "asthan": 2216,
      "atic": 2217,
      "Ġking": 2218,
      "quir": 2219,
      "ĠPaul": 2220,
      "ruction": 2221,
      "sequ": 2222,
      "ĠFollowing": 2223,
      "Ġask": 2224,
      "ffairs": 2225,
      "Ġrushed": 2226,
      "Ġlittle": 2227,
      "99": 2228,
      "aut": 2229,
      "Ġfoot": 2230,
      "ouses": 2231,
      "Ġlocal": 2232,
      "Ġshort": 2233,
      "Ġhappy": 2234,
      "Ġservice": 2235,
      "adav": 2236,
      "Ġmarried": 2237,
      "his": 2238,
      "ids": 2239,
      "ĠStates": 2240,
      "Ġtaking": 2241,
      "Ġdisp": 2242,
      "Ġbegan": 2243,
      "ĠJan": 2244,
      "ĠChennai": 2245,
      "icult": 2246,
      "Ġchanged": 2247,
      "ese": 2248,
      "ĠRajasthan": 2249,
      "line": 2250,
      "Ġstar": 2251,
      "ĠPre": 2252,
      "ara": 2253,
      "io": 2254,
      "Ġcele": 2255,
      "Ġrevealed": 2256,
      "ĠX": 2257,
      "Ġfell": 2258,
      "Ġhands": 2259,
      "Ġlives": 2260,
      "ĠFour": 2261,
      "pted": 2262,
      "yer": 2263,
      "Ġanyone": 2264,
      "Ġsong": 2265,
      "jee": 2266,
      "Ġtax": 2267,
      "Ġgroup": 2268,
      "erc": 2269,
      "ternal": 2270,
      "Ġattended": 2271,
      "ĠDist": 2272,
      "ĠApp": 2273,
      "ĠHindi": 2274,
      "ĠAmeric": 2275,
      "orts": 2276,
      "Ġdisease": 2277,
      "ĠTwitter": 2278,
      "riage": 2279,
      "Ġemploy": 2280,
      "Ġvehicles": 2281,
      "Ġpan": 2282,
      "ĠOnly": 2283,
      "Ġpast": 2284,
      "Ġprovided": 2285,
      "ilar": 2286,
      "Ġwait": 2287,
      "ĠTha": 2288,
      "bed": 2289,
      "aster": 2290,
      "ĠBl": 2291,
      "Ġaw": 2292,
      "ĠBhar": 2293,
      "ĠSri": 2294,
      "sh": 2295,
      "Ġcho": 2296,
      "iance": 2297,
      "Ġwr": 2298,
      "ĠCup": 2299,
      "hab": 2300,
      "ession": 2301,
      "ohn": 2302,
      "year": 2303,
      "fted": 2304,
      "Ġworking": 2305,
      "Ġwhe": 2306,
      "Ġpossible": 2307,
      "going": 2308,
      "Ġindeed": 2309,
      "cts": 2310,
      "Ġfield": 2311,
      "Ġready": 2312,
      "ourse": 2313,
      "ners": 2314,
      "Ġstated": 2315,
      "iah": 2316,
      "Ġsingle": 2317,
      "ĠCentral": 2318,
      "ĠLater": 2319,
      "ising": 2320,
      "side": 2321,
      "ĠHar": 2322,
      "Ġfunction": 2323,
      "gre": 2324,
      "rop": 2325,
      "ises": 2326,
      "ĠAccording": 2327,
      "head": 2328,
      "rif": 2329,
      "ti": 2330,
      "Ġshot": 2331,
      "ĠSam": 2332,
      "Ġrejected": 2333,
      "Ġmiss": 2334,
      "ali": 2335,
      "Ġplaces": 2336,
      "Ġthough": 2337,
      "ĠWh": 2338,
      "Ġbail": 2339,
      "Ġsup": 2340,
      "Ġhimself": 2341,
      "Ġrespond": 2342,
      "agar": 2343,
      "ju": 2344,
      "Ġleave": 2345,
      "Ġfull": 2346,
      "udd": 2347,
      "ĠYadav": 2348,
      "Ġdifficult": 2349,
      "Ġcreated": 2350,
      "ĠFil": 2351,
      "Ġcandidate": 2352,
      "ĠTheir": 2353,
      "Ġhuge": 2354,
      "Ġones": 2355,
      "ĠJohn": 2356,
      "Ġspread": 2357,
      "Ġprices": 2358,
      "eous": 2359,
      "Ġcirc": 2360,
      "Ġforg": 2361,
      "erence": 2362,
      "Ġaut": 2363,
      "ically": 2364,
      "Ġwal": 2365,
      "Ġyouth": 2366,
      "Ġcommittee": 2367,
      "ĠRan": 2368,
      "Ġhon": 2369,
      "Ġamount": 2370,
      "ĠRo": 2371,
      "lal": 2372,
      "ize": 2373,
      "Ġdriver": 2374,
      "ancial": 2375,
      "Ġ21": 2376,
      "rap": 2377,
      "ĠMam": 2378,
      "ada": 2379,
      "Ġstudy": 2380,
      "Ġoccur": 2381,
      "Ġroles": 2382,
      "ĠSp": 2383,
      "ĠParliament": 2384,
      "eds": 2385,
      "Ġtrying": 2386,
      "Ġside": 2387,
      "Ġable": 2388,
      "ĠKap": 2389,
      "ĠMess": 2390,
      "Ġcult": 2391,
      "Ġengine": 2392,
      "ify": 2393,
      "Ġloss": 2394,
      "Ġuntil": 2395,
      "ĠCl": 2396,
      "ĠSub": 2397,
      "Ġ22": 2398,
      "Ġheard": 2399,
      "jab": 2400,
      "Ġthemselves": 2401,
      "Ġpo": 2402,
      "to": 2403,
      "ĠSure": 2404,
      "Ġphot": 2405,
      "lished": 2406,
      "Ġblood": 2407,
      "Ġelse": 2408,
      "Ġlarge": 2409,
      "DI": 2410,
      "Ġdestro": 2411,
      "Ġresponse": 2412,
      "Ġopt": 2413,
      "ĠAfric": 2414,
      "ulation": 2415,
      "Ġnation": 2416,
      "ĠEn": 2417,
      "Ġfav": 2418,
      "Ġshifted": 2419,
      "irth": 2420,
      "ites": 2421,
      "Ġheavy": 2422,
      "Ġquestions": 2423,
      "Ġcast": 2424,
      "Ġraised": 2425,
      "Ġclaimed": 2426,
      "het": 2427,
      "Ġdecla": 2428,
      "ousand": 2429,
      "Ġcollege": 2430,
      "Ġstri": 2431,
      "ĠRuss": 2432,
      "Ġtor": 2433,
      "ulam": 2434,
      "Ġfeatures": 2435,
      "ĠMoham": 2436,
      "Ġeffect": 2437,
      "quiry": 2438,
      "Ġteacher": 2439,
      "Ġsister": 2440,
      "We": 2441,
      "Ġseven": 2442,
      "Ġtechn": 2443,
      "Ġcoun": 2444,
      "ians": 2445,
      "ID": 2446,
      "ees": 2447,
      "ĠPal": 2448,
      "Ġoffice": 2449,
      "aching": 2450,
      "ĠStud": 2451,
      "inem": 2452,
      "Ġdrink": 2453,
      "Ġpoints": 2454,
      "ron": 2455,
      "Ġexcept": 2456,
      "Ġdemanded": 2457,
      "ĠDistrict": 2458,
      "ugu": 2459,
      "50": 2460,
      "Ġindust": 2461,
      "ĠPunjab": 2462,
      "ĠHy": 2463,
      "Ġeasy": 2464,
      "Ġresc": 2465,
      "ruct": 2466,
      "pper": 2467,
      "Ġpassed": 2468,
      "Ġmilit": 2469,
      "Ġcommand": 2470,
      "Ġattend": 2471,
      "ĠIP": 2472,
      "Ġknowledge": 2473,
      "Ġprof": 2474,
      "ĠDav": 2475,
      "ĠPer": 2476,
      "Ġsearch": 2477,
      "nder": 2478,
      "sc": 2479,
      "omas": 2480,
      "Ġelect": 2481,
      "Ġcontrol": 2482,
      "leep": 2483,
      "Ġrelease": 2484,
      "ĠGr": 2485,
      "Ġinternational": 2486,
      "vere": 2487,
      "Ġsou": 2488,
      "Ġpain": 2489,
      "Ġlargest": 2490,
      "ĠRep": 2491,
      "Ġsex": 2492,
      "Ġservices": 2493,
      "rishnan": 2494,
      "ĠCo": 2495,
      "Ġbegin": 2496,
      "iod": 2497,
      "ĠYes": 2498,
      "ĠArmy": 2499,
      "Ġassembly": 2500,
      "Ġeff": 2501,
      "ĠYour": 2502,
      "Ġgrant": 2503,
      "Ġ40": 2504,
      "plement": 2505,
      "Ġissues": 2506,
      "Ġbusiness": 2507,
      "Ġstation": 2508,
      "asons": 2509,
      "ories": 2510,
      "Ġmean": 2511,
      "Ġeducation": 2512,
      "oud": 2513,
      "Ġmom": 2514,
      "Ġmeans": 2515,
      "Ġaddress": 2516,
      "uture": 2517,
      "Ġcaptain": 2518,
      "Ġshoot": 2519,
      "ule": 2520,
      "Ġmarriage": 2521,
      "Ġcou": 2522,
      "ĠTheres": 2523,
      "Ġoil": 2524,
      "ĠCentre": 2525,
      "gations": 2526,
      "ĠBab": 2527,
      "Ġaccom": 2528,
      "ĠTelugu": 2529,
      "Ġlanguage": 2530,
      "Ġknows": 2531,
      "ney": 2532,
      "Ġgre": 2533,
      "Ġpunish": 2534,
      "Ġtill": 2535,
      "empt": 2536,
      "Ġreligion": 2537,
      "bo": 2538,
      "Ġmember": 2539,
      "ald": 2540,
      "Ġconducted": 2541,
      "Ġhouses": 2542,
      "Ġdestroy": 2543,
      "Ġcelebr": 2544,
      "Ġtweet": 2545,
      "Ġcant": 2546,
      "Ġparties": 2547,
      "ĠKe": 2548,
      "erson": 2549,
      "Ġseat": 2550,
      "orth": 2551,
      "ĠIran": 2552,
      "Ġmer": 2553,
      "ilt": 2554,
      "Ġeight": 2555,
      "Ġcourse": 2556,
      "ĠBo": 2557,
      "Ġinn": 2558,
      "ĠThomas": 2559,
      "ze": 2560,
      "Ġconstitu": 2561,
      "Ġtw": 2562,
      "Ġpolitics": 2563,
      "Ġsaw": 2564,
      "Ġdefe": 2565,
      "ĠSy": 2566,
      "Ġcustody": 2567,
      "Ġbow": 2568,
      "Ġeveryone": 2569,
      "Ġdenied": 2570,
      "joy": 2571,
      "ier": 2572,
      "ened": 2573,
      "Ġcritic": 2574,
      "spe": 2575,
      "Ġperiod": 2576,
      "akk": 2577,
      "Ġwithin": 2578,
      "Ġmonths": 2579,
      "ream": 2580,
      "ards": 2581,
      "ague": 2582,
      "Ġopportun": 2583,
      "oid": 2584,
      "Ġmeas": 2585,
      "Ġredu": 2586,
      "Ġdidn": 2587,
      "Ġbelong": 2588,
      "Ġconfirmed": 2589,
      "ĠVirat": 2590,
      "Ġhaving": 2591,
      "Ġalone": 2592,
      "Ġworks": 2593,
      "ports": 2594,
      "Ġimplement": 2595,
      "Ġeat": 2596,
      "ĠDirector": 2597,
      "Ġmag": 2598,
      "apt": 2599,
      "Ġbuilding": 2600,
      "enger": 2601,
      "ĠTra": 2602,
      "Ġpow": 2603,
      "ĠMat": 2604,
      "ĠMu": 2605,
      "ĠHindu": 2606,
      "Ġless": 2607,
      "itizenship": 2608,
      "Ġaccept": 2609,
      "Ġopposition": 2610,
      "stitution": 2611,
      "Ġneeded": 2612,
      "ayam": 2613,
      "cle": 2614,
      "omes": 2615,
      "ork": 2616,
      "Ġsenior": 2617,
      "Ġtowards": 2618,
      "Ġprovide": 2619,
      "Ġcamera": 2620,
      "Ġteams": 2621,
      "Ġfuture": 2622,
      "Ġvehicle": 2623,
      "Ġappointed": 2624,
      "Ġauthorities": 2625,
      "Ġevil": 2626,
      "Ġhalf": 2627,
      "resent": 2628,
      "Ġoccas": 2629,
      "Ġhope": 2630,
      "Ġapplic": 2631,
      "ĠSever": 2632,
      "ĠAsh": 2633,
      "Ġliving": 2634,
      "Ġleast": 2635,
      "Ġgame": 2636,
      "itive": 2637,
      "Ġworship": 2638,
      "alls": 2639,
      "ĠBy": 2640,
      "cil": 2641,
      "ames": 2642,
      "Ġsurely": 2643,
      "ceed": 2644,
      "after": 2645,
      "Ġur": 2646,
      "Ġposition": 2647,
      "Ġfarm": 2648,
      "ley": 2649,
      "had": 2650,
      "ĠBengaluru": 2651,
      "miss": 2652,
      "ithala": 2653,
      "odies": 2654,
      "ĠSeveral": 2655,
      "ĠCO": 2656,
      "Ġsto": 2657,
      "ĠChennithala": 2658,
      "ĠNobody": 2659,
      "rupt": 2660,
      "ee": 2661,
      "ĠSm": 2662,
      "Ġprin": 2663,
      "Ġens": 2664,
      "haran": 2665,
      "rand": 2666,
      "ĠBangl": 2667,
      "Ġaccording": 2668,
      "Ġparts": 2669,
      "ĠAh": 2670,
      "Ġkey": 2671,
      "Ġcur": 2672,
      "undred": 2673,
      "Ġproper": 2674,
      "Ġfollowed": 2675,
      "ots": 2676,
      "Ġglob": 2677,
      "Ġincrease": 2678,
      "chie": 2679,
      "Ġresponsibility": 2680,
      "Ġturned": 2681,
      "Ġpassengers": 2682,
      "Ġplaying": 2683,
      "Ġill": 2684,
      "ĠSr": 2685,
      "ĠDh": 2686,
      "Ġdate": 2687,
      "Ġthee": 2688,
      "Ġlim": 2689,
      "Ġassoci": 2690,
      "Ġspiritu": 2691,
      "Ġregion": 2692,
      "itional": 2693,
      "ĠVar": 2694,
      "aker": 2695,
      "ĠRoh": 2696,
      "Ġvictim": 2697,
      "Ġdisbelie": 2698,
      "Ġ2020": 2699,
      "iy": 2700,
      "Ġwrote": 2701,
      "Ġevidence": 2702,
      "Ġbur": 2703,
      "hamp": 2704,
      "Ġreports": 2705,
      "Ġseized": 2706,
      "olk": 2707,
      "Ġtour": 2708,
      "Ġcommon": 2709,
      "ĠAss": 2710,
      "Ġobs": 2711,
      "ĠBest": 2712,
      "avy": 2713,
      "Ġmorning": 2714,
      "Ġdepartment": 2715,
      "Ġpercent": 2716,
      "Ġprotests": 2717,
      "Ġnamed": 2718,
      "vind": 2719,
      "Ġreasons": 2720,
      "OR": 2721,
      "Ġbann": 2722,
      "ĠCabinet": 2723,
      "Ġprev": 2724,
      "Ġscored": 2725,
      "elt": 2726,
      "ĠCPI": 2727,
      "Ġpopular": 2728,
      "ights": 2729,
      "Ġkm": 2730,
      "ĠSena": 2731,
      "Ġbirth": 2732,
      "ĠIslam": 2733,
      "Ġinvolved": 2734,
      "Ġpolls": 2735,
      "Ġtalk": 2736,
      "rab": 2737,
      "ĠChristians": 2738,
      "ĠMr": 2739,
      "ournal": 2740,
      "ĠBook": 2741,
      "elled": 2742,
      "ĠDepart": 2743,
      "ĠEnglish": 2744,
      "Ġdoub": 2745,
      "DF": 2746,
      "ern": 2747,
      "Ġrelationship": 2748,
      "Ġrate": 2749,
      "Ġhur": 2750,
      "vir": 2751,
      "aff": 2752,
      "Ġself": 2753,
      "Ġonce": 2754,
      "Ġwind": 2755,
      "ances": 2756,
      "Ġide": 2757,
      "Ġexperience": 2758,
      "Ġfinancial": 2759,
      "ĠBS": 2760,
      "nath": 2761,
      "Ġcoronavirus": 2762,
      "Ġpersonal": 2763,
      "GB": 2764,
      "Ġfact": 2765,
      "Ġsil": 2766,
      "Ġpurp": 2767,
      "rodu": 2768,
      "ĠBangladesh": 2769,
      "amp": 2770,
      "ĠEveryone": 2771,
      "Ġcharge": 2772,
      "ĠMLAs": 2773,
      "ĠDavid": 2774,
      "Ġmillion": 2775,
      "ĠPriy": 2776,
      "ilities": 2777,
      "Ġregarding": 2778,
      "Ġthy": 2779,
      "ĠFir": 2780,
      "Ġinaug": 2781,
      "new": 2782,
      "Ġlow": 2783,
      "Ġviolence": 2784,
      "iding": 2785,
      "Ġgod": 2786,
      "Ġstudent": 2787,
      "Ġgetting": 2788,
      "ari": 2789,
      "ĠInternational": 2790,
      "ĠOver": 2791,
      "Ġhear": 2792,
      "Ġbodies": 2793,
      "iers": 2794,
      "Ġi": 2795,
      "ech": 2796,
      "Ġspirit": 2797,
      "minist": 2798,
      "Ġkept": 2799,
      "Ġrecovered": 2800,
      "dict": 2801,
      "ĠEr": 2802,
      "ivil": 2803,
      "Ġletter": 2804,
      "chan": 2805,
      "Ġarri": 2806,
      "Ġsche": 2807,
      "Ġdoesnt": 2808,
      "Ġty": 2809,
      "irman": 2810,
      "Ġ23": 2811,
      "Ġoften": 2812,
      "Ġshare": 2813,
      "ĠODI": 2814,
      "esides": 2815,
      "itation": 2816,
      "Ġunderway": 2817,
      "ĠAk": 2818,
      "Ġclass": 2819,
      "Ġsea": 2820,
      "Ġfund": 2821,
      "uel": 2822,
      "Ġbless": 2823,
      "Ġtravel": 2824,
      "Ġsour": 2825,
      "Ġtown": 2826,
      "uram": 2827,
      "play": 2828,
      "Ġways": 2829,
      "ĠThan": 2830,
      "ortem": 2831,
      "ĠSay": 2832,
      "ĠMohanlal": 2833,
      "Ġtried": 2834,
      "aly": 2835,
      "ĠWitnesses": 2836,
      "erous": 2837,
      "ring": 2838,
      "Ġrequest": 2839,
      "ina": 2840,
      "ĠAffairs": 2841,
      "Ġsin": 2842,
      "ĠChild": 2843,
      "Ġcentral": 2844,
      "Ġannounce": 2845,
      "ĠMadhya": 2846,
      "ĠDile": 2847,
      "ĠPh": 2848,
      "Ġstat": 2849,
      "Ġsend": 2850,
      "mony": 2851,
      "hys": 2852,
      "Ġwitness": 2853,
      "Ġsons": 2854,
      "Ġwanted": 2855,
      "Ġiniti": 2856,
      "ĠRead": 2857,
      "ĠDepartment": 2858,
      "Ġconv": 2859,
      "ival": 2860,
      "ĠWar": 2861,
      "ĠBihar": 2862,
      "Ġjudge": 2863,
      "Ġenjoy": 2864,
      "Ġabove": 2865,
      "Ġofficer": 2866,
      "ĠYog": 2867,
      "ĠJud": 2868,
      "Ġdeaths": 2869,
      "Ġdeclared": 2870,
      "Ġestab": 2871,
      "Ġrap": 2872,
      "Ġinfe": 2873,
      "ilway": 2874,
      "Ġenough": 2875,
      "eph": 2876,
      "Ġpage": 2877,
      "ja": 2878,
      "ential": 2879,
      "Ġcharges": 2880,
      "ĠAfrica": 2881,
      "Ġsector": 2882,
      "ĠEven": 2883,
      "Ġpunishment": 2884,
      "Ġpen": 2885,
      "Ġhanded": 2886,
      "ĠRohit": 2887,
      "ĠEarlier": 2888,
      "Ġfamilies": 2889,
      "uses": 2890,
      "Ġjoined": 2891,
      "Ġesc": 2892,
      "Ġ37": 2893,
      "oly": 2894,
      "erred": 2895,
      "ively": 2896,
      "ĠDev": 2897,
      "ĠKar": 2898,
      "Ġseem": 2899,
      "come": 2900,
      "sequently": 2901,
      "ense": 2902,
      "Ġfine": 2903,
      "Ġnecess": 2904,
      "Ġallegations": 2905,
      "SS": 2906,
      "Ġincreased": 2907,
      "Ġappear": 2908,
      "ĠFilm": 2909,
      "Ġpatients": 2910,
      "Ġforward": 2911,
      "ĠArt": 2912,
      "Ġinquiry": 2913,
      "Ġstop": 2914,
      "Ġwatch": 2915,
      "ification": 2916,
      "ators": 2917,
      "ĠUP": 2918,
      "Ġrighteous": 2919,
      "ĠAli": 2920,
      "Ġsimilar": 2921,
      "Ġcut": 2922,
      "Ġmoved": 2923,
      "Ġheavens": 2924,
      "Ġ,": 2925,
      "isation": 2926,
      "ables": 2927,
      "Ġtrust": 2928,
      "Ġfast": 2929,
      "Ġmaint": 2930,
      "Ġpub": 2931,
      "Ġbasis": 2932,
      "Ġreturned": 2933,
      "Ġentire": 2934,
      "ĠSonia": 2935,
      "ĠDileep": 2936,
      "Ġvillage": 2937,
      "Ġmob": 2938,
      "Ġplea": 2939,
      "over": 2940,
      "imum": 2941,
      "Ġpoor": 2942,
      "rah": 2943,
      "ĠMuk": 2944,
      "ught": 2945,
      "ighb": 2946,
      "'ve": 2947,
      "ison": 2948,
      "str": 2949,
      "Ġdemoc": 2950,
      "vernor": 2951,
      "ium": 2952,
      "Ġrecently": 2953,
      "Ġordered": 2954,
      "vest": 2955,
      "Ġbrothers": 2956,
      "dra": 2957,
      "CT": 2958,
      "ĠSu": 2959,
      "Ġoffer": 2960,
      "af": 2961,
      "ĠNow": 2962,
      "ĠKott": 2963,
      "VID": 2964,
      "ĠMuslims": 2965,
      "Ġhost": 2966,
      "Ġ28": 2967,
      "ĠSuch": 2968,
      "epend": 2969,
      "Ġflood": 2970,
      "Ġcompet": 2971,
      "ĠFinance": 2972,
      "Ġri": 2973,
      "\"\".\"": 2974,
      "Ġimpro": 2975,
      "Ġinside": 2976,
      "ĠVen": 2977,
      "Ġusing": 2978,
      "acy": 2979,
      "Ġdie": 2980,
      "ĠKingdom": 2981,
      "ĠHave": 2982,
      "Ġahead": 2983,
      "othing": 2984,
      "onment": 2985,
      "ĠSar": 2986,
      "Ġaffe": 2987,
      "ĠFore": 2988,
      "Ġbord": 2989,
      "uly": 2990,
      "Ġtrad": 2991,
      "Ġassist": 2992,
      "Ġforeign": 2993,
      "Ġlab": 2994,
      "Ġinaugur": 2995,
      "ead": 2996,
      "Ġpersonnel": 2997,
      "Ġhighest": 2998,
      "ĠArun": 2999,
      "ogn": 3000,
      "Ġoccasion": 3001,
      "par": 3002,
      "ĠDuring": 3003,
      "ĠBh": 3004,
      "Ġcongre": 3005,
      "Ġpract": 3006,
      "Ġsuspend": 3007,
      "udi": 3008,
      "ĠPras": 3009,
      "utions": 3010,
      "ĠCr": 3011,
      "ĠBen": 3012,
      "ivid": 3013,
      "ĠFire": 3014,
      "oni": 3015,
      "ĠActor": 3016,
      "Ġport": 3017,
      "Ġcaused": 3018,
      "Ġbreak": 3019,
      "ĠThr": 3020,
      "Ġidentified": 3021,
      "Ġbench": 3022,
      "Ġsleep": 3023,
      "hara": 3024,
      "Ġ/": 3025,
      "dul": 3026,
      "ĠSur": 3027,
      "ĠGe": 3028,
      "opal": 3029,
      "alm": 3030,
      "sec": 3031,
      "atory": 3032,
      "Ġemer": 3033,
      "ĠFrom": 3034,
      "Ġbab": 3035,
      "ĠJoseph": 3036,
      "Ġmakes": 3037,
      "Ġsum": 3038,
      "ĠBrit": 3039,
      "aries": 3040,
      "Ġcharact": 3041,
      "ĠShan": 3042,
      "Ġforth": 3043,
      "Ġbeat": 3044,
      "Ġdece": 3045,
      "Ġverdict": 3046,
      "Ġwasnt": 3047,
      "ĠCOVID": 3048,
      "rovers": 3049,
      "gu": 3050,
      "Ġclosed": 3051,
      "Ġdetained": 3052,
      "ĠSchool": 3053,
      "fully": 3054,
      "Ġcouple": 3055,
      "Ġdamaged": 3056,
      "Ġer": 3057,
      "ĠFive": 3058,
      "ST": 3059,
      "ĠNorth": 3060,
      "AN": 3061,
      "lapp": 3062,
      "Ġrains": 3063,
      "ĠConstitution": 3064,
      "hood": 3065,
      "Ġdesign": 3066,
      "Ġfailed": 3067,
      "for": 3068,
      "Ġcanc": 3069,
      "Ġagree": 3070,
      "pir": 3071,
      "ĠBan": 3072,
      "asing": 3073,
      "view": 3074,
      "hant": 3075,
      "crib": 3076,
      "erve": 3077,
      "ĠRed": 3078,
      "ony": 3079,
      "Ġresults": 3080,
      "ka": 3081,
      "Ġcandidates": 3082,
      "Ġeither": 3083,
      "ĠBill": 3084,
      "autiful": 3085,
      "Ġclean": 3086,
      "ĠKapoor": 3087,
      "range": 3088,
      "adha": 3089,
      "Ġvers": 3090,
      "ĠDef": 3091,
      "Ġtou": 3092,
      "Ġprogress": 3093,
      "rew": 3094,
      "Ġexpect": 3095,
      "Ġearly": 3096,
      "Ġmount": 3097,
      "Ġinstit": 3098,
      "ĠAnt": 3099,
      "Ġdismiss": 3100,
      "ĠAlso": 3101,
      "ator": 3102,
      "Ġgirls": 3103,
      "asp": 3104,
      "ires": 3105,
      "ĠPriyanka": 3106,
      "Ġlooked": 3107,
      "atural": 3108,
      "Ġsevere": 3109,
      "Ġrequired": 3110,
      "ĠAward": 3111,
      "endment": 3112,
      "ĠMot": 3113,
      "Ġsoul": 3114,
      "Ġachie": 3115,
      "wan": 3116,
      "itude": 3117,
      "Ġworked": 3118,
      "Ġcontrovers": 3119,
      "Ġtar": 3120,
      "Ġspeaking": 3121,
      "ĠIndians": 3122,
      "ĠBr": 3123,
      "Ġfem": 3124,
      "rem": 3125,
      "Ġapost": 3126,
      "ugg": 3127,
      "Ġmult": 3128,
      "Ġtit": 3129,
      "Ġministers": 3130,
      "ĠEur": 3131,
      "ounded": 3132,
      "Ġwhole": 3133,
      "omin": 3134,
      "ager": 3135,
      "Ġenter": 3136,
      "ĠWhile": 3137,
      "where": 3138,
      "Ġopened": 3139,
      "isions": 3140,
      "cl": 3141,
      "Ġlocated": 3142,
      "oice": 3143,
      "Ġprevent": 3144,
      "Ġconduct": 3145,
      "uresh": 3146,
      "Ġrepresent": 3147,
      "ashed": 3148,
      "Ġconsider": 3149,
      "ĠSuresh": 3150,
      "Ġforce": 3151,
      "duc": 3152,
      "cepted": 3153,
      "Ġneighb": 3154,
      "Ġcinem": 3155,
      "most": 3156,
      "Ġisnt": 3157,
      "vell": 3158,
      "Ġrape": 3159,
      "illed": 3160,
      "Ġexist": 3161,
      "Ġdata": 3162,
      "osing": 3163,
      "Ġterm": 3164,
      "ĠCoun": 3165,
      "ahw": 3166,
      "ayan": 3167,
      "rs": 3168,
      "CP": 3169,
      "ĠMen": 3170,
      "ĠDid": 3171,
      "de": 3172,
      "Ġoutside": 3173,
      "ĠKottayam": 3174,
      "ift": 3175,
      "Ġoccurred": 3176,
      "Ġcere": 3177,
      "Ġsubmitted": 3178,
      "DP": 3179,
      "lect": 3180,
      "mun": 3181,
      "Ġincluded": 3182,
      "ĠPan": 3183,
      "Ġsaf": 3184,
      "Ġwhether": 3185,
      "hra": 3186,
      "hel": 3187,
      "Ġwis": 3188,
      "Ġleading": 3189,
      "ĠIndeed": 3190,
      "Ġstopped": 3191,
      "ricult": 3192,
      "Ġlooking": 3193,
      "Ġblack": 3194,
      "ety": 3195,
      "ahweh": 3196,
      "Ġprime": 3197,
      "ĠZeal": 3198,
      "pan": 3199,
      "Ġrecom": 3200,
      "nak": 3201,
      "Ġsat": 3202,
      "AM": 3203,
      "Ġindivid": 3204,
      "Ġhappening": 3205,
      "Ġthousand": 3206,
      "cu": 3207,
      "mar": 3208,
      "Ġmatches": 3209,
      "then": 3210,
      "isl": 3211,
      "Ġfru": 3212,
      "Ġaff": 3213,
      "Ġchanges": 3214,
      "ĠTV": 3215,
      "icy": 3216,
      "ulated": 3217,
      "ball": 3218,
      "Ġtrib": 3219,
      "Ġ2019": 3220,
      "Ġofficers": 3221,
      "Ġroom": 3222,
      "ĠFirst": 3223,
      "aign": 3224,
      "row": 3225,
      "Ġsigns": 3226,
      "isher": 3227,
      "ateg": 3228,
      "ĠAy": 3229,
      "Ġmoment": 3230,
      "racy": 3231,
      "Ġsimple": 3232,
      "Ġgranted": 3233,
      "Ġgrowth": 3234,
      "Ġincludes": 3235,
      "mp": 3236,
      "ĠZealand": 3237,
      "road": 3238,
      "ĠMohammed": 3239,
      "Ġsought": 3240,
      "Ġfourth": 3241,
      "edding": 3242,
      "uary": 3243,
      "lu": 3244,
      "Ġpicture": 3245,
      "AP": 3246,
      "Ġindustry": 3247,
      "utes": 3248,
      "Ġreligious": 3249,
      "Ġspiritual": 3250,
      "ĠMoses": 3251,
      "Ġbeautiful": 3252,
      "Ġexpressed": 3253,
      "ĠWomen": 3254,
      "Ġsac": 3255,
      "Ġelectric": 3256,
      "Ġborn": 3257,
      "IR": 3258,
      "ena": 3259,
      "Ġlate": 3260,
      "Ġcommit": 3261,
      "coming": 3262,
      "Ġdirect": 3263,
      "Ġarrived": 3264,
      "Ġthreat": 3265,
      "encies": 3266,
      "Ġaccepted": 3267,
      "Ġcoop": 3268,
      "Ġmention": 3269,
      "Ġseason": 3270,
      "ger": 3271,
      "Ġground": 3272,
      "ruption": 3273,
      "Ġanim": 3274,
      "urs": 3275,
      "Ġtakes": 3276,
      "ĠKan": 3277,
      "down": 3278,
      "Ġundergoing": 3279,
      "ĠInst": 3280,
      "ĠCommittee": 3281,
      "ĠDhoni": 3282,
      "ograp": 3283,
      "Ġmass": 3284,
      "Ġheaven": 3285,
      "akrishnan": 3286,
      "ĠUs": 3287,
      "Ġconstruction": 3288,
      "ĠSw": 3289,
      "Ġalert": 3290,
      "ĠAbdul": 3291,
      "ĠEduc": 3292,
      "Ġdeep": 3293,
      "att": 3294,
      "Ġcrime": 3295,
      "Ġbar": 3296,
      "Ġsuspended": 3297,
      "Ġhearing": 3298,
      "Ġworth": 3299,
      "ĠHary": 3300,
      "Ġremember": 3301,
      "ĠRoy": 3302,
      "Ġguid": 3303,
      "Ġneither": 3304,
      "ocked": 3305,
      "Ġprogramme": 3306,
      "ĠDis": 3307,
      "uzha": 3308,
      "Ġsuffered": 3309,
      "Ġcompan": 3310,
      "ĠAj": 3311,
      "ĠYahweh": 3312,
      "Ġrise": 3313,
      "ĠLeague": 3314,
      "ĠSoc": 3315,
      "Ġwid": 3316,
      "ĠReg": 3317,
      "Ġvictory": 3318,
      "Ġplays": 3319,
      "ĠKannur": 3320,
      "Ġvac": 3321,
      "Ġglobal": 3322,
      "hatt": 3323,
      "He": 3324,
      "Ġ60": 3325,
      "uf": 3326,
      "Ġcard": 3327,
      "Ġbill": 3328,
      "Ġjustice": 3329,
      "Ġsmart": 3330,
      "Ġcontinues": 3331,
      "Ġseeking": 3332,
      "Ġpurpose": 3333,
      "Ġvirus": 3334,
      "Ġten": 3335,
      "ĠCity": 3336,
      "ĠSuper": 3337,
      "ĠRajya": 3338,
      "Ġalliance": 3339,
      "Ġtry": 3340,
      "ĠSci": 3341,
      "Ġspec": 3342,
      "iqu": 3343,
      "Ġappre": 3344,
      "Ġcompleted": 3345,
      "Ġpos": 3346,
      "Ġsust": 3347,
      "Ġgovernments": 3348,
      "ĠHaryana": 3349,
      "Ġmajority": 3350,
      "Ġattempt": 3351,
      "iled": 3352,
      "agement": 3353,
      "Ġcertainly": 3354,
      "It": 3355,
      "ĠAmb": 3356,
      "Ġsoldiers": 3357,
      "person": 3358,
      "jan": 3359,
      "hammad": 3360,
      "Ġnone": 3361,
      "ĠPand": 3362,
      "let": 3363,
      "Ġgets": 3364,
      "ĠSpecial": 3365,
      "Ġdeter": 3366,
      "SR": 3367,
      "ĠKam": 3368,
      "enced": 3369,
      "olkata": 3370,
      "Ġdri": 3371,
      "nakulam": 3372,
      "Ġcontrib": 3373,
      "Ġschools": 3374,
      "ĠSit": 3375,
      "Ġknew": 3376,
      "Ġcampaign": 3377,
      "Ġbaby": 3378,
      "Ġvotes": 3379,
      "Ġdiesel": 3380,
      "Ġjournal": 3381,
      "ĠBha": 3382,
      "Ġpick": 3383,
      "Ġrank": 3384,
      "olution": 3385,
      "Ġbenefit": 3386,
      "cially": 3387,
      "Ġrese": 3388,
      "ĠCont": 3389,
      "ĠKodi": 3390,
      "Ġpictures": 3391,
      "ORD": 3392,
      "ĠNir": 3393,
      "ĠPol": 3394,
      "Ġairport": 3395,
      "ji": 3396,
      "Ġsafe": 3397,
      "ĠVer": 3398,
      "ĠAndhra": 3399,
      "ĠArab": 3400,
      "reedom": 3401,
      "Ġeld": 3402,
      "Ġlanguages": 3403,
      "Ġconference": 3404,
      "Ġ...": 3405,
      "Ġbelievers": 3406,
      "Ġdoctor": 3407,
      "Ġannouncement": 3408,
      "ĠKolkata": 3409,
      "Ġspoke": 3410,
      "Ġpetrol": 3411,
      "Ġministry": 3412,
      "Ġreach": 3413,
      "eter": 3414,
      "Ġforces": 3415,
      "Ġwants": 3416,
      "Ġlisten": 3417,
      "Ġadminist": 3418,
      "Ġpark": 3419,
      "ication": 3420,
      "Ġran": 3421,
      "Ġmessage": 3422,
      "ler": 3423,
      "Ġsuper": 3424,
      "aily": 3425,
      "Ġconstit": 3426,
      "ĠLORD": 3427,
      "Ġ26": 3428,
      "ĠEurope": 3429,
      "Ġconsidered": 3430,
      "Ġfans": 3431,
      "Ġbiggest": 3432,
      "Ġhearts": 3433,
      "inder": 3434,
      "ĠThus": 3435,
      "ĠKodiyer": 3436,
      "30": 3437,
      "utive": 3438,
      "Ġdestroyed": 3439,
      "Ġaffected": 3440,
      "Ġsociety": 3441,
      "ton": 3442,
      "ĠAhmed": 3443,
      "Ġminor": 3444,
      "ika": 3445,
      "Ġdoor": 3446,
      "ĠPad": 3447,
      "Ġneg": 3448,
      "Ġsteps": 3449,
      "ĠErnakulam": 3450,
      "ĠBar": 3451,
      "hampions": 3452,
      "Ġhundred": 3453,
      "Ġtrial": 3454,
      "ension": 3455,
      "ĠKodiyeri": 3456,
      "omb": 3457,
      "Ġdang": 3458,
      "Ġbelieved": 3459,
      "ĠMinisters": 3460,
      "mber": 3461,
      "Ġsqu": 3462,
      "Ġnecessary": 3463,
      "Ġhath": 3464,
      "ĠHouse": 3465,
      "Ġremark": 3466,
      "Ġphys": 3467,
      "Ġcommitted": 3468,
      "kumar": 3469,
      "Ġsave": 3470,
      "Ġlaunch": 3471,
      "mortem": 3472,
      "ĠDevelop": 3473,
      "Ġhot": 3474,
      "Ġred": 3475,
      "Ġriver": 3476,
      "anth": 3477,
      "ĠHeavy": 3478,
      "Ġ27": 3479,
      "Ġcreat": 3480,
      "Ġinvestigating": 3481,
      "Ġcongregation": 3482,
      "Ġ32": 3483,
      "ĠElection": 3484,
      "Ġwedding": 3485,
      "Ġcentury": 3486,
      "ests": 3487,
      "Ġkids": 3488,
      "Ġthats": 3489,
      "Ġfelt": 3490,
      "ĠYet": 3491,
      "ĠChinese": 3492,
      "mpt": 3493,
      "nam": 3494,
      "Ġsit": 3495,
      "ĠNothing": 3496,
      "rain": 3497,
      "Ġsecret": 3498,
      "ghan": 3499,
      "Ġtoll": 3500,
      "ns": 3501,
      "itor": 3502,
      "Ġsug": 3503,
      "Ġappeal": 3504,
      "ĠDonald": 3505,
      "ull": 3506,
      "Ġsan": 3507,
      "Ġ31": 3508,
      "Ġstrength": 3509,
      "ĠHyder": 3510,
      "leg": 3511,
      "Ġeconomic": 3512,
      "jri": 3513,
      "Ġdocu": 3514,
      "Ġcheck": 3515,
      "Ġcoll": 3516,
      "Ġdisci": 3517,
      "ĠBec": 3518,
      "Ġrecogn": 3519,
      "Ġevening": 3520,
      "Ġtraffic": 3521,
      "back": 3522,
      "son": 3523,
      "Ġactors": 3524,
      "bh": 3525,
      "udget": 3526,
      "alse": 3527,
      "isha": 3528,
      "Ġoffered": 3529,
      "Ġscreen": 3530,
      "Ġrepl": 3531,
      "ĠHyderabad": 3532,
      "Ġreward": 3533,
      "Ġquar": 3534,
      "ĠCouncil": 3535,
      "ene": 3536,
      "ĠFather": 3537,
      "esters": 3538,
      "ras": 3539,
      "Ġintrodu": 3540,
      "Ġsla": 3541,
      "Ġsurv": 3542,
      "Ġeconomy": 3543,
      "ĠAnother": 3544,
      "Ġseek": 3545,
      "Ġstrengthen": 3546,
      "Ġfarmers": 3547,
      "Ġir": 3548,
      "Ġaf": 3549,
      "icated": 3550,
      "Ġtweeted": 3551,
      "Ġz": 3552,
      "Ġ500": 3553,
      "Ġceremony": 3554,
      "Ġparticipated": 3555,
      "Ġpublished": 3556,
      "Ġchallen": 3557,
      "ĠKejri": 3558,
      "Ġreceive": 3559,
      "iant": 3560,
      "Ġ35": 3561,
      "Ġbuilt": 3562,
      "chay": 3563,
      "gment": 3564,
      "Ġsaved": 3565,
      "Ġsuggest": 3566,
      "Ġjail": 3567,
      "Ġnotice": 3568,
      "Ġcomposed": 3569,
      "ĠStudents": 3570,
      "ki": 3571,
      "Ġnon": 3572,
      "Ġleav": 3573,
      "Ġcontinued": 3574,
      "Ġformed": 3575,
      "This": 3576,
      "Ġrelatives": 3577,
      "ĠIPL": 3578,
      "Ġcommunity": 3579,
      "Ġcrim": 3580,
      "Ġefforts": 3581,
      "ĠLanka": 3582,
      "Ġquite": 3583,
      "Ġpot": 3584,
      "ĠAz": 3585,
      "Ġcarried": 3586,
      "lo": 3587,
      "ĠChe": 3588,
      "ization": 3589,
      "Ġlink": 3590,
      "Ġpositive": 3591,
      "icial": 3592,
      "Ġgoes": 3593,
      "ourney": 3594,
      "Ġattention": 3595,
      "Ġhospitals": 3596,
      "ĠRussia": 3597,
      "ternet": 3598,
      "Ġscheme": 3599,
      "Ġmovies": 3600,
      "Ġseriously": 3601,
      "ault": 3602,
      "oned": 3603,
      "Ġlov": 3604,
      "Ġprepared": 3605,
      "Ġnorm": 3606,
      "Ġactivities": 3607,
      "Ġqual": 3608,
      "Ġcomplet": 3609,
      "ĠKas": 3610,
      "Ġban": 3611,
      "Ġdoctors": 3612,
      "Ġquick": 3613,
      "ĠServ": 3614,
      "mes": 3615,
      "Ġ199": 3616,
      "put": 3617,
      "Ġexamination": 3618,
      "Ġfemale": 3619,
      "shi": 3620,
      "ĠGood": 3621,
      "fall": 3622,
      "Ġyourself": 3623,
      "Ġnearby": 3624,
      "vey": 3625,
      "emy": 3626,
      "Ġwhose": 3627,
      "ably": 3628,
      "Ġgives": 3629,
      "Ġheaded": 3630,
      "ructure": 3631,
      "va": 3632,
      "Ġwithdra": 3633,
      "Ġroads": 3634,
      "iting": 3635,
      "Ġacqu": 3636,
      "Ġtele": 3637,
      "Ġsomeone": 3638,
      "Ġboard": 3639,
      "Ġdeceased": 3640,
      "ĠExp": 3641,
      "Ġrefused": 3642,
      "ĠAfghan": 3643,
      "Ġshooting": 3644,
      "Ġjoint": 3645,
      "Ġpaid": 3646,
      "ĠKejriwal": 3647,
      "Ġpra": 3648,
      "Ġmissing": 3649,
      "ming": 3650,
      "ĠCol": 3651,
      "raft": 3652,
      "Ġapproached": 3653,
      "Ġpopulation": 3654,
      "ĠGovernor": 3655,
      "ĠEducation": 3656,
      "Ġdraw": 3657,
      "ĠWell": 3658,
      "Ġpresided": 3659,
      "ĠWater": 3660,
      "ĠCons": 3661,
      "Ġexpress": 3662,
      "Ġinnings": 3663,
      "Ġwaiting": 3664,
      "Ġdaily": 3665,
      "Ġrelated": 3666,
      "ĠInstit": 3667,
      "val": 3668,
      "Ġcapital": 3669,
      "Ġmercy": 3670,
      "igation": 3671,
      "Ġgiving": 3672,
      "ĠDevelopment": 3673,
      "ĠJa": 3674,
      "ĠOffic": 3675,
      "Ġtherefore": 3676,
      "vironment": 3677,
      "Ġprevious": 3678,
      "Ġhelps": 3679,
      "kash": 3680,
      "aining": 3681,
      "ĠChildren": 3682,
      "Ġris": 3683,
      "Ġborder": 3684,
      "rog": 3685,
      "apan": 3686,
      "Ġhelped": 3687,
      "Ġreview": 3688,
      "Ġgri": 3689,
      "Ġnames": 3690,
      "Ġtarget": 3691,
      "ny": 3692,
      "ĠSP": 3693,
      "pping": 3694,
      "Ġinterview": 3695,
      "Ġrights": 3696,
      "Ġbag": 3697,
      "Ġ%": 3698,
      "ĠGer": 3699,
      "ĠCCT": 3700,
      "Ġshar": 3701,
      "Ġorig": 3702,
      "Ġearn": 3703,
      "Ġjourney": 3704,
      "Ġvote": 3705,
      "ĠCCTV": 3706,
      "Ġdemocracy": 3707,
      "phone": 3708,
      "Ġfalse": 3709,
      "ĠYouth": 3710,
      "ĠDes": 3711,
      "ex": 3712,
      "Ġarmy": 3713,
      "ourage": 3714,
      "Ġpath": 3715,
      "ĠTake": 3716,
      "ĠCitizenship": 3717,
      "Ġelected": 3718,
      "mptoms": 3719,
      "Ġtorque": 3720,
      "ĠDub": 3721,
      "Ġcris": 3722,
      "Ġgar": 3723,
      "ĠProt": 3724,
      "hold": 3725,
      "ĠLaw": 3726,
      "ĠAbout": 3727,
      "ĠGl": 3728,
      "UV": 3729,
      "Ġtalks": 3730,
      "owd": 3731,
      "estival": 3732,
      "ĠMah": 3733,
      "rier": 3734,
      "Ind": 3735,
      "erved": 3736,
      "Ġfreedom": 3737,
      "ĠDeep": 3738,
      "ĠRec": 3739,
      "otion": 3740,
      "ĠTem": 3741,
      "Ġfeet": 3742,
      "Ġess": 3743,
      "Ġbanks": 3744,
      "orage": 3745,
      "earch": 3746,
      "ĠInvest": 3747,
      "Ġcities": 3748,
      "Ġspeed": 3749,
      "Ġsun": 3750,
      "oups": 3751,
      "Ġflow": 3752,
      "inary": 3753,
      "mend": 3754,
      "ĠLead": 3755,
      "aman": 3756,
      "Ġwicket": 3757,
      "Ġoperation": 3758,
      "Ġconstituency": 3759,
      "Ġmix": 3760,
      "hib": 3761,
      "Ġhigher": 3762,
      "Ġaware": 3763,
      "Ġsepar": 3764,
      "co": 3765,
      "riving": 3766,
      "ining": 3767,
      "raham": 3768,
      "Ġfif": 3769,
      "ĠRavi": 3770,
      "Ġservants": 3771,
      "Ġrescue": 3772,
      "ini": 3773,
      "ĠRajnath": 3774,
      "ĠArticle": 3775,
      "Ġblast": 3776,
      "Ġrecorded": 3777,
      "Ġprotect": 3778,
      "Ġserved": 3779,
      "osh": 3780,
      "Ġcrisis": 3781,
      "olve": 3782,
      "urch": 3783,
      "ikh": 3784,
      "ĠPakistani": 3785,
      "Ġplann": 3786,
      "anda": 3787,
      "alore": 3788,
      "ĠPhot": 3789,
      "Ġmobile": 3790,
      "TC": 3791,
      "Ġonline": 3792,
      "Ġsens": 3793,
      "eness": 3794,
      "Ġprayer": 3795,
      "ĠBaner": 3796,
      "ĠDefence": 3797,
      "ama": 3798,
      "ĠMano": 3799,
      "Ġ70": 3800,
      "ĠSenior": 3801,
      "Ġconsum": 3802,
      "ĠAdv": 3803,
      "Ġdoubt": 3804,
      "raid": 3805,
      "eddy": 3806,
      "Ġdeeds": 3807,
      "well": 3808,
      "ĠTata": 3809,
      "Ġdismissed": 3810,
      "Ġdream": 3811,
      "ĠBecause": 3812,
      "Ġhy": 3813,
      "Ġhappens": 3814,
      "uled": 3815,
      "Ġreb": 3816,
      "Ġfulf": 3817,
      "Ġserve": 3818,
      "Ġrally": 3819,
      "Ġcontact": 3820,
      "Ġline": 3821,
      "ĠLal": 3822,
      "Ġtravell": 3823,
      "?\"\"\"": 3824,
      "Ġ2018": 3825,
      "ĠScript": 3826,
      "Ġchalleng": 3827,
      "Ġreply": 3828,
      "IC": 3829,
      "hap": 3830,
      "Ġdrug": 3831,
      "angana": 3832,
      "Ġbegun": 3833,
      "Ġmater": 3834,
      "Ġfavour": 3835,
      "Ġspeech": 3836,
      "ĠApart": 3837,
      "ĠAdity": 3838,
      "Ġavoid": 3839,
      "Ġtransf": 3840,
      "oke": 3841,
      "ĠBanerjee": 3842,
      "ira": 3843,
      "ĠLa": 3844,
      "Ġregular": 3845,
      "ĠJapan": 3846,
      "ĠEverything": 3847,
      "ayed": 3848,
      "ĠGov": 3849,
      "Ġtraining": 3850,
      "mo": 3851,
      "Ġforget": 3852,
      "ĠLook": 3853,
      "Ġmodel": 3854,
      "Ġ29": 3855,
      "asan": 3856,
      "Ġpermission": 3857,
      "Ġhurt": 3858,
      "Ġlat": 3859,
      "ĠAmerican": 3860,
      "Ġlocals": 3861,
      "Ġbooks": 3862,
      "Ġwond": 3863,
      "Ġarticle": 3864,
      "Ġlegal": 3865,
      "ĠPrakash": 3866,
      "Ġrepe": 3867,
      "ĠAI": 3868,
      "Ġrich": 3869,
      "Ġabs": 3870,
      "vention": 3871,
      "ĠSix": 3872,
      "Ġsn": 3873,
      "Ġexerc": 3874,
      "ĠBoard": 3875,
      "ĠMul": 3876,
      "Ġrelie": 3877,
      "Ġresident": 3878,
      "ken": 3879,
      "roll": 3880,
      "ĠSol": 3881,
      "ĠCar": 3882,
      "Ġafraid": 3883,
      "Ġcivil": 3884,
      "Ġfail": 3885,
      "Ġfirm": 3886,
      "Ġopportunity": 3887,
      "resh": 3888,
      "ĠGoa": 3889,
      "Ġcolour": 3890,
      "Ġallegedly": 3891,
      "Ġbelow": 3892,
      "Ġmist": 3893,
      "Ġshut": 3894,
      "Ġaim": 3895,
      "Ġcharacter": 3896,
      "kind": 3897,
      "une": 3898,
      "Ġcorruption": 3899,
      "ĠLife": 3900,
      "Ġpat": 3901,
      "though": 3902,
      "add": 3903,
      "ĠRel": 3904,
      "ounds": 3905,
      "ĠPrasad": 3906,
      "gn": 3907,
      "Ġattacked": 3908,
      "ĠSim": 3909,
      "aper": 3910,
      "Ġcross": 3911,
      "Ġcru": 3912,
      "Ġdebut": 3913,
      "ĠCome": 3914,
      "eared": 3915,
      "Ġsalt": 3916,
      "10": 3917,
      "Ġet": 3918,
      "icular": 3919,
      "Ġsele": 3920,
      "Ġcommission": 3921,
      "appuram": 3922,
      "Ġaud": 3923,
      "Ġlif": 3924,
      "Ġleadership": 3925,
      "Ġsouth": 3926,
      "Ġgroups": 3927,
      "Ġgrand": 3928,
      "ĠNit": 3929,
      "ĠWord": 3930,
      "ĠSecurity": 3931,
      "cip": 3932,
      "Ġ80": 3933,
      "cher": 3934,
      "Ġscript": 3935,
      "igr": 3936,
      "Ġsafety": 3937,
      "nding": 3938,
      "hase": 3939,
      "Ġpressure": 3940,
      "ayanad": 3941,
      "GP": 3942,
      "Ġsubject": 3943,
      "Ġwhatever": 3944,
      "Ġbats": 3945,
      "ĠKul": 3946,
      "Ġapart": 3947,
      "ndran": 3948,
      "Ġment": 3949,
      "Ġprotesters": 3950,
      "Ġ--": 3951,
      "Ġ?": 3952,
      "Ġsexual": 3953,
      "Ġdisplay": 3954,
      "Ġwel": 3955,
      "araj": 3956,
      "ĠRem": 3957,
      "ĠGerman": 3958,
      "Ġstorage": 3959,
      "Ġremained": 3960,
      "Ġfla": 3961,
      "ĠHence": 3962,
      "ĠJer": 3963,
      "Ġremains": 3964,
      "Ġfoc": 3965,
      "ĠTri": 3966,
      "ĠWayanad": 3967,
      "Ġcitizens": 3968,
      "Ġprim": 3969,
      "aur": 3970,
      "do": 3971,
      "ĠMet": 3972,
      "Ġnatural": 3973,
      "Ġrule": 3974,
      "Ġnet": 3975,
      "Ġvia": 3976,
      "App": 3977,
      "Ġscore": 3978,
      "inent": 3979,
      "Ġcover": 3980,
      "Ġbooked": 3981,
      "Ġmilitary": 3982,
      "Ġexec": 3983,
      "Ġsuffering": 3984,
      "Ġremoved": 3985,
      "Ġcal": 3986,
      "ĠGold": 3987,
      "Ġspace": 3988,
      "ĠSince": 3989,
      "ĠArvind": 3990,
      "ĠJew": 3991,
      "ĠAnil": 3992,
      "Ġmulti": 3993,
      "Ġstaff": 3994,
      "Ġstrike": 3995,
      "ĠMalappuram": 3996,
      "Ġpred": 3997,
      "tery": 3998,
      "aught": 3999,
      "Ġproduction": 4000,
      "ĠSanjay": 4001,
      "Ġmotor": 4002,
      "ĠEd": 4003,
      "Ġmeasures": 4004,
      "Ġjoy": 4005,
      "Ġcaught": 4006,
      "Ġ150": 4007,
      "Ġcinema": 4008,
      "ĠTrans": 4009,
      "Ġreportedly": 4010,
      "Ġcrores": 4011,
      "bhp": 4012,
      "ĠTherefore": 4013,
      "ape": 4014,
      "ufact": 4015,
      "Ġsuspect": 4016,
      "Ġensure": 4017,
      "ological": 4018,
      "raz": 4019,
      "Ġattacks": 4020,
      "Ġoptions": 4021,
      "Ġut": 4022,
      "ĠTal": 4023,
      "Ġgames": 4024,
      "ashes": 4025,
      "?\"": 4026,
      "ĠUnder": 4027,
      "Ġago": 4028,
      "ĠBritish": 4029,
      "ĠChandra": 4030,
      "Ġrout": 4031,
      "TI": 4032,
      "Ġcomplete": 4033,
      "ĠCrick": 4034,
      "Ġupcoming": 4035,
      "ĠSee": 4036,
      "Ġforest": 4037,
      "poration": 4038,
      "Ġhistor": 4039,
      "fect": 4040,
      "Ġdaughters": 4041,
      "Ġacted": 4042,
      "work": 4043,
      "Ġvoice": 4044,
      "uing": 4045,
      "cious": 4046,
      "ills": 4047,
      "Ġbenefits": 4048,
      "ĠSud": 4049,
      "Ġcash": 4050,
      "achin": 4051,
      "Ġsacrif": 4052,
      "Ġfacing": 4053,
      "emic": 4054,
      "Ġinflu": 4055,
      "ĠJo": 4056,
      "Ġkilling": 4057,
      "Ġnations": 4058,
      "Ġthus": 4059,
      "ĠOff": 4060,
      "Ġdiscussion": 4061,
      "wa": 4062,
      "ĠFa": 4063,
      "ĠTechn": 4064,
      "Ġdiscussed": 4065,
      "speed": 4066,
      "Ġended": 4067,
      "Ġdisapp": 4068,
      "ique": 4069,
      "Ġlock": 4070,
      "ĠAbraham": 4071,
      "Ġteachers": 4072,
      "Ġtechnology": 4073,
      "uals": 4074,
      "rast": 4075,
      "uman": 4076,
      "Ġcritical": 4077,
      "ĠSalman": 4078,
      "Ġperformance": 4079,
      "Ġanti": 4080,
      "Ġsugar": 4081,
      "Ġcompetition": 4082,
      "Ġloved": 4083,
      "ĠBalakrishnan": 4084,
      "Ġetc": 4085,
      "Ġsignific": 4086,
      "oted": 4087,
      "ĠMod": 4088,
      "ĠSidd": 4089,
      "Ġbroke": 4090,
      "arim": 4091,
      "Nm": 4092,
      "Ġscient": 4093,
      "action": 4094,
      "ĠMessenger": 4095,
      "ĠSurendran": 4096,
      "Ġmankind": 4097,
      "ĠKnow": 4098,
      "ĠRoad": 4099,
      "Ġsuccessful": 4100,
      "Ġopin": 4101,
      "Ġdeploy": 4102,
      "Ġvisited": 4103,
      "ĠInstitute": 4104,
      "mark": 4105,
      "Ġresponded": 4106,
      "Ġinstru": 4107,
      "oo": 4108,
      "Ġcreate": 4109,
      "ĠKrish": 4110,
      "Ġconc": 4111,
      "Ġdistrib": 4112,
      "ĠSus": 4113,
      "Ġmatters": 4114,
      "Ġemployees": 4115,
      "Ġdark": 4116,
      "icted": 4117,
      "Ġcolla": 4118,
      "Ġwish": 4119,
      "ĠYogi": 4120,
      "Ġplaced": 4121,
      "Ġaver": 4122,
      "ĠVin": 4123,
      "wamy": 4124,
      "ĠAmendment": 4125,
      "And": 4126,
      "riculture": 4127,
      "ĠRSS": 4128,
      "Ġspokes": 4129,
      "Ġhair": 4130,
      "ĠKannada": 4131,
      "Ġgreen": 4132,
      "ĠPet": 4133,
      "inger": 4134,
      "issur": 4135,
      "enty": 4136,
      "ĠVice": 4137,
      "ollam": 4138,
      "ĠShankar": 4139,
      "Ġaffect": 4140,
      "ĠGop": 4141,
      "DA": 4142,
      "ĠWash": 4143,
      "ĠSunil": 4144,
      "ware": 4145,
      "Ġcriminal": 4146,
      "aches": 4147,
      "Ġ300": 4148,
      "rate": 4149,
      "Ġveget": 4150,
      "ĠSaudi": 4151,
      "gency": 4152,
      "handran": 4153,
      "Ġprojects": 4154,
      "Ġplease": 4155,
      "ban": 4156,
      "ĠBesides": 4157,
      "Ġ0": 4158,
      ".'": 4159,
      "ĠAssoci": 4160,
      "Ġclos": 4161,
      "ĠKal": 4162,
      "venue": 4163,
      "elfare": 4164,
      "Ġrules": 4165,
      "Ġmax": 4166,
      "Ġded": 4167,
      "Ġcomment": 4168,
      "Ġpromise": 4169,
      "Ġworlds": 4170,
      "garh": 4171,
      "Ġimm": 4172,
      "Ġwont": 4173,
      "anath": 4174,
      "Ġholy": 4175,
      "Ġslow": 4176,
      "Ġsched": 4177,
      "cient": 4178,
      "Ġlies": 4179,
      "anded": 4180,
      "Ġpolicy": 4181,
      "ĠAfghanistan": 4182,
      "Ġstre": 4183,
      "ĠDal": 4184,
      "ĠWhatsApp": 4185,
      "ĠAmerica": 4186,
      "Ġduty": 4187,
      "Ġlose": 4188,
      "ĠSham": 4189,
      "ĠThrissur": 4190,
      "Ġplayers": 4191,
      "Ġlaug": 4192,
      "Ġtrou": 4193,
      "ĠEast": 4194,
      "Ġresearch": 4195,
      "Ġdecide": 4196,
      "Ġsite": 4197,
      ".\"\"": 4198,
      "Ġchairman": 4199,
      "Ġmaterial": 4200,
      "Ġdeterm": 4201,
      "haps": 4202,
      "ĠAv": 4203,
      "Ġmedic": 4204,
      "craft": 4205,
      "ĠComp": 4206,
      "ĠFurther": 4207,
      "Ġcancelled": 4208,
      "Ġfaithful": 4209,
      "Ġtouch": 4210,
      "Ġdi": 4211,
      "ĠChan": 4212,
      "ĠPul": 4213,
      "Ġrailway": 4214,
      "oi": 4215,
      "Ġtruck": 4216,
      "Ġtourn": 4217,
      "Ġplant": 4218,
      "Ġquestioned": 4219,
      "ades": 4220,
      "Ġstra": 4221,
      "Ġresponsible": 4222,
      "Ġwalk": 4223,
      "Ġfish": 4224,
      "Ġfig": 4225,
      "ilty": 4226,
      "hips": 4227,
      "Ġdifference": 4228,
      "Ġlegisl": 4229,
      "Ġappreci": 4230,
      "harge": 4231,
      "ĠAssam": 4232,
      "CCI": 4233,
      "ĠOut": 4234,
      "Ġlaws": 4235,
      "Ġincreasing": 4236,
      "Ġcoach": 4237,
      "Ġnumb": 4238,
      "Ġposted": 4239,
      "Ġwriter": 4240,
      "ĠKollam": 4241,
      "Ġdefeat": 4242,
      "Ġapplication": 4243,
      "cipal": 4244,
      "ĠMic": 4245,
      "ĠGeor": 4246,
      "Ġparticular": 4247,
      "Ġcorre": 4248,
      "ĠPaw": 4249,
      "Ġemb": 4250,
      "ĠEach": 4251,
      "ĠDeputy": 4252,
      "ĠMamata": 4253,
      "ĠDubai": 4254,
      "fort": 4255,
      "Ġexperi": 4256,
      "akkad": 4257,
      "Ġpresence": 4258,
      "Ġcompanies": 4259,
      "au": 4260,
      "jun": 4261,
      "Ġvice": 4262,
      "Ġpartners": 4263,
      "Ġtrade": 4264,
      "aya": 4265,
      "ĠLove": 4266,
      "Ġplans": 4267,
      "ĠFrance": 4268,
      "Ġwebs": 4269,
      "using": 4270,
      "antly": 4271,
      "Ġstrict": 4272,
      "urance": 4273,
      "Ġbear": 4274,
      "Ġgun": 4275,
      "ensive": 4276,
      "Ġbuy": 4277,
      "ĠCricket": 4278,
      "ĠEm": 4279,
      "Ġnorth": 4280,
      "lit": 4281,
      "lease": 4282,
      "Ġcompletely": 4283,
      "gs": 4284,
      "ability": 4285,
      "Ġoperations": 4286,
      "pite": 4287,
      "ĠRao": 4288,
      "Ġgener": 4289,
      "ĠTH": 4290,
      "ĠFar": 4291,
      "ĠIsa": 4292,
      "Ġimplemented": 4293,
      "isf": 4294,
      "Ġmurd": 4295,
      "ĠMary": 4296,
      "Ġguilty": 4297,
      "iya": 4298,
      "igil": 4299,
      "Ġcentre": 4300,
      "ĠPublic": 4301,
      "ĠGroup": 4302,
      "Ġextrem": 4303,
      "21": 4304,
      "Ġitself": 4305,
      "Ġbeginning": 4306,
      "Ġphase": 4307,
      "Ġindepend": 4308,
      "Ġmanufact": 4309,
      "Ġdescrib": 4310,
      "ĠQu": 4311,
      "know": 4312,
      "ĠEl": 4313,
      "Ġfile": 4314,
      "ĠMenon": 4315,
      "Ġnote": 4316,
      "ĠFe": 4317,
      "Ġhumans": 4318,
      "Ġbit": 4319,
      "ĠExternal": 4320,
      "Ġterrorists": 4321,
      "usal": 4322,
      "Ġweight": 4323,
      "Ġcooperation": 4324,
      "time": 4325,
      "Ġrecent": 4326,
      "bit": 4327,
      "Ġposter": 4328,
      "ĠSrin": 4329,
      "Ġcomb": 4330,
      "ĠJanata": 4331,
      "Ġabroad": 4332,
      "ĠFamil": 4333,
      "Ġobject": 4334,
      "ĠDoes": 4335,
      "Ġchaired": 4336,
      "Ġrunning": 4337,
      "raph": 4338,
      "ratic": 4339,
      "Ġguidance": 4340,
      "Ġthinking": 4341,
      "Ġinaugurated": 4342,
      "ider": 4343,
      "Ġargu": 4344,
      "Ġpowder": 4345,
      "ask": 4346,
      "ĠPhil": 4347,
      "Ġoffering": 4348,
      "lying": 4349,
      "Ġapostle": 4350,
      "Ġgoal": 4351,
      "ĠInt": 4352,
      "ĠHC": 4353,
      "Ġant": 4354,
      "Ġmentioned": 4355,
      "Ġincidents": 4356,
      "Ġaddition": 4357,
      "ĠNCP": 4358,
      "ĠLoc": 4359,
      "light": 4360,
      "ĠBharat": 4361,
      "deep": 4362,
      "ergy": 4363,
      "Ġfat": 4364,
      "Ġtemper": 4365,
      "Ġhomes": 4366,
      "een": 4367,
      "ĠFIR": 4368,
      "ervation": 4369,
      "redit": 4370,
      "Ġcharged": 4371,
      "Ġtalking": 4372,
      "Ġaccompan": 4373,
      "ĠOp": 4374,
      "Ġshows": 4375,
      ".)": 4376,
      "sp": 4377,
      "eshwar": 4378,
      "Ġvictims": 4379,
      "Ġchallenge": 4380,
      "pecially": 4381,
      "rid": 4382,
      "Ġkid": 4383,
      "Ġflight": 4384,
      "ondon": 4385,
      "ply": 4386,
      "akumar": 4387,
      "Ġtreated": 4388,
      "Ġproud": 4389,
      "ĠNath": 4390,
      "Ġnine": 4391,
      "ĠSwar": 4392,
      "Ġtrail": 4393,
      "gree": 4394,
      "yan": 4395,
      "ĠSachin": 4396,
      "Ġrup": 4397,
      "Ġcop": 4398,
      "Ġmaximum": 4399,
      "Ġemp": 4400,
      "amin": 4401,
      "ĠKore": 4402,
      "Ġhat": 4403,
      "ga": 4404,
      "Ġcateg": 4405,
      "Ġwhite": 4406,
      "Ġinitiated": 4407,
      "ĠAc": 4408,
      "Ġnab": 4409,
      "ĠSund": 4410,
      "MP": 4411,
      "Ġarrange": 4412,
      "Ġcouldnt": 4413,
      "Ġtournament": 4414,
      "Ġorganised": 4415,
      "inch": 4416,
      "estic": 4417,
      "ĠMuhammad": 4418,
      "Ġunit": 4419,
      "Ġrelief": 4420,
      "Ġpack": 4421,
      "Ġburn": 4422,
      "Ġvalue": 4423,
      "Ġaccompanied": 4424,
      "ĠTemple": 4425,
      "Ġsymptoms": 4426,
      "Ġball": 4427,
      "Ġunf": 4428,
      "oyal": 4429,
      "Ġdesire": 4430,
      "Ġculture": 4431,
      "ĠAsia": 4432,
      "Ġprison": 4433,
      "ĠAshok": 4434,
      "ĠRail": 4435,
      "Ġbanner": 4436,
      "Ġespecially": 4437,
      "Ġcustom": 4438,
      "imate": 4439,
      "ĠMother": 4440,
      "Ġresigned": 4441,
      "Ġbattle": 4442,
      "Ġhealthy": 4443,
      "pes": 4444,
      "Ġincome": 4445,
      "ĠRom": 4446,
      "ĠAdityanath": 4447,
      "Ġstage": 4448,
      "elling": 4449,
      "ĠSatan": 4450,
      "ĠSomet": 4451,
      "Ġhop": 4452,
      "ĠChampions": 4453,
      "ĠTelangana": 4454,
      "Ġdig": 4455,
      "Ġtrees": 4456,
      "Ġcup": 4457,
      "ĠNair": 4458,
      "nes": 4459,
      "Ġassault": 4460,
      "hew": 4461,
      "Ġinjury": 4462,
      "ĠGet": 4463,
      "Ġapproved": 4464,
      "Ġpil": 4465,
      "ĠJac": 4466,
      "chayat": 4467,
      "ĠIS": 4468,
      "Ġactivists": 4469,
      "aging": 4470,
      "orrow": 4471,
      "Ġidea": 4472,
      "Is": 4473,
      "ĠWatch": 4474,
      "Ġsongs": 4475,
      "ĠAny": 4476,
      "They": 4477,
      "Ġsource": 4478,
      "IT": 4479,
      "Ġactive": 4480,
      "ĠForeign": 4481,
      "ĠTom": 4482,
      "gress": 4483,
      "Ġdom": 4484,
      "Ġmyself": 4485,
      "rench": 4486,
      "ĠMark": 4487,
      "Ġfiring": 4488,
      "arimala": 4489,
      "ĠAuthor": 4490,
      "just": 4491,
      "ĠLondon": 4492,
      "Ġdoesn": 4493,
      "Ġrear": 4494,
      "ĠThank": 4495,
      "ĠMem": 4496,
      "ĠKasar": 4497,
      "Ġcalls": 4498,
      "Ġsides": 4499,
      "Ġdeveloped": 4500,
      "ĠNav": 4501,
      "usion": 4502,
      "Ġusers": 4503,
      "Ġcoast": 4504,
      "aste": 4505,
      "idamb": 4506,
      "wise": 4507,
      "ĠUp": 4508,
      "ĠPatel": 4509,
      "Ġlie": 4510,
      "ĠAssociation": 4511,
      "Ġlived": 4512,
      "ĠSabarimala": 4513,
      "room": 4514,
      "Ġoffers": 4515,
      "ĠAmong": 4516,
      "Ġdeployed": 4517,
      "Ġachieve": 4518,
      "ĠGB": 4519,
      "ato": 4520,
      "ĠLo": 4521,
      "ĠSocial": 4522,
      "Ġcy": 4523,
      "ona": 4524,
      "Ph": 4525,
      "load": 4526,
      "ĠCal": 4527,
      "Ġdirection": 4528,
      "ĠPhoto": 4529,
      "ĠFamily": 4530,
      "Ġbran": 4531,
      "Ġbox": 4532,
      "Ġdispute": 4533,
      "ĠProp": 4534,
      "wide": 4535,
      "Ġcompris": 4536,
      "idden": 4537,
      "Ġencoun": 4538,
      "athi": 4539,
      "ĠChandy": 4540,
      "Ġbird": 4541,
      "Ġil": 4542,
      "Ġentered": 4543,
      "ĠNaray": 4544,
      "Ġtrains": 4545,
      "Ġpolicemen": 4546,
      "Ġfeature": 4547,
      "bing": 4548,
      "Ġtable": 4549,
      "Ġhours": 4550,
      "Ġangels": 4551,
      "ĠPs": 4552,
      "lict": 4553,
      "Ġ2017": 4554,
      "Ġwat": 4555,
      "Ġresignation": 4556,
      "Ġgoals": 4557,
      "icles": 4558,
      "raj": 4559,
      "Ġstatus": 4560,
      "pic": 4561,
      "ĠForce": 4562,
      "Ġ36": 4563,
      "ĠRajiv": 4564,
      "Ġwarning": 4565,
      "ĠThough": 4566,
      "Ġsubsequently": 4567,
      "Ġcontroversy": 4568,
      "lands": 4569,
      "hay": 4570,
      "Ġtick": 4571,
      "Ġguard": 4572,
      "Ġdemon": 4573,
      "IM": 4574,
      "Ġcat": 4575,
      "iday": 4576,
      "Ġ45": 4577,
      "aced": 4578,
      "ĠTeam": 4579,
      "Ġeye": 4580,
      "ĠPalakkad": 4581,
      "Ġfacilities": 4582,
      "ĠNews": 4583,
      "Ġrescued": 4584,
      "Ġfifth": 4585,
      "Ġsight": 4586,
      "yle": 4587,
      "Ġexact": 4588,
      "Ġinvited": 4589,
      "Ġproceed": 4590,
      "Ġtransport": 4591,
      "ils": 4592,
      "Ġign": 4593,
      "Ġwarned": 4594,
      "Ġwrite": 4595,
      "ĠJD": 4596,
      "Ġappeared": 4597,
      "Ġevents": 4598,
      "ĠChidamb": 4599,
      "Ġpasses": 4600,
      "ĠMural": 4601,
      "Ġfre": 4602,
      "Ġcricketer": 4603,
      "unicip": 4604,
      "gypt": 4605,
      "lappuzha": 4606,
      "law": 4607,
      "Ġuncle": 4608,
      "Ġtherein": 4609,
      "ĠBCCI": 4610,
      "uff": 4611,
      "ĠTod": 4612,
      "Ġmort": 4613,
      "Ġaccess": 4614,
      "Ġlonger": 4615,
      "ĠReddy": 4616,
      "ĠDem": 4617,
      "ĠSurely": 4618,
      "Ġid": 4619,
      "'d": 4620,
      "ER": 4621,
      "duk": 4622,
      "Ġsurpr": 4623,
      "Ġimprove": 4624,
      "ĠChidambaram": 4625,
      "Ġdro": 4626,
      "Ġvol": 4627,
      "Ġdeliver": 4628,
      "Ġcancer": 4629,
      "win": 4630,
      "Ġnative": 4631,
      "Ġ33": 4632,
      "Ġalmost": 4633,
      "Ġsession": 4634,
      "Ġautom": 4635,
      "Ġtree": 4636,
      "roid": 4637,
      "iab": 4638,
      "Ġfix": 4639,
      "ĠColle": 4640,
      "Ġvent": 4641,
      "otal": 4642,
      "litre": 4643,
      "MK": 4644,
      "ems": 4645,
      "Ġopinion": 4646,
      "vt": 4647,
      "ĠMamm": 4648,
      "Ġnature": 4649,
      "dukki": 4650,
      "Ġenvironment": 4651,
      "Ġskin": 4652,
      "Ġ198": 4653,
      "Ġsquad": 4654,
      "Ġballs": 4655,
      "Ġestablish": 4656,
      "Ġpatient": 4657,
      "aptain": 4658,
      "Ġactually": 4659,
      "Ġpromised": 4660,
      "Ġpie": 4661,
      "mohan": 4662,
      "hered": 4663,
      "acity": 4664,
      "ĠJerusal": 4665,
      "ĠCorporation": 4666,
      "):": 4667,
      "Ġbecomes": 4668,
      "atform": 4669,
      "Ġcondem": 4670,
      "ĠEgypt": 4671,
      "achandran": 4672,
      "grat": 4673,
      "ĠSree": 4674,
      "Ġlay": 4675,
      "Ġsolution": 4676,
      "Ġteach": 4677,
      "wami": 4678,
      "Ġwinning": 4679,
      "ĠUN": 4680,
      "SP": 4681,
      "Ġ90": 4682,
      "Ġwicked": 4683,
      "Ġsatisf": 4684,
      "Ġmassive": 4685,
      "Ġwonder": 4686,
      "alled": 4687,
      "Ġassistance": 4688,
      "SRTC": 4689,
      "ĠIdukki": 4690,
      "ĠUDF": 4691,
      "Ġapproach": 4692,
      "Ġextended": 4693,
      "Ġopposed": 4694,
      "Ġaircraft": 4695,
      "ĠBangalore": 4696,
      "ĠSA": 4697,
      "right": 4698,
      "Ġfam": 4699,
      "Ġthank": 4700,
      "ĠNeh": 4701,
      "ĠPeter": 4702,
      "Ġplayer": 4703,
      "ĠAlappuzha": 4704,
      "Ġilleg": 4705,
      "ĠPost": 4706,
      "BJP": 4707,
      "Ġimpact": 4708,
      "Ġwins": 4709,
      "ially": 4710,
      "orry": 4711,
      "eful": 4712,
      "Ġadditional": 4713,
      "Ġmodern": 4714,
      "ĠSush": 4715,
      "Ġ370": 4716,
      "25": 4717,
      "ĠSte": 4718,
      "Ġmeetings": 4719,
      "Ġdepend": 4720,
      "set": 4721,
      "Ġmanaged": 4722,
      "Ġspecies": 4723,
      "Ġwebsite": 4724,
      "Ġproducts": 4725,
      "Ġtoward": 4726,
      "Ġpleas": 4727,
      "Ġestablished": 4728,
      "pre": 4729,
      "ĠLeader": 4730,
      "Ġamb": 4731,
      "Ġsustained": 4732,
      "Ġweak": 4733,
      "unt": 4734,
      "Ġstands": 4735,
      "idge": 4736,
      "Ġopportunities": 4737,
      "Ġappoint": 4738,
      "Ġcell": 4739,
      "Ġharm": 4740,
      "ĠPlease": 4741,
      "indra": 4742,
      "urrection": 4743,
      "Ġmilk": 4744,
      "Ġencounter": 4745,
      "Ġinte": 4746,
      "ender": 4747,
      "ĠJerusalem": 4748,
      "Ġfathers": 4749,
      "Ġspent": 4750,
      "Ġ48": 4751,
      "Ġanimals": 4752,
      "Ġbudget": 4753,
      "Ġkil": 4754,
      "Ġdecl": 4755,
      "Ġlack": 4756,
      "Ġclar": 4757,
      "ĠPark": 4758,
      "Ġstrugg": 4759,
      "Ġdocuments": 4760,
      "abor": 4761,
      "Ġauthority": 4762,
      "ĠSwaraj": 4763,
      "ĠNever": 4764,
      "Ġexercise": 4765,
      "AE": 4766,
      "ootty": 4767,
      "ĠNep": 4768,
      "ĠOpen": 4769,
      "Ġentry": 4770,
      "Ġspend": 4771,
      "ĠBharati": 4772,
      "Ġinstitutions": 4773,
      "Ġfootage": 4774,
      "ĠMang": 4775,
      "ĠVis": 4776,
      "Ġsmartphone": 4777,
      "erciful": 4778,
      "ĠAtt": 4779,
      "Ġtitle": 4780,
      "ĠJacob": 4781,
      "What": 4782,
      "ĠPict": 4783,
      "ĠBSP": 4784,
      "Ġclaims": 4785,
      "ni": 4786,
      "Ġessential": 4787,
      "ys": 4788,
      "ĠTur": 4789,
      "AT": 4790,
      "Ġcomfort": 4791,
      "ĠRepublic": 4792,
      "Ġlower": 4793,
      "Ġcars": 4794,
      "ĠActress": 4795,
      "iber": 4796,
      "Ġunbelie": 4797,
      "Ġtrack": 4798,
      "ĠTime": 4799,
      "oming": 4800,
      "Ġextremely": 4801,
      "Ġsigned": 4802,
      "Ġmanif": 4803,
      "Ġcarry": 4804,
      "Ġpresented": 4805,
      "Ġrequire": 4806,
      "Ġagreed": 4807,
      "Ġreality": 4808,
      "Ġlockdown": 4809,
      "Ġverily": 4810,
      "ĠExpress": 4811,
      "Ġraped": 4812,
      "ĠAut": 4813,
      "ĠOh": 4814,
      "Ġprotection": 4815,
      "ĠNay": 4816,
      "Ġsisters": 4817,
      "ĠTer": 4818,
      "Ġcareer": 4819,
      "Ġbed": 4820,
      "che": 4821,
      "oples": 4822,
      "mala": 4823,
      "estern": 4824,
      "ĠVish": 4825,
      "ĠLast": 4826,
      "achal": 4827,
      "Ġtom": 4828,
      "ĠFrench": 4829,
      "ĠMammootty": 4830,
      "hav": 4831,
      "Ġancient": 4832,
      "ĠGal": 4833,
      "agram": 4834,
      "oured": 4835,
      "Ġovers": 4836,
      "Ġtaught": 4837,
      "ellow": 4838,
      "orters": 4839,
      "ĠGovt": 4840,
      "Ġadministration": 4841,
      "ĠBach": 4842,
      "Ġ34": 4843,
      "ĠManju": 4844,
      "pril": 4845,
      "isgarh": 4846,
      "Ġawards": 4847,
      "Ġobey": 4848,
      "Ġcert": 4849,
      "Ġweap": 4850,
      "Ġleads": 4851,
      "formation": 4852,
      "ĠFl": 4853,
      "Ġnumbers": 4854,
      "endran": 4855,
      "Ġaccounts": 4856,
      "Ġestim": 4857,
      "hattisgarh": 4858,
      "NG": 4859,
      "off": 4860,
      "hari": 4861,
      "ev": 4862,
      "Ġdwell": 4863,
      "Ġinternal": 4864,
      "ĠMas": 4865,
      "ĠIndust": 4866,
      "asting": 4867,
      "ethod": 4868,
      "Ġfruit": 4869,
      "uri": 4870,
      "Ġphysical": 4871,
      "iling": 4872,
      "oting": 4873,
      "ties": 4874,
      "Ġkn": 4875,
      "Ġenergy": 4876,
      "Ġbegins": 4877,
      "more": 4878,
      "ĠHindus": 4879,
      "ĠKSRTC": 4880,
      "ĠMand": 4881,
      "Ġplatform": 4882,
      "Ġconditions": 4883,
      "Ġtwice": 4884,
      "Ġrob": 4885,
      "Ġgreater": 4886,
      "Ġversion": 4887,
      "eless": 4888,
      "Ġfellow": 4889,
      "Ġapply": 4890,
      "vision": 4891,
      "ĠSir": 4892,
      "Ġconfidence": 4893,
      "Ġcomplaints": 4894,
      "Ġski": 4895,
      "vendra": 4896,
      "ĠBJPs": 4897,
      "Ġdamage": 4898,
      "Ġbelongs": 4899,
      "Ġquality": 4900,
      "Ġ2014": 4901,
      "ography": 4902,
      "Ġprior": 4903,
      "Ġscared": 4904,
      "Ġhavent": 4905,
      "gend": 4906,
      "tty": 4907,
      "Ġsound": 4908,
      "Ġmouth": 4909,
      "ĠNet": 4910,
      "Ġnormal": 4911,
      "Ġoath": 4912,
      "Ġfuel": 4913,
      "ously": 4914,
      "Ġgradu": 4915,
      "Ġconstituencies": 4916,
      "'.": 4917,
      "Ġconspir": 4918,
      "SC": 4919,
      "rel": 4920,
      "ĠAks": 4921,
      "ĠSind": 4922,
      "ĠNa": 4923,
      "Ġchoose": 4924,
      "ĠIve": 4925,
      "Ġsupported": 4926,
      "ĠGeorge": 4927,
      "Ġdegree": 4928,
      "Ġcauses": 4929,
      "za": 4930,
      "Ġimage": 4931,
      "Ġmid": 4932,
      "Ġmovement": 4933,
      "Ġloving": 4934,
      "ĠICC": 4935,
      "ĠPathan": 4936,
      "eks": 4937,
      "Ġresidents": 4938,
      "Ġjobs": 4939,
      "Ġparliament": 4940,
      "ĠQur": 4941,
      "ĠKamal": 4942,
      "Ġcongrat": 4943,
      "ĠBachchan": 4944,
      "Ġnobody": 4945,
      "ĠTend": 4946,
      "Ġsupply": 4947,
      "Ġcircum": 4948,
      "Ġrange": 4949,
      "arr": 4950,
      "ĠFood": 4951,
      "enant": 4952,
      "ĠMil": 4953,
      "ĠElect": 4954,
      "ĠMarch": 4955,
      "Ġwealth": 4956,
      "Ġgard": 4957,
      "Ġrisk": 4958,
      "Ġreject": 4959,
      "ixel": 4960,
      "ĠManmohan": 4961,
      "ĠMag": 4962,
      "JD": 4963,
      "ĠInstagram": 4964,
      "Ġ197": 4965,
      "Ġrainfall": 4966,
      "Ġcapacity": 4967,
      "Ġwilling": 4968,
      "ĠSer": 4969,
      "PF": 4970,
      "Ġhappiness": 4971,
      "Ġprinci": 4972,
      "Ġwisdom": 4973,
      "ox": 4974,
      "Ġgather": 4975,
      "Ġremaining": 4976,
      "ĠNag": 4977,
      "ĠKeep": 4978,
      "aksh": 4979,
      "ĠMani": 4980,
      "Ġlands": 4981,
      "iddle": 4982,
      "ady": 4983,
      "Ġgrowing": 4984,
      "Ġsports": 4985,
      "Ġbound": 4986,
      "ening": 4987,
      "Ġliter": 4988,
      "Ġconfirm": 4989,
      "Ġsense": 4990,
      "Ġcul": 4991,
      "ivered": 4992,
      "adium": 4993,
      "ĠIN": 4994,
      "Ġspoken": 4995,
      "Ġmilitants": 4996,
      "ĠMor": 4997,
      "ivity": 4998,
      "Ġworry": 4999,
      "Ġwidely": 5000,
      "ĠBharatiya": 5001,
      "ĠCurrent": 5002,
      "Ġrivers": 5003,
      "ĠCommissioner": 5004,
      "Ġtur": 5005,
      "ĠApril": 5006,
      "Ġreduce": 5007,
      "oring": 5008,
      "Ġgovt": 5009,
      "udden": 5010,
      "ĠTendul": 5011,
      "Ġdiscussions": 5012,
      "Ġdriving": 5013,
      "Ġcriticism": 5014,
      "Ġyes": 5015,
      "abh": 5016,
      "ĠRAM": 5017,
      "Ġdecisions": 5018,
      "Ġterms": 5019,
      "Ġfestival": 5020,
      "ĠChhattisgarh": 5021,
      "18": 5022,
      "Ġdangerous": 5023,
      "ava": 5024,
      "Ġtear": 5025,
      "ĠMath": 5026,
      "Ġmission": 5027,
      "ĠKrishna": 5028,
      "nces": 5029,
      "ĠKun": 5030,
      "Ġintroduced": 5031,
      "ane": 5032,
      "Ġliqu": 5033,
      "Ġinfection": 5034,
      "Ġruling": 5035,
      "ĠScience": 5036,
      "ĠMS": 5037,
      "ĠPower": 5038,
      "ĠUAE": 5039,
      "ĠSecond": 5040,
      "ĠKP": 5041,
      "IA": 5042,
      "ĠMahindra": 5043,
      "Ġpros": 5044,
      "Ġfaces": 5045,
      "Ġpicked": 5046,
      "ented": 5047,
      "ĠVerily": 5048,
      "Ġhast": 5049,
      "Ġsection": 5050,
      "Ġsources": 5051,
      "Ġlimit": 5052,
      "Ġsilver": 5053,
      "Ġgas": 5054,
      "ĠBabu": 5055,
      "Ġdrinking": 5056,
      "Ġeffort": 5057,
      "acted": 5058,
      "hum": 5059,
      "ima": 5060,
      "Ġste": 5061,
      "rack": 5062,
      "Ġmaintain": 5063,
      "ĠBa": 5064,
      "Ġterrit": 5065,
      "ĠVik": 5066,
      "ĠAndroid": 5067,
      "Ġconcerned": 5068,
      "Ġfra": 5069,
      "Ġmultiple": 5070,
      "Ġpriced": 5071,
      "Ġund": 5072,
      "Ġorganis": 5073,
      "icate": 5074,
      "ĠToday": 5075,
      "ĠSC": 5076,
      "ĠLike": 5077,
      "Ġupd": 5078,
      "astic": 5079,
      "Ġrates": 5080,
      "Ġcomput": 5081,
      "ĠMusic": 5082,
      "Ġvs": 5083,
      "Ġtext": 5084,
      "Ġvideos": 5085,
      "ĠJames": 5086,
      "Ġplane": 5087,
      "Ġyourselves": 5088,
      "Ġchair": 5089,
      "Ġjudgment": 5090,
      "rub": 5091,
      "Ġbanned": 5092,
      "Ġmanifest": 5093,
      "efore": 5094,
      "Ġfaced": 5095,
      "ĠSpeaker": 5096,
      "Ġfootball": 5097,
      "ĠDGP": 5098,
      "Ġconvict": 5099,
      "Ġdelivered": 5100,
      "Ġelder": 5101,
      "Ġgain": 5102,
      "ĠUK": 5103,
      "Ġgear": 5104,
      "ĠHist": 5105,
      "Ġ2016": 5106,
      "Ġbowl": 5107,
      "rastructure": 5108,
      "harged": 5109,
      "ols": 5110,
      "ĠSithar": 5111,
      "Ġescap": 5112,
      "ĠAug": 5113,
      "Ġacting": 5114,
      "Ġfair": 5115,
      "Ġbesides": 5116,
      "ED": 5117,
      "ĠHa": 5118,
      "athy": 5119,
      "Ġscene": 5120,
      "member": 5121,
      "ĠOct": 5122,
      "ĠVad": 5123,
      "Ġintens": 5124,
      "ĠLets": 5125,
      "lt": 5126,
      "Ġprimary": 5127,
      "Ġshops": 5128,
      "ishermen": 5129,
      "Ġcounsel": 5130,
      "Ġvegetables": 5131,
      "unk": 5132,
      "Ġproduces": 5133,
      "ĠPill": 5134,
      "Ġoption": 5135,
      "gap": 5136,
      "500": 5137,
      "kur": 5138,
      "Ġconcern": 5139,
      "iter": 5140,
      "IS": 5141,
      "ĠFund": 5142,
      "Ġsuc": 5143,
      "Ġhero": 5144,
      "ĠSushma": 5145,
      "asi": 5146,
      "ĠYork": 5147,
      "Ġbi": 5148,
      "ĠConf": 5149,
      "ĠTim": 5150,
      "Ġclash": 5151,
      "Ġsky": 5152,
      "Ġtrailer": 5153,
      "ĠMish": 5154,
      "Ġstations": 5155,
      "Ġcreation": 5156,
      "Ġopening": 5157,
      "Ġphoto": 5158,
      "Ġexplos": 5159,
      "Ġly": 5160,
      "Ġmeaning": 5161,
      "ĠIC": 5162,
      "ĠProdu": 5163,
      "Ġquickly": 5164,
      "Ġpriest": 5165,
      "Ġequal": 5166,
      "Ġunderstanding": 5167,
      "ĠTendulkar": 5168,
      "In": 5169,
      "Ġnort": 5170,
      "utt": 5171,
      "],": 5172,
      "akers": 5173,
      "Ġorigin": 5174,
      "Ġcorrect": 5175,
      "Ġprovision": 5176,
      "Ġmishap": 5177,
      "ĠEconom": 5178,
      "ĠApple": 5179,
      "Ġsoft": 5180,
      "ĠAround": 5181,
      "Ġextra": 5182,
      "aks": 5183,
      "ĠRamachandran": 5184,
      "Ġdefence": 5185,
      "Ġholds": 5186,
      "Ġscience": 5187,
      "istic": 5188,
      "ipur": 5189,
      "Ġproof": 5190,
      "Ġrevel": 5191,
      "Ġhasnt": 5192,
      "Ġteasp": 5193,
      "onda": 5194,
      "Ġquit": 5195,
      "Ġbroken": 5196,
      "iveness": 5197,
      "Ġpurs": 5198,
      "India": 5199,
      "Ġpenal": 5200,
      "ĠSept": 5201,
      "Ġcitizenship": 5202,
      "Ġfled": 5203,
      "Ġremarks": 5204,
      "Ġsad": 5205,
      "iced": 5206,
      "ĠVal": 5207,
      "based": 5208,
      "Ġbey": 5209,
      "Ġfighting": 5210,
      "ĠAAP": 5211,
      "ĠSitharaman": 5212,
      "ĠMur": 5213,
      "ranch": 5214,
      "Ġ64": 5215,
      "igg": 5216,
      "ĠiPh": 5217,
      "Ġaudience": 5218,
      "ĠHell": 5219,
      "ĠWarrier": 5220,
      "Ġbeyond": 5221,
      "Ġthroughout": 5222,
      "ĠOrgan": 5223,
      "ĠNarayan": 5224,
      "Ġarriv": 5225,
      "ruck": 5226,
      "ĠRailway": 5227,
      "Ġlatest": 5228,
      "Ġconstitution": 5229,
      "Ġasking": 5230,
      "Ġperfect": 5231,
      "Ġlearned": 5232,
      "Ġcontesting": 5233,
      "Ġterrorist": 5234,
      "SE": 5235,
      "Ġhor": 5236,
      "lymp": 5237,
      "Ġconvers": 5238,
      "Ġpowerful": 5239,
      "Ġstood": 5240,
      "Ġcolleges": 5241,
      "Ġdouble": 5242,
      "ela": 5243,
      "asek": 5244,
      "Ġspokesperson": 5245,
      "inals": 5246,
      "Ġbuses": 5247,
      "ĠSand": 5248,
      "Ġdemanding": 5249,
      "Ġcold": 5250,
      "ĠPen": 5251,
      "ovid": 5252,
      "ĠMishra": 5253,
      "ption": 5254,
      "owed": 5255,
      "Ġcook": 5256,
      "Ġworst": 5257,
      "Ġinvestment": 5258,
      "ĠNepal": 5259,
      "ĠMake": 5260,
      "Ġround": 5261,
      "Ġcas": 5262,
      "sed": 5263,
      "Ġmarks": 5264,
      "ume": 5265,
      "AR": 5266,
      "Ġindividual": 5267,
      "Ġweeks": 5268,
      "Ġcabinet": 5269,
      "Ġtype": 5270,
      "ĠSin": 5271,
      "ĠMon": 5272,
      "ĠOlymp": 5273,
      "Ġdomestic": 5274,
      "Ġmanagement": 5275,
      "coh": 5276,
      "ĠGh": 5277,
      "Ġstudies": 5278,
      "Ġcrowd": 5279,
      "Ġastr": 5280,
      "ĠLeg": 5281,
      "Ġbrand": 5282,
      "Ġtested": 5283,
      "Ġanswered": 5284,
      "Ġtravelling": 5285,
      "Ġemergency": 5286,
      "ĠInvestigation": 5287,
      "stances": 5288,
      "Ġtransl": 5289,
      "Ġindividuals": 5290,
      "ĠIndies": 5291,
      "Ġexamples": 5292,
      "Ġpossess": 5293,
      "unch": 5294,
      "ocate": 5295,
      "known": 5296,
      "cohol": 5297,
      "ĠAnand": 5298,
      "Ġsubmit": 5299,
      "Ġvacc": 5300,
      "Ġtests": 5301,
      "pex": 5302,
      "ĠAlthough": 5303,
      "ĠTax": 5304,
      "Ġagency": 5305,
      "ĠNirmala": 5306,
      "arily": 5307,
      "rogation": 5308,
      "ograph": 5309,
      "ĠNone": 5310,
      "Ġdisciples": 5311,
      "Ġterrorism": 5312,
      "ĠGog": 5313,
      "ius": 5314,
      "Ġsick": 5315,
      "Ġsurf": 5316,
      "jith": 5317,
      "Ġmethod": 5318,
      "Ġtheat": 5319,
      "ĠGST": 5320,
      "ĠJait": 5321,
      "Ġassign": 5322,
      "Ġcollaps": 5323,
      "Ġdiscl": 5324,
      "Ġshowed": 5325,
      "ipp": 5326,
      "Ġfake": 5327,
      "ĠKa": 5328,
      "ĠTechnology": 5329,
      "ĠHel": 5330,
      "Ġhell": 5331,
      "wat": 5332,
      "adise": 5333,
      "Ġpolitic": 5334,
      "Ġjournalist": 5335,
      "ĠSiv": 5336,
      "Ġforever": 5337,
      "ĠPillai": 5338,
      "Ġfully": 5339,
      "Ġprayers": 5340,
      "Ġculp": 5341,
      "ĠGree": 5342,
      "Ġprove": 5343,
      "Ġourselves": 5344,
      "ĠThousand": 5345,
      "Ġrespectively": 5346,
      "Ġdefeated": 5347,
      "Ġtro": 5348,
      "Ġsett": 5349,
      "Ġaverage": 5350,
      "ĠBus": 5351,
      "fficient": 5352,
      "Ġ250": 5353,
      "Ġskipper": 5354,
      "ĠMohammad": 5355,
      "Ġsucceed": 5356,
      "Ġmoving": 5357,
      "You": 5358,
      "Ġreading": 5359,
      "Ġongoing": 5360,
      "Ġmill": 5361,
      "Ġsuffer": 5362,
      "Ġurged": 5363,
      "Ġthousands": 5364,
      "Ġ400": 5365,
      "ĠPolit": 5366,
      "Ġbelief": 5367,
      "Ġtemperature": 5368,
      "ĠKad": 5369,
      "Ġescape": 5370,
      "gapixel": 5371,
      "ĠDha": 5372,
      "Ġshown": 5373,
      "Ġchallenges": 5374,
      "Ġserving": 5375,
      "Ġbeha": 5376,
      "Ġmotorcy": 5377,
      "rim": 5378,
      "hem": 5379,
      "Ġfactor": 5380,
      "15": 5381,
      "ĠChop": 5382,
      "Ġprovides": 5383,
      "Ġmere": 5384,
      "Ġ75": 5385,
      "12": 5386,
      "MC": 5387,
      "Ġwriting": 5388,
      "Ġpm": 5389,
      "Ġfamous": 5390,
      "ĠSant": 5391,
      "ĠKov": 5392,
      "ĠChairman": 5393,
      "ĠAugust": 5394,
      "ita": 5395,
      "Ġimposed": 5396,
      "Ġseems": 5397,
      "ĠCommun": 5398,
      "Ġawarded": 5399,
      "ĠWhich": 5400,
      "Ġmanner": 5401,
      "ĠAjit": 5402,
      "ĠSum": 5403,
      "Ġorders": 5404,
      "ĠRahman": 5405,
      "haraoh": 5406,
      "Ġbra": 5407,
      "Ġwarm": 5408,
      "ĠHas": 5409,
      "ĠProphet": 5410,
      "ped": 5411,
      "Ġobt": 5412,
      "Ġmigr": 5413,
      "ulted": 5414,
      "Ġsitting": 5415,
      "Ġstories": 5416,
      "Ġconspiracy": 5417,
      "ĠPlay": 5418,
      "Ġkingdom": 5419,
      "athan": 5420,
      "Ġfinally": 5421,
      "lear": 5422,
      "ĠBraz": 5423,
      "ĠImran": 5424,
      "ĠRussian": 5425,
      "ĠJaitley": 5426,
      "Ġbond": 5427,
      "Ġunits": 5428,
      "ĠAng": 5429,
      "Ġreceiving": 5430,
      "pass": 5431,
      "ĠPawar": 5432,
      "Ġapproval": 5433,
      "Ġaffairs": 5434,
      "uti": 5435,
      "ĠNDA": 5436,
      "ĠBas": 5437,
      "Ġ|": 5438,
      "Ġmoon": 5439,
      "ĠCrime": 5440,
      "Ġstayed": 5441,
      "ĠSubsequently": 5442,
      "ĠDiv": 5443,
      "Ġcomments": 5444,
      "ales": 5445,
      "ĠJose": 5446,
      "Ġapex": 5447,
      "Ġbin": 5448,
      "NU": 5449,
      "Ġphones": 5450,
      "Ġcounter": 5451,
      "Ġinvestigations": 5452,
      "Ġcriticised": 5453,
      "Ġconcerning": 5454,
      "ĠAam": 5455,
      "Ġcarrying": 5456,
      "bsp": 5457,
      "ĠSection": 5458,
      "Ġadvice": 5459,
      "ĠAjay": 5460,
      "ĠUr": 5461,
      "eer": 5462,
      "ĠDi": 5463,
      "Ġgarlic": 5464,
      "ober": 5465,
      "Ġmas": 5466,
      "Ġpurcha": 5467,
      "Ġstraight": 5468,
      "round": 5469,
      "itate": 5470,
      "rial": 5471,
      "ĠInc": 5472,
      "ĠJag": 5473,
      "Ġclot": 5474,
      "Ġproperty": 5475,
      "ĠPrin": 5476,
      "Ġguide": 5477,
      "igence": 5478,
      "If": 5479,
      "cember": 5480,
      "thern": 5481,
      "Ġinstead": 5482,
      "mm": 5483,
      "Ġexchan": 5484,
      "Ġhol": 5485,
      "Ġtruly": 5486,
      "OC": 5487,
      "Ġrather": 5488,
      "ĠAp": 5489,
      "ĠWas": 5490,
      "Ġrecommend": 5491,
      "Ġchance": 5492,
      "standing": 5493,
      "Ġloan": 5494,
      "ips": 5495,
      "ĠMeh": 5496,
      "Ġwise": 5497,
      "ulations": 5498,
      "ocks": 5499,
      "Ġgreatest": 5500,
      "ĠIT": 5501,
      "ĠBefore": 5502,
      "Ġeg": 5503,
      "Ġthereafter": 5504,
      "ĠSeptember": 5505,
      "ĠGoog": 5506,
      "ĠWork": 5507,
      "ĠResearch": 5508,
      "Ġleaves": 5509,
      "hern": 5510,
      "Ġproduce": 5511,
      "Ġcrash": 5512,
      "ĠAntony": 5513,
      "Ġsale": 5514,
      "Ġresidence": 5515,
      "Ġprophe": 5516,
      "Ġprosec": 5517,
      "Ġproved": 5518,
      "Ġreplied": 5519,
      "ili": 5520,
      "Ġflights": 5521,
      "Ġfort": 5522,
      "Ġculprit": 5523,
      "ria": 5524,
      "Ġtradition": 5525,
      "Ġ$": 5526,
      "Ġlevels": 5527,
      "ĠJuly": 5528,
      "Ġinsp": 5529,
      "ĠAkshay": 5530,
      "ĠKum": 5531,
      "erted": 5532,
      "ĠMPs": 5533,
      "ources": 5534,
      "Al": 5535,
      "ĠKart": 5536,
      "Ġapolog": 5537,
      "ĠCurrently": 5538,
      "ĠBet": 5539,
      "ground": 5540,
      "itch": 5541,
      "Ġfocus": 5542,
      "ĠFans": 5543,
      "endra": 5544,
      "60": 5545,
      "ĠMukesh": 5546,
      "Ġtorment": 5547,
      "Ġpoet": 5548,
      "Ġdebate": 5549,
      "Ġtrouble": 5550,
      "imb": 5551,
      "Ġresolution": 5552,
      "ĠOthers": 5553,
      "ĠArjun": 5554,
      "ĠReal": 5555,
      "agod": 5556,
      "ĠBlack": 5557,
      "Ġce": 5558,
      "Ġsignificant": 5559,
      "ĠiPhone": 5560,
      "999": 5561,
      "ĠLt": 5562,
      "Ġrefuge": 5563,
      "Ġfruits": 5564,
      "AS": 5565,
      "ĠGreat": 5566,
      "Ġ44": 5567,
      "Ġadvant": 5568,
      "Ġsam": 5569,
      "Ġrock": 5570,
      "awa": 5571,
      "ĠShami": 5572,
      "ĠRailways": 5573,
      "Ġbranch": 5574,
      "bre": 5575,
      "Ġwitnesses": 5576,
      "Ġlog": 5577,
      "Ġvision": 5578,
      "ĠOd": 5579,
      "Ġdistance": 5580,
      "ĠBrazil": 5581,
      "ĠArabia": 5582,
      "ĠNar": 5583,
      "Ġjudicial": 5584,
      "22": 5585,
      "Ġreduced": 5586,
      "uv": 5587,
      "Ġunc": 5588,
      "Ġraise": 5589,
      "rad": 5590,
      "Ġuniversity": 5591,
      "Ġchill": 5592,
      "ota": 5593,
      "Ġscheduled": 5594,
      "Ġsentence": 5595,
      "lies": 5596,
      "ĠKings": 5597,
      "ĠYe": 5598,
      "Ġpraise": 5599,
      "AI": 5600,
      "Ġstone": 5601,
      "ults": 5602,
      "ĠThousands": 5603,
      "ĠCount": 5604,
      "ĠLuck": 5605,
      "ĠInternet": 5606,
      "aswamy": 5607,
      "Ġlawyer": 5608,
      "ĠRanjan": 5609,
      "Ġdrive": 5610,
      "gin": 5611,
      "Ġweather": 5612,
      "Ġprotestors": 5613,
      "Ġtheres": 5614,
      "Ġassured": 5615,
      "Ġlakhs": 5616,
      "ĠOffice": 5617,
      "Ġkg": 5618,
      "ĠCoronavirus": 5619,
      "ĠNove": 5620,
      "ikanth": 5621,
      "iles": 5622,
      "ĠHuman": 5623,
      "Ġcosts": 5624,
      "humi": 5625,
      "yl": 5626,
      "Ġcry": 5627,
      "Ġfee": 5628,
      "ula": 5629,
      "Ġimportance": 5630,
      "ington": 5631,
      "Ġmountains": 5632,
      "arajan": 5633,
      "Ġestimated": 5634,
      "ĠTour": 5635,
      "ĠService": 5636,
      "Ġbatsman": 5637,
      "Ġillegal": 5638,
      "There": 5639,
      "giving": 5640,
      "mand": 5641,
      "Ġsins": 5642,
      "Ġsir": 5643,
      "Ġnovel": 5644,
      "ĠAN": 5645,
      "Ġencoura": 5646,
      "Ġtesting": 5647,
      "Ġdeny": 5648,
      "ĠGur": 5649,
      "ĠAyod": 5650,
      "ora": 5651,
      "Ġactions": 5652,
      "Ġcalling": 5653,
      "Ġdiseases": 5654,
      "rupted": 5655,
      "rat": 5656,
      "ĠIslamic": 5657,
      "ĠSindhu": 5658,
      "ĠHeres": 5659,
      "Ġforgive": 5660,
      "Ġphotos": 5661,
      "Ġ194": 5662,
      "Ġdisbelieve": 5663,
      "ino": 5664,
      "Ġwhoever": 5665,
      "Ġcommer": 5666,
      "Ġrepeated": 5667,
      "ĠPune": 5668,
      "Ġlearning": 5669,
      "ĠJune": 5670,
      "ials": 5671,
      "ĠGoogle": 5672,
      "agh": 5673,
      "Ġforb": 5674,
      "Ġproc": 5675,
      "ĠDecember": 5676,
      "Ġprofession": 5677,
      "Ġfresh": 5678,
      "Ġbecoming": 5679,
      "Ġrestrict": 5680,
      "uddin": 5681,
      "Ġseparate": 5682,
      "ĠAyodhya": 5683,
      "ĠNaz": 5684,
      "riate": 5685,
      "ĠStill": 5686,
      "II": 5687,
      "ĠGogoi": 5688,
      "igilance": 5689,
      "Ġharass": 5690,
      "ĠThakur": 5691,
      "ĠInter": 5692,
      "Ġcontain": 5693,
      "khand": 5694,
      "ĠIndira": 5695,
      "Ġdivided": 5696,
      "Ġcrucial": 5697,
      "ĠWere": 5698,
      "ĠRiver": 5699,
      "rav": 5700,
      "ĠMahat": 5701,
      "uki": 5702,
      "Ġanswers": 5703,
      "Ġmarkets": 5704,
      "Ġ39": 5705,
      "rubhumi": 5706,
      "ĠRajesh": 5707,
      "Ġproced": 5708,
      "Ġimmediate": 5709,
      "Ġescaped": 5710,
      "Ġmeant": 5711,
      "with": 5712,
      "ĠKuldeep": 5713,
      "Ġdram": 5714,
      "ĠKasaragod": 5715,
      "onding": 5716,
      "Ġpreaching": 5717,
      "Ġ38": 5718,
      "ĠJews": 5719,
      "Ġmos": 5720,
      "Ġastray": 5721,
      "Ġcultural": 5722,
      "ĠOctober": 5723,
      "Ġbapt": 5724,
      "Ġwasn": 5725,
      "ĠCinem": 5726,
      "Ġeager": 5727,
      "Ġnoted": 5728,
      "Ġbirthday": 5729,
      "Ġfle": 5730,
      "Ġreferred": 5731,
      "Ġaddressing": 5732,
      "Ġnumerous": 5733,
      "ructed": 5734,
      "Ġchurch": 5735,
      "Ġprophet": 5736,
      "Ġconclud": 5737,
      "osal": 5738,
      "ĠJanuary": 5739,
      "Ġpand": 5740,
      "quar": 5741,
      "Ġgang": 5742,
      "Ġalcohol": 5743,
      "Ġconsec": 5744,
      "Ġbattery": 5745,
      "Ġexcell": 5746,
      "ĠCivil": 5747,
      "ulate": 5748,
      "Ġbasic": 5749,
      "Ġovert": 5750,
      "ĠAsian": 5751,
      "ĠSmith": 5752,
      "aked": 5753,
      "ĠNehru": 5754,
      "Ġbase": 5755,
      "Ġlying": 5756,
      "iger": 5757,
      "ĠDemoc": 5758,
      "Ġanybody": 5759,
      "Ġprec": 5760,
      "Ġguided": 5761,
      "ĠKovind": 5762,
      "Ġboys": 5763,
      "ĠJob": 5764,
      "Ġasks": 5765,
      "Ġfloor": 5766,
      "Ġproducing": 5767,
      "Ġnearly": 5768,
      "Ġagreement": 5769,
      "ĠKorea": 5770,
      "Ġbul": 5771,
      "ĠFran": 5772,
      "ĠOnce": 5773,
      "ĠEuropean": 5774,
      "Ġpainful": 5775,
      "itable": 5776,
      "ĠMin": 5777,
      "Ġmental": 5778,
      "dd": 5779,
      "gery": 5780,
      "ĠHapp": 5781,
      "Ġdele": 5782,
      "Ġ42": 5783,
      "Ġhonour": 5784,
      "ĠEnter": 5785,
      "Ġcov": 5786,
      "ĠChar": 5787,
      "vert": 5788,
      "lip": 5789,
      "ĠPay": 5790,
      "\"\",": 5791,
      "Ġquestioning": 5792,
      "Ġmedal": 5793,
      "ĠSometimes": 5794,
      "Ġcourts": 5795,
      "doers": 5796,
      "ĠGen": 5797,
      "Ġcompens": 5798,
      "Ġprominent": 5799,
      "Ġstrongly": 5800,
      "Ġu": 5801,
      "megapixel": 5802,
      "ĠMerciful": 5803,
      "Ġisn": 5804,
      "Ġemployment": 5805,
      "AD": 5806,
      "kay": 5807,
      "Ġdetailed": 5808,
      "asw": 5809,
      "owned": 5810,
      "Ġmurdered": 5811,
      "Ġcentres": 5812,
      "Ġchast": 5813,
      "Ġdepos": 5814,
      "Ġproviding": 5815,
      "bar": 5816,
      "ĠSreed": 5817,
      "ĠPort": 5818,
      "owing": 5819,
      "Ġfinished": 5820,
      "wama": 5821,
      "akshmi": 5822,
      "ilater": 5823,
      "Ġisol": 5824,
      "uls": 5825,
      "Ġruled": 5826,
      "ĠChandr": 5827,
      "Ġlaid": 5828,
      "Ġselected": 5829,
      "ĠMedia": 5830,
      "Ġperformed": 5831,
      "rary": 5832,
      "ĠMer": 5833,
      "ĠEngine": 5834,
      "Ġdeputy": 5835,
      "Ġadj": 5836,
      "Ġstanding": 5837,
      "Ġcircumstances": 5838,
      "Ġcredit": 5839,
      "ademy": 5840,
      "Ġwear": 5841,
      "itted": 5842,
      "Ġconnect": 5843,
      "inikanth": 5844,
      "But": 5845,
      "ĠCovid": 5846,
      "umrah": 5847,
      "match": 5848,
      "Ġtbsp": 5849,
      "ighty": 5850,
      "Ġpaint": 5851,
      "Ġalive": 5852,
      "ĠHes": 5853,
      "ushan": 5854,
      "ĠAbu": 5855,
      "Ġerror": 5856,
      "pris": 5857,
      "essor": 5858,
      "ĠGopi": 5859,
      "ĠKPCC": 5860,
      "Ġtempor": 5861,
      "Ġplanning": 5862,
      "Ġcontinuing": 5863,
      "eras": 5864,
      "ĠChopra": 5865,
      "ĠPulwama": 5866,
      "Ġallegation": 5867,
      "itta": 5868,
      "ĠPut": 5869,
      "agers": 5870,
      "Ġcontains": 5871,
      "ĠSrinagar": 5872,
      "min": 5873,
      "mier": 5874,
      "ida": 5875,
      "Ġchoice": 5876,
      "Ġproduct": 5877,
      "kes": 5878,
      "Ġnabbed": 5879,
      "lappally": 5880,
      "ĠSoon": 5881,
      "17": 5882,
      "andan": 5883,
      "oked": 5884,
      "Ġenemy": 5885,
      "Ġdial": 5886,
      "aji": 5887,
      "Ġfacility": 5888,
      "ĠGermany": 5889,
      "UR": 5890,
      "ĠPrab": 5891,
      "ĠInf": 5892,
      "iversary": 5893,
      "Ġinterested": 5894,
      "pro": 5895,
      "ĠEarth": 5896,
      "Ġeast": 5897,
      "Ġaspect": 5898,
      "Ġteaching": 5899,
      "Ġseeing": 5900,
      "Ġposts": 5901,
      "Ġstab": 5902,
      "Ġaband": 5903,
      "Ġmand": 5904,
      "Ġblessings": 5905,
      "ici": 5906,
      "chol": 5907,
      "ĠNovember": 5908,
      "ĠManoj": 5909,
      "ĠBumrah": 5910,
      "ĠRajinikanth": 5911,
      "ĠWhite": 5912,
      "Ġbal": 5913,
      "ĠNote": 5914,
      "Ġviews": 5915,
      "Ġcareful": 5916,
      "ĠAvoid": 5917,
      "ĠMajor": 5918,
      "ico": 5919,
      "ukh": 5920,
      "Ġmut": 5921,
      "ĠAction": 5922,
      "ster": 5923,
      "ĠWhe": 5924,
      "gen": 5925,
      "Ġblock": 5926,
      "Ġmeasure": 5927,
      "key": 5928,
      "emies": 5929,
      "Ġheat": 5930,
      "ĠOom": 5931,
      "Ġtelevision": 5932,
      "Ġremanded": 5933,
      "Ġblind": 5934,
      "Ġinfluence": 5935,
      "isc": 5936,
      "Ġyounger": 5937,
      "ĠWoman": 5938,
      "Ġinternet": 5939,
      "rophy": 5940,
      "Ġbri": 5941,
      "Ġtoss": 5942,
      "Ġparticipate": 5943,
      "ĠCR": 5944,
      "ĠRavind": 5945,
      "Ġproducer": 5946,
      "ĠPass": 5947,
      "ĠStep": 5948,
      "ĠUnt": 5949,
      "ĠAbdullah": 5950,
      "Ġamaz": 5951,
      "iar": 5952,
      "Ġfinance": 5953,
      "Ġps": 5954,
      "Ġhousehold": 5955,
      "Ġpandemic": 5956,
      "Ġhung": 5957,
      "ĠMahatma": 5958,
      "Ġfever": 5959,
      "Ġyouths": 5960,
      "Ġspecific": 5961,
      "Ġcelebrated": 5962,
      "Ġfollowers": 5963,
      "Ġpeak": 5964,
      "Ġstatements": 5965,
      "ĠManj": 5966,
      "].": 5967,
      "ĠTimes": 5968,
      "Ġsacrifice": 5969,
      "omon": 5970,
      "Ġeffective": 5971,
      "Ġwives": 5972,
      "Ġcovenant": 5973,
      "Ġmine": 5974,
      "ĠHard": 5975,
      "Ġsituated": 5976,
      "ĠSamaj": 5977,
      "ON": 5978,
      "ĠJhar": 5979,
      "Ġremove": 5980,
      "ĠRai": 5981,
      "Ġwishes": 5982,
      "ĠOommen": 5983,
      "16": 5984,
      "thitta": 5985,
      "Ġhits": 5986,
      "Ġnegative": 5987,
      "ĠPharaoh": 5988,
      "Ġorganisation": 5989,
      "Ġsometimes": 5990,
      "oure": 5991,
      "illa": 5992,
      "Ġsimply": 5993,
      "Ġarrangements": 5994,
      "ĠSuz": 5995,
      "Ġ:": 5996,
      "isted": 5997,
      "ĠUm": 5998,
      "Ġflag": 5999,
      "havan": 6000,
      "ĠWould": 6001,
      "ĠFC": 6002,
      "appa": 6003,
      "ĠSimilar": 6004,
      "Ġunion": 6005,
      "iverse": 6006,
      "Ġvari": 6007,
      "oso": 6008,
      "Ġintegr": 6009,
      "ĠBin": 6010,
      "hana": 6011,
      "upta": 6012,
      "Ġarrests": 6013,
      "Ġtaste": 6014,
      "Ġpiv": 6015,
      "ĠIndepend": 6016,
      "thew": 6017,
      "Ġthanks": 6018,
      "Ġmir": 6019,
      "ĠMir": 6020,
      "ĠAB": 6021,
      "Ġrevenue": 6022,
      "Ġsales": 6023,
      "hek": 6024,
      "earing": 6025,
      "Ġder": 6026,
      "Ġinvestigated": 6027,
      "Ġaid": 6028,
      "onna": 6029,
      "useum": 6030,
      "Ġwounded": 6031,
      "Ġroute": 6032,
      "ole": 6033,
      "Ġreveal": 6034,
      "Ġunbelievers": 6035,
      "ĠTransport": 6036,
      "run": 6037,
      "ĠDeath": 6038,
      "ĠAdam": 6039,
      "ĠMatthew": 6040,
      "Ġarch": 6041,
      "Ġcontract": 6042,
      "nu": 6043,
      "ĠWilli": 6044,
      "Ġwide": 6045,
      "Ġadop": 6046,
      "orial": 6047,
      "Ġmic": 6048,
      "ateful": 6049,
      "apers": 6050,
      "Ġcertific": 6051,
      "Ġsuspected": 6052,
      "Ġwall": 6053,
      "Ġanger": 6054,
      "Ġsell": 6055,
      "Ġtransferred": 6056,
      "ĠEight": 6057,
      "Ġcompared": 6058,
      "Ġwalked": 6059,
      "Ġlegend": 6060,
      "Ġdisbelievers": 6061,
      "ilateral": 6062,
      "osen": 6063,
      "ĠTraffic": 6064,
      "imately": 6065,
      "Ġtroops": 6066,
      "pet": 6067,
      "Ġsudden": 6068,
      "Ġroll": 6069,
      "Ġpractice": 6070,
      "Ġattitude": 6071,
      "Ġ195": 6072,
      "Ġbillion": 6073,
      "Ġgift": 6074,
      "Ġjaw": 6075,
      "Ġflesh": 6076,
      "Ġenhan": 6077,
      "ĠBob": 6078,
      "Ġdivor": 6079,
      "unicipal": 6080,
      "Ġpivotal": 6081,
      "ĠRaja": 6082,
      "ishan": 6083,
      "alal": 6084,
      "ĠJharkhand": 6085,
      "ĠPrith": 6086,
      "Ġsevent": 6087,
      "keep": 6088,
      "Ġleaving": 6089,
      "hir": 6090,
      "reams": 6091,
      "ĠInformation": 6092,
      "Ġfeeling": 6093,
      "11": 6094,
      "gent": 6095,
      "ĠHeb": 6096,
      "box": 6097,
      "ĠNaid": 6098,
      "ĠPsalm": 6099,
      "ĠMathew": 6100,
      "poll": 6101,
      "Ġproposed": 6102,
      "ĠMadras": 6103,
      "Ġpeoples": 6104,
      "Ġcenturies": 6105,
      "ancing": 6106,
      "aja": 6107,
      "ĠTell": 6108,
      "Ġnewsp": 6109,
      "Ġinfrastructure": 6110,
      "Ġbike": 6111,
      "ĠRain": 6112,
      "ĠWind": 6113,
      "quarters": 6114,
      "ĠOb": 6115,
      "soever": 6116,
      "ĠLim": 6117,
      "Ġrising": 6118,
      "ĠODIs": 6119,
      "ression": 6120,
      "Ġwithdraw": 6121,
      "sha": 6122,
      "Ġfunds": 6123,
      "ĠDeepika": 6124,
      "ĠWashington": 6125,
      "Ġburnt": 6126,
      "Ġbirds": 6127,
      "ĠJon": 6128,
      "Ġteaspoon": 6129,
      "Ġneighbours": 6130,
      "ĠSreedharan": 6131,
      "Ġconsecutive": 6132,
      "ĠVas": 6133,
      "Ġdischarged": 6134,
      "Ġcasual": 6135,
      "cend": 6136,
      "ube": 6137,
      "Ġindependent": 6138,
      "amthitta": 6139,
      "like": 6140,
      "Ġcontent": 6141,
      "Ġmemory": 6142,
      "Ġcollapsed": 6143,
      "Ġcameras": 6144,
      "ĠLtd": 6145,
      "Ġservant": 6146,
      "Ġexplan": 6147,
      "wary": 6148,
      "Ġoccup": 6149,
      "Ġpenalty": 6150,
      "%.": 6151,
      "oe": 6152,
      "Ġfloods": 6153,
      "Ġriv": 6154,
      "Ġrare": 6155,
      "Ġgeneration": 6156,
      "Ġextend": 6157,
      "Ġviolation": 6158,
      "omi": 6159,
      "Ġven": 6160,
      "Ġyellow": 6161,
      "Ġfavor": 6162,
      "aded": 6163,
      "Ġenemies": 6164,
      "Ġbagged": 6165,
      "Ġcolours": 6166,
      "ĠThereafter": 6167,
      "Ġstudied": 6168,
      "Ġbehold": 6169,
      "ĠDrink": 6170,
      "ba": 6171,
      "hens": 6172,
      "Ġabsc": 6173,
      "Ġnut": 6174,
      "Ġregister": 6175,
      "ehold": 6176,
      "ĠSams": 6177,
      "rics": 6178,
      "uke": 6179,
      "Ġsinger": 6180,
      "Ġhike": 6181,
      "Ġsymb": 6182,
      "lus": 6183,
      "ĠCE": 6184,
      "Ġlooks": 6185,
      "ĠRadha": 6186,
      "ĠHistory": 6187,
      "ĠKumaraswamy": 6188,
      "Ġthoughts": 6189,
      "ĠBad": 6190,
      "ĠPathanamthitta": 6191,
      "elines": 6192,
      "Ġforgot": 6193,
      "Ġpowered": 6194,
      "Ġelectricity": 6195,
      "Ġsize": 6196,
      "ĠTi": 6197,
      "ĠRedmi": 6198,
      "Ġimag": 6199,
      "arnt": 6200,
      "Ġfiles": 6201,
      "Ġstarts": 6202,
      "Ġobserved": 6203,
      "Ġinfected": 6204,
      "ĠModis": 6205,
      "ĠHonda": 6206,
      "vious": 6207,
      "ĠControl": 6208,
      "ĠFeb": 6209,
      "ĠAhmedabad": 6210,
      "ĠMathrubhumi": 6211,
      "uit": 6212,
      "Ġlearnt": 6213,
      "Ġdevice": 6214,
      "Ġtypes": 6215,
      "Ġmetres": 6216,
      "ĠMotor": 6217,
      "ĠMaruti": 6218,
      "ĠHundred": 6219,
      "Ġorganisations": 6220,
      "Ġclearly": 6221,
      "Ġfilled": 6222,
      "star": 6223,
      "Ġworse": 6224,
      "Ġcoal": 6225,
      "ura": 6226,
      "ength": 6227,
      "Ġ65": 6228,
      "ĠNaidu": 6229,
      "ications": 6230,
      "ĠPriv": 6231,
      "Ġpref": 6232,
      "Ġemotion": 6233,
      "Ġforgiveness": 6234,
      "Ġboost": 6235,
      "Ġdedicated": 6236,
      "Ġaddressed": 6237,
      "Ġtourists": 6238,
      "cript": 6239,
      "Ġworker": 6240,
      "Ġquarter": 6241,
      ".,": 6242,
      "cast": 6243,
      "icit": 6244,
      "ĠFed": 6245,
      "Ġ43": 6246,
      "Ġfollows": 6247,
      "auty": 6248,
      "ĠAar": 6249,
      "Ġrequested": 6250,
      "My": 6251,
      "ĠTir": 6252,
      "Ġvariant": 6253,
      "Ġties": 6254,
      "Ġconstructed": 6255,
      "Ġrural": 6256,
      "Ġclashes": 6257,
      "Ġexplained": 6258,
      "Ġhotel": 6259,
      "Ġwinners": 6260,
      "Ġmistake": 6261,
      "uild": 6262,
      "Ġbomb": 6263,
      "Ġinher": 6264,
      "ocking": 6265,
      "Ġargument": 6266,
      "Ġasc": 6267,
      "Ġvillages": 6268,
      "Ġconsult": 6269,
      "Ġprogrammes": 6270,
      "maker": 6271,
      "Ġanywhere": 6272,
      "Ġmountain": 6273,
      "ĠGive": 6274,
      "grees": 6275,
      "ĠBranch": 6276,
      "ĠList": 6277,
      "pura": 6278,
      "Ġstandard": 6279,
      "Ġpromises": 6280,
      "ĠCA": 6281,
      "Ġconsequ": 6282,
      "ĠAustralian": 6283,
      "Ġgat": 6284,
      "Ġreform": 6285,
      "iment": 6286,
      "Ġchosen": 6287,
      "Ġillness": 6288,
      "Ġneck": 6289,
      "Ġtough": 6290,
      "ĠScriptures": 6291,
      "Ġmagaz": 6292,
      "Ġassociation": 6293,
      "Ġcomplained": 6294,
      "wadi": 6295,
      "ĠSheikh": 6296,
      "Ġconfident": 6297,
      "Ġrighteousness": 6298,
      "Ġrepent": 6299,
      "Ġdescribed": 6300,
      "ĠAcademy": 6301,
      "Ġcustomers": 6302,
      "ĠLucknow": 6303,
      "Ġ49": 6304,
      "Ġplanned": 6305,
      "racted": 6306,
      "ĠQuran": 6307,
      "ĠRat": 6308,
      "iction": 6309,
      "Ġcomplex": 6310,
      "Ġarm": 6311,
      "Ġsixth": 6312,
      "ĠSuzuki": 6313,
      "Ġchanging": 6314,
      "ĠMount": 6315,
      "Ġscam": 6316,
      "SO": 6317,
      "ĠRight": 6318,
      "Ġju": 6319,
      "40": 6320,
      "HI": 6321,
      "hin": 6322,
      "Ġsections": 6323,
      "Ġ196": 6324,
      "Ġrupees": 6325,
      "FI": 6326,
      "Ġsort": 6327,
      "Ġpron": 6328,
      "Ġpanchayat": 6329,
      "ĠVenug": 6330,
      "Ġinvestigate": 6331,
      "Ġluck": 6332,
      "izing": 6333,
      "ĠServices": 6334,
      "Ġprovisions": 6335,
      "Ġdrugs": 6336,
      "Ġresolved": 6337,
      "Ġunable": 6338,
      "Ġcategory": 6339,
      "Ġresolve": 6340,
      "assery": 6341,
      "ushka": 6342,
      "Ġisland": 6343,
      "ores": 6344,
      "Ġdespite": 6345,
      "Ġfalls": 6346,
      "Ġbrings": 6347,
      "Ġwelcome": 6348,
      "Ġnom": 6349,
      "Ġkills": 6350,
      "Ġnice": 6351,
      "Ġ2015": 6352,
      "ĠAirport": 6353,
      "Ġfan": 6354,
      "ĠAuthority": 6355,
      "rees": 6356,
      "ĠBel": 6357,
      "Ġprotesting": 6358,
      "inton": 6359,
      "Ġpostmortem": 6360,
      "Ġcommanded": 6361,
      "ĠAmitabh": 6362,
      "Ġmale": 6363,
      "Ġdear": 6364,
      "Ġcollected": 6365,
      "Ġventure": 6366,
      "Ġhospitalised": 6367,
      "Ġglory": 6368,
      "anna": 6369,
      "ĠTests": 6370,
      "Ġlimited": 6371,
      "astern": 6372,
      "ifying": 6373,
      "Ġlic": 6374,
      "Ġclub": 6375,
      "Ġdiss": 6376,
      "EL": 6377,
      "ĠManohar": 6378,
      "Ġstruggle": 6379,
      "Ġliquor": 6380,
      "Ġcompensation": 6381,
      "Mo": 6382,
      "mas": 6383,
      "ray": 6384,
      "Ġdegrees": 6385,
      "ĠOil": 6386,
      "Ġfeed": 6387,
      "Ġpenned": 6388,
      "ĠAma": 6389,
      "riya": 6390,
      "ĠJai": 6391,
      "Ġperhaps": 6392,
      "ĠVenugopal": 6393,
      "ĠSports": 6394,
      "ĠBomb": 6395,
      "Ġusually": 6396,
      "itamin": 6397,
      "ĠSet": 6398,
      "Ġarms": 6399,
      "Ġcaste": 6400,
      "ĠSushant": 6401,
      "Ġpieces": 6402,
      "ĠAad": 6403,
      "rolled": 6404,
      "Ġcourage": 6405,
      "Ġblessed": 6406,
      "ĠVery": 6407,
      "Ġanniversary": 6408,
      "Ġwatching": 6409,
      "Ġinspired": 6410,
      "MS": 6411,
      "orough": 6412,
      "When": 6413,
      "Ġdiet": 6414,
      "ĠJNU": 6415,
      "Ġunique": 6416,
      "Ġworshi": 6417,
      "Ġcomputer": 6418,
      "ĠNaw": 6419,
      "ĠGopal": 6420,
      "hai": 6421,
      "essed": 6422,
      "ruary": 6423,
      "overy": 6424,
      "Ġblocked": 6425,
      "Ġslog": 6426,
      "Ġmiddle": 6427,
      "ĠAwards": 6428,
      "Ġencourage": 6429,
      "ĠAnushka": 6430,
      "Ġhighway": 6431,
      "Ġdevote": 6432,
      "ĠProte": 6433,
      "Ġmaster": 6434,
      "ĠNagar": 6435,
      "Ġthereof": 6436,
      "eting": 6437,
      "Ġanymore": 6438,
      "Ġprepar": 6439,
      "Ġguest": 6440,
      "ĠThou": 6441,
      "ĠHereafter": 6442,
      "ĠAuto": 6443,
      "Ġgathered": 6444,
      "ĠHundreds": 6445,
      "ĠDar": 6446,
      "Ġglad": 6447,
      "ĠRon": 6448,
      "Ġrail": 6449,
      "Ġexisting": 6450,
      "Ġfool": 6451,
      "Ġclothes": 6452,
      "utty": 6453,
      "Ġpartner": 6454,
      "Ġbeaten": 6455,
      "Ġrum": 6456,
      "Ġoverse": 6457,
      "Ġsecure": 6458,
      "Ġhighly": 6459,
      "Ġweapons": 6460,
      "Ġpure": 6461,
      "ĠJio": 6462,
      "Ġcollect": 6463,
      "Ġsharing": 6464,
      "Ġeverywhere": 6465,
      "illing": 6466,
      "ĠDig": 6467,
      "Ġearned": 6468,
      "ĠPetrol": 6469,
      "ĠVeh": 6470,
      "ĠNitish": 6471,
      "ĠHead": 6472,
      "Ġmotion": 6473,
      "olic": 6474,
      "ĠForest": 6475,
      "Ġconven": 6476,
      "ĠGreek": 6477,
      "ĠGang": 6478,
      "Ġresulted": 6479,
      "Ġtechnical": 6480,
      "cel": 6481,
      "Ġplants": 6482,
      "Ġgods": 6483,
      "HO": 6484,
      "Ġdemands": 6485,
      "ounced": 6486,
      "Ġfeelings": 6487,
      "ĠGlob": 6488,
      "Ġagriculture": 6489,
      "eft": 6490,
      "ĠCode": 6491,
      "ĠSad": 6492,
      "oking": 6493,
      "ĠTy": 6494,
      "Ġstruck": 6495,
      "ĠDin": 6496,
      "itya": 6497,
      "Ġculprits": 6498,
      "ĠPa": 6499,
      "ĠKh": 6500,
      "Ġforms": 6501,
      "ĠOdisha": 6502,
      "Ġinterven": 6503,
      "ux": 6504,
      "ĠVid": 6505,
      "ultan": 6506,
      "Ġtemples": 6507,
      "ĠDoctors": 6508,
      "Ġgovern": 6509,
      "ĠHon": 6510,
      "udge": 6511,
      "Ġsuspic": 6512,
      "ĠPremier": 6513,
      "Ġrose": 6514,
      "Ġonion": 6515,
      "ĠWelfare": 6516,
      "Ġunjust": 6517,
      "ĠSang": 6518,
      "Ġprincipal": 6519,
      "enance": 6520,
      "Ġcatch": 6521,
      "aken": 6522,
      "Ġexcellent": 6523,
      "Ġgonna": 6524,
      "ĠGard": 6525,
      "ĠCommand": 6526,
      "Ġapprop": 6527,
      "ĠGrand": 6528,
      "Ġrequires": 6529,
      "quake": 6530,
      "ĠAM": 6531,
      "Ġpostp": 6532,
      "ĠRash": 6533,
      "Ġpossibility": 6534,
      "nav": 6535,
      "ĠSwami": 6536,
      "ibilities": 6537,
      "Ġconfirmation": 6538,
      "born": 6539,
      "acle": 6540,
      "ĠRaf": 6541,
      "Ġkeeping": 6542,
      "ĠDhawan": 6543,
      "ĠMond": 6544,
      "ĠJayalal": 6545,
      "force": 6546,
      "stood": 6547,
      "Ġsupporting": 6548,
      "Ġpotential": 6549,
      "thy": 6550,
      "ĠSain": 6551,
      "Ġhom": 6552,
      "ĠLat": 6553,
      "iabet": 6554,
      "Ġhang": 6555,
      "Ġlaboure": 6556,
      "Ġmodels": 6557,
      "Ġblame": 6558,
      "Ġrej": 6559,
      "ĠBudd": 6560,
      "ĠFriend": 6561,
      "essions": 6562,
      "Ġbridge": 6563,
      "ĠJudah": 6564,
      "Ġdigital": 6565,
      "hera": 6566,
      "ĠSUV": 6567,
      "ĠAmbani": 6568,
      "ĠShould": 6569,
      "Ġmagn": 6570,
      "ĠStart": 6571,
      "Ġcondemned": 6572,
      "actions": 6573,
      "ĠGar": 6574,
      "ĠDani": 6575,
      "Ġinvol": 6576,
      "Ġ55": 6577,
      "Ġexactly": 6578,
      "wor": 6579,
      "ĠFebruary": 6580,
      "Ġloans": 6581,
      "Ġfought": 6582,
      "ĠHebrew": 6583,
      "istrate": 6584,
      "Ġblue": 6585,
      "half": 6586,
      "Ġdefin": 6587,
      "Ġregistration": 6588,
      "rible": 6589,
      "Ġinhab": 6590,
      "ĠMix": 6591,
      "Ġproceedings": 6592,
      "Ġbroad": 6593,
      "Ġhundreds": 6594,
      "iture": 6595,
      "ĠSearch": 6596,
      "Ġeating": 6597,
      "Ġsmugg": 6598,
      "Ġfixed": 6599,
      "Ġtim": 6600,
      "aran": 6601,
      "osphere": 6602,
      "Ġolder": 6603,
      "ooth": 6604,
      "friend": 6605,
      "amed": 6606,
      "mod": 6607,
      "ij": 6608,
      "Ġinvolve": 6609,
      "Ġexplanation": 6610,
      "ĠJayalalitha": 6611,
      "Ġimpris": 6612,
      "ĠEverybody": 6613,
      "ĠUse": 6614,
      "Ġexplosion": 6615,
      "Ġmarry": 6616,
      "Ġcondol": 6617,
      "Ġcovered": 6618,
      "ĠDhan": 6619,
      "Ġsetting": 6620,
      "Ġdry": 6621,
      "Ġstress": 6622,
      "Ġoppos": 6623,
      "ĠExc": 6624,
      "Ġeducational": 6625,
      "Ġsurprised": 6626,
      "ĠDMK": 6627,
      "Ġphotograph": 6628,
      "Ġdomin": 6629,
      "ĠMission": 6630,
      "Ġkindness": 6631,
      "Ġ47": 6632,
      "Ġentr": 6633,
      "Ġtreas": 6634,
      "Ġminimum": 6635,
      "Ġprinciples": 6636,
      "ĠTen": 6637,
      "Ġtea": 6638,
      "ĠGupta": 6639,
      "Ġliterature": 6640,
      "Ġmicro": 6641,
      "Ġadvised": 6642,
      "ĠCy": 6643,
      "ĠLDF": 6644,
      "ĠBhag": 6645,
      "Ġfailure": 6646,
      "Ġproposal": 6647,
      "Ġterritory": 6648,
      "Ġpion": 6649,
      "ĠSou": 6650,
      "CA": 6651,
      "Ġpanel": 6652,
      "IP": 6653,
      "fire": 6654,
      "Ġ125": 6655,
      "erate": 6656,
      "Ġwild": 6657,
      "Ġpending": 6658,
      "Ġpaper": 6659,
      "Ġdifferences": 6660,
      "ĠProf": 6661,
      "ĠBre": 6662,
      "ĠProtests": 6663,
      "Ġcool": 6664,
      "ĠPrince": 6665,
      "ĠRajput": 6666,
      "ĠAgriculture": 6667,
      "Ġhonor": 6668,
      "board": 6669,
      "Ġsurvived": 6670,
      "ĠSign": 6671,
      "Ġlength": 6672,
      "Ġconce": 6673,
      "Ġsurvey": 6674,
      "Ġillust": 6675,
      "Ġexchange": 6676,
      "ĠShow": 6677,
      "Ġdesires": 6678,
      "Ġstones": 6679,
      "ache": 6680,
      "asekharan": 6681,
      "80": 6682,
      "ĠCould": 6683,
      "ĠNoah": 6684,
      "Ġelders": 6685,
      "Ġdetermined": 6686,
      "ĠSinha": 6687,
      "ĠNE": 6688,
      "cker": 6689,
      "Ġprepare": 6690,
      "Ġburd": 6691,
      "Ġdual": 6692,
      "Ġdisrupted": 6693,
      "ĠLeft": 6694,
      "isement": 6695,
      "reg": 6696,
      "Ġwelfare": 6697,
      "Ġassociated": 6698,
      "Ġprivile": 6699,
      "Ġneighbour": 6700,
      "ĠTHE": 6701,
      "Ġtalked": 6702,
      "Ġwelcom": 6703,
      "Ġvirt": 6704,
      "ĠSaf": 6705,
      "Ġnotes": 6706,
      "ishing": 6707,
      "Ġton": 6708,
      "lied": 6709,
      "jection": 6710,
      "Ġlosing": 6711,
      "ĠDec": 6712,
      "Ġexplain": 6713,
      "Ġanimal": 6714,
      "Ġmortuary": 6715,
      "ammed": 6716,
      "ĠJe": 6717,
      "ĠWarn": 6718,
      "race": 6719,
      "Ġvan": 6720,
      "ĠParents": 6721,
      "ĠRef": 6722,
      "Ġforced": 6723,
      "Ġremem": 6724,
      "Ġlegs": 6725,
      "Ġconducting": 6726,
      "Ġdemonstr": 6727,
      "Ġundert": 6728,
      "Ġhide": 6729,
      "Ġchildhood": 6730,
      "Ġcirculated": 6731,
      "Ġcow": 6732,
      "ĠLand": 6733,
      "Ġinterrogation": 6734,
      "Ġactivity": 6735,
      "Ġdirectly": 6736,
      "ĠHD": 6737,
      "Ġaccompl": 6738,
      "jit": 6739,
      "Ġautomatic": 6740,
      "Ġtong": 6741,
      "ĠBaj": 6742,
      "Ġbreath": 6743,
      "ĠSolomon": 6744,
      "ĠYoga": 6745,
      "14": 6746,
      "ĠGuru": 6747,
      "Ġpepper": 6748,
      "Ġwest": 6749,
      "Ġgoods": 6750,
      "ĠBig": 6751,
      "Ġvalid": 6752,
      "ĠConsider": 6753,
      "ĠMos": 6754,
      "Ġhour": 6755,
      "Ġmanual": 6756,
      "riti": 6757,
      "Ġstorm": 6758,
      "ĠRBI": 6759,
      "Ġrace": 6760,
      "ĠMotors": 6761,
      "Ġbeauty": 6762,
      "plom": 6763,
      "ĠParis": 6764,
      "ĠSk": 6765,
      "Ġeventually": 6766,
      "ĠLocal": 6767,
      "ĠIra": 6768,
      "ĠAgain": 6769,
      "uous": 6770,
      "Ġhelping": 6771,
      "ĠClass": 6772,
      "Ġsed": 6773,
      "Ġdoll": 6774,
      "Ġheed": 6775,
      "ĠPrice": 6776,
      "Ġremind": 6777,
      "Ġcharacters": 6778,
      "Ġjudgement": 6779,
      "Ġfishermen": 6780,
      "ĠIndones": 6781,
      "Ġperman": 6782,
      "Ġast": 6783,
      "Ġdisaster": 6784,
      "Ġeasily": 6785,
      "ĠSav": 6786,
      "Ġworried": 6787,
      "Ġabuse": 6788,
      "Ġends": 6789,
      "Ġinstance": 6790,
      "RC": 6791,
      "urt": 6792,
      "Ġru": 6793,
      "Ġrid": 6794,
      "Ġamid": 6795,
      "hesh": 6796,
      "ĠTruth": 6797,
      "ĠQual": 6798,
      "otted": 6799,
      "ĠItaly": 6800,
      "Ġstarred": 6801,
      "Ġcommercial": 6802,
      "?\"\"": 6803,
      "Ġinteresting": 6804,
      "Ġactivist": 6805,
      "Ġsoldier": 6806,
      "ĠPandey": 6807,
      "Ġwearing": 6808,
      "Ġholding": 6809,
      "nap": 6810,
      "Ġowner": 6811,
      "Ġaccidents": 6812,
      "ients": 6813,
      "ila": 6814,
      "ĠProv": 6815,
      "Ġexamined": 6816,
      "grim": 6817,
      "Ġtables": 6818,
      "Ġspl": 6819,
      "Ġrice": 6820,
      "ĠLank": 6821,
      "ĠVigilance": 6822,
      "ĠSteve": 6823,
      "Ġvariants": 6824,
      "rant": 6825,
      "Ġstore": 6826,
      "Ġstudying": 6827,
      "Ġwonderful": 6828,
      "ĠStar": 6829,
      "As": 6830,
      "Ġshocked": 6831,
      "ossible": 6832,
      "Ġboat": 6833,
      "ĠCreat": 6834,
      "enses": 6835,
      "Ġbatting": 6836,
      "Ġadvis": 6837,
      "Ġwaste": 6838,
      "Ġapostles": 6839,
      "asc": 6840,
      "Ġemerged": 6841,
      "ĠSil": 6842,
      "ES": 6843,
      "Ġidentify": 6844,
      "Ġsouthern": 6845,
      "Ġprob": 6846,
      "Ġeverybody": 6847,
      "Ġphas": 6848,
      "ĠVive": 6849,
      "undai": 6850,
      "ami": 6851,
      "ĠThings": 6852,
      "Ġalloc": 6853,
      "Ġmedicines": 6854,
      "Ġmotorcycle": 6855,
      "ĠCEO": 6856,
      "Ġ52": 6857,
      "Ġjudges": 6858,
      "Ġspreading": 6859,
      "ĠAmaz": 6860,
      "ĠAish": 6861,
      "ĠJade": 6862,
      "Ġdropped": 6863,
      "Ġtank": 6864,
      "ĠChurch": 6865,
      "ĠHyundai": 6866,
      "ĠPatna": 6867,
      "ĠMetro": 6868,
      "Ġsamples": 6869,
      "Ġdialog": 6870,
      "Ġloyal": 6871,
      "Ġwake": 6872,
      "Ġdocument": 6873,
      "Ġcomprises": 6874,
      "vation": 6875,
      "Ġtend": 6876,
      "ĠPoll": 6877,
      "jeev": 6878,
      "Ġfraud": 6879,
      "ĠJayarajan": 6880,
      "ĠCollector": 6881,
      "lasting": 6882,
      "reet": 6883,
      "ĠMust": 6884,
      "orted": 6885,
      "Ġdelight": 6886,
      "chest": 6887,
      "Ġhate": 6888,
      "ĠDevi": 6889,
      "Ġschemes": 6890,
      "warya": 6891,
      "Ġgearbox": 6892,
      "itizen": 6893,
      "Ġseed": 6894,
      "ĠLad": 6895,
      "Ġchap": 6896,
      "Ġtransmission": 6897,
      "ĠElections": 6898,
      "ĠJasp": 6899,
      "Ġunknown": 6900,
      "Ġdistributed": 6901,
      "ĠMiss": 6902,
      "Ġ120": 6903,
      "Ġworldwide": 6904,
      "Ġconflict": 6905,
      "ĠCoop": 6906,
      "level": 6907,
      "ĠConst": 6908,
      "Ġregularly": 6909,
      "Ġthorough": 6910,
      "Ġabdu": 6911,
      "ĠSupp": 6912,
      "Ġmal": 6913,
      "Ġdu": 6914,
      "Ġnomin": 6915,
      "Ġhandle": 6916,
      "Ġresist": 6917,
      "Ġshares": 6918,
      "Ġreporters": 6919,
      "ĠJoshi": 6920,
      "lets": 6921,
      "ikk": 6922,
      "Ġunderstood": 6923,
      "icken": 6924,
      "hit": 6925,
      "inner": 6926,
      "Ġannual": 6927,
      "Ġabsol": 6928,
      "Ġpal": 6929,
      "Ġpayment": 6930,
      "ĠResurrection": 6931,
      "OS": 6932,
      "elligence": 6933,
      "ĠSea": 6934,
      "Ġfault": 6935,
      "ĠMoreover": 6936,
      "Ġmillions": 6937,
      "Ġappropriate": 6938,
      "empted": 6939,
      "Ġjump": 6940,
      "ĠIsaac": 6941,
      "Ġstructure": 6942,
      "Ġheadquarters": 6943,
      "ĠFinally": 6944,
      "Ġfallen": 6945,
      "fast": 6946,
      "Ġprem": 6947,
      "Ġportion": 6948,
      "pread": 6949,
      "Ġstarting": 6950,
      "Ġsemi": 6951,
      "Ġhistoric": 6952,
      "roor": 6953,
      "ĠGad": 6954,
      "Ġadvocate": 6955,
      "ĠTeacher": 6956,
      "Ġachieved": 6957,
      "Ġdanger": 6958,
      "Ġrevelations": 6959,
      "ĠPran": 6960,
      "Ġtab": 6961,
      "arty": 6962,
      "Ġauto": 6963,
      "Ġanx": 6964,
      "ĠFad": 6965,
      "Ġitems": 6966,
      "Ġfrequ": 6967,
      "Ġreturning": 6968,
      "Ġequip": 6969,
      "Ġcollabor": 6970,
      "zes": 6971,
      "inate": 6972,
      "Ġship": 6973,
      "Ġsanct": 6974,
      "Ġhall": 6975,
      "Ġnetwork": 6976,
      "TH": 6977,
      "Ġstick": 6978,
      "Ġreturns": 6979,
      "Ġorganization": 6980,
      "Ġdelay": 6981,
      "Ġtells": 6982,
      "Ġlyrics": 6983,
      "!\"\"\"": 6984,
      "ployment": 6985,
      "Ġexperienced": 6986,
      "ĠVivek": 6987,
      "No": 6988,
      "Ġtask": 6989,
      "Ġability": 6990,
      "Ġexpend": 6991,
      "Ġeagerly": 6992,
      "Ġaffair": 6993,
      "ĠHey": 6994,
      "usted": 6995,
      "ĠLegisl": 6996,
      "ĠSah": 6997,
      "Ġwash": 6998,
      "Ġtourism": 6999,
      "ĠUmesh": 7000,
      "ĠAishwarya": 7001,
      "chers": 7002,
      "pse": 7003,
      "Ġradi": 7004,
      "ĠManagement": 7005,
      "ĠCRPF": 7006,
      "Ġretali": 7007,
      "Ġexperts": 7008,
      "Ġpassing": 7009,
      "ĠSche": 7010,
      "ĠHam": 7011,
      "ighter": 7012,
      "200": 7013,
      "Ġviolent": 7014,
      "yal": 7015,
      "Ġbuildings": 7016,
      "ĠJudge": 7017,
      "Ġexecutive": 7018,
      "bur": 7019,
      "avoor": 7020,
      "ĠJadeja": 7021,
      "ĠDet": 7022,
      "Ġcouncil": 7023,
      "iri": 7024,
      "Ġshr": 7025,
      "Ġpartnership": 7026,
      "ĠLimited": 7027,
      "Say": 7028,
      "heast": 7029,
      "Ġabsconding": 7030,
      "Ġtight": 7031,
      "Ġwindow": 7032,
      "Ġprosper": 7033,
      "ĠKha": 7034,
      "ĠMex": 7035,
      "amental": 7036,
      "Ġglass": 7037,
      "ĠCanada": 7038,
      "Ġwaters": 7039,
      "idespread": 7040,
      "Ġvoting": 7041,
      "ĠJasprit": 7042,
      "ĠPS": 7043,
      "ĠPrincipal": 7044,
      "Ġanointed": 7045,
      "iram": 7046,
      "ĠDas": 7047,
      "Ġattract": 7048,
      "ĠHad": 7049,
      "ĠJack": 7050,
      "oes": 7051,
      "inations": 7052,
      "ading": 7053,
      "Ġchallenging": 7054,
      "Ġ54": 7055,
      "Ġsilent": 7056,
      "ĠPictures": 7057,
      "ĠRavindra": 7058,
      "ĠMov": 7059,
      "Ġseeks": 7060,
      "Ġsystems": 7061,
      "ĠAdditional": 7062,
      "rative": 7063,
      "atar": 7064,
      "Ġvital": 7065,
      "Ġretire": 7066,
      "ĠRev": 7067,
      "arant": 7068,
      "Ġfields": 7069,
      "Ġnorthern": 7070,
      "ĠCase": 7071,
      "Ġbrief": 7072,
      "Ġatm": 7073,
      "ĠPrivate": 7074,
      "ĠDam": 7075,
      "Ġsurgery": 7076,
      "ĠRoyal": 7077,
      "oli": 7078,
      "Ġep": 7079,
      "Ġinspe": 7080,
      "Ġhyp": 7081,
      "Ġdance": 7082,
      "Ġsheep": 7083,
      "Ġcopy": 7084,
      "Ġkinds": 7085,
      "ĠFadnav": 7086,
      "gue": 7087,
      "Ġloves": 7088,
      "Ġwithdrawn": 7089,
      "IF": 7090,
      "ĠOfficer": 7091,
      "Ġhonest": 7092,
      "lex": 7093,
      "Ġconversation": 7094,
      "Ġinterrog": 7095,
      "Ġunve": 7096,
      "Ġflu": 7097,
      "from": 7098,
      "erative": 7099,
      "Ġheight": 7100,
      "ĠKot": 7101,
      "Ġangry": 7102,
      "Ġticket": 7103,
      "oons": 7104,
      "ĠPric": 7105,
      "Ġturns": 7106,
      "Ġfulfilled": 7107,
      "ĠTourism": 7108,
      "atha": 7109,
      "Ġsport": 7110,
      "Ġbilateral": 7111,
      "Ġadvance": 7112,
      "ĠFadnavis": 7113,
      "Ġbought": 7114,
      "Ġginger": 7115,
      "Ġacquitted": 7116,
      "ĠRet": 7117,
      "akhand": 7118,
      "Ġcrying": 7119,
      "Ġrelative": 7120,
      "Ġprize": 7121,
      "Ġcultiv": 7122,
      "ĠAkhil": 7123,
      "Ġdarkness": 7124,
      "ĠElectric": 7125,
      "uj": 7126,
      "ĠJawa": 7127,
      "osoever": 7128,
      "Ġschol": 7129,
      "iller": 7130,
      "ĠHappy": 7131,
      "Ġmeat": 7132,
      "Ġdistress": 7133,
      "ĠPV": 7134,
      "Ġpassenger": 7135,
      "ĠEngineering": 7136,
      "Ġhill": 7137,
      "inated": 7138,
      "Ġsworn": 7139,
      "Ġmach": 7140,
      "cked": 7141,
      "Ġinterf": 7142,
      "ĠOfficials": 7143,
      "ĠHaasan": 7144,
      "Ġgrew": 7145,
      "ĠBrother": 7146,
      "ricultural": 7147,
      "viraj": 7148,
      "Ġbehavi": 7149,
      "ĠIraq": 7150,
      "Ch": 7151,
      "Ġamazing": 7152,
      "Ġwa": 7153,
      "ĠJav": 7154,
      "break": 7155,
      "Ġplenty": 7156,
      "Ġsettled": 7157,
      "stri": 7158,
      "ronic": 7159,
      "Ġappears": 7160,
      "Ġparticularly": 7161,
      "Ġabund": 7162,
      "ographer": 7163,
      "Ġairl": 7164,
      "okes": 7165,
      "Ġoffices": 7166,
      "ĠEconomic": 7167,
      "ĠBack": 7168,
      "EN": 7169,
      "ĠBudget": 7170,
      "Ġslave": 7171,
      "Ġdisob": 7172,
      "Ġacts": 7173,
      "ĠParadise": 7174,
      "Ġdiscipl": 7175,
      "ĠMonday": 7176,
      "wara": 7177,
      "atures": 7178,
      "arh": 7179,
      "verbs": 7180,
      "ĠRak": 7181,
      "Ġdefend": 7182,
      "Ġcattle": 7183,
      "pay": 7184,
      "Ġwomens": 7185,
      "ĠAdvis": 7186,
      "ĠDaniel": 7187,
      "Ġtransgress": 7188,
      "awati": 7189,
      "Ġble": 7190,
      "Ġnotification": 7191,
      "Ġsubs": 7192,
      "aser": 7193,
      "mended": 7194,
      "Ġfired": 7195,
      "ĠAK": 7196,
      "Ġheads": 7197,
      "umber": 7198,
      "Ġwitnessed": 7199,
      "Ġinherit": 7200,
      "ĠSunday": 7201,
      "umps": 7202,
      "Ġpersec": 7203,
      "ĠSeven": 7204,
      "ĠBusiness": 7205,
      "ĠPrithviraj": 7206,
      "mal": 7207,
      "Ġrow": 7208,
      "asts": 7209,
      "Ġmothers": 7210,
      "Ġinterests": 7211,
      "adhaar": 7212,
      "75": 7213,
      "Ġreflect": 7214,
      "ĠUttarakhand": 7215,
      "Ġchopped": 7216,
      "ĠPaduk": 7217,
      "Ġassociate": 7218,
      "ĠDhar": 7219,
      "ĠPTI": 7220,
      "Ġparliamentary": 7221,
      "acha": 7222,
      "Ġscale": 7223,
      "Ġvoters": 7224,
      "ĠSeth": 7225,
      "ĠNavy": 7226,
      "oval": 7227,
      "Ġ46": 7228,
      "mical": 7229,
      "iforn": 7230,
      "arer": 7231,
      "ĠRav": 7232,
      "abhas": 7233,
      "Ġlikes": 7234,
      "ockey": 7235,
      "Ġiron": 7236,
      "ĠPandya": 7237,
      "ĠVill": 7238,
      "Ġdevotees": 7239,
      "heet": 7240,
      "Ġfit": 7241,
      "Ġlines": 7242,
      "ĠEv": 7243,
      "Ġmighty": 7244,
      "lot": 7245,
      "ĠSride": 7246,
      "Ġopposite": 7247,
      "ĠSBI": 7248,
      "cture": 7249,
      "ocon": 7250,
      "ĠHimachal": 7251,
      "ĠPlus": 7252,
      "gi": 7253,
      "Ġregions": 7254,
      "Ġconstituted": 7255,
      "word": 7256,
      "Ġmanager": 7257,
      "Ġtrip": 7258,
      "ishop": 7259,
      "Ġstandards": 7260,
      "Ġconsist": 7261,
      "ĠAbhis": 7262,
      "Ġlitre": 7263,
      "Ġresigns": 7264,
      "Ġshortly": 7265,
      "noon": 7266,
      "Ġbott": 7267,
      "ĠJain": 7268,
      "Ġcloud": 7269,
      "Ġunivers": 7270,
      "Ġassum": 7271,
      "Ġvaccine": 7272,
      "ĠGreen": 7273,
      "Ġdestruction": 7274,
      "Ġoriginal": 7275,
      "Ġadvantage": 7276,
      "arsh": 7277,
      "Ġexpand": 7278,
      "ĠClick": 7279,
      ",...": 7280,
      "Ġbread": 7281,
      "ĠJournal": 7282,
      "Ġbusy": 7283,
      "Ġowners": 7284,
      "ĠKapil": 7285,
      "ĠIrani": 7286,
      "Ġanticip": 7287,
      "ifty": 7288,
      "ĠCaliforn": 7289,
      "Ġcelebrations": 7290,
      "Ġwinds": 7291,
      "aves": 7292,
      "Ġlots": 7293,
      "Ġpolling": 7294,
      "Ġpriests": 7295,
      "Ġafford": 7296,
      "Ġdrop": 7297,
      "Ġsixes": 7298,
      "ĠTripura": 7299,
      "ĠIsaiah": 7300,
      "ĠProtest": 7301,
      "Ġsurface": 7302,
      "oop": 7303,
      "Ġprofit": 7304,
      "Ġcollision": 7305,
      "ĠStadium": 7306,
      "Ġdownload": 7307,
      "Allah": 7308,
      "itan": 7309,
      "ĠTrib": 7310,
      "ĠPadukone": 7311,
      "wing": 7312,
      "ĠSuk": 7313,
      "Ġkings": 7314,
      "hans": 7315,
      "Ġadmit": 7316,
      "Ġdivision": 7317,
      "Ġpul": 7318,
      "igade": 7319,
      "Ġimages": 7320,
      "vani": 7321,
      "ĠThacker": 7322,
      "gram": 7323,
      "rie": 7324,
      "Ġshop": 7325,
      "Ġpromote": 7326,
      "Ġfeatured": 7327,
      "ĠRashid": 7328,
      "ua": 7329,
      "marked": 7330,
      "TM": 7331,
      "ĠProverbs": 7332,
      "AL": 7333,
      "ĠBased": 7334,
      "Ġstyle": 7335,
      "ĠMeg": 7336,
      "Ġvisiting": 7337,
      "ĠHoly": 7338,
      "aps": 7339,
      "Ġabandoned": 7340,
      "Ġ2000": 7341,
      "ĠMayawati": 7342,
      "ĠCheck": 7343,
      "Ġcontribution": 7344,
      "ĠBalabhas": 7345,
      "ĠPenal": 7346,
      "keeper": 7347,
      "Ġ41": 7348,
      "Ġrefle": 7349,
      "Ġappointment": 7350,
      "Ġdreams": 7351,
      "ĠBat": 7352,
      "ĠSmriti": 7353,
      "heer": 7354,
      "ĠTrin": 7355,
      "ousing": 7356,
      "Ġfoundation": 7357,
      "ext": 7358,
      "father": 7359,
      "yas": 7360,
      "Ġstaged": 7361,
      "ĠPeace": 7362,
      "ica": 7363,
      "ĠAbhishek": 7364,
      "Ġknowing": 7365,
      "ĠReliance": 7366,
      "gred": 7367,
      "Ġchampions": 7368,
      "Ġglor": 7369,
      "Ġatmosphere": 7370,
      "Ġcards": 7371,
      "ĠWed": 7372,
      "Ġdog": 7373,
      "Ġsentenced": 7374,
      "iabetes": 7375,
      "assion": 7376,
      "ĠCalifornia": 7377,
      "cean": 7378,
      "Ġlocation": 7379,
      "ĠProject": 7380,
      "Ġrecommended": 7381,
      "ĠRonald": 7382,
      "anish": 7383,
      "ĠMom": 7384,
      "Ġreaching": 7385,
      "ĠAfrican": 7386,
      "cles": 7387,
      "equ": 7388,
      "ĠLakshmi": 7389,
      "obile": 7390,
      "anguly": 7391,
      "Ġmessages": 7392,
      "--": 7393,
      "ĠFestival": 7394,
      "Ġresources": 7395,
      "Ġinsurance": 7396,
      "Ġregret": 7397,
      "Ġ56": 7398,
      "ranged": 7399,
      "Ġgovernor": 7400,
      "ĠVel": 7401,
      "Ġcolor": 7402,
      "Ġvoted": 7403,
      "',": 7404,
      "Ġprohib": 7405,
      "Ġtrigg": 7406,
      "Ġscen": 7407,
      "ĠMuft": 7408,
      "ĠWrit": 7409,
      "Ġkit": 7410,
      "Ġchannel": 7411,
      "Ġintensified": 7412,
      "Ah": 7413,
      "Ġji": 7414,
      "Ġscal": 7415,
      "Ġconsists": 7416,
      "ĠDevendra": 7417,
      "Ġfalling": 7418,
      "Ġdisclosed": 7419,
      "Ġmagazine": 7420,
      "ĠJohnson": 7421,
      "Ġrestrictions": 7422,
      "Ġstead": 7423,
      "Ġagencies": 7424,
      "ĠMax": 7425,
      "ĠPhilipp": 7426,
      "Ġphases": 7427,
      "Ġcitizen": 7428,
      "ĠKK": 7429,
      "ĠSamajwadi": 7430,
      "Ġmortem": 7431,
      "ĠGanguly": 7432,
      "ĠIPC": 7433,
      "ĠThanks": 7434,
      "Ġcomprising": 7435,
      "Ġseventh": 7436,
      "ĠNawaz": 7437,
      "Ġstatue": 7438,
      "Ġpriority": 7439,
      "napp": 7440,
      "ĠCB": 7441,
      "jah": 7442,
      "Ġric": 7443,
      "Ġsummer": 7444,
      "ĠRemember": 7445,
      "ĠAaron": 7446,
      "US": 7447,
      "Ġwidespread": 7448,
      "verse": 7449,
      "Ġaside": 7450,
      "ĠVide": 7451,
      "ĠRave": 7452,
      "ĠAnn": 7453,
      "IN": 7454,
      "asters": 7455,
      "Ġpermitted": 7456,
      "Ġearthquake": 7457,
      "Ġmiles": 7458,
      "Ġcollector": 7459,
      "Ġscientific": 7460,
      "Ġsorry": 7461,
      "itely": 7462,
      "Ġtot": 7463,
      "ĠOmar": 7464,
      "Ġtomorrow": 7465,
      "urappa": 7466,
      "ĠBhushan": 7467,
      "ĠMit": 7468,
      "oj": 7469,
      "ĠAadhaar": 7470,
      "itions": 7471,
      "Ġfacts": 7472,
      "ĠId": 7473,
      "ĠRis": 7474,
      "Ġmagic": 7475,
      "Ġpilgrim": 7476,
      "Ġdesigned": 7477,
      "atoes": 7478,
      "Ġmonitor": 7479,
      "Ġtransfer": 7480,
      "Ġsle": 7481,
      "ĠMarat": 7482,
      "Ġconcerns": 7483,
      "MA": 7484,
      "ping": 7485,
      "iece": 7486,
      "Ġenquiry": 7487,
      "Ġkilomet": 7488,
      "ĠCompany": 7489,
      "Ġcode": 7490,
      "ĠCro": 7491,
      "ĠMahesh": 7492,
      "Ġobtained": 7493,
      "Ġfly": 7494,
      "oba": 7495,
      "ĠThackeray": 7496,
      "Ġstret": 7497,
      "Ġherself": 7498,
      "ĠIb": 7499,
      "Ġdelayed": 7500,
      "Ġwelcomed": 7501,
      "ĠBah": 7502,
      "Ġ2021": 7503,
      "Ġpretty": 7504,
      "Ġfriendship": 7505,
      "Ġcongratulated": 7506,
      "ĠAdminist": 7507,
      "ĠIsraelites": 7508,
      "ĠBombay": 7509,
      "gon": 7510,
      "ador": 7511,
      "Ġstreets": 7512,
      "Ġcrack": 7513,
      "Pak": 7514,
      "iny": 7515,
      "ĠHig": 7516,
      "ĠYech": 7517,
      "Ġcrew": 7518,
      "ĠBehera": 7519,
      "Ġcommunication": 7520,
      "Ġmotiv": 7521,
      "Ġswe": 7522,
      "Ġdrama": 7523,
      "ĠMalays": 7524,
      "itage": 7525,
      "rer": 7526,
      "Ġhidden": 7527,
      "ĠGames": 7528,
      "Ġapproves": 7529,
      "Ġidentity": 7530,
      "Ġapplications": 7531,
      "Ġarrives": 7532,
      "eor": 7533,
      "Ġearmarked": 7534,
      "Ġdeveloping": 7535,
      "ĠJayalalithaa": 7536,
      "ĠGul": 7537,
      "Ġrecords": 7538,
      "ĠNitin": 7539,
      "Ġpredicted": 7540,
      "Ġofficially": 7541,
      "tered": 7542,
      "ĠPil": 7543,
      "Ġconvey": 7544,
      "ĠNext": 7545,
      "Ġfest": 7546,
      "ĠMoU": 7547,
      "ĠVinod": 7548,
      "Ġdeclined": 7549,
      "ĠCult": 7550,
      "Ġobed": 7551,
      "Ġgate": 7552,
      "Ġimmun": 7553,
      "ych": 7554,
      "hamed": 7555,
      "Ġutter": 7556,
      "ffee": 7557,
      "Ġdispers": 7558,
      "order": 7559,
      "Ġ51": 7560,
      "Ġ_": 7561,
      "ĠReserve": 7562,
      "Ġstaying": 7563,
      "ĠYeah": 7564,
      "Ġwalls": 7565,
      "heel": 7566,
      "bert": 7567,
      "Ġcamps": 7568,
      "ĠDespite": 7569,
      "Ġdete": 7570,
      "ĠIns": 7571,
      "axy": 7572,
      "Ġpeaceful": 7573,
      "Ġvalues": 7574,
      "Ġshowing": 7575,
      "Ġattending": 7576,
      "Ġrapid": 7577,
      "Ġlandsl": 7578,
      "Ġwood": 7579,
      "Ġcontroversial": 7580,
      "god": 7581,
      "Ġbehalf": 7582,
      "ureau": 7583,
      "Ġseverely": 7584,
      "ĠMufti": 7585,
      "Ġhaven": 7586,
      "Ġpossession": 7587,
      "Ġengaged": 7588,
      "Ġgrief": 7589,
      "Ġsharp": 7590,
      "ĠII": 7591,
      "ĠBib": 7592,
      "OCSO": 7593,
      "ĠCam": 7594,
      "....": 7595,
      "Ġpunished": 7596,
      "Ġindustrial": 7597,
      "oda": 7598,
      "ĠLab": 7599,
      "ĠEat": 7600,
      "Ġprosecution": 7601,
      "ĠNations": 7602,
      "Ġteen": 7603,
      "Ġclimate": 7604,
      "Ġjointly": 7605,
      "ĠWednes": 7606,
      "oram": 7607,
      "Ġartist": 7608,
      "ĠYechury": 7609,
      "ĠAch": 7610,
      "ource": 7611,
      "ĠInstead": 7612,
      "gnant": 7613,
      "Ġlib": 7614,
      "ifies": 7615,
      "Ġda": 7616,
      "ĠParv": 7617,
      "ĠSpir": 7618,
      "yn": 7619,
      "ĠFinancial": 7620,
      "Ġequipment": 7621,
      "Ġmanufacturing": 7622,
      "ĠSandeep": 7623,
      "Ġharassment": 7624,
      "Ġtablesp": 7625,
      "Ġgained": 7626,
      "Ġlaugh": 7627,
      "ĠPur": 7628,
      "Ġquiet": 7629,
      "Ġlabourers": 7630,
      "Ġverses": 7631,
      "ĠMangal": 7632,
      "Ġunless": 7633,
      "Ġambul": 7634,
      "35": 7635,
      "vant": 7636,
      "Ġreact": 7637,
      "Ġpremi": 7638,
      "Ġsettle": 7639,
      "ĠFriday": 7640,
      "Ġaccord": 7641,
      "45": 7642,
      "ĠIll": 7643,
      "Ġshalt": 7644,
      "Ġwalking": 7645,
      "ching": 7646,
      "ĠCommer": 7647,
      "ĠTej": 7648,
      "ĠCa": 7649,
      "ĠAR": 7650,
      "Ġupset": 7651,
      "Ġfuck": 7652,
      "ĠVikram": 7653,
      "ĠTrophy": 7654,
      "hane": 7655,
      "Ġconsequences": 7656,
      "Ġsalary": 7657,
      "Ġpowers": 7658,
      "Ġrepresentatives": 7659,
      "ĠSame": 7660,
      "Ġtraditional": 7661,
      "ĠSikh": 7662,
      "ĠDue": 7663,
      "ĠUSA": 7664,
      "rated": 7665,
      "chester": 7666,
      "Ġ2011": 7667,
      "ĠResp": 7668,
      "Ġcease": 7669,
      "Ġpartys": 7670,
      "Ġobl": 7671,
      "ĠBelie": 7672,
      "Ġpages": 7673,
      "ĠBiju": 7674,
      "Ġgrateful": 7675,
      "Ġdistin": 7676,
      "ĠKadak": 7677,
      "ĠPress": 7678,
      "ĠWal": 7679,
      "pm": 7680,
      "oti": 7681,
      "ola": 7682,
      "Ġapprox": 7683,
      "Ġmainly": 7684,
      "Ġgrown": 7685,
      "Ġexperiences": 7686,
      "pal": 7687,
      "Ġmad": 7688,
      "Ġafternoon": 7689,
      "Ġsecured": 7690,
      "Ġcouldn": 7691,
      "Ġsuccessfully": 7692,
      "Ġentertain": 7693,
      "Ġchest": 7694,
      "ĠSociety": 7695,
      "orter": 7696,
      "Ġguy": 7697,
      "Ġdemocratic": 7698,
      "ĠIndonesia": 7699,
      "ĠScheme": 7700,
      "ĠNor": 7701,
      "ĠGan": 7702,
      "kara": 7703,
      "Ġobservation": 7704,
      "ĠSyria": 7705,
      "Ġblessing": 7706,
      "Ġdiplom": 7707,
      "Ġgarden": 7708,
      "tel": 7709,
      "Ġtelling": 7710,
      "ĠMukher": 7711,
      "300": 7712,
      "chen": 7713,
      "Ġanaly": 7714,
      "ĠEnt": 7715,
      "kari": 7716,
      "Ġweb": 7717,
      "Ġimpossible": 7718,
      "ĠMis": 7719,
      "Ġ2013": 7720,
      "Ġgrace": 7721,
      "ĠAlong": 7722,
      "ĠPerumb": 7723,
      "Ġscientists": 7724,
      "ĠSharad": 7725,
      "ĠMessengers": 7726,
      "90": 7727,
      "zz": 7728,
      "ĠMally": 7729,
      "ĠCust": 7730,
      "Ġdesp": 7731,
      "intend": 7732,
      "Ġsectors": 7733,
      "Ġmanufacture": 7734,
      "ĠIr": 7735,
      "Ġwills": 7736,
      "aces": 7737,
      "othy": 7738,
      "Ġconvention": 7739,
      "rya": 7740,
      "Ġsolar": 7741,
      "ĠPerhaps": 7742,
      "rahim": 7743,
      "Ġtouched": 7744,
      "Cong": 7745,
      "lar": 7746,
      "ĠYear": 7747,
      "akkal": 7748,
      "Ġgrie": 7749,
      "Ġpermanent": 7750,
      "Ġmaintained": 7751,
      "Ġfigure": 7752,
      "ĠVishnu": 7753,
      "Ġchastisement": 7754,
      "ĠKadakamp": 7755,
      "vin": 7756,
      "ĠNear": 7757,
      "ĠAzad": 7758,
      "Ġbackground": 7759,
      "Ġvalley": 7760,
      "Ġexpression": 7761,
      "Ġrooms": 7762,
      "Ġbringing": 7763,
      "ĠMullappally": 7764,
      "ĠFound": 7765,
      "ĠFilms": 7766,
      "Ġholiday": 7767,
      "Ġlocked": 7768,
      "ĠWise": 7769,
      "Ġslowly": 7770,
      "God": 7771,
      "Ġsweet": 7772,
      "Ġcalm": 7773,
      "liminary": 7774,
      "Ġnurs": 7775,
      "Ġstock": 7776,
      "Ġemotional": 7777,
      "Ġdust": 7778,
      "Ġhasn": 7779,
      "garwal": 7780,
      "ĠANI": 7781,
      "ĠStation": 7782,
      "Ġconnected": 7783,
      "Ġpattern": 7784,
      "ĠRonaldo": 7785,
      "Ġstir": 7786,
      "Ġbrigade": 7787,
      "Ġharmony": 7788,
      "ĠSatur": 7789,
      "Ġinitial": 7790,
      "Ġinitiative": 7791,
      "Ġbright": 7792,
      "Ġfavourite": 7793,
      "Ġsem": 7794,
      "ĠSitaram": 7795,
      "Ġselection": 7796,
      "24": 7797,
      "Ġdates": 7798,
      "ĠNIA": 7799,
      "hammed": 7800,
      "Ġtsp": 7801,
      "iagn": 7802,
      "ĠEst": 7803,
      "Ġshel": 7804,
      "wari": 7805,
      "Ġgreet": 7806,
      "Ġlisted": 7807,
      "Ġsmuggling": 7808,
      "Ġangel": 7809,
      "ĠSunny": 7810,
      "Ġsurre": 7811,
      "hta": 7812,
      "Ġbrain": 7813,
      "Ġpair": 7814,
      "ĠYoung": 7815,
      "Ġimplementation": 7816,
      "ĠJawahar": 7817,
      "ĠKur": 7818,
      "Ġdecre": 7819,
      "ĠVaran": 7820,
      "Ġeggs": 7821,
      "ĠAmazon": 7822,
      "That": 7823,
      "ĠMao": 7824,
      "ctoral": 7825,
      "ĠApplic": 7826,
      "gredients": 7827,
      "days": 7828,
      "verty": 7829,
      "Ġsoil": 7830,
      "Ġsword": 7831,
      "abu": 7832,
      "Ġconsidering": 7833,
      "Ġpoverty": 7834,
      "ĠVol": 7835,
      "Ġconfessed": 7836,
      "ĠRevenue": 7837,
      "Ġideas": 7838,
      "ĠBritain": 7839,
      "Ġthir": 7840,
      "ĠCath": 7841,
      "Go": 7842,
      "ĠSharif": 7843,
      "Ġsexually": 7844,
      "ional": 7845,
      "Ġfundamental": 7846,
      "Ġsymbol": 7847,
      "Ġslogans": 7848,
      "mers": 7849,
      "Ġinnoc": 7850,
      "nis": 7851,
      "ĠHall": 7852,
      "ĠManish": 7853,
      "ĠSudha": 7854,
      "Ġlady": 7855,
      "Ġimper": 7856,
      "ture": 7857,
      "Ġfactors": 7858,
      "ortunately": 7859,
      "Ġcountrys": 7860,
      "Ġpetitions": 7861,
      "Ġgenerations": 7862,
      "ĠWednesday": 7863,
      "ĠHav": 7864,
      "ĠPray": 7865,
      "Ġturning": 7866,
      "Ġstrang": 7867,
      "Ġenjoyed": 7868,
      "ĠMahe": 7869,
      "ĠKadakampally": 7870,
      "Ġminutes": 7871,
      "Ġlesson": 7872,
      "Ġinstitution": 7873,
      "Ġpreviously": 7874,
      "ĠRen": 7875,
      "habad": 7876,
      "ĠRajendran": 7877,
      "ĠGirl": 7878,
      "ĠStand": 7879,
      "Ġfoods": 7880,
      "Ġthreatened": 7881,
      "Ġfulfill": 7882,
      "ĠCreator": 7883,
      "inn": 7884,
      "Ġsubst": 7885,
      "Ġcreating": 7886,
      "ĠPerumbavoor": 7887,
      "elsius": 7888,
      "Ġcinemat": 7889,
      "ĠVaranasi": 7890,
      "Ġpride": 7891,
      "ĠJustices": 7892,
      "Ġguidelines": 7893,
      "president": 7894,
      "Ġdoors": 7895,
      "Ġdivorce": 7896,
      "Ġreplace": 7897,
      "Ġlake": 7898,
      "bery": 7899,
      "Ġmostly": 7900,
      "ĠUPA": 7901,
      "Ġmarty": 7902,
      "Ġwhats": 7903,
      "Ġspr": 7904,
      "Ġdescend": 7905,
      "Ġmated": 7906,
      "itched": 7907,
      "ĠHan": 7908,
      "Ġconvicted": 7909,
      "Ġtheatres": 7910,
      "ensions": 7911,
      "Ġflour": 7912,
      "Our": 7913,
      "hus": 7914,
      "Ġyield": 7915,
      "Ġvisible": 7916,
      "Ġmedicine": 7917,
      "Ġpointed": 7918,
      "Ġwhereas": 7919,
      "Ġvillagers": 7920,
      "ĠVinay": 7921,
      "ĠMuraleed": 7922,
      "Ġshout": 7923,
      "Ġexams": 7924,
      "Ġ128": 7925,
      "ĠLoknath": 7926,
      "Ġheavenly": 7927,
      "met": 7928,
      "iano": 7929,
      "Ġoutbreak": 7930,
      "Ġovercome": 7931,
      "Ġbaptized": 7932,
      "Ġreaction": 7933,
      "ĠThurs": 7934,
      "Ġclosely": 7935,
      "fit": 7936,
      "Ġalthough": 7937,
      "Ġcausing": 7938,
      "Ġsurround": 7939,
      "Ġeastern": 7940,
      "Ġappealed": 7941,
      "Ġemphas": 7942,
      "ishes": 7943,
      "Ġincreases": 7944,
      "ĠRoman": 7945,
      "Ġoperating": 7946,
      "37": 7947,
      "Ġterrible": 7948,
      "itants": 7949,
      "ingent": 7950,
      "olen": 7951,
      "Ġcollection": 7952,
      "veer": 7953,
      "Ġbelieves": 7954,
      "ĠSaif": 7955,
      "ĠRafale": 7956,
      "Ġsearching": 7957,
      "Ġuses": 7958,
      "ĠMexico": 7959,
      "ĠShiva": 7960,
      "Ġapplicable": 7961,
      "erves": 7962,
      "Ġsets": 7963,
      "Ġseeds": 7964,
      "ĠSingap": 7965,
      "Ġbath": 7966,
      "Ġmessengers": 7967,
      "Ġaccommod": 7968,
      "ĠLakh": 7969,
      "Ġshift": 7970,
      "Ġarchite": 7971,
      "ĠMaster": 7972,
      "ĠTheyre": 7973,
      "cknow": 7974,
      "Ġpatience": 7975,
      "Ġcommits": 7976,
      "ĠMun": 7977,
      "ĠCaptain": 7978,
      "iable": 7979,
      "ĠShetty": 7980,
      "ĠSridevi": 7981,
      "ĠRather": 7982,
      "istans": 7983,
      "ĠGlobal": 7984,
      "Ġpractical": 7985,
      "ĠRights": 7986,
      "Ġadmon": 7987,
      "Ġ600": 7988,
      "Ġheavily": 7989,
      "ourses": 7990,
      "Ġrupee": 7991,
      "ĠTues": 7992,
      "Ġrein": 7993,
      "ĠFriends": 7994,
      "writ": 7995,
      "ĠManchester": 7996,
      "Ġentering": 7997,
      "istics": 7998,
      "Ġspark": 7999,
      "Ġtourist": 8000,
      "hend": 8001,
      "ĠWithout": 8002,
      "specially": 8003,
      "Ġmoves": 8004,
      "iyar": 8005,
      "Ġchairperson": 8006,
      "utely": 8007,
      "ĠGovernments": 8008,
      "him": 8009,
      "sar": 8010,
      "ĠCelsius": 8011,
      "ĠBrah": 8012,
      "ĠAlla": 8013,
      "Ġelig": 8014,
      "ĠDemocratic": 8015,
      "Ġmol": 8016,
      "Ġallows": 8017,
      "Ġengines": 8018,
      "adhav": 8019,
      "Ġgardens": 8020,
      "ĠWilliams": 8021,
      "Ġtongue": 8022,
      "ĠHeat": 8023,
      "ĠThink": 8024,
      "ĠJoe": 8025,
      "ĠFree": 8026,
      "ĠMaha": 8027,
      "Ġeffects": 8028,
      "ĠBhu": 8029,
      "ĠAsk": 8030,
      "ĠFront": 8031,
      "Ġsouls": 8032,
      "Ġnewspaper": 8033,
      "Ġprovince": 8034,
      "Ġexamine": 8035,
      "ME": 8036,
      "akshi": 8037,
      "ĠYouT": 8038,
      "Ġblamed": 8039,
      "Ġcomplain": 8040,
      "ĠAssist": 8041,
      "igarh": 8042,
      "ĠEspecially": 8043,
      "Ġformation": 8044,
      "ĠWomens": 8045,
      "Ġattempts": 8046,
      "Ġsung": 8047,
      "Ġintention": 8048,
      "Ġinstalled": 8049,
      "Ġidol": 8050,
      "Ġpremises": 8051,
      "Ġbot": 8052,
      "ĠWay": 8053,
      "Ġ58": 8054,
      "Ġchose": 8055,
      "Ġrecomp": 8056,
      "lights": 8057,
      "ange": 8058,
      "Ġguarant": 8059,
      "ĠDisc": 8060,
      "Ġunclear": 8061,
      "ĠMart": 8062,
      "Ġec": 8063,
      "Ġrans": 8064,
      "ĠRadhak": 8065,
      "captain": 8066,
      "ez": 8067,
      "ĠBureau": 8068,
      "Ġtemporary": 8069,
      "ĠGoyal": 8070,
      "rian": 8071,
      "Ġflat": 8072,
      "Ġamongst": 8073,
      "ether": 8074,
      "Ġstake": 8075,
      "ĠAshwin": 8076,
      "Ġpregnant": 8077,
      "ĠTrust": 8078,
      "Ġeverlasting": 8079,
      "ĠSciences": 8080,
      "Ġpleasure": 8081,
      "ĠShik": 8082,
      "ĠAw": 8083,
      "ĠHaz": 8084,
      "ĠRag": 8085,
      "icket": 8086,
      "ĠBlue": 8087,
      "Ġsurvive": 8088,
      "ĠMallya": 8089,
      "bel": 8090,
      "Ġcoin": 8091,
      "ĠKir": 8092,
      "ĠMaybe": 8093,
      "Ġspeaks": 8094,
      "ĠTharoor": 8095,
      "Ġprobing": 8096,
      "Ġuser": 8097,
      "Ġsurprise": 8098,
      "Ġprobably": 8099,
      "ĠMarathi": 8100,
      "Ġyours": 8101,
      "Ġadvan": 8102,
      "Ġtriggered": 8103,
      "ĠSecret": 8104,
      "ĠJapanese": 8105,
      "Ġcloser": 8106,
      "Ġarranged": 8107,
      "Ġplot": 8108,
      "Ġveter": 8109,
      "iders": 8110,
      "Ġfounder": 8111,
      "Ġpresently": 8112,
      "uclear": 8113,
      "Why": 8114,
      "ĠAlex": 8115,
      "ĠKav": 8116,
      "ĠPanchayat": 8117,
      "Ġtotally": 8118,
      "care": 8119,
      "Ġawa": 8120,
      "ĠPicture": 8121,
      "held": 8122,
      "ategy": 8123,
      "Ġhistorical": 8124,
      "Ġprofessional": 8125,
      "ĠPres": 8126,
      "ĠManipur": 8127,
      "Ġstrategy": 8128,
      "Ġcoalition": 8129,
      "ĠSingapore": 8130,
      "Mu": 8131,
      "nov": 8132,
      "Ġbrut": 8133,
      "ĠTimothy": 8134,
      "Ġsincere": 8135,
      "ĠKat": 8136,
      "porate": 8137,
      "Ġrub": 8138,
      "Ġexists": 8139,
      "ĠSystem": 8140,
      "Ġextent": 8141,
      "ĠSaul": 8142,
      "Ġdepartments": 8143,
      "Ġhopes": 8144,
      "ĠMass": 8145,
      "Ġunity": 8146,
      "Ġcaut": 8147,
      "Ġinspir": 8148,
      "Ġinitially": 8149,
      "Ġrepresented": 8150,
      "ĠJadhav": 8151,
      "Ġshock": 8152,
      "Ġcampus": 8153,
      "ĠMuraleedharan": 8154,
      "Ġwine": 8155,
      "ĠVarious": 8156,
      "ĠMukherjee": 8157,
      "Ġsnow": 8158,
      "Ġcautious": 8159,
      "Ġstages": 8160,
      "ĠChristmas": 8161,
      "ĠEnvironment": 8162,
      "Ġqualities": 8163,
      "ĠPolitical": 8164,
      "Ġsuccumb": 8165,
      "onom": 8166,
      "Ġ350": 8167,
      "Ġhighlight": 8168,
      "Ġconsideration": 8169,
      "ĠVadra": 8170,
      "Ġcertificate": 8171,
      "Ġtid": 8172,
      "booba": 8173,
      "ĠVerma": 8174,
      "Ġhypoc": 8175,
      "Ġpleased": 8176,
      "Ġdebt": 8177,
      "oz": 8178,
      "ĠPOCSO": 8179,
      "ĠRos": 8180,
      "Ġrecover": 8181,
      "karan": 8182,
      "SD": 8183,
      "ĠShy": 8184,
      "ĠNort": 8185,
      "Ġclarified": 8186,
      "Ġimprisonment": 8187,
      "iland": 8188,
      "ĠAnsw": 8189,
      "Ġlinked": 8190,
      "Ġkeeps": 8191,
      "adda": 8192,
      "Ġsoftware": 8193,
      "Ġchilli": 8194,
      "Ġjuice": 8195,
      "andal": 8196,
      "ĠXia": 8197,
      "ĠMill": 8198,
      "Ġcaution": 8199,
      "Ġtruthful": 8200,
      "ĠHardik": 8201,
      "ĠJawaharlal": 8202,
      "?'": 8203,
      "Ġevident": 8204,
      "Ġgrams": 8205,
      "ĠGandhis": 8206,
      "phones": 8207,
      "ĠWhos": 8208,
      "Ġinaugurate": 8209,
      "Ġpackage": 8210,
      "ĠNad": 8211,
      "Ġduo": 8212,
      "Ġtort": 8213,
      "ĠDad": 8214,
      "Ġdestination": 8215,
      "ĠDinesh": 8216,
      "ĠSantosh": 8217,
      "hael": 8218,
      "Ġvariety": 8219,
      "ĠBenef": 8220,
      "ĠYouTube": 8221,
      "Ġbatsmen": 8222,
      "eries": 8223,
      "ighth": 8224,
      "Ġcrossed": 8225,
      "Pakistan": 8226,
      "vn": 8227,
      "ĠRana": 8228,
      "Ġspect": 8229,
      "ĠMehbooba": 8230,
      "IV": 8231,
      "Ġretired": 8232,
      "Ġrestored": 8233,
      "ĠAirtel": 8234,
      "Ġlimits": 8235,
      "Ġrent": 8236,
      "Ġselect": 8237,
      "ĠWin": 8238,
      "Ġconvin": 8239,
      "ĠTop": 8240,
      "ĠAmar": 8241,
      "ĠDeepak": 8242,
      "ĠNeed": 8243,
      "ĠChall": 8244,
      "Ġinstall": 8245,
      "Ġlest": 8246,
      "quer": 8247,
      "ĠVe": 8248,
      "Ġmoral": 8249,
      "Ġthie": 8250,
      "Ġunited": 8251,
      "Ġthanked": 8252,
      "Ġregional": 8253,
      "Ġsuggested": 8254,
      "ĠDhab": 8255,
      "Ġdiscovered": 8256,
      "Ġreign": 8257,
      "Ġburden": 8258,
      "log": 8259,
      "ĠSched": 8260,
      "Ġchargesheet": 8261,
      "Ġacknow": 8262,
      "ĠStore": 8263,
      "Ġcrops": 8264,
      "ĠFoot": 8265,
      "Ġears": 8266,
      "Ġ85": 8267,
      "Ġrefer": 8268,
      "Ġclasses": 8269,
      "ĠThursday": 8270,
      "Ġresurrection": 8271,
      "Ġcommunities": 8272,
      "Ġlinks": 8273,
      "ĠSaturday": 8274,
      "ĠKM": 8275,
      "ĠED": 8276,
      "Ġsummon": 8277,
      "ĠWhether": 8278,
      "Congress": 8279,
      "ĠKalam": 8280,
      "ĠNifty": 8281,
      "Ġcompre": 8282,
      "Ġcoord": 8283,
      "ĠTele": 8284,
      "Ġcarefully": 8285,
      "Ġpac": 8286,
      "ĠShail": 8287,
      "ertained": 8288,
      "Ġcelebrate": 8289,
      "ĠTuesday": 8290,
      "ĠTMC": 8291,
      "Ġindic": 8292,
      "west": 8293,
      "Ġpla": 8294,
      "ĠSamsung": 8295,
      "ĠAllahabad": 8296,
      "ules": 8297,
      "Ġoffence": 8298,
      "ĠCle": 8299,
      "Ġdecades": 8300,
      "Ġhosts": 8301,
      "Ġerup": 8302,
      "Ġmistakes": 8303,
      "ĠMicro": 8304,
      "ogether": 8305,
      "Ġroof": 8306,
      "ĠConference": 8307,
      "ĠMiz": 8308,
      "Ġplastic": 8309,
      "Ġsupposed": 8310,
      "aiah": 8311,
      "ndered": 8312,
      "Ġpa": 8313,
      "Ġgif": 8314,
      "Ġorganized": 8315,
      "Ġstarring": 8316,
      "Ġsilence": 8317,
      "Ġkilometres": 8318,
      "Ġsufficient": 8319,
      "Ġtickets": 8320,
      "Ġdemol": 8321,
      "Ġconcl": 8322,
      "St": 8323,
      "Ġbalance": 8324,
      "Ġwhosoever": 8325,
      "Ġsheet": 8326,
      "itary": 8327,
      "Ġdiabetes": 8328,
      "Ġnewly": 8329,
      "ĠMahara": 8330,
      "ĠProgram": 8331,
      "Ġvisitors": 8332,
      "Ġraping": 8333,
      "ĠKumman": 8334,
      "ĠKare": 8335,
      "Ġflowers": 8336,
      "Ġstreet": 8337,
      "osop": 8338,
      "Ġedition": 8339,
      "Ġkidnapp": 8340,
      "ĠSAW": 8341,
      "ĠNadda": 8342,
      "ĠPakistans": 8343,
      "Ġreplaced": 8344,
      "ĠEp": 8345,
      "Ġinnov": 8346,
      "intendent": 8347,
      "ĠSho": 8348,
      "Ġpostponed": 8349,
      "ĠHigher": 8350,
      "Ġfab": 8351,
      "13": 8352,
      "ĠWestern": 8353,
      "Ġvast": 8354,
      "Ġmedals": 8355,
      "Ġdrawn": 8356,
      "ĠAzhar": 8357,
      "Ġisolated": 8358,
      "Ġdign": 8359,
      "ĠSid": 8360,
      "ĠMoney": 8361,
      "ĠBhatt": 8362,
      "Ġarent": 8363,
      "ĠEff": 8364,
      "Ġexpensive": 8365,
      "nsic": 8366,
      "ĠGalaxy": 8367,
      "life": 8368,
      "ĠNarayanan": 8369,
      "ĠNab": 8370,
      "Ġupro": 8371,
      "ĠPerson": 8372,
      "ylon": 8373,
      "Ġtrials": 8374,
      "Ġcontested": 8375,
      "Ġfigures": 8376,
      "ĠFort": 8377,
      "ĠChris": 8378,
      "ĠPo": 8379,
      "ĠProm": 8380,
      "ĠHold": 8381,
      "ĠVS": 8382,
      "Ġmerely": 8383,
      "ĠPrices": 8384,
      "Ġprecious": 8385,
      "ĠMald": 8386,
      "ĠDhabi": 8387,
      "Ġcried": 8388,
      "ĠSaj": 8389,
      "ĠSwamy": 8390,
      "ĠCap": 8391,
      "ĠStrict": 8392,
      "Ġlosses": 8393,
      "Ġurban": 8394,
      "Ġexpenditure": 8395,
      "Ġtrend": 8396,
      "Ġsolid": 8397,
      "Muhammad": 8398,
      "adhan": 8399,
      "urned": 8400,
      "Ġjoins": 8401,
      "Ġarrive": 8402,
      "Ġsanction": 8403,
      "ivasan": 8404,
      "Ġobserve": 8405,
      "ĠAadmi": 8406,
      "produ": 8407,
      "enn": 8408,
      "Ġokay": 8409,
      "iti": 8410,
      "Ġrang": 8411,
      "Ġattackers": 8412,
      "ĠVenk": 8413,
      "omen": 8414,
      "Ġstrateg": 8415,
      "ĠAICC": 8416,
      "ĠBuddh": 8417,
      "Ġsplit": 8418,
      "herd": 8419,
      "ĠExt": 8420,
      "Ġsuit": 8421,
      "Ġforgotten": 8422,
      "Ġlashed": 8423,
      "Ġforbidden": 8424,
      "bir": 8425,
      "ailing": 8426,
      "Ġbreaks": 8427,
      "Ġobjective": 8428,
      "Ġretirement": 8429,
      "Ġtremend": 8430,
      "ĠTrinam": 8431,
      "ĠKaly": 8432,
      "ĠGeh": 8433,
      "agon": 8434,
      "Ġarticles": 8435,
      "Ġpollution": 8436,
      "Ġselling": 8437,
      "Ġdress": 8438,
      "Ġamend": 8439,
      "Ġ53": 8440,
      "ĠSreen": 8441,
      "Ġsecular": 8442,
      "Ġlarger": 8443,
      "Ġquarant": 8444,
      "Ġcops": 8445,
      "Ġadults": 8446,
      "Ġjoining": 8447,
      "Ġsovere": 8448,
      "ĠIsland": 8449,
      "Ġtitled": 8450,
      "ĠGadkari": 8451,
      "linder": 8452,
      "hee": 8453,
      "Ġconver": 8454,
      "ĠExec": 8455,
      "Ġchallenged": 8456,
      "23": 8457,
      "AF": 8458,
      "ront": 8459,
      "Ġliked": 8460,
      "Ġclin": 8461,
      "Ġsacred": 8462,
      "icing": 8463,
      "Ġinvolvement": 8464,
      "arian": 8465,
      "Ġchances": 8466,
      "Ġ67": 8467,
      "ĠTrue": 8468,
      "ĠUnto": 8469,
      "ĠSom": 8470,
      "Ġquoted": 8471,
      "ĠAnur": 8472,
      "Ġeditor": 8473,
      "aswom": 8474,
      "Ġrival": 8475,
      "ĠSas": 8476,
      "Ġstun": 8477,
      "Ġbelieving": 8478,
      "fl": 8479,
      "minton": 8480,
      "Ġphil": 8481,
      "Ġrecovery": 8482,
      "Ġreligions": 8483,
      "Ġtired": 8484,
      "una": 8485,
      "ĠJy": 8486,
      "izes": 8487,
      "ĠMalik": 8488,
      "Ġdisappointed": 8489,
      "CB": 8490,
      "place": 8491,
      "Ġstadium": 8492,
      "Ġexcess": 8493,
      "anthara": 8494,
      "ĠShivakumar": 8495,
      "Ġpurposes": 8496,
      "Ġox": 8497,
      "wheel": 8498,
      "ĠVict": 8499,
      "Ġcontext": 8500,
      "Ġslight": 8501,
      "Ġjournalists": 8502,
      "Ġfold": 8503,
      "estyle": 8504,
      "ĠOlympics": 8505,
      "Ġmethods": 8506,
      "night": 8507,
      "Ġband": 8508,
      "Ġmaid": 8509,
      "hash": 8510,
      "Ġdivine": 8511,
      "Ġsupreme": 8512,
      "Ġowned": 8513,
      "inc": 8514,
      "ĠAccount": 8515,
      "Ġpurchase": 8516,
      "Ġsuddenly": 8517,
      "km": 8518,
      "ĠHand": 8519,
      "Ġuns": 8520,
      "Ġ62": 8521,
      "Ġpronounced": 8522,
      "ĠRaju": 8523,
      "Ġresear": 8524,
      "Ġinstructions": 8525,
      "ĠGehlot": 8526,
      "ĠPDP": 8527,
      "ĠIncome": 8528,
      "Ġshell": 8529,
      "vis": 8530,
      "Ġsear": 8531,
      "uting": 8532,
      "raf": 8533,
      "Ġmeal": 8534,
      "Ġelements": 8535,
      "Ġstolen": 8536,
      "ainment": 8537,
      "arted": 8538,
      "Ġelderly": 8539,
      "ĠCatholic": 8540,
      "cribed": 8541,
      "Ġdepends": 8542,
      "Ġprocedure": 8543,
      "alin": 8544,
      "Ġhes": 8545,
      "ocol": 8546,
      "icon": 8547,
      "Ġhik": 8548,
      "ĠGor": 8549,
      "Ġletters": 8550,
      "Ġintegrity": 8551,
      "oconut": 8552,
      "lax": 8553,
      "Ġ59": 8554,
      "emi": 8555,
      "Ġwhatsoever": 8556,
      "ĠShak": 8557,
      "Ġwinner": 8558,
      "ĠKummanam": 8559,
      "abled": 8560,
      "ĠBabylon": 8561,
      "ĠNayanthara": 8562,
      "ĠBinoy": 8563,
      "Ġsituations": 8564,
      "Ġencouraged": 8565,
      "Ġtoil": 8566,
      "Ġ2012": 8567,
      "ĠPadma": 8568,
      "Ġdistribution": 8569,
      "Do": 8570,
      "Ġpoliceman": 8571,
      "ĠDil": 8572,
      "Ġavo": 8573,
      "ĠDisaster": 8574,
      "Ġpill": 8575,
      "ĠActs": 8576,
      "inthi": 8577,
      "cell": 8578,
      "Ġ105": 8579,
      "Ġlaughed": 8580,
      "Ġmakers": 8581,
      "Ġtow": 8582,
      "aying": 8583,
      "ĠThrough": 8584,
      "Ġcasualties": 8585,
      "Ġwestern": 8586,
      "Then": 8587,
      "ĠRJD": 8588,
      "Ġproclaim": 8589,
      "mates": 8590,
      "Ġ130": 8591,
      "alted": 8592,
      "Ġconcept": 8593,
      "Ġacres": 8594,
      "Ġcaptured": 8595,
      "ĠParliamentary": 8596,
      "ĠGok": 8597,
      "Ġdevices": 8598,
      "hard": 8599,
      "Ġaccur": 8600,
      "Ġchicken": 8601,
      "ĠEfforts": 8602,
      "cut": 8603,
      "oul": 8604,
      "ĠKL": 8605,
      "opic": 8606,
      "upathi": 8607,
      "Ġfactory": 8608,
      "ĠMel": 8609,
      "Ġ180": 8610,
      "ipe": 8611,
      "ĠJere": 8612,
      "oves": 8613,
      "ĠSchools": 8614,
      "Ġpapers": 8615,
      "Ġdistur": 8616,
      "ĠCorinthi": 8617,
      "Ġfastest": 8618,
      "Ġmidst": 8619,
      "Ġflee": 8620,
      "pherd": 8621,
      "oration": 8622,
      "Ġbigger": 8623,
      "tt": 8624,
      "Ġsees": 8625,
      "Ġkick": 8626,
      "ĠWhatever": 8627,
      "Ġ2009": 8628,
      "Ġburied": 8629,
      "ĠValley": 8630,
      "bal": 8631,
      "Ġbes": 8632,
      "Ġelim": 8633,
      "ĠSl": 8634,
      "idences": 8635,
      "ĠBehold": 8636,
      "ĠMurali": 8637,
      "eding": 8638,
      "ads": 8639,
      "ĠRup": 8640,
      "ĠLuke": 8641,
      "Ġleague": 8642,
      "Ġ57": 8643,
      "Ġtraged": 8644,
      "Ġsensor": 8645,
      "ĠNEW": 8646,
      "ĠPhys": 8647,
      "Ġexpanded": 8648,
      "Ġprayed": 8649,
      "Ġ2008": 8650,
      "Ġimproved": 8651,
      "ĠSug": 8652,
      "DFC": 8653,
      "Ġbount": 8654,
      "ĠFaith": 8655,
      "ĠSimilarly": 8656,
      "ĠSafety": 8657,
      "Ġplain": 8658,
      "Ġsummit": 8659,
      "uilding": 8660,
      "Ġeligible": 8661,
      "sing": 8662,
      "Ġimpl": 8663,
      "ĠKhanna": 8664,
      "Ġgrave": 8665,
      "Ġassistant": 8666,
      "Ġlifted": 8667,
      "ingu": 8668,
      "irt": 8669,
      "Ġstronger": 8670,
      "eri": 8671,
      "ĠCall": 8672,
      "Ġvess": 8673,
      "Ġjew": 8674,
      "ĠQatar": 8675,
      "Ġbypoll": 8676,
      "Ġdeeply": 8677,
      "Ġawareness": 8678,
      "ĠOrganisation": 8679,
      "Ġaspects": 8680,
      "Ġ!": 8681,
      "ĠTan": 8682,
      "Ġdiagn": 8683,
      "ĠKhal": 8684,
      "Ġdifficulties": 8685,
      "ĠSundar": 8686,
      "NA": 8687,
      "oning": 8688,
      "elve": 8689,
      "ĠSubram": 8690,
      "Ġhatred": 8691,
      "ĠName": 8692,
      "Ġ)": 8693,
      "Ġult": 8694,
      "ĠMG": 8695,
      "ĠCho": 8696,
      "Ġ99": 8697,
      "Ġmessenger": 8698,
      "Ġsolve": 8699,
      "Ġconvicts": 8700,
      "Ġdut": 8701,
      "Ġbron": 8702,
      "ĠSpanish": 8703,
      "Ġseemed": 8704,
      "ios": 8705,
      "ĠTry": 8706,
      "ĠCut": 8707,
      "ĠArunachal": 8708,
      "Ġweigh": 8709,
      "Ġattempted": 8710,
      "Ġsurpris": 8711,
      "Ġpond": 8712,
      "ĠDip": 8713,
      "Ġpanic": 8714,
      "ĠTrinamool": 8715,
      "Ġagitation": 8716,
      "Ġ72": 8717,
      "ĠBengali": 8718,
      "look": 8719,
      "Ġarmed": 8720,
      "Ġ63": 8721,
      "Ġingredients": 8722,
      "ĠCur": 8723,
      "Ġpreparations": 8724,
      "Ġtidings": 8725,
      "ĠXiaomi": 8726,
      "ĠReport": 8727,
      "ishankar": 8728,
      "Ġapproximately": 8729,
      "ipped": 8730,
      "eswar": 8731,
      "cience": 8732,
      "ieties": 8733,
      "ĠOtherwise": 8734,
      "uthan": 8735,
      "ĠGir": 8736,
      "Ġmeets": 8737,
      "asa": 8738,
      "ĠNam": 8739,
      "ĠDevaswom": 8740,
      "ĠCrown": 8741,
      "ĠNirav": 8742,
      "ĠMahendra": 8743,
      "reement": 8744,
      "Ġattrib": 8745,
      "Ġstrengthened": 8746,
      "Ġaltern": 8747,
      "ĠCrist": 8748,
      "ĠWait": 8749,
      "ĠEver": 8750,
      "Ġfunctioning": 8751,
      "Ġdeclare": 8752,
      "Ġcred": 8753,
      "ĠID": 8754,
      "Ġbeef": 8755,
      "Ġgains": 8756,
      "Ġtroub": 8757,
      "ĠRic": 8758,
      "aulted": 8759,
      "Ġpace": 8760,
      "ashion": 8761,
      "Ġcompassion": 8762,
      "Ġfed": 8763,
      "vneshwar": 8764,
      "acu": 8765,
      "ĠCourts": 8766,
      "enth": 8767,
      "esty": 8768,
      "ppers": 8769,
      "Ġpolitician": 8770,
      "ĠBhuvneshwar": 8771,
      "ĠSnap": 8772,
      "randed": 8773,
      "Ġprotested": 8774,
      "ĠSpain": 8775,
      "Ġborders": 8776,
      "Ġexpectations": 8777,
      "laze": 8778,
      "employment": 8779,
      "ĠIsnt": 8780,
      "ibly": 8781,
      "Ġsuspects": 8782,
      "Ġtrained": 8783,
      "Ġpersonality": 8784,
      "Ġobvious": 8785,
      "ĠMalaysia": 8786,
      "ĠNan": 8787,
      "Ġfighter": 8788,
      "ĠPop": 8789,
      "ĠMichael": 8790,
      "mighty": 8791,
      "ankar": 8792,
      "Ġbreaking": 8793,
      "ĠNeither": 8794,
      "Ġcircuit": 8795,
      "ĠCorinthians": 8796,
      "icies": 8797,
      "Ġrejects": 8798,
      "Ġmandatory": 8799,
      "ille": 8800,
      "Ġhoney": 8801,
      "ĠStudent": 8802,
      "Ġupper": 8803,
      "Ġreaches": 8804,
      "Ġeth": 8805,
      "Ġmanage": 8806,
      "ĠOlympic": 8807,
      "Ġintend": 8808,
      "Ġassail": 8809,
      "Ġoccasions": 8810,
      "Ġcommitment": 8811,
      "Ġadjourn": 8812,
      "uhan": 8813,
      "Ġfilmmaker": 8814,
      "Ġdiscount": 8815,
      "ĠMac": 8816,
      "Ġexhib": 8817,
      "erals": 8818,
      "assador": 8819,
      "Ġapplied": 8820,
      "ĠSpace": 8821,
      "eorological": 8822,
      "Ġfill": 8823,
      "anning": 8824,
      "Ġlocations": 8825,
      "ĠRoyals": 8826,
      "ĠIndependence": 8827,
      "Ġavoided": 8828,
      "ental": 8829,
      "ĠRaman": 8830,
      "Ġempt": 8831,
      "Ġprivilege": 8832,
      "Ġunveiled": 8833,
      "imal": 8834,
      "Ġoverall": 8835,
      "Ġdrunk": 8836,
      "ĠSriram": 8837,
      "ĠForgiving": 8838,
      "ĠHelp": 8839,
      "ĠMangaluru": 8840,
      "aming": 8841,
      "ewise": 8842,
      "Ġgut": 8843,
      "ĠShort": 8844,
      "ĠJaish": 8845,
      "Ġschedule": 8846,
      "Ġstable": 8847,
      "ĠViol": 8848,
      "Ġtears": 8849,
      "Ġrumours": 8850,
      "Ġambulance": 8851,
      "Ġpermit": 8852,
      "Ġsends": 8853,
      "lap": 8854,
      "aired": 8855,
      "hot": 8856,
      "ointing": 8857,
      "Ġclim": 8858,
      "Ġassass": 8859,
      "ĠShahid": 8860,
      "Ġprotected": 8861,
      "Ġsleeping": 8862,
      "brit": 8863,
      "iest": 8864,
      "ivery": 8865,
      "Ġblow": 8866,
      "Ġrankings": 8867,
      "ĠRevel": 8868,
      "DR": 8869,
      "uva": 8870,
      "65": 8871,
      "Ġteaser": 8872,
      "ĠRanveer": 8873,
      "Ġbowled": 8874,
      "For": 8875,
      "Ġshape": 8876,
      "ĠDeb": 8877,
      "70": 8878,
      "antic": 8879,
      "Ġlessons": 8880,
      "assy": 8881,
      "theless": 8882,
      "hensive": 8883,
      "Ġparticipants": 8884,
      "SRO": 8885,
      "Ġparking": 8886,
      "iation": 8887,
      "ĠToy": 8888,
      "Ġadvers": 8889,
      "beat": 8890,
      "ĠPant": 8891,
      "Ġvisits": 8892,
      "Ġsubsid": 8893,
      "ĠStat": 8894,
      "Ġgrab": 8895,
      "Ġproperly": 8896,
      "Ġgathering": 8897,
      "judge": 8898,
      "Ġease": 8899,
      "Ġincor": 8900,
      "Ġintervention": 8901,
      "Ġswear": 8902,
      "ourable": 8903,
      "Ġmasks": 8904,
      "ĠVehicles": 8905,
      "brities": 8906,
      "charge": 8907,
      "Ġdad": 8908,
      "ĠMaj": 8909,
      "Ġthrow": 8910,
      "Ġexplains": 8911,
      "Ġascertained": 8912,
      "ĠProtection": 8913,
      "Ġtremendous": 8914,
      "Ġreleases": 8915,
      "wali": 8916,
      "ĠPortug": 8917,
      "ĠFederation": 8918,
      "Ġbronze": 8919,
      "!\"": 8920,
      "finals": 8921,
      "ĠTov": 8922,
      "Ġrealize": 8923,
      "ĠBharti": 8924,
      "ae": 8925,
      "Ġinterim": 8926,
      "Ġengineering": 8927,
      "Ġera": 8928,
      "Ġ1000": 8929,
      "Ġflo": 8930,
      "Ġappreciation": 8931,
      "ĠChampionship": 8932,
      "Ġcells": 8933,
      "ĠTR": 8934,
      "Ġstabbed": 8935,
      "Ġinhabitants": 8936,
      "Ġscalped": 8937,
      "ĠShailaja": 8938,
      "Ġward": 8939,
      "Ġcontracted": 8940,
      "ĠCommon": 8941,
      "Ġharvest": 8942,
      "Ġchapter": 8943,
      "Ġransom": 8944,
      "aling": 8945,
      "Ġbutter": 8946,
      "Ġobst": 8947,
      "OU": 8948,
      "arm": 8949,
      "ĠNok": 8950,
      "Ġpolicies": 8951,
      "ception": 8952,
      "Ġcollaboration": 8953,
      "Am": 8954,
      "ĠPas": 8955,
      "Ġbeneficial": 8956,
      "Who": 8957,
      "anta": 8958,
      "Ġparticipating": 8959,
      "rpm": 8960,
      "yers": 8961,
      "Ġlord": 8962,
      "Ġevacu": 8963,
      "ĠHal": 8964,
      "acles": 8965,
      "ĠItal": 8966,
      "ĠOper": 8967,
      "Ġskills": 8968,
      "Ġmunicipal": 8969,
      "Ġnar": 8970,
      "Ġsusp": 8971,
      "Ġmosque": 8972,
      "100": 8973,
      "ĠAP": 8974,
      "Ġsmiled": 8975,
      "Ġeasier": 8976,
      "Ġappearance": 8977,
      "Ġcourses": 8978,
      "Ġexit": 8979,
      "ĠReports": 8980,
      "ĠAkhilesh": 8981,
      "ĠSethupathi": 8982,
      "ĠLot": 8983,
      "ortunate": 8984,
      "Ġstrikes": 8985,
      "Ġcollapse": 8986,
      "related": 8987,
      "Ġdil": 8988,
      "ashi": 8989,
      "Ġonions": 8990,
      "Ġadvert": 8991,
      "Ġ800": 8992,
      "Ġcreatures": 8993,
      "ĠShikhar": 8994,
      "ĠMatt": 8995,
      "Ġsake": 8996,
      "Ġhabit": 8997,
      "Ġincl": 8998,
      "Ġdisg": 8999
    },
    "merges": [
      [
        "Ġ",
        "t"
      ],
      [
        "h",
        "e"
      ],
      [
        "Ġ",
        "a"
      ],
      [
        "i",
        "n"
      ],
      [
        "r",
        "e"
      ],
      [
        "Ġt",
        "he"
      ],
      [
        "o",
        "n"
      ],
      [
        "e",
        "r"
      ],
      [
        "Ġ",
        "w"
      ],
      [
        "i",
        "s"
      ],
      [
        "Ġ",
        "s"
      ],
      [
        "h",
        "a"
      ],
      [
        "e",
        "d"
      ],
      [
        "n",
        "d"
      ],
      [
        "e",
        "n"
      ],
      [
        "Ġ",
        "o"
      ],
      [
        "Ġ",
        "c"
      ],
      [
        "Ġ",
        "b"
      ],
      [
        "Ġ",
        "f"
      ],
      [
        "i",
        "t"
      ],
      [
        "Ġ",
        "p"
      ],
      [
        "e",
        "s"
      ],
      [
        "a",
        "t"
      ],
      [
        "Ġ",
        "T"
      ],
      [
        "o",
        "r"
      ],
      [
        "Ġ",
        "in"
      ],
      [
        "a",
        "n"
      ],
      [
        "o",
        "u"
      ],
      [
        "a",
        "l"
      ],
      [
        "a",
        "r"
      ],
      [
        "in",
        "g"
      ],
      [
        "Ġo",
        "f"
      ],
      [
        "Ġ",
        "d"
      ],
      [
        "Ġ",
        "m"
      ],
      [
        "Ġt",
        "o"
      ],
      [
        "a",
        "s"
      ],
      [
        "i",
        "l"
      ],
      [
        "Ġa",
        "nd"
      ],
      [
        "i",
        "c"
      ],
      [
        "Ġ",
        "I"
      ],
      [
        "ĠT",
        "he"
      ],
      [
        "i",
        "on"
      ],
      [
        "Ġ",
        "ha"
      ],
      [
        "l",
        "e"
      ],
      [
        "o",
        "m"
      ],
      [
        "Ġ",
        "S"
      ],
      [
        "Ġ",
        "A"
      ],
      [
        "en",
        "t"
      ],
      [
        "Ġ",
        "is"
      ],
      [
        "Ġ",
        "n"
      ],
      [
        "Ġb",
        "e"
      ],
      [
        "o",
        "t"
      ],
      [
        "i",
        "d"
      ],
      [
        "Ġ",
        "M"
      ],
      [
        "v",
        "e"
      ],
      [
        "Ġ",
        "re"
      ],
      [
        "s",
        "t"
      ],
      [
        "o",
        "l"
      ],
      [
        "Ġ",
        "l"
      ],
      [
        "Ġ",
        "C"
      ],
      [
        "ha",
        "t"
      ],
      [
        "a",
        "m"
      ],
      [
        "Ġ",
        "B"
      ],
      [
        "Ġ",
        "g"
      ],
      [
        "Ġ",
        "P"
      ],
      [
        "Ġ",
        "h"
      ],
      [
        "c",
        "t"
      ],
      [
        "Ġ",
        "e"
      ],
      [
        "Ġ",
        "H"
      ],
      [
        "v",
        "er"
      ],
      [
        "a",
        "y"
      ],
      [
        "u",
        "t"
      ],
      [
        "a",
        "d"
      ],
      [
        "u",
        "r"
      ],
      [
        "i",
        "r"
      ],
      [
        "i",
        "m"
      ],
      [
        "o",
        "w"
      ],
      [
        "t",
        "er"
      ],
      [
        "Ġt",
        "h"
      ],
      [
        "Ġf",
        "or"
      ],
      [
        "Ġ",
        "on"
      ],
      [
        "Ġw",
        "as"
      ],
[...]
