{
  "version": "1.0",
  "truncation": null,
  "padding": null,
  "added_tokens": [
    {
      "id": 0,
      "content": "<bos>",
      "single_word": false,
      "lstrip": false,
      "rstrip": false,
      "normalized": false,
      "special": true
    },
    {
      "id": 1,
      "content": "<eos>",
      "single_word": false,
      "lstrip": false,
      "rstrip": false,
      "normalized": false,
      "special": true
    },
    {
      "id": 2,
      "content": "<pad>",
      "single_word": false,
      "lstrip": false,
      "rstrip": false,
      "normalized": false,
      "special": true
    },
    {
      "id": 3,
      "content": "<unk>",
      "single_word": false,
      "lstrip": false,
      "rstrip": false,
      "normalized": false,
      "special": true
    }
  ],
  "normalizer": null,
  "pre_tokenizer": {
    "type": "ByteLevel",
    "add_prefix_space": true,
    "trim_offsets": true,
    "use_regex": true
  },
  "post_processor": {
    "type": "TemplateProcessing",
    "single": [
      {
        "SpecialToken": {
          "id": "<bos>",
          "type_id": 0
        }
      },
      {
        "Sequence": {
          "id": "A",
          "type_id": 0
        }
      },
      {
        "SpecialToken": {
          "id": "<eos>",
          "type_id": 0
        }
      }
    ],
    "pair": [
      {
        "Sequence": {
          "id": "A",
          "type_id": 0
        }
      },
      {
        "Sequence": {
          "id": "B",
          "type_id": 1
        }
      }
    ],
    "special_tokens": {
      "<bos>": {
        "id": "<bos>",
        "ids": [
          0
        ],
        "tokens": [
          "<bos>"
        ]
      },
      "<eos>": {
        "id": "<eos>",
        "ids": [
          1
        ],
        "tokens": [
          "<eos>"
        ]
      }
    }
  },
  "decoder": {
    "type": "ByteLevel",
    "add_prefix_space": true,
    "trim_offsets": true,
    "use_regex": true
  },
  "model": {
    "type": "BPE",
    "dropout": null,
    "unk_token": "<unk>",
    "continuing_subword_prefix": null,
    "end_of_word_suffix": null,
    "fuse_unk": false,
    "byte_fallback": false,
    "ignore_merges": false,
    "vocab": {
      "<bos>": 0,
      "<eos>": 1,
      "<pad>": 2,
      "<unk>": 3,
      "!": 4,
      "\"": 5,
      "#": 6,
      "$": 7,
      "%": 8,
      "&": 9,
      "'": 10,
      "(": 11,
      ")": 12,
      "*": 13,
      "+": 14,
      ",": 15,
      "-": 16,
      ".": 17,
      "/": 18,
      "0": 19,
      "1": 20,
      "2": 21,
      "3": 22,
      "4": 23,
      "5": 24,
      "6": 25,
      "7": 26,
      "8": 27,
      "9": 28,
      ":": 29,
      "<": 30,
      "=": 31,
      ">": 32,
      "?": 33,
      "@": 34,
      "A": 35,
      "B": 36,
      "C": 37,
      "D": 38,
      "E": 39,
      "F": 40,
      "G": 41,
      "H": 42,
      "I": 43,
      "J": 44,
      "K": 45,
      "L": 46,
      "M": 47,
      "N": 48,
      "O": 49,
      "P": 50,
      "Q": 51,
      "R": 52,
      "S": 53,
      "T": 54,
      "U": 55,
      "V": 56,
      "W": 57,
      "X": 58,
      "Y": 59,
      "Z": 60,
      "[": 61,
      "\\": 62,
      "]": 63,
      "^": 64,
      "_": 65,
      "`": 66,
      "a": 67,
      "b": 68,
      "c": 69,
      "d": 70,
      "e": 71,
      "f": 72,
      "g": 73,
      "h": 74,
      "i": 75,
      "j": 76,
      "k": 77,
      "l": 78,
      "m": 79,
      "n": 80,
      "o": 81,
      "p": 82,
      "q": 83,
      "r": 84,
      "s": 85,
      "t": 86,
      "u": 87,
      "v": 88,
      "w": 89,
      "x": 90,
      "y": 91,
      "z": 92,
      "{": 93,
      "|": 94,
      "}": 95,
      "~": 96,
      "Ċ": 97,
      "Ġ": 98,
      "Ġt": 99,
      "he": 100,
      "Ġa": 101,
      "in": 102,
      "re": 103,
      "Ġthe": 104,
      "on": 105,
      "er": 106,
      "Ġw": 107,
      "is": 108,
      "Ġs": 109,
      "ha": 110,
      "ed": 111,
      "nd": 112,
      "en": 113,
      "Ġo": 114,
      "Ġc": 115,
      "Ġb": 116,
      "Ġf": 117,
      "it": 118,
      "Ġp": 119,
      "es": 120,
      "at": 121,
      "ĠT": 122,
      "or": 123,
      "Ġin": 124,
      "an": 125,
      "ou": 126,
      "al": 127,
      "ar": 128,
      "ing": 129,
      "Ġof": 130,
      "Ġd": 131,
      "Ġm": 132,
      "Ġto": 133,
      "as": 134,
      "il": 135,
      "Ġand": 136,
      "ic": 137,
      "ĠI": 138,
      "ĠThe": 139,
      "ion": 140,
      "Ġha": 141,
      "le": 142,
      "om": 143,
      "ĠS": 144,
      "ĠA": 145,
      "ent": 146,
      "Ġis": 147,
      "Ġn": 148,
      "Ġbe": 149,
      "ot": 150,
      "id": 151,
      "ĠM": 152,
      "ve": 153,
      "Ġre": 154,
      "st": 155,
      "ol": 156,
      "Ġl": 157,
      "ĠC": 158,
      "hat": 159,
      "am": 160,
      "ĠB": 161,
      "Ġg": 162,
      "ĠP": 163,
      "Ġh": 164,
      "ct": 165,
      "Ġe": 166,
      "ĠH": 167,
      "ver": 168,
      "ay": 169,
      "ut": 170,
      "ad": 171,
      "ur": 172,
      "ir": 173,
      "im": 174,
      "ow": 175,
      "ter": 176,
      "Ġth": 177,
      "Ġfor": 178,
      "Ġon": 179,
      "Ġwas": 180,
      "et": 181,
      "el": 182,
      "Ġy": 183,
      "ill": 184,
      "ro": 185,
      "Ġhe": 186,
      "us": 187,
      "ĠW": 188,
      "Ġst": 189,
      "ce": 190,
      "ĠR": 191,
      "ra": 192,
      "ig": 193,
      "ly": 194,
      "od": 195,
      "ation": 196,
      "Ġal": 197,
      "Ġthat": 198,
      "ĠK": 199,
      "Ġyou": 200,
      "ak": 201,
      "ere": 202,
      "Ġare": 203,
      "Ġhas": 204,
      "res": 205,
      "os": 206,
      "ĠN": 207,
      "ith": 208,
      "Ġnot": 209,
      "ĠG": 210,
      "ĠD": 211,
      "Ġit": 212,
      "ch": 213,
      "ul": 214,
      "her": 215,
      "ist": 216,
      "ri": 217,
      "Ġhave": 218,
      "Ġan": 219,
      "ice": 220,
      "un": 221,
      "ment": 222,
      "est": 223,
      "Ġwill": 224,
      "Ġwith": 225,
      "ain": 226,
      "ia": 227,
      "Ġde": 228,
      "ers": 229,
      "Ġcon": 230,
      "Ġse": 231,
      "pp": 232,
      "ld": 233,
      "hi": 234,
      "Ġas": 235,
      "Ġat": 236,
      "ĠInd": 237,
      "Ġwh": 238,
      "op": 239,
      "\"\"": 240,
      "Ġby": 241,
      "ĠJ": 242,
      "and": 243,
      "th": 244,
      "ĠF": 245,
      "if": 246,
      "ĠHe": 247,
      "ate": 248,
      "Ġcom": 249,
      "rom": 250,
      "Ġ1": 251,
      "ĠTh": 252,
      "Ġsa": 253,
      "ge": 254,
      "Ġthis": 255,
      "nt": 256,
      "ĠL": 257,
      "um": 258,
      "our": 259,
      "ac": 260,
      "Ġwere": 261,
      "Ġv": 262,
      "Ġbeen": 263,
      "art": 264,
      "Ġfrom": 265,
      "Ġk": 266,
      "ht": 267,
      "se": 268,
      "olice": 269,
      "ĠIt": 270,
      "ong": 271,
      "Ġne": 272,
      "Ġpro": 273,
      "ab": 274,
      "ant": 275,
      "Ġgo": 276,
      "Ġsaid": 277,
      "han": 278,
      "Ġr": 279,
      "ĠO": 280,
      "ore": 281,
      "ort": 282,
      "ĠE": 283,
      "up": 284,
      "ies": 285,
      "ess": 286,
      "Ġle": 287,
      "so": 288,
      "ud": 289,
      "iv": 290,
      "la": 291,
      "em": 292,
      "red": 293,
      "ok": 294,
      "Ġsu": 295,
      "pe": 296,
      "Ġex": 297,
      "Ġdo": 298,
      "Ġ2": 299,
      "ister": 300,
      "'s": 301,
      "ĠIndia": 302,
      "ould": 303,
      "ity": 304,
      "ction": 305,
      "qu": 306,
      "Ġhis": 307,
      "ive": 308,
      "ĠBut": 309,
      "Ġhad": 310,
      "Ġalso": 311,
      "Ġ(": 312,
      "inister": 313,
      "ress": 314,
      "Ġthem": 315,
      "ust": 316,
      "ĠThis": 317,
      "ident": 318,
      "Ġwor": 319,
      "cc": 320,
      "Ġthey": 321,
      "ie": 322,
      "ight": 323,
      "ĠV": 324,
      "ĠU": 325,
      "Ġpolice": 326,
      "Ġme": 327,
      "ime": 328,
      "Ġall": 329,
      "Ġpe": 330,
      "ial": 331,
      "..": 332,
      "ard": 333,
      "ase": 334,
      "one": 335,
      "ome": 336,
      "Ġor": 337,
      "ian": 338,
      "oc": 339,
      "ov": 340,
      "Ġag": 341,
      "ost": 342,
      "Ġsh": 343,
      "ople": 344,
      "Ġwho": 345,
      "ĠY": 346,
      "Ġar": 347,
      "Ġwe": 348,
      "Ġinc": 349,
      "Ġfil": 350,
      "Ġj": 351,
      "ind": 352,
      "ther": 353,
      "ry": 354,
      "ĠAl": 355,
      "ast": 356,
      "ag": 357,
      "Ġcan": 358,
      "ated": 359,
      "ous": 360,
      "har": 361,
      "ric": 362,
      "Ġab": 363,
      "Ġpeople": 364,
      "Ġtheir": 365,
      "ĠRa": 366,
      "wo": 367,
      "Ġno": 368,
      "ĠMinister": 369,
      "ĠIn": 370,
      "00": 371,
      "ef": 372,
      "ep": 373,
      "hen": 374,
      "vern": 375,
      "und": 376,
      "ell": 377,
      "pl": 378,
      "ik": 379,
      "out": 380,
      "Ġres": 381,
      "av": 382,
      "JP": 383,
      "ose": 384,
      "all": 385,
      "very": 386,
      "ue": 387,
      "Ġagain": 388,
      "Ġone": 389,
      "Ġman": 390,
      "are": 391,
      "ĠWe": 392,
      "ire": 393,
      "ame": 394,
      "Ġtak": 395,
      "ĠThere": 396,
      "ĠBJP": 397,
      "Ġup": 398,
      "Ġhim": 399,
      "ide": 400,
      "fter": 401,
      "ure": 402,
      "ted": 403,
      "vernment": 404,
      "ack": 405,
      "Ġdis": 406,
      "Ġun": 407,
      "Ġfilm": 408,
      "ff": 409,
      "Ġyour": 410,
      "ĠPr": 411,
      "Ġus": 412,
      "ĠThey": 413,
      "Ġthere": 414,
      "Ġacc": 415,
      "Ġint": 416,
      "ath": 417,
      "port": 418,
      "ree": 419,
      "oug": 420,
      "ary": 421,
      "Ġpl": 422,
      "Ġ\"\"": 423,
      "Ġpr": 424,
      "Ġad": 425,
      "Ġpart": 426,
      "Ġout": 427,
      "ount": 428,
      "Ġoff": 429,
      "ctor": 430,
      "now": 431,
      "Ġcase": 432,
      "cted": 433,
      "Ġso": 434,
      "ater": 435,
      "ord": 436,
      "hil": 437,
      "end": 438,
      "pt": 439,
      "Ġagainst": 440,
      "ays": 441,
      "ound": 442,
      "hed": 443,
      "ll": 444,
      "age": 445,
      "Ġother": 446,
      "ĠWhat": 447,
      "ear": 448,
      "ourt": 449,
      "ble": 450,
      "Ġim": 451,
      "Ġwhat": 452,
      "Ġtr": 453,
      "ish": 454,
      "ition": 455,
      "ook": 456,
      "Ġcont": 457,
      "ĠSt": 458,
      "Ġtwo": 459,
      "ever": 460,
      "oll": 461,
      "Ġsp": 462,
      "ical": 463,
      "Ġover": 464,
      "ence": 465,
      "ail": 466,
      "Ġany": 467,
      "ĠHow": 468,
      "eral": 469,
      "ĠAnd": 470,
      "ĠCong": 471,
      "ah": 472,
      "ich": 473,
      "Ġgovernment": 474,
      "ine": 475,
      "Ġam": 476,
      "Ġlead": 477,
      "ans": 478,
      "hief": 479,
      "du": 480,
      "ug": 481,
      "Ġknow": 482,
      "under": 483,
      "ĠCongress": 484,
      "Ġdid": 485,
      "Ġmy": 486,
      "Ġstate": 487,
      "ations": 488,
      "ered": 489,
      "ied": 490,
      "ons": 491,
      "ĠGod": 492,
      "Ġper": 493,
      "ings": 494,
      "Ġafter": 495,
      "Ġatt": 496,
      "orm": 497,
      "ass": 498,
      "mit": 499,
      "Ġunder": 500,
      "Ġtime": 501,
      "Ġapp": 502,
      "ital": 503,
      "ne": 504,
      "Ġ3": 505,
      "ens": 506,
      "Ġreg": 507,
      "Ġabout": 508,
      "ple": 509,
      "other": 510,
      "Ġher": 511,
      "ade": 512,
      "Ġfir": 513,
      "ach": 514,
      "ĠCh": 515,
      "amil": 516,
      "og": 517,
      "Ġte": 518,
      "Ġev": 519,
      ".\"": 520,
      "ber": 521,
      "ĠIndian": 522,
      "Ġsc": 523,
      "Ġsha": 524,
      "ance": 525,
      "esh": 526,
      "odi": 527,
      "Ġsec": 528,
      "ap": 529,
      "ife": 530,
      "Ġwhich": 531,
      "Ġpres": 532,
      "ond": 533,
      "ign": 534,
      "ĠPolice": 535,
      "ove": 536,
      "Ġser": 537,
      "...": 538,
      "ĠAs": 539,
      "rest": 540,
      "ged": 541,
      "osp": 542,
      "ult": 543,
      "Ġwork": 544,
      "Ġinv": 545,
      "old": 546,
      "Ġqu": 547,
      "Ġen": 548,
      "Ġra": 549,
      "rit": 550,
      "Ġbut": 551,
      "ions": 552,
      "ang": 553,
      "ĠYou": 554,
      "ew": 555,
      "ub": 556,
      "ĠThat": 557,
      "ough": 558,
      "ĠRs": 559,
      "Ġnew": 560,
      "Ġfirst": 561,
      "Ġdec": 562,
      "Ġarrest": 563,
      "Ġinto": 564,
      "eh": 565,
      "ospital": 566,
      "Ġ\"": 567,
      "iz": 568,
      "Ġpers": 569,
      "ious": 570,
      "ĠModi": 571,
      "hild": 572,
      "Ġwould": 573,
      "ren": 574,
      "Ġshould": 575,
      "Ġbr": 576,
      "ont": 577,
      "ally": 578,
      "ake": 579,
      "ank": 580,
      "Ġits": 581,
      "oin": 582,
      "able": 583,
      "Ġour": 584,
      "reat": 585,
      "iss": 586,
      "Ġwhen": 587,
      "used": 588,
      "ai": 589,
      "ĠNo": 590,
      "Ġcl": 591,
      "ĠMan": 592,
      "'t": 593,
      "ood": 594,
      "oy": 595,
      "own": 596,
      "vers": 597,
      "oth": 598,
      "Ġmed": 599,
      "lah": 600,
      "Ġlik": 601,
      "ational": 602,
      "Ġmore": 603,
      "Ġcount": 604,
      "Ġspe": 605,
      "ace": 606,
      "ates": 607,
      "Ġrec": 608,
      "Ġro": 609,
      "Ġ20": 610,
      "Ġgr": 611,
      "Ġinj": 612,
      "ash": 613,
      "Ġhapp": 614,
      "ile": 615,
      "Ġchild": 616,
      "Ġincident": 617,
      "Ġthen": 618,
      "Ġcomp": 619,
      "igh": 620,
      "ick": 621,
      "ced": 622,
      "Ġthose": 623,
      "li": 624,
      "per": 625,
      "je": 626,
      "ured": 627,
      "ĠAn": 628,
      "hy": 629,
      "Ġmade": 630,
      "ĠShe": 631,
      "ely": 632,
      "ise": 633,
      "vel": 634,
      "Ġ-": 635,
      "rict": 636,
      "Ġarrested": 637,
      "Ġmov": 638,
      "Ġ5": 639,
      "Ġbec": 640,
      "ĠKeral": 641,
      "ĠAllah": 642,
      "ark": 643,
      "Ġdist": 644,
      "Ġ\"\"\"": 645,
      "Ġneed": 646,
      "ody": 647,
      "ved": 648,
      "Ġwom": 649,
      "ĠUn": 650,
      "mer": 651,
      "aj": 652,
      "med": 653,
      "Ġhospital": 654,
      "ward": 655,
      "Ġ4": 656,
      "form": 657,
      "ĠKerala": 658,
      "ory": 659,
      "Ġtaken": 660,
      "der": 661,
      "ĠRaj": 662,
      "arn": 663,
      "we": 664,
      "Ġmat": 665,
      "urn": 666,
      "Ġla": 667,
      "ĠIs": 668,
      "Ġbel": 669,
      "here": 670,
      "Ġonly": 671,
      "Ġrem": 672,
      "ict": 673,
      "Ġcourt": 674,
      "istan": 675,
      "ru": 676,
      "Ġpre": 677,
      "eng": 678,
      "Ġsay": 679,
      "ents": 680,
      "Ġele": 681,
      "ased": 682,
      "Ġtra": 683,
      "Ġmany": 684,
      "hip": 685,
      "ob": 686,
      "way": 687,
      "Ġsome": 688,
      "Ġrel": 689,
      "lud": 690,
      "Ġreport": 691,
      "ĠChief": 692,
      "Ġbl": 693,
      "Ġthree": 694,
      "Ġbeing": 695,
      "fore": 696,
      "use": 697,
      "ck": 698,
      "Ġgood": 699,
      "Ġca": 700,
      "Ġshe": 701,
      "Ġthan": 702,
      "ces": 703,
      "Ġbet": 704,
      "ndra": 705,
      "ĠPak": 706,
      "ink": 707,
      "ather": 708,
      "ness": 709,
      "ec": 710,
      "oun": 711,
      "ip": 712,
      "Ġday": 713,
      "Ġact": 714,
      "ĠPrime": 715,
      "ollow": 716,
      "ful": 717,
      "Ġinvest": 718,
      "ĠAr": 719,
      "Ġget": 720,
      "Ġhel": 721,
      "Ġear": 722,
      "aint": 723,
      "Ġhow": 724,
      "Ġif": 725,
      "Ġkill": 726,
      "ities": 727,
      "me": 728,
      "Ġaccused": 729,
      "man": 730,
      "ĠGand": 731,
      "Ġlike": 732,
      "Ġsee": 733,
      "Ġstud": 734,
      "Ġinclud": 735,
      "ret": 736,
      "Ġvery": 737,
      "ĠPakistan": 738,
      "ĠSo": 739,
      "Ġfe": 740,
      "Ġfamil": 741,
      "Ġminister": 742,
      "Ġevery": 743,
      "ite": 744,
      "Ġprot": 745,
      "tern": 746,
      "lace": 747,
      "ĠGo": 748,
      "ures": 749,
      "Ġdeath": 750,
      "pur": 751,
      "ĠJeh": 752,
      "ran": 753,
      "Ġiss": 754,
      "cial": 755,
      "Ġcome": 756,
      "Ġdire": 757,
      "ible": 758,
      "uring": 759,
      "ĠGandhi": 760,
      "Ġfl": 761,
      "Ġshall": 762,
      "iff": 763,
      "ovah": 764,
      "Ġcro": 765,
      "ham": 766,
      "ĠJehovah": 767,
      "Ġcountry": 768,
      "Ġjust": 769,
      "Ġlife": 770,
      "Ġoffic": 771,
      "Ġthr": 772,
      "Ġinjured": 773,
      "Ġworld": 774,
      "les": 775,
      "Ġhelp": 776,
      "Ġmeet": 777,
      "uth": 778,
      "ĠHowever": 779,
      "van": 780,
      "ĠSing": 781,
      "Ġsuch": 782,
      "als": 783,
      "Ġadd": 784,
      "sel": 785,
      "olle": 786,
      "Ġtake": 787,
      "umar": 788,
      "Ġcent": 789,
      "Ġhere": 790,
      "ision": 791,
      "umb": 792,
      "cy": 793,
      "ised": 794,
      "Ġchan": 795,
      "ci": 796,
      "itu": 797,
      "Ġhappen": 798,
      "Ġinvestig": 799,
      "Ġpost": 800,
      "ix": 801,
      "ng": 802,
      "Ġthese": 803,
      "alth": 804,
      "Ġcould": 805,
      "Ġcar": 806,
      "Ġplace": 807,
      "Ġmovie": 808,
      "Ġac": 809,
      "Ġdoes": 810,
      "Ġright": 811,
      "lic": 812,
      "Ġcompl": 813,
      "Ġind": 814,
      "ĠKo": 815,
      "Ġdistrict": 816,
      "Ġdiff": 817,
      "Ġplay": 818,
      "ĠSingh": 819,
      "Ġback": 820,
      "Ġcha": 821,
      "Ġchildren": 822,
      "ĠCourt": 823,
      "hes": 824,
      "Ġcomm": 825,
      "ked": 826,
      "Ġtook": 827,
      "ctions": 828,
      "ats": 829,
      "ĠSha": 830,
      "Ġfa": 831,
      "ĠAll": 832,
      "Ġsoc": 833,
      "Ġgiv": 834,
      "get": 835,
      "Ġbefore": 836,
      "ĠFor": 837,
      "Ġ6": 838,
      "ĠMa": 839,
      "Ġattack": 840,
      "Ġcons": 841,
      "mb": 842,
      "ĠDel": 843,
      "Ġbelie": 844,
      "Ġstart": 845,
      "Ġwell": 846,
      "wn": 847,
      "Ġdown": 848,
      "ĠCom": 849,
      "ya": 850,
      "ven": 851,
      "ool": 852,
      "Ġyear": 853,
      "Ġfamily": 854,
      "Ġcall": 855,
      "ited": 856,
      "arendra": 857,
      "Ġwant": 858,
      "ower": 859,
      "Ġpol": 860,
      "ho": 861,
      "Ġhand": 862,
      "ĠNarendra": 863,
      "ided": 864,
      "ĠHis": 865,
      "Ġmedia": 866,
      "hing": 867,
      "ating": 868,
      "ĠNew": 869,
      "ral": 870,
      "ouse": 871,
      "Ġwater": 872,
      "ft": 873,
      "Ġfollow": 874,
      "ĠDelhi": 875,
      "ĠAd": 876,
      "ought": 877,
      "Ġ19": 878,
      "Ġfound": 879,
      "ĠRah": 880,
      "Ġconf": 881,
      "ave": 882,
      "eep": 883,
      "Ġ'": 884,
      "ĠRam": 885,
      "ma": 886,
      "ters": 887,
      "ween": 888,
      "led": 889,
      "ments": 890,
      "ks": 891,
      "ors": 892,
      "oss": 893,
      "Ġperson": 894,
      "Ġfour": 895,
      "Ġbetween": 896,
      "\"\"\"": 897,
      "ann": 898,
      "ution": 899,
      "Ġparty": 900,
      "Ġresp": 901,
      "ib": 902,
      "Ġprodu": 903,
      "Ġeven": 904,
      "Ġpass": 905,
      "Ġthrough": 906,
      "ert": 907,
      "ets": 908,
      "ĠIts": 909,
      "te": 910,
      "jay": 911,
      "ĠLord": 912,
      "Ġfar": 913,
      "Ġchief": 914,
      "Ġmem": 915,
      "Ġtoo": 916,
      "read": 917,
      "Ġprov": 918,
      "irl": 919,
      "Ġfin": 920,
      "aug": 921,
      "Ġway": 922,
      "gan": 923,
      "uch": 924,
      "Ġmake": 925,
      "Ġloc": 926,
      "Ġdem": 927,
      "Ġmost": 928,
      "Ġkilled": 929,
      "rong": 930,
      "Ġteam": 931,
      "Ġlater": 932,
      "Ġwon": 933,
      "Ġdisc": 934,
      "Ġret": 935,
      "thing": 936,
      "ting": 937,
      "Ġsupp": 938,
      "ĠRe": 939,
      "adesh": 940,
      "ins": 941,
      "ission": 942,
      "Ġsub": 943,
      "Ġcr": 944,
      "ĠSh": 945,
      "Ġcomplaint": 946,
      "ĠOn": 947,
      "Ġent": 948,
      "ĠCha": 949,
      "resident": 950,
      "riv": 951,
      "000": 952,
      "antha": 953,
      "ars": 954,
      "Ġdied": 955,
      "ty": 956,
      "Ġleader": 957,
      "ĠRahul": 958,
      "ĠThir": 959,
      "Ġco": 960,
      "Ġter": 961,
      "Ġ7": 962,
      "Ġsocial": 963,
      "Ġmay": 964,
      "ram": 965,
      "Ġset": 966,
      "Ġlook": 967,
      "Ġann": 968,
      "Ġsm": 969,
      "Ġgu": 970,
      "Ġcrore": 971,
      "),": 972,
      "Ġdes": 973,
      "Ġpresident": 974,
      "Ġinform": 975,
      "Ġwhile": 976,
      "ĠAb": 977,
      "ĠMo": 978,
      "Ġ10": 979,
      "Ġass": 980,
      "fe": 981,
      "rib": 982,
      "ĠMal": 983,
      "ĠDe": 984,
      "ained": 985,
      "Ġserv": 986,
      "uvan": 987,
      "retary": 988,
      "akh": 989,
      "osition": 990,
      "Ġrele": 991,
      "ives": 992,
      "mitted": 993,
      "ĠThen": 994,
      "ĠDo": 995,
      "Ġcame": 996,
      "Ġquest": 997,
      "Ġsecond": 998,
      "Ġmon": 999,
      "Ġduring": 1000,
      "ject": 1001,
      "Ġwomen": 1002,
      "ĠPresident": 1003,
      "Ġregist": 1004,
      "uss": 1005,
      "rist": 1006,
      "Ġ201": 1007,
      "ĠTr": 1008,
      "puram": 1009,
      "Ġrun": 1010,
      "ĠKumar": 1011,
      "xt": 1012,
      "oint": 1013,
      "Ġalle": 1014,
      "Ġcontin": 1015,
      "Ġ8": 1016,
      "ĠVi": 1017,
      "ĠThiruvan": 1018,
      "oot": 1019,
      "Ġexam": 1020,
      "anthapuram": 1021,
      "ĠSab": 1022,
      "pect": 1023,
      "Ġnum": 1024,
      "Ġamong": 1025,
      "ried": 1026,
      "ual": 1027,
      "Ġfather": 1028,
      "Ġlast": 1029,
      "blem": 1030,
      "its": 1031,
      "ĠThiruvananthapuram": 1032,
      "Ġyet": 1033,
      "Ġpresent": 1034,
      "day": 1035,
      "ning": 1036,
      "Ġgirl": 1037,
      "osed": 1038,
      "ases": 1039,
      "ves": 1040,
      "ata": 1041,
      "Ġsent": 1042,
      "Ġpolit": 1043,
      "Ġob": 1044,
      "ĠSup": 1045,
      "Ġdiffere": 1046,
      "Ġav": 1047,
      "Ġconst": 1048,
      "ĠIf": 1049,
      "Ġwhere": 1050,
      "Ġmeeting": 1051,
      "Ġgiven": 1052,
      "Ġop": 1053,
      "Ġgoing": 1054,
      "Ġactor": 1055,
      "Ġmatter": 1056,
      "Ġmar": 1057,
      "Ġofficial": 1058,
      "Ġproblem": 1059,
      "Ġhome": 1060,
      "ĠState": 1061,
      "Ġpersons": 1062,
      "Ġsays": 1063,
      "Ġregistered": 1064,
      "Ġaway": 1065,
      "Ġph": 1066,
      "ĠMe": 1067,
      "Ġinvestigation": 1068,
      "Ġnever": 1069,
      "Ġopp": 1070,
      "Ġthings": 1071,
      "ĠChrist": 1072,
      "Ġunt": 1073,
      "Ġvis": 1074,
      "Ġaction": 1075,
      "ĠTamil": 1076,
      "ists": 1077,
      "uk": 1078,
      "ati": 1079,
      "Ġend": 1080,
      "Ġhouse": 1081,
      "ants": 1082,
      "Ġve": 1083,
      "chool": 1084,
      "Ġregard": 1085,
      "ges": 1086,
      "Ġ[": 1087,
      "velop": 1088,
      "Ġlove": 1089,
      "ĠUS": 1090,
      "Ġsame": 1091,
      "Ġrece": 1092,
      "Ġbu": 1093,
      "Ġcor": 1094,
      "Ġ12": 1095,
      "Ġrep": 1096,
      "Ġgot": 1097,
      "ause": 1098,
      "urre": 1099,
      "ss": 1100,
      "ĠWhy": 1101,
      "ote": 1102,
      "Ġdont": 1103,
      "act": 1104,
      "ĠMumb": 1105,
      "ued": 1106,
      "Ġdet": 1107,
      "ĠAt": 1108,
      "aw": 1109,
      "Ġcle": 1110,
      "riend": 1111,
      "Ġnumber": 1112,
      "Ġprotest": 1113,
      "Ġboth": 1114,
      "Ġson": 1115,
      "ĠMy": 1116,
      "Ġhigh": 1117,
      "Ġhead": 1118,
      "Ġbody": 1119,
      "kar": 1120,
      "Ġwrit": 1121,
      "Ġeach": 1122,
      "ĠMumbai": 1123,
      "Ġwin": 1124,
      "Ġ15": 1125,
      "inist": 1126,
      "oh": 1127,
      "Ġexp": 1128,
      "ived": 1129,
      "imes": 1130,
      "Ġlaw": 1131,
      "Ġmust": 1132,
      "Ġinter": 1133,
      "Ġimp": 1134,
      "ince": 1135,
      "Ġlong": 1136,
      "Ġlakh": 1137,
      "Ġdecision": 1138,
      "oor": 1139,
      "ics": 1140,
      "iew": 1141,
      "Ġothers": 1142,
      "air": 1143,
      "ey": 1144,
      "ues": 1145,
      "aking": 1146,
      "ĠWor": 1147,
      ").": 1148,
      "Ġlet": 1149,
      "eneral": 1150,
      "Ġmur": 1151,
      "Ġhealth": 1152,
      "Ġdone": 1153,
      "ĠPradesh": 1154,
      "Ġseats": 1155,
      "ular": 1156,
      "ĠVijay": 1157,
      "olog": 1158,
      "Ġbus": 1159,
      "Ġmother": 1160,
      "Ġcam": 1161,
      "ps": 1162,
      "ĠChin": 1163,
      "BI": 1164,
      "land": 1165,
      "Ġannoun": 1166,
      "Ġown": 1167,
      "Ġheav": 1168,
      "cess": 1169,
      "ĠHind": 1170,
      "ĠLe": 1171,
      "reme": 1172,
      "Ġreported": 1173,
      "ollege": 1174,
      "ched": 1175,
      "Ġimport": 1176,
      "Ġread": 1177,
      "ĠGovernment": 1178,
      "Ġref": 1179,
      "esus": 1180,
      "Ġconne": 1181,
      "ten": 1182,
      "Ġsur": 1183,
      "ility": 1184,
      "ĠOne": 1185,
      "ĠPar": 1186,
      "Ġgreat": 1187,
      "app": 1188,
      "ublic": 1189,
      "ĠTwo": 1190,
      "ĠPro": 1191,
      "mir": 1192,
      "ative": 1193,
      "Ġdays": 1194,
      "ĠEx": 1195,
      "Ġearth": 1196,
      "Ġfive": 1197,
      "Ġmuch": 1198,
      "ffe": 1199,
      "Ġhar": 1200,
      "ax": 1201,
      "ĠPe": 1202,
      ".\"\"\"": 1203,
      "ific": 1204,
      "Ġfire": 1205,
      "Ġchar": 1206,
      "cept": 1207,
      "ana": 1208,
      "ĠJesus": 1209,
      "ĠMany": 1210,
      "ism": 1211,
      "Ġinst": 1212,
      "Ġstarted": 1213,
      "rick": 1214,
      "Ġmonth": 1215,
      "ĠSabha": 1216,
      "ason": 1217,
      "Ġwife": 1218,
      "Ġpower": 1219,
      "bers": 1220,
      "part": 1221,
      "Ġstill": 1222,
      "Ġhappened": 1223,
      "ĠWhen": 1224,
      "Ġleaders": 1225,
      "ĠPM": 1226,
      "Ġappro": 1227,
      "Ġtem": 1228,
      "Ġtrans": 1229,
      "Ġasked": 1230,
      "Ġgive": 1231,
      "Ġformer": 1232,
      "Ġsupport": 1233,
      "Ġtal": 1234,
      "ĠCP": 1235,
      "Ġins": 1236,
      "ild": 1237,
      "omet": 1238,
      "ural": 1239,
      "ired": 1240,
      "Ġthink": 1241,
      "king": 1242,
      "mission": 1243,
      "Ġsy": 1244,
      "semb": 1245,
      "ages": 1246,
      "Ġincluding": 1247,
      "Ġland": 1248,
      "Ġwoman": 1249,
      "Ġmen": 1250,
      "Ġfiled": 1251,
      "Ġwent": 1252,
      "self": 1253,
      "Ġem": 1254,
      "eed": 1255,
      "ivers": 1256,
      "ĠKash": 1257,
      "ĠJust": 1258,
      "Ġvar": 1259,
      "ides": 1260,
      "Ġ9": 1261,
      "ices": 1262,
      "Ġdifferent": 1263,
      "Ġname": 1264,
      "Ġshow": 1265,
      "outh": 1266,
      "Ġheld": 1267,
      "gest": 1268,
      "20": 1269,
      "be": 1270,
      "ump": 1271,
      "Ġturn": 1272,
      "Ġanother": 1273,
      "Ġfriend": 1274,
      "ently": 1275,
      "ĠSe": 1276,
      "ĠThats": 1277,
      "Ġvide": 1278,
      "lim": 1279,
      "ĠAfter": 1280,
      "Ġbig": 1281,
      "oney": 1282,
      "Ġben": 1283,
      "vent": 1284,
      "ries": 1285,
      "Ġused": 1286,
      "Ġissue": 1287,
      "ĠAm": 1288,
      "ĠKashmir": 1289,
      "ĠSupreme": 1290,
      "Ġcre": 1291,
      "Ġsitu": 1292,
      "ĠNational": 1293,
      "tle": 1294,
      "ĠMus": 1295,
      "Ġsign": 1296,
      "Ġbook": 1297,
      "Ġsoon": 1298,
      "ĠSec": 1299,
      "ĠEng": 1300,
      "cer": 1301,
      "arent": 1302,
      "laim": 1303,
      "Ġopen": 1304,
      "Ġmark": 1305,
      "Ġstudents": 1306,
      "Ġhum": 1307,
      "ĠMed": 1308,
      "ode": 1309,
      "Ġincre": 1310,
      "ĠAct": 1311,
      "sembly": 1312,
      "ĠCent": 1313,
      "ĠZ": 1314,
      "Ġwick": 1315,
      "augh": 1316,
      "pend": 1317,
      "Ġspot": 1318,
      "ird": 1319,
      "Ġdr": 1320,
      "pped": 1321,
      "ract": 1322,
      "ror": 1323,
      "Ġstand": 1324,
      "ished": 1325,
      "Ġcond": 1326,
      "Ġlar": 1327,
      "ared": 1328,
      "Ġquestion": 1329,
      "urity": 1330,
      "Ġreturn": 1331,
      "rol": 1332,
      "Ġavail": 1333,
      "ale": 1334,
      "ering": 1335,
      "ĠEvery": 1336,
      "Ġdead": 1337,
      "Ġrequ": 1338,
      "Ġdevelop": 1339,
      "Ġocc": 1340,
      "con": 1341,
      "Ġfore": 1342,
      "Ġyears": 1343,
      "Ġext": 1344,
      "Ġnext": 1345,
      "engal": 1346,
      "Ġbest": 1347,
      "Ġmurder": 1348,
      ",\"\"": 1349,
      "ament": 1350,
      "urther": 1351,
      "itness": 1352,
      "ĠShah": 1353,
      "els": 1354,
      "not": 1355,
      "Ġdue": 1356,
      "Ġmembers": 1357,
      "Ġheart": 1358,
      "ached": 1359,
      "urrent": 1360,
      "ified": 1361,
      "Ġschool": 1362,
      "ĠLok": 1363,
      "ĠBengal": 1364,
      "Ġfac": 1365,
      "Ġprom": 1366,
      "lier": 1367,
      "ways": 1368,
      "Ġvir": 1369,
      "Ġbelieve": 1370,
      "body": 1371,
      "ized": 1372,
      "na": 1373,
      "Ġword": 1374,
      "ĠChen": 1375,
      "sw": 1376,
      "Ġdaugh": 1377,
      "Ġcalled": 1378,
      "uc": 1379,
      "vi": 1380,
      "ajor": 1381,
      "hic": 1382,
      "ĠUnion": 1383,
      "ĠWho": 1384,
      "Ġbecause": 1385,
      "ĠBible": 1386,
      "ĠWorld": 1387,
      "ala": 1388,
      "Ġbo": 1389,
      "Ġorder": 1390,
      "ately": 1391,
      "The": 1392,
      "Ġch": 1393,
      "Ġprog": 1394,
      "Ġdon": 1395,
      "Ġcases": 1396,
      "ĠBoth": 1397,
      "Ġimportant": 1398,
      "ute": 1399,
      "any": 1400,
      "Ġgl": 1401,
      "hile": 1402,
      "ended": 1403,
      "az": 1404,
      "book": 1405,
      "adu": 1406,
      "Ġ11": 1407,
      "Ġbeg": 1408,
      "Ġtreat": 1409,
      "eth": 1410,
      "Ġsecretary": 1411,
      "uthor": 1412,
      "Ġcomple": 1413,
      "Ġsix": 1414,
      "ording": 1415,
      "Ġnews": 1416,
      "Ġnear": 1417,
      "ĠJam": 1418,
      "Ġdemand": 1419,
      "Ġroad": 1420,
      "ĠTe": 1421,
      "hal": 1422,
      "Ġple": 1423,
      "ĠHigh": 1424,
      "Ġcannot": 1425,
      "Ġbrother": 1426,
      "Ġconnection": 1427,
      "Ġallow": 1428,
      "atch": 1429,
      "asht": 1430,
      "ĠMad": 1431,
      "Ġlist": 1432,
      "ĠGu": 1433,
      "Ġvehic": 1434,
      "ĠCBI": 1435,
      "Ġnow": 1436,
      "ĠIm": 1437,
      "ĠChenn": 1438,
      "Ġnothing": 1439,
      "Ġsim": 1440,
      "Ġposs": 1441,
      "ior": 1442,
      "ines": 1443,
      "ope": 1444,
      "Ġfew": 1445,
      "hik": 1446,
      "Ġlot": 1447,
      "ock": 1448,
      "alam": 1449,
      "Ġed": 1450,
      "Ġ14": 1451,
      "war": 1452,
      "ĠSome": 1453,
      "ready": 1454,
      "Ġair": 1455,
      "Ġsever": 1456,
      "Ġtruth": 1457,
      "Ġvideo": 1458,
      "Ġdirected": 1459,
      "Ġtest": 1460,
      "Ġupon": 1461,
      "acebook": 1462,
      "Ġ200": 1463,
      "icip": 1464,
      "Ġlaun": 1465,
      "Ġlit": 1466,
      "Ġclaim": 1467,
      "stand": 1468,
      "Ġform": 1469,
      "Ġdel": 1470,
      "arents": 1471,
      "arch": 1472,
      "Ġreleased": 1473,
      "angu": 1474,
      "ploy": 1475,
      "Ġaccident": 1476,
      "andid": 1477,
      "Ġarea": 1478,
      "Ġseveral": 1479,
      "Ġtold": 1480,
      "ains": 1481,
      "ffic": 1482,
      "ĠThese": 1483,
      "ts": 1484,
      "elf": 1485,
      "Ġsl": 1486,
      "aray": 1487,
      "ĠFacebook": 1488,
      "Ġbecome": 1489,
      "Ġrole": 1490,
      "ving": 1491,
      "men": 1492,
      "Ġalready": 1493,
      "ait": 1494,
      "iol": 1495,
      "Ġserious": 1496,
      "Ġaround": 1497,
      "ĠKhan": 1498,
      "aka": 1499,
      "iet": 1500,
      "Ġsituation": 1501,
      "Ġsus": 1502,
      "ency": 1503,
      "Ġful": 1504,
      "orn": 1505,
      "Ġrest": 1506,
      "Ġelections": 1507,
      "Ġpet": 1508,
      "ily": 1509,
      "ashtra": 1510,
      "iness": 1511,
      "pected": 1512,
      "Ġjud": 1513,
      "Ġput": 1514,
      "Ġviol": 1515,
      "Ġavailable": 1516,
      "Ġansw": 1517,
      "LA": 1518,
      "ĠShar": 1519,
      "Ġwrong": 1520,
      "ĠBank": 1521,
      "Ġclear": 1522,
      "Ġfind": 1523,
      "Ġfaith": 1524,
      "ĠSa": 1525,
      "Ġ18": 1526,
      "Ġmoney": 1527,
      "Ġbeh": 1528,
      "Ġ25": 1529,
      "ĠChristian": 1530,
      "Ġspecial": 1531,
      "wards": 1532,
      "Ġruns": 1533,
      "ross": 1534,
      "ĠKarn": 1535,
      "my": 1536,
      "ĠChina": 1537,
      "ature": 1538,
      "ĠTo": 1539,
      "Ġalleged": 1540,
      "Ġmajor": 1541,
      "inistry": 1542,
      "ĠNot": 1543,
      "Ġanything": 1544,
      "Ġcandid": 1545,
      "mitte": 1546,
      "Ġfr": 1547,
      "Ġseen": 1548,
      "ani": 1549,
      "ĠMahar": 1550,
      "ĠSen": 1551,
      "Ġcity": 1552,
      "Ġcol": 1553,
      "ternational": 1554,
      "Ġpolitical": 1555,
      "ĠCon": 1556,
      "Ġcurrent": 1557,
      "ience": 1558,
      "gr": 1559,
      "Ġdidnt": 1560,
      "iving": 1561,
      "itiz": 1562,
      "Ġorgan": 1563,
      "Ġexper": 1564,
      "ĠAmit": 1565,
      "Ġwhy": 1566,
      "mon": 1567,
      "Ġnor": 1568,
      "Ġpriv": 1569,
      "ury": 1570,
      "ĠQ": 1571,
      "ataka": 1572,
      "Ġreal": 1573,
      "Ġpoint": 1574,
      "Ġcondu": 1575,
      "Ġtoget": 1576,
      "Ġtogether": 1577,
      "Ġspir": 1578,
      "Ġrelig": 1579,
      "Ġreceived": 1580,
      "Ġcrick": 1581,
      "Ġnational": 1582,
      "Ġ13": 1583,
      "ĠAust": 1584,
      "Ġkeep": 1585,
      "Ġlost": 1586,
      "ĠMaharashtra": 1587,
      "Ġtimes": 1588,
      "ek": 1589,
      "com": 1590,
      "ĠDay": 1591,
      "Ġcare": 1592,
      "Ġpur": 1593,
      "ush": 1594,
      "conom": 1595,
      "Ġresult": 1596,
      "Ġthing": 1597,
      "Ġrain": 1598,
      "ĠAf": 1599,
      "Ġpublic": 1600,
      "Ġvisit": 1601,
      "Ġsucc": 1602,
      "ĠKarnataka": 1603,
      "Ġleft": 1604,
      "selves": 1605,
      "Ġsk": 1606,
      "eal": 1607,
      "Ġdef": 1608,
      "river": 1609,
      "Ġfurther": 1610,
      "Ġhist": 1611,
      "ertain": 1612,
      "Ġdiscuss": 1613,
      "rying": 1614,
      "mi": 1615,
      "Ġsomet": 1616,
      "ination": 1617,
      "Ġtreatment": 1618,
      "ris": 1619,
      "Ġconsid": 1620,
      "Ġcrit": 1621,
      "ĠHim": 1622,
      "mittee": 1623,
      "idence": 1624,
      "medi": 1625,
      "ph": 1626,
      "Ġfood": 1627,
      "ined": 1628,
      "Ġinformed": 1629,
      "Ġtre": 1630,
      "ember": 1631,
      "Ġeng": 1632,
      "ĠMLA": 1633,
      "iversity": 1634,
      "Ġunto": 1635,
      "Ġparents": 1636,
      "Ġalong": 1637,
      "ctors": 1638,
      "cha": 1639,
      "aged": 1640,
      "Ġannounced": 1641,
      "ĠPart": 1642,
      "ĠAustral": 1643,
      "Ġsing": 1644,
      "reen": 1645,
      "Ġdam": 1646,
      "ails": 1647,
      "Ġbre": 1648,
      "ĠThree": 1649,
      "ĠShi": 1650,
      "ention": 1651,
      "chi": 1652,
      "stem": 1653,
      "elie": 1654,
      "band": 1655,
      "Ġstates": 1656,
      "Ġtrue": 1657,
      "dom": 1658,
      "Ġsince": 1659,
      "Ġsw": 1660,
      "ĠOur": 1661,
      "arat": 1662,
      "oup": 1663,
      "Ġdaughter": 1664,
      "uck": 1665,
      "Ġadmitted": 1666,
      "ither": 1667,
      "the": 1668,
      "ĠMedical": 1669,
      "Ġden": 1670,
      "Ġadded": 1671,
      "Ġchange": 1672,
      "Ġmil": 1673,
      "rish": 1674,
      "Ġvict": 1675,
      "tal": 1676,
      "Ġsuff": 1677,
      "Ġthird": 1678,
      "Ġfun": 1679,
      "Ġfilms": 1680,
      "Ġoper": 1681,
      "ĠCollege": 1682,
      "ĠHere": 1683,
      "Ġjoin": 1684,
      "ĠRes": 1685,
      "Ġ16": 1686,
      "ĠGods": 1687,
      "nce": 1688,
      "Ġmight": 1689,
      "erv": 1690,
      "ĠMuslim": 1691,
      "Ġfollowing": 1692,
      "ner": 1693,
      "Ġadv": 1694,
      "erest": 1695,
      "ĠTest": 1696,
      "Ġdest": 1697,
      "Ġleg": 1698,
      "Ġreason": 1699,
      "Ġproject": 1700,
      "Ġey": 1701,
      "Ġuse": 1702,
      "eld": 1703,
      "ĠWith": 1704,
      "Ġauthor": 1705,
      "Ġbehind": 1706,
      "ĠPat": 1707,
      "Ġyoung": 1708,
      "Ġwithout": 1709,
      "Ġart": 1710,
      "ches": 1711,
      "Ġlangu": 1712,
      "ored": 1713,
      "ours": 1714,
      "uries": 1715,
      "Ġterror": 1716,
      "Ġpop": 1717,
      "stit": 1718,
      "Ġmus": 1719,
      "Ġtell": 1720,
      "ourn": 1721,
      "ĠBe": 1722,
      "Ġpoll": 1723,
      "Ġexpl": 1724,
      "Ġfear": 1725,
      "Ġsecurity": 1726,
      "Ġnam": 1727,
      "Ġhowever": 1728,
      "Ġbat": 1729,
      "Ġsure": 1730,
      "Ġplac": 1731,
      "ples": 1732,
      "ones": 1733,
      "Ġimmedi": 1734,
      "Ġinf": 1735,
      "Ġgra": 1736,
      "chn": 1737,
      "tar": 1738,
      "Ġye": 1739,
      "ĠAir": 1740,
      "ery": 1741,
      "Ġmin": 1742,
      "Ġmod": 1743,
      "ele": 1744,
      "ĠSon": 1745,
      "Ġche": 1746,
      "Ġknown": 1747,
      "Ġcondition": 1748,
      "Ġacross": 1749,
      "Ġcomes": 1750,
      "usband": 1751,
      "Ġreve": 1752,
      "Ġnight": 1753,
      "go": 1754,
      "Ġunderstand": 1755,
      "CC": 1756,
      "Ġrespons": 1757,
      "less": 1758,
      "ually": 1759,
      "Ġeas": 1760,
      "ĠPeople": 1761,
      "Ġled": 1762,
      "Ġbuild": 1763,
      "Ġvarious": 1764,
      "Ġbank": 1765,
      "Ġver": 1766,
      "reed": 1767,
      "ĠJustice": 1768,
      "ĠIsra": 1769,
      "ĠMalay": 1770,
      "Ġfeel": 1771,
      "ĠCPM": 1772,
      "of": 1773,
      "Ġsuccess": 1774,
      "Ġevent": 1775,
      "ship": 1776,
      "Ġaccount": 1777,
      "Ġactress": 1778,
      "ike": 1779,
      "Ġcust": 1780,
      "Ġ50": 1781,
      "itizens": 1782,
      "ffect": 1783,
      "Ġmet": 1784,
      "Ġstrong": 1785,
      "ling": 1786,
      "que": 1787,
      "ĠTrump": 1788,
      "Ġofficials": 1789,
      "uru": 1790,
      "ology": 1791,
      "Ġface": 1792,
      "Ġold": 1793,
      "bs": 1794,
      "Ġlod": 1795,
      "olly": 1796,
      "ias": 1797,
      "Ġactiv": 1798,
      "ointed": 1799,
      "Ġever": 1800,
      "ĠAcc": 1801,
      "Ġmove": 1802,
      "ĠMore": 1803,
      "Ġprop": 1804,
      "uty": 1805,
      "Ġcause": 1806,
      "aring": 1807,
      "Ġ.": 1808,
      "Ġrecord": 1809,
      "Ġelection": 1810,
      "Ġgrow": 1811,
      "wood": 1812,
      "ĠIsrael": 1813,
      "ressed": 1814,
      "Ġcountries": 1815,
      "Ġphone": 1816,
      "uge": 1817,
      "Ġissued": 1818,
      "Ġexc": 1819,
      "Ġinterest": 1820,
      "Ġprobe": 1821,
      "Ġ17": 1822,
      "Ġdirector": 1823,
      "Ġwar": 1824,
      "Ġbring": 1825,
      "ĠJehovahs": 1826,
      "ield": 1827,
      "Ġspok": 1828,
      "aram": 1829,
      "ging": 1830,
      "Ġpric": 1831,
      "ms": 1832,
      "Ġord": 1833,
      "inaray": 1834,
      "idd": 1835,
      "Ġbenef": 1836,
      "Ġcapt": 1837,
      "Ġcolle": 1838,
      "Ġtop": 1839,
      "Ġel": 1840,
      "ĠSouth": 1841,
      "Ġtotal": 1842,
      "wal": 1843,
      "itha": 1844,
      "ĠFin": 1845,
      "Ġpray": 1846,
      "hand": 1847,
      "Ġcoming": 1848,
      "ĠForm": 1849,
      "ĠBal": 1850,
      "oles": 1851,
      "ott": 1852,
      "Ġinformation": 1853,
      "lish": 1854,
      "Ġcompany": 1855,
      "aul": 1856,
      "ke": 1857,
      "iver": 1858,
      "engers": 1859,
      "ĠShiv": 1860,
      "Ġmatch": 1861,
      "ĠKochi": 1862,
      "ĠOpp": 1863,
      "ĠMost": 1864,
      "ĠPun": 1865,
      "ĠTel": 1866,
      "ĠSc": 1867,
      "Ġsystem": 1868,
      "Ġwhom": 1869,
      "Ġpati": 1870,
      "eration": 1871,
      "Ġdoing": 1872,
      "Ġfight": 1873,
      "Ġhusband": 1874,
      "aled": 1875,
      "ĠNadu": 1876,
      "Ġhold": 1877,
      "era": 1878,
      "meric": 1879,
      "ĠDep": 1880,
      "Ġbecame": 1881,
      "gation": 1882,
      "Ġeconom": 1883,
      "Ġ&": 1884,
      "ĠCor": 1885,
      "Ġbas": 1886,
      "ams": 1887,
      "ĠBi": 1888,
      "ĠDon": 1889,
      "ying": 1890,
      "Ġdise": 1891,
      "liament": 1892,
      "ĠOr": 1893,
      "ĠVijayan": 1894,
      "Ġsaying": 1895,
      "Ġhuman": 1896,
      "ushed": 1897,
      "gar": 1898,
      "Ġgeneral": 1899,
      "inarayi": 1900,
      "'m": 1901,
      "Ġplan": 1902,
      "Ġsmall": 1903,
      "Ġconfir": 1904,
      "'re": 1905,
      "br": 1906,
      "ĠPinarayi": 1907,
      "Ġmedical": 1908,
      "zhik": 1909,
      "Ġcontinue": 1910,
      "Ġprote": 1911,
      "anka": 1912,
      "ript": 1913,
      "ĠSharma": 1914,
      "ĠParty": 1915,
      "ĠAustralia": 1916,
      "Ġreached": 1917,
      "Ġest": 1918,
      "ĠHospital": 1919,
      "Ġseries": 1920,
      "Ġlearn": 1921,
      "ĠBang": 1922,
      "ĠCommission": 1923,
      "Ġsomething": 1924,
      "ĠGuj": 1925,
      "jected": 1926,
      "ĠSan": 1927,
      "zhikode": 1928,
      "Ġkind": 1929,
      "Ġrev": 1930,
      "Ġgave": 1931,
      "Ġshared": 1932,
      "Ġprivate": 1933,
      "Ġmusic": 1934,
      "Ġlodged": 1935,
      "acher": 1936,
      "ĠMalayalam": 1937,
      "has": 1938,
      "Ġcap": 1939,
      "Ġbetter": 1940,
      "Ġsal": 1941,
      "ĠFormer": 1942,
      "soci": 1943,
      "ĠMP": 1944,
      "Ġbrought": 1945,
      "Ġwickets": 1946,
      "adi": 1947,
      "oses": 1948,
      "ĠKozhikode": 1949,
      "Ġtri": 1950,
      "Ġgone": 1951,
      "Ġdeb": 1952,
      "Ġtemple": 1953,
      "belie": 1954,
      "Ġcommun": 1955,
      "uz": 1956,
      "ĠEle": 1957,
      "Ġmind": 1958,
      "amb": 1959,
      "mu": 1960,
      "icide": 1961,
      "Ġshi": 1962,
      "Ġresign": 1963,
      "Ġfeat": 1964,
      "Ġrul": 1965,
      "pr": 1966,
      "Ġremain": 1967,
      "19": 1968,
      "while": 1969,
      "ffair": 1970,
      "ĠOpposition": 1971,
      "ollywood": 1972,
      "aid": 1973,
      "ality": 1974,
      "Ġprogram": 1975,
      "Ġdiv": 1976,
      "itter": 1977,
      "Ġeduc": 1978,
      "ĠAssembly": 1979,
      "Ġview": 1980,
      "Ġalways": 1981,
      "olved": 1982,
      "Ġmain": 1983,
      "ĠUt": 1984,
      "Ġdev": 1985,
      "Ġmis": 1986,
      "edd": 1987,
      "ortun": 1988,
      "ĠKoh": 1989,
      "ĠSpe": 1990,
      "Ġ30": 1991,
      "Ġearlier": 1992,
      "Ġident": 1993,
      "inal": 1994,
      "Ġpict": 1995,
      "ailed": 1996,
      "Ġvot": 1997,
      "Ġwritten": 1998,
      "Ġproduced": 1999,
      "ĠWest": 2000,
      "Ġfriends": 2001,
      "Ġparticip": 2002,
      "Ġlive": 2003,
      "ĠFr": 2004,
      "Ġfinal": 2005,
      "ept": 2006,
      "ibility": 2007,
      "ĠPra": 2008,
      "ĠWhats": 2009,
      "Ġvill": 2010,
      "ĠTw": 2011,
      "Ġprocess": 2012,
      "Ġsen": 2013,
      "Ġpeace": 2014,
      "ung": 2015,
      "Ġneeds": 2016,
      "Ġprice": 2017,
      "Ġpay": 2018,
      "Ġhig": 2019,
      "Ġmess": 2020,
      "abad": 2021,
      "ĠAdd": 2022,
      "Ġprep": 2023,
      "rup": 2024,
      "Ġstay": 2025,
      "ĠKohli": 2026,
      "ĠUniversity": 2027,
      "Ġimmediately": 2028,
      "ĠJammu": 2029,
      "akes": 2030,
      "cing": 2031,
      "Ġval": 2032,
      "oon": 2033,
      "ops": 2034,
      "cent": 2035,
      "Ġbased": 2036,
      "ĠCan": 2037,
      "Ġdecided": 2038,
      "Ġcost": 2039,
      "Ġfall": 2040,
      "Ġgold": 2041,
      "ĠHome": 2042,
      "Ġang": 2043,
      "Ġwarn": 2044,
      "anwhile": 2045,
      "gy": 2046,
      "overed": 2047,
      "lam": 2048,
      "Ġmor": 2049,
      "Ġcertain": 2050,
      "Ġjob": 2051,
      "ĠGujarat": 2052,
      "Ġstory": 2053,
      "Ġcurrently": 2054,
      "ĠJos": 2055,
      "Ġstatement": 2056,
      "Ġlo": 2057,
      "Ġinjuries": 2058,
      "Ġes": 2059,
      "inet": 2060,
      "ĠPri": 2061,
      "ient": 2062,
      "Ġperform": 2063,
      "ĠGeneral": 2064,
      "ences": 2065,
      "por": 2066,
      "reng": 2067,
      "Ġthought": 2068,
      "Ġexpected": 2069,
      "cies": 2070,
      "Ġdetails": 2071,
      "Ġpun": 2072,
      "Ġap": 2073,
      "ĠMar": 2074,
      "ĠHer": 2075,
      "Ġgen": 2076,
      "ned": 2077,
      "Ġdepart": 2078,
      "ĠLet": 2079,
      "ĠShri": 2080,
      "Ġstr": 2081,
      "ĠKing": 2082,
      "Ġtrain": 2083,
      "Ġhit": 2084,
      "Ġcontest": 2085,
      "illion": 2086,
      "Ġrelations": 2087,
      "Ġpri": 2088,
      "ĠUttar": 2089,
      "Ġcricket": 2090,
      "ĠFollow": 2091,
      "ĠKann": 2092,
      "Ġlight": 2093,
      "ĠChand": 2094,
      "iful": 2095,
      "Ġpress": 2096,
      "Ġinclude": 2097,
      "Ġtoday": 2098,
      "Ġhistory": 2099,
      "ĠMohan": 2100,
      "ĠMay": 2101,
      "ĠJay": 2102,
      "ĠDont": 2103,
      "ration": 2104,
      "ĠRamesh": 2105,
      "Ġanswer": 2106,
      "Ġ100": 2107,
      "Ġsuicide": 2108,
      "hu": 2109,
      "ĠHealth": 2110,
      "ĠOther": 2111,
      "Ġcamp": 2112,
      "Ġworkers": 2113,
      "Ġlaunched": 2114,
      "Ġage": 2115,
      "irus": 2116,
      "ĠSecretary": 2117,
      "wam": 2118,
      "Ġdies": 2119,
      "Ġdevelopment": 2120,
      "ĠCM": 2121,
      "Ġproblems": 2122,
      "ĠWhere": 2123,
      "oura": 2124,
      "ĠUnited": 2125,
      "Ġsold": 2126,
      "Ġspeak": 2127,
      "Ġconcer": 2128,
      "Ġstars": 2129,
      "Ġlevel": 2130,
      "Ġstreng": 2131,
      "int": 2132,
      "Ġrespect": 2133,
      "ĠWill": 2134,
      "oms": 2135,
      "hya": 2136,
      "ĠMinistry": 2137,
      "ude": 2138,
      "ĠSal": 2139,
      "abinet": 2140,
      "Ġfront": 2141,
      "Ġaward": 2142,
      "ĠOf": 2143,
      "Ġareas": 2144,
      "hest": 2145,
      "Ġmot": 2146,
      "Ġbro": 2147,
      "Ġdou": 2148,
      "weet": 2149,
      "irc": 2150,
      "icle": 2151,
      "Ġequ": 2152,
      "ĠDire": 2153,
      "Ġmarket": 2154,
      "ĠIndias": 2155,
      "ĠThose": 2156,
      "Ġplayed": 2157,
      "Ġviral": 2158,
      "ĠAre": 2159,
      "Ġweek": 2160,
      "Ġdep": 2161,
      "uted": 2162,
      "ĠMeanwhile": 2163,
      "Ġhard": 2164,
      "Ġdra": 2165,
      "Ġreally": 2166,
      "Ġenc": 2167,
      "nel": 2168,
      "ĠAg": 2169,
      "ĠVir": 2170,
      "ĠNe": 2171,
      "Ġlikely": 2172,
      "itnesses": 2173,
      "Ġpar": 2174,
      "Ġexample": 2175,
      "iety": 2176,
      "avirus": 2177,
      "ĠEar": 2178,
      "ĠSat": 2179,
      "Ġchall": 2180,
      "Ġmaking": 2181,
      "Ġfree": 2182,
      "'ll": 2183,
      "nan": 2184,
      "Ġinit": 2185,
      "ĠEngland": 2186,
      "Ġ24": 2187,
      "ows": 2188,
      "Ġboy": 2189,
      "onavirus": 2190,
      "Ġwords": 2191,
      "Ġdeal": 2192,
      "oved": 2193,
      "Ġeverything": 2194,
      "Ġdistricts": 2195,
      "Ġpetition": 2196,
      "ĠBollywood": 2197,
      "Ġstep": 2198,
      "Ġclose": 2199,
      "Ġeyes": 2200,
      "by": 2201,
      "ta": 2202,
      "atives": 2203,
      "Ġbad": 2204,
      "ĠPl": 2205,
      "ĠDr": 2206,
      "Ġthou": 2207,
      "ĠSun": 2208,
      "mad": 2209,
      "Ġallowed": 2210,
      "ledge": 2211,
      "Ġhal": 2212,
      "onse": 2213,
      "Ġsol": 2214,
      "ĠWom": 2215,
      "asthan": 2216,
      "atic": 2217,
      "Ġking": 2218,
      "quir": 2219,
      "ĠPaul": 2220,
      "ruction": 2221,
      "sequ": 2222,
      "ĠFollowing": 2223,
      "Ġask": 2224,
      "ffairs": 2225,
      "Ġrushed": 2226,
      "Ġlittle": 2227,
      "99": 2228,
      "aut": 2229,
      "Ġfoot": 2230,
      "ouses": 2231,
      "Ġlocal": 2232,
      "Ġshort": 2233,
      "Ġhappy": 2234,
      "Ġservice": 2235,
      "adav": 2236,
      "Ġmarried": 2237,
      "his": 2238,
      "ids": 2239,
      "ĠStates": 2240,
      "Ġtaking": 2241,
      "Ġdisp": 2242,
      "Ġbegan": 2243,
      "ĠJan": 2244,
      "ĠChennai": 2245,
      "icult": 2246,
      "Ġchanged": 2247,
      "ese": 2248,
      "ĠRajasthan": 2249,
      "line": 2250,
      "Ġstar": 2251,
      "ĠPre": 2252,
      "ara": 2253,
      "io": 2254,
      "Ġcele": 2255,
      "Ġrevealed": 2256,
      "ĠX": 2257,
      "Ġfell": 2258,
      "Ġhands": 2259,
      "Ġlives": 2260,
      "ĠFour": 2261,
      "pted": 2262,
      "yer": 2263,
      "Ġanyone": 2264,
      "Ġsong": 2265,
      "jee": 2266,
      "Ġtax": 2267,
      "Ġgroup": 2268,
      "erc": 2269,
      "ternal": 2270,
      "Ġattended": 2271,
      "ĠDist": 2272,
      "ĠApp": 2273,
      "ĠHindi": 2274,
      "ĠAmeric": 2275,
      "orts": 2276,
      "Ġdisease": 2277,
      "ĠTwitter": 2278,
      "riage": 2279,
      "Ġemploy": 2280,
      "Ġvehicles": 2281,
      "Ġpan": 2282,
      "ĠOnly": 2283,
      "Ġpast": 2284,
      "Ġprovided": 2285,
      "ilar": 2286,
      "Ġwait": 2287,
      "ĠTha": 2288,
      "bed": 2289,
      "aster": 2290,
      "ĠBl": 2291,
      "Ġaw": 2292,
      "ĠBhar": 2293,
      "ĠSri": 2294,
      "sh": 2295,
      "Ġcho": 2296,
      "iance": 2297,
      "Ġwr": 2298,
      "ĠCup": 2299,
      "hab": 2300,
      "ession": 2301,
      "ohn": 2302,
      "year": 2303,
      "fted": 2304,
      "Ġworking": 2305,
      "Ġwhe": 2306,
      "Ġpossible": 2307,
      "going": 2308,
      "Ġindeed": 2309,
      "cts": 2310,
      "Ġfield": 2311,
      "Ġready": 2312,
      "ourse": 2313,
      "ners": 2314,
      "Ġstated": 2315,
      "iah": 2316,
      "Ġsingle": 2317,
      "ĠCentral": 2318,
      "ĠLater": 2319,
      "ising": 2320,
      "side": 2321,
      "ĠHar": 2322,
      "Ġfunction": 2323,
      "gre": 2324,
      "rop": 2325,
      "ises": 2326,
      "ĠAccording": 2327,
      "head": 2328,
      "rif": 2329,
      "ti": 2330,
      "Ġshot": 2331,
      "ĠSam": 2332,
      "Ġrejected": 2333,
      "Ġmiss": 2334,
      "ali": 2335,
      "Ġplaces": 2336,
      "Ġthough": 2337,
      "ĠWh": 2338,
      "Ġbail": 2339,
      "Ġsup": 2340,
      "Ġhimself": 2341,
      "Ġrespond": 2342,
      "agar": 2343,
      "ju": 2344,
      "Ġleave": 2345,
      "Ġfull": 2346,
      "udd": 2347,
      "ĠYadav": 2348,
      "Ġdifficult": 2349,
      "Ġcreated": 2350,
      "ĠFil": 2351,
      "Ġcandidate": 2352,
      "ĠTheir": 2353,
      "Ġhuge": 2354,
      "Ġones": 2355,
      "ĠJohn": 2356,
      "Ġspread": 2357,
      "Ġprices": 2358,
      "eous": 2359,
      "Ġcirc": 2360,
      "Ġforg": 2361,
      "erence": 2362,
      "Ġaut": 2363,
      "ically": 2364,
      "Ġwal": 2365,
      "Ġyouth": 2366,
      "Ġcommittee": 2367,
      "ĠRan": 2368,
      "Ġhon": 2369,
      "Ġamount": 2370,
      "ĠRo": 2371,
      "lal": 2372,
      "ize": 2373,
      "Ġdriver": 2374,
      "ancial": 2375,
      "Ġ21": 2376,
      "rap": 2377,
      "ĠMam": 2378,
      "ada": 2379,
      "Ġstudy": 2380,
      "Ġoccur": 2381,
      "Ġroles": 2382,
      "ĠSp": 2383,
      "ĠParliament": 2384,
      "eds": 2385,
      "Ġtrying": 2386,
      "Ġside": 2387,
      "Ġable": 2388,
      "ĠKap": 2389,
      "ĠMess": 2390,
      "Ġcult": 2391,
      "Ġengine": 2392,
      "ify": 2393,
      "Ġloss": 2394,
      "Ġuntil": 2395,
      "ĠCl": 2396,
      "ĠSub": 2397,
      "Ġ22": 2398,
      "Ġheard": 2399,
      "jab": 2400,
      "Ġthemselves": 2401,
      "Ġpo": 2402,
      "to": 2403,
      "ĠSure": 2404,
      "Ġphot": 2405,
      "lished": 2406,
      "Ġblood": 2407,
      "Ġelse": 2408,
      "Ġlarge": 2409,
      "DI": 2410,
      "Ġdestro": 2411,
      "Ġresponse": 2412,
      "Ġopt": 2413,
      "ĠAfric": 2414,
      "ulation": 2415,
      "Ġnation": 2416,
      "ĠEn": 2417,
      "Ġfav": 2418,
      "Ġshifted": 2419,
      "irth": 2420,
      "ites": 2421,
      "Ġheavy": 2422,
      "Ġquestions": 2423,
      "Ġcast": 2424,
      "Ġraised": 2425,
      "Ġclaimed": 2426,
      "het": 2427,
      "Ġdecla": 2428,
      "ousand": 2429,
      "Ġcollege": 2430,
      "Ġstri": 2431,
      "ĠRuss": 2432,
      "Ġtor": 2433,
      "ulam": 2434,
      "Ġfeatures": 2435,
      "ĠMoham": 2436,
      "Ġeffect": 2437,
      "quiry": 2438,
      "Ġteacher": 2439,
      "Ġsister": 2440,
      "We": 2441,
      "Ġseven": 2442,
      "Ġtechn": 2443,
      "Ġcoun": 2444,
      "ians": 2445,
      "ID": 2446,
      "ees": 2447,
      "ĠPal": 2448,
      "Ġoffice": 2449,
      "aching": 2450,
      "ĠStud": 2451,
      "inem": 2452,
      "Ġdrink": 2453,
      "Ġpoints": 2454,
      "ron": 2455,
      "Ġexcept": 2456,
      "Ġdemanded": 2457,
      "ĠDistrict": 2458,
      "ugu": 2459,
      "50": 2460,
      "Ġindust": 2461,
      "ĠPunjab": 2462,
      "ĠHy": 2463,
      "Ġeasy": 2464,
      "Ġresc": 2465,
      "ruct": 2466,
      "pper": 2467,
      "Ġpassed": 2468,
      "Ġmilit": 2469,
      "Ġcommand": 2470,
      "Ġattend": 2471,
      "ĠIP": 2472,
      "Ġknowledge": 2473,
      "Ġprof": 2474,
      "ĠDav": 2475,
      "ĠPer": 2476,
      "Ġsearch": 2477,
      "nder": 2478,
      "sc": 2479,
      "omas": 2480,
      "Ġelect": 2481,
      "Ġcontrol": 2482,
      "leep": 2483,
      "Ġrelease": 2484,
      "ĠGr": 2485,
      "Ġinternational": 2486,
      "vere": 2487,
      "Ġsou": 2488,
      "Ġpain": 2489,
      "Ġlargest": 2490,
      "ĠRep": 2491,
      "Ġsex": 2492,
      "Ġservices": 2493,
      "rishnan": 2494,
      "ĠCo": 2495,
      "Ġbegin": 2496,
      "iod": 2497,
      "ĠYes": 2498,
      "ĠArmy": 2499,
      "Ġassembly": 2500,
      "Ġeff": 2501,
      "ĠYour": 2502,
      "Ġgrant": 2503,
      "Ġ40": 2504,
      "plement": 2505,
      "Ġissues": 2506,
      "Ġbusiness": 2507,
      "Ġstation": 2508,
      "asons": 2509,
      "ories": 2510,
      "Ġmean": 2511,
      "Ġeducation": 2512,
      "oud": 2513,
      "Ġmom": 2514,
      "Ġmeans": 2515,
      "Ġaddress": 2516,
      "uture": 2517,
      "Ġcaptain": 2518,
      "Ġshoot": 2519,
      "ule": 2520,
      "Ġmarriage": 2521,
      "Ġcou": 2522,
      "ĠTheres": 2523,
      "Ġoil": 2524,
      "ĠCentre": 2525,
      "gations": 2526,
      "ĠBab": 2527,
      "Ġaccom": 2528,
      "ĠTelugu": 2529,
      "Ġlanguage": 2530,
      "Ġknows": 2531,
      "ney": 2532,
      "Ġgre": 2533,
      "Ġpunish": 2534,
      "Ġtill": 2535,
      "empt": 2536,
      "Ġreligion": 2537,
      "bo": 2538,
      "Ġmember": 2539,
      "ald": 2540,
      "Ġconducted": 2541,
      "Ġhouses": 2542,
      "Ġdestroy": 2543,
      "Ġcelebr": 2544,
      "Ġtweet": 2545,
      "Ġcant": 2546,
      "Ġparties": 2547,
      "ĠKe": 2548,
      "erson": 2549,
      "Ġseat": 2550,
      "orth": 2551,
      "ĠIran": 2552,
      "Ġmer": 2553,
      "ilt": 2554,
      "Ġeight": 2555,
      "Ġcourse": 2556,
      "ĠBo": 2557,
      "Ġinn": 2558,
      "ĠThomas": 2559,
      "ze": 2560,
      "Ġconstitu": 2561,
      "Ġtw": 2562,
      "Ġpolitics": 2563,
      "Ġsaw": 2564,
      "Ġdefe": 2565,
      "ĠSy": 2566,
      "Ġcustody": 2567,
      "Ġbow": 2568,
      "Ġeveryone": 2569,
      "Ġdenied": 2570,
      "joy": 2571,
      "ier": 2572,
      "ened": 2573,
      "Ġcritic": 2574,
      "spe": 2575,
      "Ġperiod": 2576,
      "akk": 2577,
      "Ġwithin": 2578,
      "Ġmonths": 2579,
      "ream": 2580,
      "ards": 2581,
      "ague": 2582,
      "Ġopportun": 2583,
      "oid": 2584,
      "Ġmeas": 2585,
      "Ġredu": 2586,
      "Ġdidn": 2587,
      "Ġbelong": 2588,
      "Ġconfirmed": 2589,
      "ĠVirat": 2590,
      "Ġhaving": 2591,
      "Ġalone": 2592,
      "Ġworks": 2593,
      "ports": 2594,
      "Ġimplement": 2595,
      "Ġeat": 2596,
      "ĠDirector": 2597,
      "Ġmag": 2598,
      "apt": 2599,
      "Ġbuilding": 2600,
      "enger": 2601,
      "ĠTra": 2602,
      "Ġpow": 2603,
      "ĠMat": 2604,
      "ĠMu": 2605,
      "ĠHindu": 2606,
      "Ġless": 2607,
      "itizenship": 2608,
      "Ġaccept": 2609,
      "Ġopposition": 2610,
      "stitution": 2611,
      "Ġneeded": 2612,
      "ayam": 2613,
      "cle": 2614,
      "omes": 2615,
      "ork": 2616,
      "Ġsenior": 2617,
      "Ġtowards": 2618,
      "Ġprovide": 2619,
      "Ġcamera": 2620,
      "Ġteams": 2621,
      "Ġfuture": 2622,
      "Ġvehicle": 2623,
      "Ġappointed": 2624,
      "Ġauthorities": 2625,
      "Ġevil": 2626,
      "Ġhalf": 2627,
      "resent": 2628,
      "Ġoccas": 2629,
      "Ġhope": 2630,
      "Ġapplic": 2631,
      "ĠSever": 2632,
      "ĠAsh": 2633,
      "Ġliving": 2634,
      "Ġleast": 2635,
      "Ġgame": 2636,
      "itive": 2637,
      "Ġworship": 2638,
      "alls": 2639,
      "ĠBy": 2640,
      "cil": 2641,
      "ames": 2642,
      "Ġsurely": 2643,
      "ceed": 2644,
      "after": 2645,
      "Ġur": 2646,
      "Ġposition": 2647,
      "Ġfarm": 2648,
      "ley": 2649,
      "had": 2650,
      "ĠBengaluru": 2651,
      "miss": 2652,
      "ithala": 2653,
      "odies": 2654,
      "ĠSeveral": 2655,
      "ĠCO": 2656,
      "Ġsto": 2657,
      "ĠChennithala": 2658,
      "ĠNobody": 2659,
      "rupt": 2660,
      "ee": 2661,
      "ĠSm": 2662,
      "Ġprin": 2663,
      "Ġens": 2664,
      "haran": 2665,
      "rand": 2666,
      "ĠBangl": 2667,
      "Ġaccording": 2668,
      "Ġparts": 2669,
      "ĠAh": 2670,
      "Ġkey": 2671,
      "Ġcur": 2672,
      "undred": 2673,
      "Ġproper": 2674,
      "Ġfollowed": 2675,
      "ots": 2676,
      "Ġglob": 2677,
      "Ġincrease": 2678,
      "chie": 2679,
      "Ġresponsibility": 2680,
      "Ġturned": 2681,
      "Ġpassengers": 2682,
      "Ġplaying": 2683,
      "Ġill": 2684,
      "ĠSr": 2685,
      "ĠDh": 2686,
      "Ġdate": 2687,
      "Ġthee": 2688,
      "Ġlim": 2689,
      "Ġassoci": 2690,
      "Ġspiritu": 2691,
      "Ġregion": 2692,
      "itional": 2693,
      "ĠVar": 2694,
      "aker": 2695,
      "ĠRoh": 2696,
      "Ġvictim": 2697,
      "Ġdisbelie": 2698,
      "Ġ2020": 2699,
      "iy": 2700,
      "Ġwrote": 2701,
      "Ġevidence": 2702,
      "Ġbur": 2703,
      "hamp": 2704,
      "Ġreports": 2705,
      "Ġseized": 2706,
      "olk": 2707,
      "Ġtour": 2708,
      "Ġcommon": 2709,
      "ĠAss": 2710,
      "Ġobs": 2711,
      "ĠBest": 2712,
      "avy": 2713,
      "Ġmorning": 2714,
      "Ġdepartment": 2715,
      "Ġpercent": 2716,
      "Ġprotests": 2717,
      "Ġnamed": 2718,
      "vind": 2719,
      "Ġreasons": 2720,
      "OR": 2721,
      "Ġbann": 2722,
      "ĠCabinet": 2723,
      "Ġprev": 2724,
      "Ġscored": 2725,
      "elt": 2726,
      "ĠCPI": 2727,
      "Ġpopular": 2728,
      "ights": 2729,
      "Ġkm": 2730,
      "ĠSena": 2731,
      "Ġbirth": 2732,
      "ĠIslam": 2733,
      "Ġinvolved": 2734,
      "Ġpolls": 2735,
      "Ġtalk": 2736,
      "rab": 2737,
      "ĠChristians": 2738,
      "ĠMr": 2739,
      "ournal": 2740,
      "ĠBook": 2741,
      "elled": 2742,
      "ĠDepart": 2743,
      "ĠEnglish": 2744,
      "Ġdoub": 2745,
      "DF": 2746,
      "ern": 2747,
      "Ġrelationship": 2748,
      "Ġrate": 2749,
      "Ġhur": 2750,
      "vir": 2751,
      "aff": 2752,
      "Ġself": 2753,
      "Ġonce": 2754,
      "Ġwind": 2755,
      "ances": 2756,
      "Ġide": 2757,
      "Ġexperience": 2758,
      "Ġfinancial": 2759,
      "ĠBS": 2760,
      "nath": 2761,
      "Ġcoronavirus": 2762,
      "Ġpersonal": 2763,
      "GB": 2764,
      "Ġfact": 2765,
      "Ġsil": 2766,
      "Ġpurp": 2767,
      "rodu": 2768,
      "ĠBangladesh": 2769,
      "amp": 2770,
      "ĠEveryone": 2771,
      "Ġcharge": 2772,
      "ĠMLAs": 2773,
      "ĠDavid": 2774,
      "Ġmillion": 2775,
      "ĠPriy": 2776,
      "ilities": 2777,
      "Ġregarding": 2778,
      "Ġthy": 2779,
      "ĠFir": 2780,
      "Ġinaug": 2781,
      "new": 2782,
      "Ġlow": 2783,
      "Ġviolence": 2784,
      "iding": 2785,
      "Ġgod": 2786,
      "Ġstudent": 2787,
      "Ġgetting": 2788,
      "ari": 2789,
      "ĠInternational": 2790,
      "ĠOver": 2791,
      "Ġhear": 2792,
      "Ġbodies": 2793,
      "iers": 2794,
      "Ġi": 2795,
      "ech": 2796,
      "Ġspirit": 2797,
      "minist": 2798,
      "Ġkept": 2799,
      "Ġrecovered": 2800,
      "dict": 2801,
      "ĠEr": 2802,
      "ivil": 2803,
      "Ġletter": 2804,
      "chan": 2805,
      "Ġarri": 2806,
      "Ġsche": 2807,
      "Ġdoesnt": 2808,
      "Ġty": 2809,
      "irman": 2810,
      "Ġ23": 2811,
      "Ġoften": 2812,
      "Ġshare": 2813,
      "ĠODI": 2814,
      "esides": 2815,
      "itation": 2816,
      "Ġunderway": 2817,
      "ĠAk": 2818,
      "Ġclass": 2819,
      "Ġsea": 2820,
      "Ġfund": 2821,
      "uel": 2822,
      "Ġbless": 2823,
      "Ġtravel": 2824,
      "Ġsour": 2825,
      "Ġtown": 2826,
      "uram": 2827,
      "play": 2828,
      "Ġways": 2829,
      "ĠThan": 2830,
      "ortem": 2831,
      "ĠSay": 2832,
      "ĠMohanlal": 2833,
      "Ġtried": 2834,
      "aly": 2835,
      "ĠWitnesses": 2836,
      "erous": 2837,
      "ring": 2838,
      "Ġrequest": 2839,
      "ina": 2840,
      "ĠAffairs": 2841,
      "Ġsin": 2842,
      "ĠChild": 2843,
      "Ġcentral": 2844,
      "Ġannounce": 2845,
      "ĠMadhya": 2846,
      "ĠDile": 2847,
      "ĠPh": 2848,
      "Ġstat": 2849,
      "Ġsend": 2850,
      "mony": 2851,
      "hys": 2852,
      "Ġwitness": 2853,
      "Ġsons": 2854,
      "Ġwanted": 2855,
      "Ġiniti": 2856,
      "ĠRead": 2857,
      "ĠDepartment": 2858,
      "Ġconv": 2859,
      "ival": 2860,
      "ĠWar": 2861,
      "ĠBihar": 2862,
      "Ġjudge": 2863,
      "Ġenjoy": 2864,
      "Ġabove": 2865,
      "Ġofficer": 2866,
      "ĠYog": 2867,
      "ĠJud": 2868,
      "Ġdeaths": 2869,
      "Ġdeclared": 2870,
      "Ġestab": 2871,
      "Ġrap": 2872,
      "Ġinfe": 2873,
      "ilway": 2874,
      "Ġenough": 2875,
      "eph": 2876,
      "Ġpage": 2877,
      "ja": 2878,
      "ential": 2879,
      "Ġcharges": 2880,
      "ĠAfrica": 2881,
      "Ġsector": 2882,
      "ĠEven": 2883,
      "Ġpunishment": 2884,
      "Ġpen": 2885,
      "Ġhanded": 2886,
      "ĠRohit": 2887,
      "ĠEarlier": 2888,
      "Ġfamilies": 2889,
      "uses": 2890,
      "Ġjoined": 2891,
      "Ġesc": 2892,
      "Ġ37": 2893,
      "oly": 2894,
      "erred": 2895,
      "ively": 2896,
      "ĠDev": 2897,
      "ĠKar": 2898,
      "Ġseem": 2899,
      "come": 2900,
      "sequently": 2901,
      "ense": 2902,
      "Ġfine": 2903,
      "Ġnecess": 2904,
      "Ġallegations": 2905,
      "SS": 2906,
      "Ġincreased": 2907,
      "Ġappear": 2908,
      "ĠFilm": 2909,
      "Ġpatients": 2910,
      "Ġforward": 2911,
      "ĠArt": 2912,
      "Ġinquiry": 2913,
      "Ġstop": 2914,
      "Ġwatch": 2915,
      "ification": 2916,
      "ators": 2917,
      "ĠUP": 2918,
      "Ġrighteous": 2919,
      "ĠAli": 2920,
      "Ġsimilar": 2921,
      "Ġcut": 2922,
      "Ġmoved": 2923,
      "Ġheavens": 2924,
      "Ġ,": 2925,
      "isation": 2926,
      "ables": 2927,
      "Ġtrust": 2928,
      "Ġfast": 2929,
      "Ġmaint": 2930,
      "Ġpub": 2931,
      "Ġbasis": 2932,
      "Ġreturned": 2933,
      "Ġentire": 2934,
      "ĠSonia": 2935,
      "ĠDileep": 2936,
      "Ġvillage": 2937,
      "Ġmob": 2938,
      "Ġplea": 2939,
      "over": 2940,
      "imum": 2941,
      "Ġpoor": 2942,
      "rah": 2943,
      "ĠMuk": 2944,
      "ught": 2945,
      "ighb": 2946,
      "'ve": 2947,
      "ison": 2948,
      "str": 2949,
      "Ġdemoc": 2950,
      "vernor": 2951,
      "ium": 2952,
      "Ġrecently": 2953,
      "Ġordered": 2954,
      "vest": 2955,
      "Ġbrothers": 2956,
      "dra": 2957,
      "CT": 2958,
      "ĠSu": 2959,
      "Ġoffer": 2960,
      "af": 2961,
      "ĠNow": 2962,
      "ĠKott": 2963,
      "VID": 2964,
      "ĠMuslims": 2965,
      "Ġhost": 2966,
      "Ġ28": 2967,
      "ĠSuch": 2968,
      "epend": 2969,
      "Ġflood": 2970,
      "Ġcompet": 2971,
      "ĠFinance": 2972,
      "Ġri": 2973,
      "\"\".\"": 2974,
      "Ġimpro": 2975,
      "Ġinside": 2976,
      "ĠVen": 2977,
      "Ġusing": 2978,
      "acy": 2979,
      "Ġdie": 2980,
      "ĠKingdom": 2981,
      "ĠHave": 2982,
      "Ġahead": 2983,
      "othing": 2984,
      "onment": 2985,
      "ĠSar": 2986,
      "Ġaffe": 2987,
      "ĠFore": 2988,
      "Ġbord": 2989,
      "uly": 2990,
      "Ġtrad": 2991,
      "Ġassist": 2992,
      "Ġforeign": 2993,
      "Ġlab": 2994,
      "Ġinaugur": 2995,
      "ead": 2996,
      "Ġpersonnel": 2997,
      "Ġhighest": 2998,
      "ĠArun": 2999,
      "ogn": 3000,
      "Ġoccasion": 3001,
      "par": 3002,
      "ĠDuring": 3003,
      "ĠBh": 3004,
      "Ġcongre": 3005,
      "Ġpract": 3006,
      "Ġsuspend": 3007,
      "udi": 3008,
      "ĠPras": 3009,
      "utions": 3010,
      "ĠCr": 3011,
      "ĠBen": 3012,
      "ivid": 3013,
      "ĠFire": 3014,
      "oni": 3015,
      "ĠActor": 3016,
      "Ġport": 3017,
      "Ġcaused": 3018,
      "Ġbreak": 3019,
      "ĠThr": 3020,
      "Ġidentified": 3021,
      "Ġbench": 3022,
      "Ġsleep": 3023,
      "hara": 3024,
      "Ġ/": 3025,
      "dul": 3026,
      "ĠSur": 3027,
      "ĠGe": 3028,
      "opal": 3029,
      "alm": 3030,
      "sec": 3031,
      "atory": 3032,
      "Ġemer": 3033,
      "ĠFrom": 3034,
      "Ġbab": 3035,
      "ĠJoseph": 3036,
      "Ġmakes": 3037,
      "Ġsum": 3038,
      "ĠBrit": 3039,
      "aries": 3040,
      "Ġcharact": 3041,
      "ĠShan": 3042,
      "Ġforth": 3043,
      "Ġbeat": 3044,
      "Ġdece": 3045,
      "Ġverdict": 3046,
      "Ġwasnt": 3047,
      "ĠCOVID": 3048,
      "rovers": 3049,
      "gu": 3050,
      "Ġclosed": 3051,
      "Ġdetained": 3052,
      "ĠSchool": 3053,
      "fully": 3054,
      "Ġcouple": 3055,
      "Ġdamaged": 3056,
      "Ġer": 3057,
      "ĠFive": 3058,
      "ST": 3059,
      "ĠNorth": 3060,
      "AN": 3061,
      "lapp": 3062,
      "Ġrains": 3063,
      "ĠConstitution": 3064,
      "hood": 3065,
      "Ġdesign": 3066,
      "Ġfailed": 3067,
      "for": 3068,
      "Ġcanc": 3069,
      "Ġagree": 3070,
      "pir": 3071,
      "ĠBan": 3072,
      "asing": 3073,
      "view": 3074,
      "hant": 3075,
      "crib": 3076,
      "erve": 3077,
      "ĠRed": 3078,
      "ony": 3079,
      "Ġresults": 3080,
      "ka": 3081,
      "Ġcandidates": 3082,
      "Ġeither": 3083,
      "ĠBill": 3084,
      "autiful": 3085,
      "Ġclean": 3086,
      "ĠKapoor": 3087,
      "range": 3088,
      "adha": 3089,
      "Ġvers": 3090,
      "ĠDef": 3091,
      "Ġtou": 3092,
      "Ġprogress": 3093,
      "rew": 3094,
      "Ġexpect": 3095,
      "Ġearly": 3096,
      "Ġmount": 3097,
      "Ġinstit": 3098,
      "ĠAnt": 3099,
      "Ġdismiss": 3100,
      "ĠAlso": 3101,
      "ator": 3102,
      "Ġgirls": 3103,
      "asp": 3104,
      "ires": 3105,
      "ĠPriyanka": 3106,
      "Ġlooked": 3107,
      "atural": 3108,
      "Ġsevere": 3109,
      "Ġrequired": 3110,
      "ĠAward": 3111,
      "endment": 3112,
      "ĠMot": 3113,
      "Ġsoul": 3114,
      "Ġachie": 3115,
      "wan": 3116,
      "itude": 3117,
      "Ġworked": 3118,
      "Ġcontrovers": 3119,
      "Ġtar": 3120,
      "Ġspeaking": 3121,
      "ĠIndians": 3122,
      "ĠBr": 3123,
      "Ġfem": 3124,
      "rem": 3125,
      "Ġapost": 3126,
      "ugg": 3127,
      "Ġmult": 3128,
      "Ġtit": 3129,
      "Ġministers": 3130,
      "ĠEur": 3131,
      "ounded": 3132,
      "Ġwhole": 3133,
      "omin": 3134,
      "ager": 3135,
      "Ġenter": 3136,
      "ĠWhile": 3137,
      "where": 3138,
      "Ġopened": 3139,
      "isions": 3140,
      "cl": 3141,
      "Ġlocated": 3142,
      "oice": 3143,
      "Ġprevent": 3144,
      "Ġconduct": 3145,
      "uresh": 3146,
      "Ġrepresent": 3147,
      "ashed": 3148,
      "Ġconsider": 3149,
      "ĠSuresh": 3150,
      "Ġforce": 3151,
      "duc": 3152,
      "cepted": 3153,
      "Ġneighb": 3154,
      "Ġcinem": 3155,
      "most": 3156,
      "Ġisnt": 3157,
      "vell": 3158,
      "Ġrape": 3159,
      "illed": 3160,
      "Ġexist": 3161,
      "Ġdata": 3162,
      "osing": 3163,
      "Ġterm": 3164,
      "ĠCoun": 3165,
      "ahw": 3166,
      "ayan": 3167,
      "rs": 3168,
      "CP": 3169,
      "ĠMen": 3170,
      "ĠDid": 3171,
      "de": 3172,
      "Ġoutside": 3173,
      "ĠKottayam": 3174,
      "ift": 3175,
      "Ġoccurred": 3176,
      "Ġcere": 3177,
      "Ġsubmitted": 3178,
      "DP": 3179,
      "lect": 3180,
      "mun": 3181,
      "Ġincluded": 3182,
      "ĠPan": 3183,
      "Ġsaf": 3184,
      "Ġwhether": 3185,
      "hra": 3186,
      "hel": 3187,
      "Ġwis": 3188,
      "Ġleading": 3189,
      "ĠIndeed": 3190,
      "Ġstopped": 3191,
      "ricult": 3192,
      "Ġlooking": 3193,
      "Ġblack": 3194,
      "ety": 3195,
      "ahweh": 3196,
      "Ġprime": 3197,
      "ĠZeal": 3198,
      "pan": 3199,
      "Ġrecom": 3200,
      "nak": 3201,
      "Ġsat": 3202,
      "AM": 3203,
      "Ġindivid": 3204,
      "Ġhappening": 3205,
      "Ġthousand": 3206,
      "cu": 3207,
      "mar": 3208,
      "Ġmatches": 3209,
      "then": 3210,
      "isl": 3211,
      "Ġfru": 3212,
      "Ġaff": 3213,
      "Ġchanges": 3214,
      "ĠTV": 3215,
      "icy": 3216,
      "ulated": 3217,
      "ball": 3218,
      "Ġtrib": 3219,
      "Ġ2019": 3220,
      "Ġofficers": 3221,
      "Ġroom": 3222,
      "ĠFirst": 3223,
      "aign": 3224,
      "row": 3225,
      "Ġsigns": 3226,
      "isher": 3227,
      "ateg": 3228,
      "ĠAy": 3229,
      "Ġmoment": 3230,
      "racy": 3231,
      "Ġsimple": 3232,
      "Ġgranted": 3233,
      "Ġgrowth": 3234,
      "Ġincludes": 3235,
      "mp": 3236,
      "ĠZealand": 3237,
      "road": 3238,
      "ĠMohammed": 3239,
      "Ġsought": 3240,
      "Ġfourth": 3241,
      "edding": 3242,
      "uary": 3243,
      "lu": 3244,
      "Ġpicture": 3245,
      "AP": 3246,
      "Ġindustry": 3247,
      "utes": 3248,
      "Ġreligious": 3249,
      "Ġspiritual": 3250,
      "ĠMoses": 3251,
      "Ġbeautiful": 3252,
      "Ġexpressed": 3253,
      "ĠWomen": 3254,
      "Ġsac": 3255,
      "Ġelectric": 3256,
      "Ġborn": 3257,
      "IR": 3258,
      "ena": 3259,
      "Ġlate": 3260,
      "Ġcommit": 3261,
      "coming": 3262,
      "Ġdirect": 3263,
      "Ġarrived": 3264,
      "Ġthreat": 3265,
      "encies": 3266,
      "Ġaccepted": 3267,
      "Ġcoop": 3268,
      "Ġmention": 3269,
      "Ġseason": 3270,
      "ger": 3271,
      "Ġground": 3272,
      "ruption": 3273,
      "Ġanim": 3274,
      "urs": 3275,
      "Ġtakes": 3276,
      "ĠKan": 3277,
      "down": 3278,
      "Ġundergoing": 3279,
      "ĠInst": 3280,
      "ĠCommittee": 3281,
      "ĠDhoni": 3282,
      "ograp": 3283,
      "Ġmass": 3284,
      "Ġheaven": 3285,
      "akrishnan": 3286,
      "ĠUs": 3287,
      "Ġconstruction": 3288,
      "ĠSw": 3289,
      "Ġalert": 3290,
      "ĠAbdul": 3291,
      "ĠEduc": 3292,
      "Ġdeep": 3293,
      "att": 3294,
      "Ġcrime": 3295,
      "Ġbar": 3296,
      "Ġsuspended": 3297,
      "Ġhearing": 3298,
      "Ġworth": 3299,
      "ĠHary": 3300,
      "Ġremember": 3301,
      "ĠRoy": 3302,
      "Ġguid": 3303,
      "Ġneither": 3304,
      "ocked": 3305,
      "Ġprogramme": 3306,
      "ĠDis": 3307,
      "uzha": 3308,
      "Ġsuffered": 3309,
      "Ġcompan": 3310,
      "ĠAj": 3311,
      "ĠYahweh": 3312,
      "Ġrise": 3313,
      "ĠLeague": 3314,
      "ĠSoc": 3315,
      "Ġwid": 3316,
      "ĠReg": 3317,
      "Ġvictory": 3318,
      "Ġplays": 3319,
      "ĠKannur": 3320,
      "Ġvac": 3321,
      "Ġglobal": 3322,
      "hatt": 3323,
      "He": 3324,
      "Ġ60": 3325,
      "uf": 3326,
      "Ġcard": 3327,
      "Ġbill": 3328,
      "Ġjustice": 3329,
      "Ġsmart": 3330,
      "Ġcontinues": 3331,
      "Ġseeking": 3332,
      "Ġpurpose": 3333,
      "Ġvirus": 3334,
      "Ġten": 3335,
      "ĠCity": 3336,
      "ĠSuper": 3337,
      "ĠRajya": 3338,
      "Ġalliance": 3339,
      "Ġtry": 3340,
      "ĠSci": 3341,
      "Ġspec": 3342,
      "iqu": 3343,
      "Ġappre": 3344,
      "Ġcompleted": 3345,
      "Ġpos": 3346,
      "Ġsust": 3347,
      "Ġgovernments": 3348,
      "ĠHaryana": 3349,
      "Ġmajority": 3350,
      "Ġattempt": 3351,
      "iled": 3352,
      "agement": 3353,
      "Ġcertainly": 3354,
      "It": 3355,
      "ĠAmb": 3356,
      "Ġsoldiers": 3357,
      "person": 3358,
      "jan": 3359,
      "hammad": 3360,
      "Ġnone": 3361,
      "ĠPand": 3362,
      "let": 3363,
      "Ġgets": 3364,
      "ĠSpecial": 3365,
      "Ġdeter": 3366,
      "SR": 3367,
      "ĠKam": 3368,
      "enced": 3369,
      "olkata": 3370,
      "Ġdri": 3371,
      "nakulam": 3372,
      "Ġcontrib": 3373,
      "Ġschools": 3374,
      "ĠSit": 3375,
      "Ġknew": 3376,
      "Ġcampaign": 3377,
      "Ġbaby": 3378,
      "Ġvotes": 3379,
      "Ġdiesel": 3380,
      "Ġjournal": 3381,
      "ĠBha": 3382,
      "Ġpick": 3383,
      "Ġrank": 3384,
      "olution": 3385,
      "Ġbenefit": 3386,
      "cially": 3387,
      "Ġrese": 3388,
      "ĠCont": 3389,
      "ĠKodi": 3390,
      "Ġpictures": 3391,
      "ORD": 3392,
      "ĠNir": 3393,
      "ĠPol": 3394,
      "Ġairport": 3395,
      "ji": 3396,
      "Ġsafe": 3397,
      "ĠVer": 3398,
      "ĠAndhra": 3399,
      "ĠArab": 3400,
      "reedom": 3401,
      "Ġeld": 3402,
      "Ġlanguages": 3403,
      "Ġconference": 3404,
      "Ġ...": 3405,
      "Ġbelievers": 3406,
      "Ġdoctor": 3407,
      "Ġannouncement": 3408,
      "ĠKolkata": 3409,
      "Ġspoke": 3410,
      "Ġpetrol": 3411,
      "Ġministry": 3412,
      "Ġreach": 3413,
      "eter": 3414,
      "Ġforces": 3415,
      "Ġwants": 3416,
      "Ġlisten": 3417,
      "Ġadminist": 3418,
      "Ġpark": 3419,
      "ication": 3420,
      "Ġran": 3421,
      "Ġmessage": 3422,
      "ler": 3423,
      "Ġsuper": 3424,
      "aily": 3425,
      "Ġconstit": 3426,
      "ĠLORD": 3427,
      "Ġ26": 3428,
      "ĠEurope": 3429,
      "Ġconsidered": 3430,
      "Ġfans": 3431,
      "Ġbiggest": 3432,
      "Ġhearts": 3433,
      "inder": 3434,
      "ĠThus": 3435,
      "ĠKodiyer": 3436,
      "30": 3437,
      "utive": 3438,
      "Ġdestroyed": 3439,
      "Ġaffected": 3440,
      "Ġsociety": 3441,
      "ton": 3442,
      "ĠAhmed": 3443,
      "Ġminor": 3444,
      "ika": 3445,
      "Ġdoor": 3446,
      "ĠPad": 3447,
      "Ġneg": 3448,
      "Ġsteps": 3449,
      "ĠErnakulam": 3450,
      "ĠBar": 3451,
      "hampions": 3452,
      "Ġhundred": 3453,
      "Ġtrial": 3454,
      "ension": 3455,
      "ĠKodiyeri": 3456,
      "omb": 3457,
      "Ġdang": 3458,
      "Ġbelieved": 3459,
      "ĠMinisters": 3460,
      "mber": 3461,
      "Ġsqu": 3462,
      "Ġnecessary": 3463,
      "Ġhath": 3464,
      "ĠHouse": 3465,
      "Ġremark": 3466,
      "Ġphys": 3467,
      "Ġcommitted": 3468,
      "kumar": 3469,
      "Ġsave": 3470,
      "Ġlaunch": 3471,
      "mortem": 3472,
      "ĠDevelop": 3473,
      "Ġhot": 3474,
      "Ġred": 3475,
      "Ġriver": 3476,
      "anth": 3477,
      "ĠHeavy": 3478,
      "Ġ27": 3479,
      "Ġcreat": 3480,
      "Ġinvestigating": 3481,
      "Ġcongregation": 3482,
      "Ġ32": 3483,
      "ĠElection": 3484,
      "Ġwedding": 3485,
      "Ġcentury": 3486,
      "ests": 3487,
      "Ġkids": 3488,
      "Ġthats": 3489,
      "Ġfelt": 3490,
      "ĠYet": 3491,
      "ĠChinese": 3492,
      "mpt": 3493,
      "nam": 3494,
      "Ġsit": 3495,
      "ĠNothing": 3496,
      "rain": 3497,
      "Ġsecret": 3498,
      "ghan": 3499,
      "Ġtoll": 3500,
      "ns": 3501,
      "itor": 3502,
      "Ġsug": 3503,
      "Ġappeal": 3504,
      "ĠDonald": 3505,
      "ull": 3506,
      "Ġsan": 3507,
      "Ġ31": 3508,
      "Ġstrength": 3509,
      "ĠHyder": 3510,
      "leg": 3511,
      "Ġeconomic": 3512,
      "jri": 3513,
      "Ġdocu": 3514,
      "Ġcheck": 3515,
      "Ġcoll": 3516,
      "Ġdisci": 3517,
      "ĠBec": 3518,
      "Ġrecogn": 3519,
      "Ġevening": 3520,
      "Ġtraffic": 3521,
      "back": 3522,
      "son": 3523,
      "Ġactors": 3524,
      "bh": 3525,
      "udget": 3526,
      "alse": 3527,
      "isha": 3528,
      "Ġoffered": 3529,
      "Ġscreen": 3530,
      "Ġrepl": 3531,
      "ĠHyderabad": 3532,
      "Ġreward": 3533,
      "Ġquar": 3534,
      "ĠCouncil": 3535,
      "ene": 3536,
      "ĠFather": 3537,
      "esters": 3538,
      "ras": 3539,
      "Ġintrodu": 3540,
      "Ġsla": 3541,
      "Ġsurv": 3542,
      "Ġeconomy": 3543,
      "ĠAnother": 3544,
      "Ġseek": 3545,
      "Ġstrengthen": 3546,
      "Ġfarmers": 3547,
      "Ġir": 3548,
      "Ġaf": 3549,
      "icated": 3550,
      "Ġtweeted": 3551,
      "Ġz": 3552,
      "Ġ500": 3553,
      "Ġceremony": 3554,
      "Ġparticipated": 3555,
      "Ġpublished": 3556,
      "Ġchallen": 3557,
      "ĠKejri": 3558,
      "Ġreceive": 3559,
      "iant": 3560,
      "Ġ35": 3561,
      "Ġbuilt": 3562,
      "chay": 3563,
      "gment": 3564,
      "Ġsaved": 3565,
      "Ġsuggest": 3566,
      "Ġjail": 3567,
      "Ġnotice": 3568,
      "Ġcomposed": 3569,
      "ĠStudents": 3570,
      "ki": 3571,
      "Ġnon": 3572,
      "Ġleav": 3573,
      "Ġcontinued": 3574,
      "Ġformed": 3575,
      "This": 3576,
      "Ġrelatives": 3577,
      "ĠIPL": 3578,
      "Ġcommunity": 3579,
      "Ġcrim": 3580,
      "Ġefforts": 3581,
      "ĠLanka": 3582,
      "Ġquite": 3583,
      "Ġpot": 3584,
      "ĠAz": 3585,
      "Ġcarried": 3586,
      "lo": 3587,
      "ĠChe": 3588,
      "ization": 3589,
      "Ġlink": 3590,
      "Ġpositive": 3591,
      "icial": 3592,
      "Ġgoes": 3593,
      "ourney": 3594,
      "Ġattention": 3595,
      "Ġhospitals": 3596,
      "ĠRussia": 3597,
      "ternet": 3598,
      "Ġscheme": 3599,
      "Ġmovies": 3600,
      "Ġseriously": 3601,
      "ault": 3602,
      "oned": 3603,
      "Ġlov": 3604,
      "Ġprepared": 3605,
      "Ġnorm": 3606,
      "Ġactivities": 3607,
      "Ġqual": 3608,
      "Ġcomplet": 3609,
      "ĠKas": 3610,
      "Ġban": 3611,
      "Ġdoctors": 3612,
      "Ġquick": 3613,
      "ĠServ": 3614,
      "mes": 3615,
      "Ġ199": 3616,
      "put": 3617,
      "Ġexamination": 3618,
      "Ġfemale": 3619,
      "shi": 3620,
      "ĠGood": 3621,
      "fall": 3622,
      "Ġyourself": 3623,
      "Ġnearby": 3624,
      "vey": 3625,
      "emy": 3626,
      "Ġwhose": 3627,
      "ably": 3628,
      "Ġgives": 3629,
      "Ġheaded": 3630,
      "ructure": 3631,
      "va": 3632,
      "Ġwithdra": 3633,
      "Ġroads": 3634,
      "iting": 3635,
      "Ġacqu": 3636,
      "Ġtele": 3637,
      "Ġsomeone": 3638,
      "Ġboard": 3639,
      "Ġdeceased": 3640,
      "ĠExp": 3641,
      "Ġrefused": 3642,
      "ĠAfghan": 3643,
      "Ġshooting": 3644,
      "Ġjoint": 3645,
      "Ġpaid": 3646,
      "ĠKejriwal": 3647,
      "Ġpra": 3648,
      "Ġmissing": 3649,
      "ming": 3650,
      "ĠCol": 3651,
      "raft": 3652,
      "Ġapproached": 3653,
      "Ġpopulation": 3654,
      "ĠGovernor": 3655,
      "ĠEducation": 3656,
      "Ġdraw": 3657,
      "ĠWell": 3658,
      "Ġpresided": 3659,
      "ĠWater": 3660,
      "ĠCons": 3661,
      "Ġexpress": 3662,
      "Ġinnings": 3663,
      "Ġwaiting": 3664,
      "Ġdaily": 3665,
      "Ġrelated": 3666,
      "ĠInstit": 3667,
      "val": 3668,
      "Ġcapital": 3669,
      "Ġmercy": 3670,
      "igation": 3671,
      "Ġgiving": 3672,
      "ĠDevelopment": 3673,
      "ĠJa": 3674,
      "ĠOffic": 3675,
      "Ġtherefore": 3676,
      "vironment": 3677,
      "Ġprevious": 3678,
      "Ġhelps": 3679,
      "kash": 3680,
      "aining": 3681,
      "ĠChildren": 3682,
      "Ġris": 3683,
      "Ġborder": 3684,
      "rog": 3685,
      "apan": 3686,
      "Ġhelped": 3687,
      "Ġreview": 3688,
      "Ġgri": 3689,
      "Ġnames": 3690,
      "Ġtarget": 3691,
      "ny": 3692,
      "ĠSP": 3693,
      "pping": 3694,
      "Ġinterview": 3695,
      "Ġrights": 3696,
      "Ġbag": 3697,
      "Ġ%": 3698,
      "ĠGer": 3699,
      "ĠCCT": 3700,
      "Ġshar": 3701,
      "Ġorig": 3702,
      "Ġearn": 3703,
      "Ġjourney": 3704,
      "Ġvote": 3705,
      "ĠCCTV": 3706,
      "Ġdemocracy": 3707,
      "phone": 3708,
      "Ġfalse": 3709,
      "ĠYouth": 3710,
      "ĠDes": 3711,
      "ex": 3712,
      "Ġarmy": 3713,
      "ourage": 3714,
      "Ġpath": 3715,
      "ĠTake": 3716,
      "ĠCitizenship": 3717,
      "Ġelected": 3718,
      "mptoms": 3719,
      "Ġtorque": 3720,
      "ĠDub": 3721,
      "Ġcris": 3722,
      "Ġgar": 3723,
      "ĠProt": 3724,
      "hold": 3725,
      "ĠLaw": 3726,
      "ĠAbout": 3727,
      "ĠGl": 3728,
      "UV": 3729,
      "Ġtalks": 3730,
      "owd": 3731,
      "estival": 3732,
      "ĠMah": 3733,
      "rier": 3734,
      "Ind": 3735,
      "erved": 3736,
      "Ġfreedom": 3737,
      "ĠDeep": 3738,
      "ĠRec": 3739,
      "otion": 3740,
      "ĠTem": 3741,
      "Ġfeet": 3742,
      "Ġess": 3743,
      "Ġbanks": 3744,
      "orage": 3745,
      "earch": 3746,
      "ĠInvest": 3747,
      "Ġcities": 3748,
      "Ġspeed": 3749,
      "Ġsun": 3750,
      "oups": 3751,
      "Ġflow": 3752,
      "inary": 3753,
      "mend": 3754,
      "ĠLead": 3755,
      "aman": 3756,
      "Ġwicket": 3757,
      "Ġoperation": 3758,
      "Ġconstituency": 3759,
      "Ġmix": 3760,
      "hib": 3761,
      "Ġhigher": 3762,
      "Ġaware": 3763,
      "Ġsepar": 3764,
      "co": 3765,
      "riving": 3766,
      "ining": 3767,
      "raham": 3768,
      "Ġfif": 3769,
      "ĠRavi": 3770,
      "Ġservants": 3771,
      "Ġrescue": 3772,
      "ini": 3773,
      "ĠRajnath": 3774,
      "ĠArticle": 3775,
      "Ġblast": 3776,
      "Ġrecorded": 3777,
      "Ġprotect": 3778,
      "Ġserved": 3779,
      "osh": 3780,
      "Ġcrisis": 3781,
      "olve": 3782,
      "urch": 3783,
      "ikh": 3784,
      "ĠPakistani": 3785,
      "Ġplann": 3786,
      "anda": 3787,
      "alore": 3788,
      "ĠPhot": 3789,
      "Ġmobile": 3790,
      "TC": 3791,
      "Ġonline": 3792,
      "Ġsens": 3793,
      "eness": 3794,
      "Ġprayer": 3795,
      "ĠBaner": 3796,
      "ĠDefence": 3797,
      "ama": 3798,
      "ĠMano": 3799,
      "Ġ70": 3800,
      "ĠSenior": 3801,
      "Ġconsum": 3802,
      "ĠAdv": 3803,
      "Ġdoubt": 3804,
      "raid": 3805,
      "eddy": 3806,
      "Ġdeeds": 3807,
      "well": 3808,
      "ĠTata": 3809,
      "Ġdismissed": 3810,
      "Ġdream": 3811,
      "ĠBecause": 3812,
      "Ġhy": 3813,
      "Ġhappens": 3814,
      "uled": 3815,
      "Ġreb": 3816,
      "Ġfulf": 3817,
      "Ġserve": 3818,
      "Ġrally": 3819,
      "Ġcontact": 3820,
      "Ġline": 3821,
      "ĠLal": 3822,
      "Ġtravell": 3823,
      "?\"\"\"": 3824,
      "Ġ2018": 3825,
      "ĠScript": 3826,
      "Ġchalleng": 3827,
      "Ġreply": 3828,
      "IC": 3829,
      "hap": 3830,
      "Ġdrug": 3831,
      "angana": 3832,
      "Ġbegun": 3833,
      "Ġmater": 3834,
      "Ġfavour": 3835,
      "Ġspeech": 3836,
      "ĠApart": 3837,
      "ĠAdity": 3838,
      "Ġavoid": 3839,
      "Ġtransf": 3840,
      "oke": 3841,
      "ĠBanerjee": 3842,
      "ira": 3843,
      "ĠLa": 3844,
      "Ġregular": 3845,
      "ĠJapan": 3846,
      "ĠEverything": 3847,
      "ayed": 3848,
      "ĠGov": 3849,
      "Ġtraining": 3850,
      "mo": 3851,
      "Ġforget": 3852,
      "ĠLook": 3853,
      "Ġmodel": 3854,
      "Ġ29": 3855,
      "asan": 3856,
      "Ġpermission": 3857,
      "Ġhurt": 3858,
      "Ġlat": 3859,
      "ĠAmerican": 3860,
      "Ġlocals": 3861,
      "Ġbooks": 3862,
      "Ġwond": 3863,
      "Ġarticle": 3864,
      "Ġlegal": 3865,
      "ĠPrakash": 3866,
      "Ġrepe": 3867,
      "ĠAI": 3868,
      "Ġrich": 3869,
      "Ġabs": 3870,
      "vention": 3871,
      "ĠSix": 3872,
      "Ġsn": 3873,
      "Ġexerc": 3874,
      "ĠBoard": 3875,
      "ĠMul": 3876,
      "Ġrelie": 3877,
      "Ġresident": 3878,
      "ken": 3879,
      "roll": 3880,
      "ĠSol": 3881,
      "ĠCar": 3882,
      "Ġafraid": 3883,
      "Ġcivil": 3884,
      "Ġfail": 3885,
      "Ġfirm": 3886,
      "Ġopportunity": 3887,
      "resh": 3888,
      "ĠGoa": 3889,
      "Ġcolour": 3890,
      "Ġallegedly": 3891,
      "Ġbelow": 3892,
      "Ġmist": 3893,
      "Ġshut": 3894,
      "Ġaim": 3895,
      "Ġcharacter": 3896,
      "kind": 3897,
      "une": 3898,
      "Ġcorruption": 3899,
      "ĠLife": 3900,
      "Ġpat": 3901,
      "though": 3902,
      "add": 3903,
      "ĠRel": 3904,
      "ounds": 3905,
      "ĠPrasad": 3906,
      "gn": 3907,
      "Ġattacked": 3908,
      "ĠSim": 3909,
      "aper": 3910,
      "Ġcross": 3911,
      "Ġcru": 3912,
      "Ġdebut": 3913,
      "ĠCome": 3914,
      "eared": 3915,
      "Ġsalt": 3916,
      "10": 3917,
      "Ġet": 3918,
      "icular": 3919,
      "Ġsele": 3920,
      "Ġcommission": 3921,
      "appuram": 3922,
      "Ġaud": 3923,
      "Ġlif": 3924,
      "Ġleadership": 3925,
      "Ġsouth": 3926,
      "Ġgroups": 3927,
      "Ġgrand": 3928,
      "ĠNit": 3929,
      "ĠWord": 3930,
      "ĠSecurity": 3931,
      "cip": 3932,
      "Ġ80": 3933,
      "cher": 3934,
      "Ġscript": 3935,
      "igr": 3936,
      "Ġsafety": 3937,
      "nding": 3938,
      "hase": 3939,
      "Ġpressure": 3940,
      "ayanad": 3941,
      "GP": 3942,
      "Ġsubject": 3943,
      "Ġwhatever": 3944,
      "Ġbats": 3945,
      "ĠKul": 3946,
      "Ġapart": 3947,
      "ndran": 3948,
      "Ġment": 3949,
      "Ġprotesters": 3950,
      "Ġ--": 3951,
      "Ġ?": 3952,
      "Ġsexual": 3953,
      "Ġdisplay": 3954,
      "Ġwel": 3955,
      "araj": 3956,
      "ĠRem": 3957,
      "ĠGerman": 3958,
      "Ġstorage": 3959,
      "Ġremained": 3960,
      "Ġfla": 3961,
      "ĠHence": 3962,
      "ĠJer": 3963,
      "Ġremains": 3964,
      "Ġfoc": 3965,
      "ĠTri": 3966,
      "ĠWayanad": 3967,
      "Ġcitizens": 3968,
      "Ġprim": 3969,
      "aur": 3970,
      "do": 3971,
      "ĠMet": 3972,
      "Ġnatural": 3973,
      "Ġrule": 3974,
      "Ġnet": 3975,
      "Ġvia": 3976,
      "App": 3977,
      "Ġscore": 3978,
      "inent": 3979,
      "Ġcover": 3980,
      "Ġbooked": 3981,
      "Ġmilitary": 3982,
      "Ġexec": 3983,
      "Ġsuffering": 3984,
      "Ġremoved": 3985,
      "Ġcal": 3986,
      "ĠGold": 3987,
      "Ġspace": 3988,
      "ĠSince": 3989,
      "ĠArvind": 3990,
      "ĠJew": 3991,
      "ĠAnil": 3992,
      "Ġmulti": 3993,
      "Ġstaff": 3994,
      "Ġstrike": 3995,
      "ĠMalappuram": 3996,
      "Ġpred": 3997,
      "tery": 3998,
      "aught": 3999
    },
    "merges": [
      [
        "Ġ",
        "t"
      ],
      [
        "h",
        "e"
      ],
      [
        "Ġ",
        "a"
      ],
      [
        "i",
        "n"
      ],
      [
        "r",
        "e"
      ],
      [
        "Ġt",
        "he"
      ],
      [
        "o",
        "n"
      ],
      [
        "e",
        "r"
      ],
      [
        "Ġ",
        "w"
      ],
      [
        "i",
        "s"
      ],
      [
        "Ġ",
        "s"
      ],
      [
        "h",
        "a"
      ],
      [
        "e",
        "d"
      ],
      [
        "n",
        "d"
      ],
      [
        "e",
        "n"
      ],
      [
        "Ġ",
        "o"
      ],
      [
        "Ġ",
        "c"
      ],
      [
        "Ġ",
        "b"
      ],
      [
        "Ġ",
        "f"
      ],
      [
        "i",
        "t"
      ],
      [
        "Ġ",
        "p"
      ],
      [
        "e",
        "s"
      ],
      [
        "a",
        "t"
      ],
      [
        "Ġ",
        "T"
      ],
      [
        "o",
        "r"
      ],
      [
        "Ġ",
        "in"
      ],
      [
        "a",
        "n"
      ],
      [
        "o",
        "u"
      ],
      [
        "a",
        "l"
      ],
      [
        "a",
        "r"
      ],
      [
        "in",
        "g"
      ],
      [
        "Ġo",
        "f"
      ],
      [
        "Ġ",
        "d"
      ],
      [
        "Ġ",
        "m"
      ],
      [
        "Ġt",
        "o"
      ],
      [
        "a",
        "s"
      ],
      [
        "i",
        "l"
      ],
      [
        "Ġa",
        "nd"
      ],
      [
        "i",
        "c"
      ],
      [
        "Ġ",
        "I"
      ],
      [
        "ĠT",
        "he"
      ],
      [
        "i",
        "on"
      ],
      [
        "Ġ",
        "ha"
      ],
      [
        "l",
        "e"
      ],
      [
        "o",
        "m"
      ],
      [
        "Ġ",
        "S"
      ],
      [
        "Ġ",
        "A"
      ],
      [
        "en",
        "t"
      ],
      [
        "Ġ",
        "is"
      ],
      [
        "Ġ",
        "n"
      ],
      [
        "Ġb",
        "e"
      ],
      [
        "o",
        "t"
      ],
      [
        "i",
        "d"
      ],
      [
        "Ġ",
        "M"
      ],
      [
        "v",
        "e"
      ],
      [
        "Ġ",
        "re"
      ],
      [
        "s",
        "t"
      ],
      [
        "o",
        "l"
      ],
      [
        "Ġ",
        "l"
      ],
      [
        "Ġ",
        "C"
      ],
      [
        "ha",
        "t"
      ],
      [
        "a",
        "m"
      ],
      [
        "Ġ",
        "B"
      ],
      [
        "Ġ",
        "g"
      ],
      [
        "Ġ",
        "P"
      ],
      [
        "Ġ",
        "h"
      ],
      [
        "c",
        "t"
      ],
      [
        "Ġ",
        "e"
      ],
      [
        "Ġ",
        "H"
      ],
      [
        "v",
        "er"
      ],
      [
        "a",
        "y"
      ],
      [
        "u",
        "t"
      ],
      [
        "a",
        "d"
      ],
      [
        "u",
        "r"
      ],
      [
        "i",
        "r"
      ],
      [
        "i",
        "m"
      ],
      [
        "o",
        "w"
      ],
      [
        "t",
        "er"
      ],
      [
        "Ġt",
        "h"
      ],
      [
        "Ġf",
        "or"
      ],
      [
        "Ġ",
        "on"
      ],
      [
        "Ġw",
        "as"
      ],
      [
        "e",
        "t"
      ],
      [
        "e",
        "l"
      ],
      [
        "Ġ",
        "y"
      ],
      [
        "il",
        "l"
      ],
      [
        "r",
        "o"
      ],
      [
        "Ġ",
        "he"
      ],
      [
        "u",
        "s"
      ],
      [
        "Ġ",
        "W"
      ],
      [
        "Ġs",
        "t"
      ],
      [
        "c",
        "e"
      ],
      [
        "Ġ",
        "R"
      ],
      [
        "r",
        "a"
      ],
      [
        "i",
        "g"
      ],
      [
        "l",
        "y"
      ],
      [
        "o",
        "d"
      ],
      [
        "at",
        "ion"
      ],
      [
        "Ġa",
        "l"
      ],
      [
        "Ġt",
        "hat"
      ],
      [
        "Ġ",
        "K"
      ],
      [
        "Ġy",
        "ou"
      ],
      [
        "a",
        "k"
      ],
      [
        "e",
        "re"
      ],
      [
        "Ġa",
        "re"
      ],
      [
        "Ġha",
        "s"
      ],
      [
        "re",
        "s"
      ],
      [
        "o",
        "s"
      ],
      [
        "Ġ",
        "N"
      ],
      [
        "it",
        "h"
      ],
      [
        "Ġn",
        "ot"
      ],
      [
        "Ġ",
        "G"
      ],
      [
        "Ġ",
        "D"
      ],
      [
        "Ġ",
        "it"
      ],
      [
        "c",
        "h"
      ],
      [
        "u",
        "l"
      ],
      [
        "he",
        "r"
      ],
      [
        "is",
        "t"
      ],
      [
        "r",
        "i"
      ],
      [
        "Ġha",
        "ve"
      ],
      [
        "Ġa",
        "n"
      ],
      [
        "ic",
        "e"
      ],
      [
        "u",
        "n"
      ],
      [
        "m",
        "ent"
      ],
      [
        "es",
        "t"
      ],
      [
        "Ġw",
        "ill"
      ],
      [
        "Ġw",
        "ith"
      ],
      [
        "a",
        "in"
      ],
      [
        "i",
        "a"
      ],
      [
        "Ġd",
        "e"
      ],
      [
        "er",
        "s"
      ],
      [
        "Ġc",
        "on"
      ],
      [
        "Ġs",
        "e"
      ],
      [
        "p",
        "p"
      ],
      [
        "l",
        "d"
      ],
      [
        "h",
        "i"
      ],
      [
        "Ġa",
        "s"
      ],
      [
        "Ġa",
        "t"
      ],
      [
        "ĠI",
        "nd"
      ],
      [
        "Ġw",
        "h"
      ],
      [
        "o",
        "p"
      ],
      [
        "\"",
        "\""
      ],
      [
        "Ġb",
        "y"
      ],
      [
        "Ġ",
        "J"
      ],
      [
        "a",
        "nd"
      ],
      [
        "t",
        "h"
      ],
      [
        "Ġ",
        "F"
      ],
      [
        "i",
        "f"
      ],
      [
        "ĠH",
        "e"
      ],
      [
        "at",
        "e"
      ],
      [
        "Ġc",
        "om"
      ],
      [
        "r",
        "om"
      ],
      [
        "Ġ",
        "1"
      ],
      [
        "ĠT",
        "h"
      ],
      [
        "Ġs",
        "a"
      ],
      [
        "g",
        "e"
      ],
      [
        "Ġth",
        "is"
      ],
      [
        "n",
        "t"
      ],
      [
        "Ġ",
        "L"
      ],
      [
        "u",
        "m"
      ],
      [
        "ou",
        "r"
      ],
      [
        "a",
        "c"
      ],
      [
        "Ġw",
        "ere"
      ],
      [
        "Ġ",
        "v"
      ],
      [
        "Ġbe",
        "en"
      ],
      [
        "ar",
        "t"
      ],
      [
        "Ġf",
        "rom"
      ],
      [
        "Ġ",
        "k"
      ],
      [
        "h",
        "t"
      ],
      [
        "s",
        "e"
      ],
      [
        "ol",
        "ice"
      ],
      [
        "ĠI",
        "t"
      ],
      [
        "on",
        "g"
      ],
      [
        "Ġn",
        "e"
      ],
      [
        "Ġp",
        "ro"
      ],
      [
        "a",
        "b"
      ],
      [
        "an",
        "t"
      ],
      [
        "Ġg",
        "o"
      ],
      [
        "Ġsa",
        "id"
      ],
      [
        "ha",
        "n"
      ],
      [
        "Ġ",
        "r"
      ],
      [
        "Ġ",
        "O"
      ],
      [
        "o",
        "re"
      ],
      [
        "or",
        "t"
      ],
      [
        "Ġ",
        "E"
      ],
      [
        "u",
        "p"
      ],
      [
        "i",
        "es"
      ],
      [
        "es",
        "s"
      ],
      [
        "Ġ",
        "le"
      ],
      [
        "s",
        "o"
      ],
      [
        "u",
        "d"
      ],
      [
        "i",
        "v"
      ],
      [
        "l",
        "a"
      ],
      [
        "e",
        "m"
      ],
      [
        "re",
        "d"
      ],
      [
        "o",
        "k"
      ],
      [
        "Ġs",
        "u"
      ],
      [
        "p",
        "e"
      ],
      [
        "Ġe",
        "x"
      ],
      [
        "Ġd",
        "o"
      ],
      [
        "Ġ",
        "2"
      ],
      [
        "is",
        "ter"
      ],
      [
        "'",
        "s"
      ],
      [
        "ĠInd",
        "ia"
      ],
      [
        "ou",
        "ld"
      ],
      [
        "it",
        "y"
      ],
      [
        "ct",
        "ion"
      ],
      [
        "q",
        "u"
      ],
      [
        "Ġh",
        "is"
      ],
      [
        "i",
        "ve"
      ],
      [
        "ĠB",
        "ut"
      ],
      [
        "Ġha",
        "d"
      ],
      [
        "Ġal",
        "so"
      ],
      [
        "Ġ",
        "("
      ],
      [
        "in",
        "ister"
      ],
      [
        "res",
        "s"
      ],
      [
        "Ġthe",
        "m"
      ],
      [
        "u",
        "st"
      ],
      [
        "ĠTh",
        "is"
      ],
      [
        "id",
        "ent"
      ],
      [
        "Ġw",
        "or"
      ],
      [
        "c",
        "c"
      ],
      [
        "Ġthe",
        "y"
      ],
      [
        "i",
        "e"
      ],
      [
        "ig",
        "ht"
      ],
      [
        "Ġ",
        "V"
      ],
      [
        "Ġ",
        "U"
      ],
      [
        "Ġp",
        "olice"
      ],
      [
        "Ġm",
        "e"
      ],
      [
        "im",
        "e"
      ],
      [
        "Ġal",
        "l"
      ],
      [
        "Ġp",
        "e"
      ],
      [
        "i",
        "al"
      ],
      [
        ".",
        "."
      ],
      [
        "ar",
        "d"
      ],
      [
        "as",
        "e"
      ],
      [
        "on",
        "e"
      ],
      [
        "om",
        "e"
      ],
      [
        "Ġo",
        "r"
      ],
      [
        "i",
        "an"
      ],
      [
        "o",
        "c"
      ],
      [
        "o",
        "v"
      ],
      [
        "Ġa",
        "g"
      ],
      [
        "o",
        "st"
      ],
      [
        "Ġs",
        "h"
      ],
      [
        "op",
        "le"
      ],
      [
        "Ġwh",
        "o"
      ],
      [
        "Ġ",
        "Y"
      ],
      [
        "Ġa",
        "r"
      ],
      [
        "Ġw",
        "e"
      ],
      [
        "Ġin",
        "c"
      ],
      [
        "Ġf",
        "il"
      ],
      [
        "Ġ",
        "j"
      ],
      [
        "in",
        "d"
      ],
      [
        "t",
        "her"
      ],
      [
        "r",
        "y"
      ],
      [
        "ĠA",
        "l"
      ],
      [
        "as",
        "t"
      ],
      [
        "a",
        "g"
      ],
      [
        "Ġc",
        "an"
      ],
      [
        "at",
        "ed"
      ],
      [
        "ou",
        "s"
      ],
      [
        "ha",
        "r"
      ],
      [
        "r",
        "ic"
      ],
      [
        "Ġa",
        "b"
      ],
      [
        "Ġpe",
        "ople"
      ],
      [
        "Ġthe",
        "ir"
      ],
      [
        "ĠR",
        "a"
      ],
      [
        "w",
        "o"
      ],
      [
        "Ġn",
        "o"
      ],
      [
        "ĠM",
        "inister"
      ],
      [
        "ĠI",
        "n"
      ],
      [
        "0",
        "0"
      ],
      [
        "e",
        "f"
      ],
      [
        "e",
        "p"
      ],
      [
        "he",
        "n"
      ],
      [
        "ver",
        "n"
      ],
      [
        "u",
        "nd"
      ],
      [
        "el",
        "l"
      ],
      [
        "p",
        "l"
      ],
      [
        "i",
        "k"
      ],
      [
        "ou",
        "t"
      ],
      [
        "Ġre",
        "s"
      ],
      [
        "a",
        "v"
      ],
      [
        "J",
        "P"
      ],
      [
        "os",
        "e"
      ],
      [
        "al",
        "l"
      ],
      [
        "ver",
        "y"
      ],
      [
        "u",
        "e"
      ],
      [
        "Ġag",
        "ain"
      ],
      [
        "Ġon",
        "e"
      ],
      [
        "Ġm",
        "an"
      ],
      [
        "a",
        "re"
      ],
      [
        "ĠW",
        "e"
      ],
      [
        "i",
        "re"
      ],
      [
        "am",
        "e"
      ],
      [
        "Ġt",
        "ak"
      ],
      [
        "ĠThe",
        "re"
      ],
      [
        "ĠB",
        "JP"
      ],
      [
        "Ġ",
        "up"
      ],
      [
        "Ġh",
        "im"
      ],
      [
        "id",
        "e"
      ],
      [
        "f",
        "ter"
      ],
      [
        "u",
        "re"
      ],
      [
        "t",
        "ed"
      ],
      [
        "vern",
        "ment"
      ],
      [
        "ac",
        "k"
      ],
      [
        "Ġd",
        "is"
      ],
      [
        "Ġ",
        "un"
      ],
      [
        "Ġfil",
        "m"
      ],
      [
        "f",
        "f"
      ],
      [
        "Ġyou",
        "r"
      ],
      [
        "ĠP",
        "r"
      ],
      [
        "Ġ",
        "us"
      ],
      [
        "ĠThe",
        "y"
      ],
      [
        "Ġthe",
        "re"
      ],
      [
        "Ġa",
        "cc"
      ],
      [
        "Ġin",
        "t"
      ],
      [
        "at",
        "h"
      ],
      [
        "p",
        "ort"
      ],
      [
        "re",
        "e"
      ],
      [
        "ou",
        "g"
      ],
      [
        "ar",
        "y"
      ],
      [
        "Ġp",
        "l"
      ],
      [
        "Ġ",
        "\"\""
      ],
      [
        "Ġp",
        "r"
      ],
      [
        "Ġa",
        "d"
      ],
      [
        "Ġp",
        "art"
      ],
      [
        "Ġo",
        "ut"
      ],
      [
        "ou",
        "nt"
      ],
      [
        "Ġof",
        "f"
      ],
      [
        "ct",
        "or"
      ],
      [
        "n",
        "ow"
      ],
      [
        "Ġc",
        "ase"
      ],
      [
        "ct",
        "ed"
      ],
      [
        "Ġs",
        "o"
      ],
      [
        "at",
        "er"
      ],
      [
        "or",
        "d"
      ],
      [
        "h",
        "il"
      ],
      [
        "e",
        "nd"
      ],
      [
        "p",
        "t"
      ],
      [
        "Ġagain",
        "st"
      ],
      [
        "ay",
        "s"
      ],
      [
        "ou",
        "nd"
      ],
      [
        "he",
        "d"
      ],
      [
        "l",
        "l"
      ],
      [
        "a",
        "ge"
      ],
      [
        "Ġo",
        "ther"
      ],
      [
        "ĠW",
        "hat"
      ],
      [
        "e",
        "ar"
      ],
      [
        "our",
        "t"
      ],
      [
        "b",
        "le"
      ],
      [
        "Ġ",
        "im"
      ],
      [
        "Ġw",
        "hat"
      ],
      [
        "Ġt",
        "r"
      ],
      [
        "is",
        "h"
      ],
      [
        "it",
        "ion"
      ],
      [
        "o",
        "ok"
      ],
      [
        "Ġcon",
        "t"
      ],
      [
        "ĠS",
        "t"
      ],
      [
        "Ġt",
        "wo"
      ],
      [
        "e",
        "ver"
      ],
      [
        "ol",
        "l"
      ],
      [
        "Ġs",
        "p"
      ],
      [
        "ic",
        "al"
      ],
      [
        "Ġo",
        "ver"
      ],
      [
        "en",
        "ce"
      ],
      [
        "a",
        "il"
      ],
      [
        "Ġan",
        "y"
      ],
      [
        "ĠH",
        "ow"
      ],
      [
        "er",
        "al"
      ],
      [
        "ĠA",
        "nd"
      ],
      [
        "ĠC",
        "ong"
      ],
      [
        "a",
        "h"
      ],
      [
        "ic",
        "h"
      ],
      [
        "Ġgo",
        "vernment"
      ],
      [
        "in",
        "e"
      ],
      [
        "Ġa",
        "m"
      ],
      [
        "Ġle",
        "ad"
      ],
      [
        "an",
        "s"
      ],
      [
        "hi",
        "ef"
      ],
      [
        "d",
        "u"
      ],
      [
        "u",
        "g"
      ],
      [
        "Ġk",
        "now"
      ],
      [
        "und",
        "er"
      ],
      [
        "ĠCong",
        "ress"
      ],
      [
        "Ġd",
        "id"
      ],
      [
        "Ġm",
        "y"
      ],
      [
        "Ġst",
        "ate"
      ],
      [
        "ation",
        "s"
      ],
      [
        "ere",
        "d"
      ],
      [
        "i",
        "ed"
      ],
      [
        "on",
        "s"
      ],
      [
        "ĠG",
        "od"
      ],
      [
        "Ġp",
        "er"
      ],
      [
        "ing",
        "s"
      ],
      [
        "Ġa",
        "fter"
      ],
      [
        "Ġat",
        "t"
      ],
      [
        "or",
        "m"
      ],
      [
        "as",
        "s"
      ],
      [
        "m",
        "it"
      ],
      [
        "Ġ",
        "under"
      ],
      [
        "Ġt",
        "ime"
      ],
      [
        "Ġa",
        "pp"
      ],
      [
        "it",
        "al"
      ],
      [
        "n",
        "e"
      ],
      [
        "Ġ",
        "3"
      ],
      [
        "en",
        "s"
      ],
      [
        "Ġre",
        "g"
      ],
      [
        "Ġab",
        "out"
      ],
      [
        "p",
        "le"
      ],
      [
        "ot",
        "her"
      ],
      [
        "Ġhe",
        "r"
      ],
      [
        "ad",
        "e"
      ],
      [
        "Ġf",
        "ir"
      ],
      [
        "a",
        "ch"
      ],
      [
        "ĠC",
        "h"
      ],
      [
        "am",
        "il"
      ],
      [
        "o",
        "g"
      ],
      [
        "Ġt",
        "e"
      ],
      [
        "Ġe",
        "v"
      ],
      [
        ".",
        "\""
      ],
      [
        "b",
        "er"
      ],
      [
        "ĠInd",
        "ian"
      ],
      [
        "Ġs",
        "c"
      ],
      [
        "Ġs",
        "ha"
      ],
      [
        "an",
        "ce"
      ],
      [
        "es",
        "h"
      ],
      [
        "od",
        "i"
      ],
      [
        "Ġse",
        "c"
      ],
      [
        "a",
        "p"
      ],
      [
        "if",
        "e"
      ],
      [
        "Ġwh",
        "ich"
      ],
      [
        "Ġp",
        "res"
      ],
      [
        "on",
        "d"
      ],
      [
        "ig",
        "n"
      ],
      [
        "ĠP",
        "olice"
      ],
      [
        "o",
        "ve"
      ],
      [
        "Ġs",
        "er"
      ],
      [
        "..",
        "."
      ],
      [
        "ĠA",
        "s"
      ],
      [
        "re",
        "st"
      ],
      [
        "g",
        "ed"
      ],
      [
        "os",
        "p"
      ],
      [
        "ul",
        "t"
      ],
      [
        "Ġwor",
        "k"
      ],
      [
        "Ġin",
        "v"
      ],
      [
        "ol",
        "d"
      ],
      [
        "Ġ",
        "qu"
      ],
      [
        "Ġ",
        "en"
      ],
      [
        "Ġ",
        "ra"
      ],
      [
        "r",
        "it"
      ],
      [
        "Ġb",
        "ut"
      ],
      [
        "ion",
        "s"
      ],
      [
        "an",
        "g"
      ],
      [
        "ĠY",
        "ou"
      ],
      [
        "e",
        "w"
      ],
      [
        "u",
        "b"
      ],
      [
        "ĠT",
        "hat"
      ],
      [
        "oug",
        "h"
      ],
      [
        "ĠR",
        "s"
      ],
      [
        "Ġne",
        "w"
      ],
      [
        "Ġfir",
        "st"
      ],
      [
        "Ġde",
        "c"
      ],
      [
        "Ġar",
        "rest"
      ],
      [
        "Ġint",
        "o"
      ],
      [
        "e",
        "h"
      ],
      [
        "osp",
        "ital"
      ],
      [
        "Ġ",
        "\""
      ],
      [
        "i",
        "z"
      ],
      [
        "Ġp",
        "ers"
      ],
      [
        "i",
        "ous"
      ],
      [
        "ĠM",
        "odi"
      ],
      [
        "hil",
        "d"
      ],
      [
        "Ġw",
        "ould"
      ],
      [
        "re",
        "n"
      ],
      [
        "Ġsh",
        "ould"
      ],
      [
        "Ġb",
        "r"
      ],
      [
        "on",
        "t"
      ],
      [
        "al",
        "ly"
      ],
      [
        "ak",
        "e"
      ],
      [
        "an",
        "k"
      ],
      [
        "Ġit",
        "s"
      ],
      [
        "o",
        "in"
      ],
      [
        "ab",
        "le"
      ],
      [
        "Ġo",
        "ur"
      ],
      [
        "re",
        "at"
      ],
      [
        "is",
        "s"
      ],
      [
        "Ġw",
        "hen"
      ],
      [
        "us",
        "ed"
      ],
      [
        "a",
        "i"
      ],
      [
        "ĠN",
        "o"
      ],
      [
        "Ġc",
        "l"
      ],
      [
        "ĠM",
        "an"
      ],
      [
        "'",
        "t"
      ],
      [
        "o",
        "od"
      ],
      [
        "o",
        "y"
      ],
      [
        "ow",
        "n"
      ],
      [
        "ver",
        "s"
      ],
      [
        "ot",
        "h"
      ],
      [
        "Ġm",
        "ed"
      ],
      [
        "la",
        "h"
      ],
      [
        "Ġl",
        "ik"
      ],
      [
        "ation",
        "al"
      ],
      [
        "Ġm",
        "ore"
      ],
      [
        "Ġc",
        "ount"
      ],
      [
        "Ġs",
        "pe"
      ],
      [
        "a",
        "ce"
      ],
      [
        "at",
        "es"
      ],
      [
        "Ġre",
        "c"
      ],
      [
        "Ġ",
        "ro"
      ],
      [
        "Ġ2",
        "0"
      ],
      [
        "Ġg",
        "r"
      ],
      [
        "Ġin",
        "j"
      ],
      [
        "as",
        "h"
      ],
      [
        "Ġha",
        "pp"
      ],
      [
        "il",
        "e"
      ],
      [
        "Ġc",
        "hild"
      ],
      [
        "Ġinc",
        "ident"
      ],
      [
        "Ġthe",
        "n"
      ],
      [
        "Ġcom",
        "p"
      ],
      [
        "ig",
        "h"
      ],
      [
        "ic",
        "k"
      ],
      [
        "c",
        "ed"
      ],
      [
        "Ġth",
        "ose"
      ],
      [
        "l",
        "i"
      ],
      [
        "p",
        "er"
      ],
      [
        "j",
        "e"
      ],
      [
        "u",
        "red"
      ],
      [
        "ĠA",
        "n"
      ],
      [
        "h",
        "y"
      ],
      [
        "Ġm",
        "ade"
      ],
      [
        "ĠS",
        "he"
      ],
      [
        "el",
        "y"
      ],
      [
        "is",
        "e"
      ],
      [
        "ve",
        "l"
      ],
      [
        "Ġ",
        "-"
      ],
      [
        "ric",
        "t"
      ],
      [
        "Ġarrest",
        "ed"
      ],
      [
        "Ġm",
        "ov"
      ],
      [
        "Ġ",
        "5"
      ],
      [
        "Ġbe",
        "c"
      ],
      [
        "ĠK",
        "eral"
      ],
      [
        "ĠAl",
        "lah"
      ],
      [
        "ar",
        "k"
      ],
      [
        "Ġd",
        "ist"
      ],
      [
        "Ġ\"\"",
        "\""
      ],
      [
        "Ġne",
        "ed"
      ],
      [
        "od",
        "y"
      ],
      [
        "v",
        "ed"
      ],
      [
        "Ġw",
        "om"
      ],
      [
        "ĠU",
        "n"
      ],
      [
        "m",
        "er"
      ],
      [
        "a",
        "j"
      ],
      [
        "m",
        "ed"
      ],
      [
        "Ġh",
        "ospital"
      ],
      [
        "w",
        "ard"
      ],
      [
        "Ġ",
        "4"
      ],
      [
        "f",
        "orm"
      ],
      [
        "ĠKeral",
        "a"
      ],
      [
        "or",
        "y"
      ],
      [
        "Ġtak",
        "en"
      ],
      [
        "d",
        "er"
      ],
      [
        "ĠRa",
        "j"
      ],
      [
        "ar",
        "n"
      ],
      [
        "w",
        "e"
      ],
      [
        "Ġm",
        "at"
      ],
      [
        "ur",
        "n"
      ],
      [
        "Ġl",
        "a"
      ],
      [
        "ĠI",
        "s"
      ],
      [
        "Ġbe",
        "l"
      ],
      [
        "he",
        "re"
      ],
      [
        "Ġon",
        "ly"
      ],
      [
        "Ġre",
        "m"
      ],
      [
        "ic",
        "t"
      ],
      [
        "Ġc",
        "ourt"
      ],
      [
        "ist",
        "an"
      ],
      [
        "r",
        "u"
      ],
      [
        "Ġp",
        "re"
      ],
      [
        "en",
        "g"
      ],
      [
        "Ġs",
        "ay"
      ],
      [
        "ent",
        "s"
      ],
      [
        "Ġe",
        "le"
      ],
      [
        "as",
        "ed"
      ],
      [
        "Ġt",
        "ra"
      ],
      [
        "Ġman",
        "y"
      ],
      [
        "hi",
        "p"
      ],
      [
        "o",
        "b"
      ],
      [
        "w",
        "ay"
      ],
      [
        "Ġs",
        "ome"
      ],
      [
        "Ġre",
        "l"
      ],
      [
        "l",
        "ud"
      ],
      [
        "Ġre",
        "port"
      ],
      [
        "ĠC",
        "hief"
      ],
      [
        "Ġb",
        "l"
      ],
      [
        "Ġth",
        "ree"
      ],
      [
        "Ġbe",
        "ing"
      ],
      [
        "f",
        "ore"
      ],
      [
        "us",
        "e"
      ],
      [
        "c",
        "k"
      ],
      [
        "Ġgo",
        "od"
      ],
      [
        "Ġc",
        "a"
      ],
      [
        "Ġs",
        "he"
      ],
      [
        "Ġt",
        "han"
      ],
      [
        "c",
        "es"
      ],
      [
        "Ġbe",
        "t"
      ],
      [
        "nd",
        "ra"
      ],
      [
        "ĠP",
        "ak"
      ],
      [
        "in",
        "k"
      ],
      [
        "at",
        "her"
      ],
      [
        "n",
        "ess"
      ],
      [
        "e",
        "c"
      ],
      [
        "ou",
        "n"
      ],
      [
        "i",
        "p"
      ],
      [
        "Ġd",
        "ay"
      ],
      [
        "Ġa",
        "ct"
      ],
      [
        "ĠPr",
        "ime"
      ],
      [
        "oll",
        "ow"
      ],
      [
        "f",
        "ul"
      ],
      [
        "Ġinv",
        "est"
      ],
      [
        "ĠA",
        "r"
      ],
      [
        "Ġg",
        "et"
      ],
      [
        "Ġhe",
        "l"
      ],
      [
        "Ġe",
        "ar"
      ],
      [
        "ain",
        "t"
      ],
      [
        "Ġh",
        "ow"
      ],
      [
        "Ġ",
        "if"
      ],
      [
        "Ġk",
        "ill"
      ],
      [
        "it",
        "ies"
      ],
      [
        "m",
        "e"
      ],
      [
        "Ġacc",
        "used"
      ],
      [
        "m",
        "an"
      ],
      [
        "ĠG",
        "and"
      ],
      [
        "Ġlik",
        "e"
      ],
      [
        "Ġse",
        "e"
      ],
      [
        "Ġst",
        "ud"
      ],
      [
        "Ġinc",
        "lud"
      ],
      [
        "re",
        "t"
      ],
      [
        "Ġ",
        "very"
      ],
      [
        "ĠPak",
        "istan"
      ],
      [
        "ĠS",
        "o"
      ],
      [
        "Ġf",
        "e"
      ],
      [
        "Ġf",
        "amil"
      ],
      [
        "Ġm",
        "inister"
      ],
      [
        "Ġe",
        "very"
      ],
      [
        "it",
        "e"
      ],
      [
        "Ġpr",
        "ot"
      ],
      [
        "ter",
        "n"
      ],
      [
        "la",
        "ce"
      ],
      [
        "ĠG",
        "o"
      ],
      [
        "u",
        "res"
      ],
      [
        "Ġde",
        "ath"
      ],
      [
        "p",
        "ur"
      ],
      [
        "ĠJ",
        "eh"
      ],
      [
        "r",
        "an"
      ],
      [
        "Ġis",
        "s"
      ],
      [
        "c",
        "ial"
      ],
      [
        "Ġcom",
        "e"
      ],
      [
        "Ġd",
        "ire"
      ],
      [
        "i",
        "ble"
      ],
      [
        "ur",
        "ing"
      ],
      [
        "ĠGand",
        "hi"
      ],
      [
        "Ġf",
        "l"
      ],
      [
        "Ġsha",
        "ll"
      ],
      [
        "if",
        "f"
      ],
      [
        "ov",
        "ah"
      ],
      [
        "Ġc",
        "ro"
      ],
      [
        "ha",
        "m"
      ],
      [
        "ĠJeh",
        "ovah"
      ],
      [
        "Ġcount",
        "ry"
      ],
      [
        "Ġj",
        "ust"
      ],
      [
        "Ġl",
        "ife"
      ],
      [
        "Ġoff",
        "ic"
      ],
      [
        "Ġth",
        "r"
      ],
      [
        "Ġinj",
        "ured"
      ],
      [
        "Ġwor",
        "ld"
      ],
      [
        "l",
        "es"
      ],
      [
        "Ġhel",
        "p"
      ],
      [
        "Ġme",
        "et"
      ],
      [
        "ut",
        "h"
      ],
      [
        "ĠHow",
        "ever"
      ],
      [
        "v",
        "an"
      ],
      [
        "ĠS",
        "ing"
      ],
      [
        "Ġsu",
        "ch"
      ],
      [
        "al",
        "s"
      ],
      [
        "Ġad",
        "d"
      ],
      [
        "s",
        "el"
      ],
      [
        "ol",
        "le"
      ],
      [
        "Ġtak",
        "e"
      ],
      [
        "um",
        "ar"
      ],
      [
        "Ġc",
        "ent"
      ],
      [
        "Ġhe",
        "re"
      ],
      [
        "is",
        "ion"
      ],
      [
        "um",
        "b"
      ],
      [
        "c",
        "y"
      ],
      [
        "is",
        "ed"
      ],
      [
        "Ġc",
        "han"
      ],
      [
        "c",
        "i"
      ],
      [
        "it",
        "u"
      ],
      [
        "Ġhapp",
        "en"
      ],
      [
        "Ġinvest",
        "ig"
      ],
      [
        "Ġp",
        "ost"
      ],
      [
        "i",
        "x"
      ],
      [
        "n",
        "g"
      ],
      [
        "Ġthe",
        "se"
      ],
      [
        "al",
        "th"
      ],
      [
        "Ġc",
        "ould"
      ],
      [
        "Ġc",
        "ar"
      ],
      [
        "Ġp",
        "lace"
      ],
      [
        "Ġmov",
        "ie"
      ],
      [
        "Ġa",
        "c"
      ],
      [
        "Ġdo",
        "es"
      ],
      [
        "Ġr",
        "ight"
      ],
      [
        "l",
        "ic"
      ],
      [
        "Ġcom",
        "pl"
      ],
      [
        "Ġin",
        "d"
      ],
      [
        "ĠK",
        "o"
      ],
      [
        "Ġdist",
        "rict"
      ],
      [
        "Ġd",
        "iff"
      ],
      [
        "Ġpl",
        "ay"
      ],
      [
        "ĠSing",
        "h"
      ],
      [
        "Ġb",
        "ack"
      ],
      [
        "Ġc",
        "ha"
      ],
      [
        "Ġchild",
        "ren"
      ],
      [
        "ĠC",
        "ourt"
      ],
      [
        "he",
        "s"
      ],
      [
        "Ġcom",
        "m"
      ],
      [
        "k",
        "ed"
      ],
      [
        "Ġto",
        "ok"
      ],
      [
        "ction",
        "s"
      ],
      [
        "at",
        "s"
      ],
      [
        "ĠS",
        "ha"
      ],
      [
        "Ġf",
        "a"
      ],
      [
        "ĠAl",
        "l"
      ],
      [
        "Ġs",
        "oc"
      ],
      [
        "Ġg",
        "iv"
      ],
      [
        "g",
        "et"
      ],
      [
        "Ġbe",
        "fore"
      ],
      [
        "ĠF",
        "or"
      ],
      [
        "Ġ",
        "6"
      ],
      [
        "ĠM",
        "a"
      ],
      [
        "Ġatt",
        "ack"
      ],
      [
        "Ġcon",
        "s"
      ],
      [
        "m",
        "b"
      ],
      [
        "ĠD",
        "el"
      ],
      [
        "Ġbel",
        "ie"
      ],
      [
        "Ġst",
        "art"
      ],
      [
        "Ġw",
        "ell"
      ],
      [
        "w",
        "n"
      ],
      [
        "Ġd",
        "own"
      ],
      [
        "ĠC",
        "om"
      ],
      [
        "y",
        "a"
      ],
      [
        "v",
        "en"
      ],
      [
        "o",
        "ol"
      ],
      [
        "Ġy",
        "ear"
      ],
      [
        "Ġfamil",
        "y"
      ],
      [
        "Ġc",
        "all"
      ],
      [
        "it",
        "ed"
      ],
      [
        "are",
        "ndra"
      ],
      [
        "Ġw",
        "ant"
      ],
      [
        "ow",
        "er"
      ],
      [
        "Ġp",
        "ol"
      ],
      [
        "h",
        "o"
      ],
      [
        "Ġha",
        "nd"
      ],
      [
        "ĠN",
        "arendra"
      ],
      [
        "id",
        "ed"
      ],
      [
        "ĠH",
        "is"
      ],
      [
        "Ġmed",
        "ia"
      ],
      [
        "h",
        "ing"
      ],
      [
        "at",
        "ing"
      ],
      [
        "ĠN",
        "ew"
      ],
      [
        "r",
        "al"
      ],
      [
        "ou",
        "se"
      ],
      [
        "Ġw",
        "ater"
      ],
      [
        "f",
        "t"
      ],
      [
        "Ġf",
        "ollow"
      ],
      [
        "ĠDel",
        "hi"
      ],
      [
        "ĠA",
        "d"
      ],
      [
        "oug",
        "ht"
      ],
      [
        "Ġ1",
        "9"
      ],
      [
        "Ġf",
        "ound"
      ],
      [
        "ĠRa",
        "h"
      ],
      [
        "Ġcon",
        "f"
      ],
      [
        "a",
        "ve"
      ],
      [
        "e",
        "ep"
      ],
      [
        "Ġ",
        "'"
      ],
      [
        "ĠR",
        "am"
      ],
      [
        "m",
        "a"
      ],
      [
        "ter",
        "s"
      ],
      [
        "we",
        "en"
      ],
      [
        "l",
        "ed"
      ],
      [
        "ment",
        "s"
      ],
      [
        "k",
        "s"
      ],
      [
        "or",
        "s"
      ],
      [
        "os",
        "s"
      ],
      [
        "Ġpers",
        "on"
      ],
      [
        "Ġf",
        "our"
      ],
      [
        "Ġbet",
        "ween"
      ],
      [
        "\"\"",
        "\""
      ],
      [
        "an",
        "n"
      ],
      [
        "ut",
        "ion"
      ],
      [
        "Ġpart",
        "y"
      ],
      [
        "Ġres",
        "p"
      ],
      [
        "i",
        "b"
      ],
      [
        "Ġpro",
        "du"
      ],
      [
        "Ġev",
        "en"
      ],
      [
        "Ġp",
        "ass"
      ],
      [
        "Ġthr",
        "ough"
      ],
      [
        "er",
        "t"
      ],
      [
        "et",
        "s"
      ],
      [
        "ĠIt",
        "s"
      ],
      [
        "t",
        "e"
      ],
      [
        "j",
        "ay"
      ],
      [
        "ĠL",
        "ord"
      ],
      [
        "Ġf",
        "ar"
      ],
      [
        "Ġc",
        "hief"
      ],
      [
        "Ġm",
        "em"
      ],
      [
        "Ġto",
        "o"
      ],
      [
        "re",
        "ad"
      ],
      [
        "Ġpro",
        "v"
      ],
      [
        "ir",
        "l"
      ],
      [
        "Ġf",
        "in"
      ],
      [
        "a",
        "ug"
      ],
      [
        "Ġw",
        "ay"
      ],
      [
        "g",
        "an"
      ],
      [
        "u",
        "ch"
      ],
      [
        "Ġm",
        "ake"
      ],
      [
        "Ġl",
        "oc"
      ],
      [
        "Ġde",
        "m"
      ],
      [
        "Ġm",
        "ost"
      ],
      [
        "Ġkill",
        "ed"
      ],
      [
        "r",
        "ong"
      ],
      [
        "Ġte",
        "am"
      ],
      [
        "Ġl",
        "ater"
      ],
      [
        "Ġw",
        "on"
      ],
      [
        "Ġdis",
        "c"
      ],
      [
        "Ġre",
        "t"
      ],
      [
        "th",
        "ing"
      ],
      [
        "t",
        "ing"
      ],
      [
        "Ġsu",
        "pp"
      ],
      [
        "ĠR",
        "e"
      ],
      [
        "ad",
        "esh"
      ],
      [
        "in",
        "s"
      ],
      [
        "iss",
        "ion"
      ],
      [
        "Ġsu",
        "b"
      ],
      [
        "Ġc",
        "r"
      ],
      [
        "ĠS",
        "h"
      ],
      [
        "Ġcompl",
        "aint"
      ],
      [
        "ĠO",
        "n"
      ],
      [
        "Ġ",
        "ent"
      ],
      [
        "ĠC",
        "ha"
      ],
      [
        "res",
        "ident"
      ],
      [
        "ri",
        "v"
      ],
      [
        "00",
        "0"
      ],
      [
        "ant",
        "ha"
      ],
      [
        "ar",
        "s"
      ],
      [
        "Ġd",
        "ied"
      ],
      [
        "t",
        "y"
      ],
      [
        "Ġlead",
        "er"
      ],
      [
        "ĠRah",
        "ul"
      ],
      [
        "ĠTh",
        "ir"
      ],
      [
        "Ġc",
        "o"
      ],
      [
        "Ġt",
        "er"
      ],
      [
        "Ġ",
        "7"
      ],
      [
        "Ġsoc",
        "ial"
      ],
      [
        "Ġm",
        "ay"
      ],
      [
        "r",
        "am"
      ],
      [
        "Ġs",
        "et"
      ],
      [
        "Ġl",
        "ook"
      ],
      [
        "Ġan",
        "n"
      ],
      [
        "Ġs",
        "m"
      ],
      [
        "Ġg",
        "u"
      ],
      [
        "Ġcro",
        "re"
      ],
      [
        ")",
        ","
      ],
      [
        "Ġd",
        "es"
      ],
      [
        "Ġpres",
        "ident"
      ],
      [
        "Ġin",
        "form"
      ],
      [
        "Ġwh",
        "ile"
      ],
      [
        "ĠA",
        "b"
      ],
      [
        "ĠM",
        "o"
      ],
      [
        "Ġ1",
        "0"
      ],
      [
        "Ġas",
        "s"
      ],
      [
        "f",
        "e"
      ],
      [
        "ri",
        "b"
      ],
      [
        "ĠM",
        "al"
      ],
      [
        "ĠD",
        "e"
      ],
      [
        "ain",
        "ed"
      ],
      [
        "Ġser",
        "v"
      ],
      [
        "u",
        "van"
      ],
      [
        "ret",
        "ary"
      ],
      [
        "ak",
        "h"
      ],
      [
        "os",
        "ition"
      ],
      [
        "Ġre",
        "le"
      ],
      [
        "iv",
        "es"
      ],
      [
        "mit",
        "ted"
      ],
      [
        "ĠThe",
        "n"
      ],
      [
        "ĠD",
        "o"
      ],
      [
        "Ġc",
        "ame"
      ],
      [
        "Ġqu",
        "est"
      ],
      [
        "Ġsec",
        "ond"
      ],
      [
        "Ġm",
        "on"
      ],
      [
        "Ġd",
        "uring"
      ],
      [
        "je",
        "ct"
      ],
      [
        "Ġwom",
        "en"
      ],
      [
        "ĠP",
        "resident"
      ],
      [
        "Ġreg",
        "ist"
      ],
      [
        "us",
        "s"
      ],
      [
        "r",
        "ist"
      ],
      [
        "Ġ20",
        "1"
      ],
      [
        "ĠT",
        "r"
      ],
      [
        "pur",
        "am"
      ],
      [
        "Ġr",
        "un"
      ],
      [
        "ĠK",
        "umar"
      ],
      [
        "x",
        "t"
      ],
      [
        "oin",
        "t"
      ],
      [
        "Ġal",
        "le"
      ],
      [
        "Ġcont",
        "in"
      ],
      [
        "Ġ",
        "8"
      ],
      [
        "ĠV",
        "i"
      ],
      [
        "ĠThir",
        "uvan"
      ],
      [
        "o",
        "ot"
      ],
      [
        "Ġex",
        "am"
      ],
      [
        "antha",
        "puram"
      ],
      [
        "ĠS",
        "ab"
      ],
      [
        "pe",
        "ct"
      ],
      [
        "Ġn",
        "um"
      ],
      [
        "Ġam",
        "ong"
      ],
      [
        "ri",
        "ed"
      ],
      [
        "u",
        "al"
      ],
      [
        "Ġf",
        "ather"
      ],
      [
        "Ġl",
        "ast"
      ],
      [
        "ble",
        "m"
      ],
      [
        "it",
        "s"
      ],
      [
        "ĠThiruvan",
        "anthapuram"
      ],
      [
        "Ġy",
        "et"
      ],
      [
        "Ġpres",
        "ent"
      ],
      [
        "d",
        "ay"
      ],
      [
        "n",
        "ing"
      ],
      [
        "Ġg",
        "irl"
      ],
      [
        "os",
        "ed"
      ],
      [
        "as",
        "es"
      ],
      [
        "v",
        "es"
      ],
      [
        "at",
        "a"
      ],
      [
        "Ġs",
        "ent"
      ],
      [
        "Ġpol",
        "it"
      ],
      [
        "Ġo",
        "b"
      ],
      [
        "ĠS",
        "up"
      ],
      [
        "Ġdiff",
        "ere"
      ],
      [
        "Ġa",
        "v"
      ],
      [
        "Ġcon",
        "st"
      ],
      [
        "ĠI",
        "f"
      ],
      [
        "Ġw",
        "here"
      ],
      [
        "Ġmeet",
        "ing"
      ],
      [
        "Ġgiv",
        "en"
      ],
      [
        "Ġo",
        "p"
      ],
      [
        "Ġgo",
        "ing"
      ],
      [
        "Ġa",
        "ctor"
      ],
      [
        "Ġmat",
        "ter"
      ],
      [
        "Ġm",
        "ar"
      ],
      [
        "Ġoffic",
        "ial"
      ],
      [
        "Ġpro",
        "blem"
      ],
      [
        "Ġh",
        "ome"
      ],
      [
        "ĠSt",
        "ate"
      ],
      [
        "Ġpers",
        "ons"
      ],
      [
        "Ġs",
        "ays"
      ],
      [
        "Ġregist",
        "ered"
      ],
      [
        "Ġa",
        "way"
      ],
      [
        "Ġp",
        "h"
      ],
      [
        "ĠM",
        "e"
      ],
      [
        "Ġinvestig",
        "ation"
      ],
      [
        "Ġne",
        "ver"
      ],
      [
        "Ġo",
        "pp"
      ],
      [
        "Ġth",
        "ings"
      ],
      [
        "ĠCh",
        "rist"
      ],
      [
        "Ġun",
        "t"
      ],
      [
        "Ġv",
        "is"
      ],
      [
        "Ġa",
        "ction"
      ],
      [
        "ĠT",
        "amil"
      ],
      [
        "ist",
        "s"
      ],
      [
        "u",
        "k"
      ],
      [
        "at",
        "i"
      ],
      [
        "Ġe",
        "nd"
      ],
      [
        "Ġh",
        "ouse"
      ],
      [
        "ant",
        "s"
      ],
      [
        "Ġ",
        "ve"
      ],
      [
        "ch",
        "ool"
      ],
      [
        "Ġreg",
        "ard"
      ],
      [
        "g",
        "es"
      ],
      [
        "Ġ",
        "["
      ],
      [
        "vel",
        "op"
      ],
      [
        "Ġl",
        "ove"
      ],
      [
        "ĠU",
        "S"
      ],
      [
        "Ġs",
        "ame"
      ],
      [
        "Ġre",
        "ce"
      ],
      [
        "Ġb",
        "u"
      ],
      [
        "Ġc",
        "or"
      ],
      [
        "Ġ1",
        "2"
      ],
      [
        "Ġre",
        "p"
      ],
      [
        "Ġg",
        "ot"
      ],
      [
        "a",
        "use"
      ],
      [
        "ur",
        "re"
      ],
      [
        "s",
        "s"
      ],
      [
        "ĠW",
        "hy"
      ],
      [
        "ot",
        "e"
      ],
      [
        "Ġd",
        "ont"
      ],
      [
        "a",
        "ct"
      ],
      [
        "ĠM",
        "umb"
      ],
      [
        "u",
        "ed"
      ],
      [
        "Ġd",
        "et"
      ],
      [
        "ĠA",
        "t"
      ],
      [
        "a",
        "w"
      ],
      [
        "Ġc",
        "le"
      ],
      [
        "ri",
        "end"
      ],
      [
        "Ġnum",
        "ber"
      ],
      [
        "Ġprot",
        "est"
      ],
      [
        "Ġb",
        "oth"
      ],
      [
        "Ġs",
        "on"
      ],
      [
        "ĠM",
        "y"
      ],
      [
        "Ġh",
        "igh"
      ],
      [
        "Ġhe",
        "ad"
      ],
      [
        "Ġb",
        "ody"
      ],
      [
        "k",
        "ar"
      ],
      [
        "Ġw",
        "rit"
      ],
      [
        "Ġe",
        "ach"
      ],
      [
        "ĠMumb",
        "ai"
      ],
      [
        "Ġw",
        "in"
      ],
      [
        "Ġ1",
        "5"
      ],
      [
        "in",
        "ist"
      ],
      [
        "o",
        "h"
      ],
      [
        "Ġex",
        "p"
      ],
      [
        "iv",
        "ed"
      ],
      [
        "im",
        "es"
      ],
      [
        "Ġla",
        "w"
      ],
      [
        "Ġm",
        "ust"
      ],
      [
        "Ġin",
        "ter"
      ],
      [
        "Ġim",
        "p"
      ],
      [
        "in",
        "ce"
      ],
      [
        "Ġl",
        "ong"
      ],
      [
        "Ġl",
        "akh"
      ],
      [
        "Ġdec",
        "ision"
      ],
      [
        "o",
        "or"
      ],
      [
        "ic",
        "s"
      ],
      [
        "ie",
        "w"
      ],
      [
        "Ġother",
        "s"
      ],
      [
        "a",
        "ir"
      ],
      [
        "e",
        "y"
      ],
      [
        "u",
        "es"
      ],
      [
        "ak",
        "ing"
      ],
      [
        "ĠW",
        "or"
      ],
      [
        ")",
        "."
      ],
      [
        "Ġle",
        "t"
      ],
      [
        "en",
        "eral"
      ],
      [
        "Ġm",
        "ur"
      ],
      [
        "Ġhe",
        "alth"
      ],
      [
        "Ġd",
        "one"
      ],
      [
        "ĠPr",
        "adesh"
      ],
      [
        "Ġse",
        "ats"
      ],
      [
        "ul",
        "ar"
      ],
      [
        "ĠVi",
        "jay"
      ],
      [
        "ol",
        "og"
      ],
      [
        "Ġb",
        "us"
      ],
      [
        "Ġm",
        "other"
      ],
      [
        "Ġc",
        "am"
      ],
      [
        "p",
        "s"
      ],
      [
        "ĠCh",
        "in"
      ],
      [
        "B",
        "I"
      ],
      [
        "l",
        "and"
      ],
      [
        "Ġann",
        "oun"
      ],
      [
        "Ġo",
        "wn"
      ],
      [
        "Ġhe",
        "av"
      ],
      [
        "c",
        "ess"
      ],
      [
        "ĠH",
        "ind"
      ],
      [
        "ĠL",
        "e"
      ],
      [
        "re",
        "me"
      ],
      [
        "Ġreport",
        "ed"
      ],
      [
        "olle",
        "ge"
      ],
      [
        "c",
        "hed"
      ],
      [
        "Ġim",
        "port"
      ],
      [
        "Ġre",
        "ad"
      ],
      [
        "ĠGo",
        "vernment"
      ],
      [
        "Ġre",
        "f"
      ],
      [
        "es",
        "us"
      ],
      [
        "Ġcon",
        "ne"
      ],
      [
        "t",
        "en"
      ],
      [
        "Ġs",
        "ur"
      ],
      [
        "il",
        "ity"
      ],
      [
        "ĠO",
        "ne"
      ],
      [
        "ĠP",
        "ar"
      ],
      [
        "Ġg",
        "reat"
      ],
      [
        "a",
        "pp"
      ],
      [
        "ub",
        "lic"
      ],
      [
        "ĠT",
        "wo"
      ],
      [
        "ĠP",
        "ro"
      ],
      [
        "m",
        "ir"
      ],
      [
        "at",
        "ive"
      ],
      [
        "Ġd",
        "ays"
      ],
      [
        "ĠE",
        "x"
      ],
      [
        "Ġear",
        "th"
      ],
      [
        "Ġf",
        "ive"
      ],
      [
        "Ġm",
        "uch"
      ],
      [
        "ff",
        "e"
      ],
      [
        "Ġha",
        "r"
      ],
      [
        "a",
        "x"
      ],
      [
        "ĠP",
        "e"
      ],
      [
        ".",
        "\"\"\""
      ],
      [
        "if",
        "ic"
      ],
      [
        "Ġf",
        "ire"
      ],
      [
        "Ġc",
        "har"
      ],
      [
        "ce",
        "pt"
      ],
      [
        "an",
        "a"
      ],
      [
        "ĠJ",
        "esus"
      ],
      [
        "ĠMan",
        "y"
      ],
      [
        "is",
        "m"
      ],
      [
        "Ġin",
        "st"
      ],
      [
        "Ġstart",
        "ed"
      ],
      [
        "ric",
        "k"
      ],
      [
        "Ġmon",
        "th"
      ],
      [
        "ĠSab",
        "ha"
      ],
      [
        "as",
        "on"
      ],
      [
        "Ġw",
        "ife"
      ],
      [
        "Ġp",
        "ower"
      ],
      [
        "b",
        "ers"
      ],
      [
        "p",
        "art"
      ],
      [
        "Ġst",
        "ill"
      ],
      [
        "Ġhappen",
        "ed"
      ],
      [
        "ĠW",
        "hen"
      ],
      [
        "Ġlead",
        "ers"
      ],
      [
        "ĠP",
        "M"
      ],
      [
        "Ġapp",
        "ro"
      ],
      [
        "Ġt",
        "em"
      ],
      [
        "Ġtr",
        "ans"
      ],
      [
        "Ġas",
        "ked"
      ],
      [
        "Ġg",
        "ive"
      ],
      [
        "Ġfor",
        "mer"
      ],
      [
        "Ġsupp",
        "ort"
      ],
      [
        "Ġt",
        "al"
      ],
      [
        "ĠC",
        "P"
      ],
      [
        "Ġin",
        "s"
      ],
      [
        "il",
        "d"
      ],
      [
        "om",
        "et"
      ],
      [
        "ur",
        "al"
      ],
      [
        "i",
        "red"
      ],
      [
        "Ġth",
        "ink"
      ],
      [
        "k",
        "ing"
      ],
      [
        "m",
        "ission"
      ],
      [
        "Ġs",
        "y"
      ],
      [
        "se",
        "mb"
      ],
      [
        "ag",
        "es"
      ],
      [
        "Ġinclud",
        "ing"
      ],
      [
        "Ġl",
        "and"
      ],
      [
        "Ġwom",
        "an"
      ],
      [
        "Ġm",
        "en"
      ],
      [
        "Ġfil",
        "ed"
      ],
      [
        "Ġw",
        "ent"
      ],
      [
        "sel",
        "f"
      ],
      [
        "Ġe",
        "m"
      ],
      [
        "e",
        "ed"
      ],
      [
        "i",
        "vers"
      ],
      [
        "ĠK",
        "ash"
      ],
      [
        "ĠJ",
        "ust"
      ],
      [
        "Ġv",
        "ar"
      ],
      [
        "id",
        "es"
      ],
      [
        "Ġ",
        "9"
      ],
      [
        "ic",
        "es"
      ],
      [
        "Ġdiffere",
        "nt"
      ],
      [
        "Ġn",
        "ame"
      ],
      [
        "Ġsh",
        "ow"
      ],
      [
        "ou",
        "th"
      ],
      [
        "Ġhe",
        "ld"
      ],
      [
        "g",
        "est"
      ],
      [
        "2",
        "0"
      ],
      [
        "b",
        "e"
      ],
      [
        "um",
        "p"
      ],
      [
        "Ġt",
        "urn"
      ],
      [
        "Ġan",
        "other"
      ],
      [
        "Ġf",
        "riend"
      ],
      [
        "ent",
        "ly"
      ],
      [
        "ĠS",
        "e"
      ],
      [
        "ĠThat",
        "s"
      ],
      [
        "Ġv",
        "ide"
      ],
      [
        "l",
        "im"
      ],
      [
        "ĠA",
        "fter"
      ],
      [
        "Ġb",
        "ig"
      ],
      [
        "one",
        "y"
      ],
      [
        "Ġb",
        "en"
      ],
      [
        "v",
        "ent"
      ],
      [
        "ri",
        "es"
      ],
      [
        "Ġus",
        "ed"
      ],
      [
        "Ġiss",
        "ue"
      ],
      [
        "ĠA",
        "m"
      ],
      [
        "ĠKash",
        "mir"
      ],
      [
        "ĠSup",
        "reme"
      ],
      [
        "Ġc",
        "re"
      ],
      [
        "Ġs",
        "itu"
      ],
      [
        "ĠN",
        "ational"
      ],
      [
        "t",
        "le"
      ],
      [
        "ĠM",
        "us"
      ],
      [
        "Ġs",
        "ign"
      ],
      [
        "Ġb",
        "ook"
      ],
      [
        "Ġso",
        "on"
      ],
      [
        "ĠS",
        "ec"
      ],
      [
        "ĠE",
        "ng"
      ],
      [
        "c",
        "er"
      ],
      [
        "are",
        "nt"
      ],
      [
        "la",
        "im"
      ],
      [
        "Ġop",
        "en"
      ],
      [
        "Ġm",
        "ark"
      ],
      [
        "Ġstud",
        "ents"
      ],
      [
        "Ġh",
        "um"
      ],
      [
        "ĠM",
        "ed"
      ],
      [
        "od",
        "e"
      ],
      [
        "Ġinc",
        "re"
      ],
      [
        "ĠA",
        "ct"
      ],
      [
        "semb",
        "ly"
      ],
      [
        "ĠC",
        "ent"
      ],
      [
        "Ġ",
        "Z"
      ],
      [
        "Ġw",
        "ick"
      ],
      [
        "aug",
        "h"
      ],
      [
        "pe",
        "nd"
      ],
      [
        "Ġsp",
        "ot"
      ],
      [
        "ir",
        "d"
      ],
      [
        "Ġd",
        "r"
      ],
      [
        "pp",
        "ed"
      ],
      [
        "ra",
        "ct"
      ],
      [
        "r",
        "or"
      ],
      [
        "Ġst",
        "and"
      ],
      [
        "is",
        "hed"
      ],
      [
        "Ġcon",
        "d"
      ],
      [
        "Ġl",
        "ar"
      ],
      [
        "a",
        "red"
      ],
      [
        "Ġquest",
        "ion"
      ],
      [
        "ur",
        "ity"
      ],
      [
        "Ġret",
        "urn"
      ],
      [
        "r",
        "ol"
      ],
      [
        "Ġav",
        "ail"
      ],
      [
        "al",
        "e"
      ],
      [
        "er",
        "ing"
      ],
      [
        "ĠE",
        "very"
      ],
      [
        "Ġde",
        "ad"
      ],
      [
        "Ġre",
        "qu"
      ],
      [
        "Ġde",
        "velop"
      ],
      [
        "Ġo",
        "cc"
      ],
      [
        "c",
        "on"
      ],
      [
        "Ġf",
        "ore"
      ],
      [
        "Ġyear",
        "s"
      ],
      [
        "Ġex",
        "t"
      ],
      [
        "Ġne",
        "xt"
      ],
      [
        "eng",
        "al"
      ],
      [
        "Ġb",
        "est"
      ],
      [
        "Ġmur",
        "der"
      ],
      [
        ",",
        "\"\""
      ],
      [
        "am",
        "ent"
      ],
      [
        "ur",
        "ther"
      ],
      [
        "it",
        "ness"
      ],
      [
        "ĠSha",
        "h"
      ],
      [
        "el",
        "s"
      ],
      [
        "n",
        "ot"
      ],
      [
        "Ġd",
        "ue"
      ],
      [
        "Ġmem",
        "bers"
      ],
      [
        "Ġhe",
        "art"
      ],
      [
        "ac",
        "hed"
      ],
      [
        "urre",
        "nt"
      ],
      [
        "if",
        "ied"
      ],
      [
        "Ġs",
        "chool"
      ],
      [
        "ĠL",
        "ok"
      ],
      [
        "ĠB",
        "engal"
      ],
      [
        "Ġf",
        "ac"
      ],
      [
        "Ġp",
        "rom"
      ],
      [
        "li",
        "er"
      ],
      [
        "w",
        "ays"
      ],
      [
        "Ġv",
        "ir"
      ],
      [
        "Ġbelie",
        "ve"
      ],
      [
        "b",
        "ody"
      ],
      [
        "iz",
        "ed"
      ],
      [
        "n",
        "a"
      ],
      [
        "Ġwor",
        "d"
      ],
      [
        "ĠC",
        "hen"
      ],
      [
        "s",
        "w"
      ],
      [
        "Ġd",
        "augh"
      ],
      [
        "Ġcall",
        "ed"
      ],
      [
        "u",
        "c"
      ],
      [
        "v",
        "i"
      ],
      [
        "aj",
        "or"
      ],
      [
        "h",
        "ic"
      ],
      [
        "ĠUn",
        "ion"
      ],
      [
        "ĠW",
        "ho"
      ],
      [
        "Ġbec",
        "ause"
      ],
      [
        "ĠB",
        "ible"
      ],
      [
        "ĠWor",
        "ld"
      ],
      [
        "al",
        "a"
      ],
      [
        "Ġb",
        "o"
      ],
      [
        "Ġor",
        "der"
      ],
      [
        "at",
        "ely"
      ],
      [
        "T",
        "he"
      ],
      [
        "Ġc",
        "h"
      ],
      [
        "Ġpro",
        "g"
      ],
      [
        "Ġd",
        "on"
      ],
      [
        "Ġc",
        "ases"
      ],
      [
        "ĠB",
        "oth"
      ],
      [
        "Ġimport",
        "ant"
      ],
      [
        "ut",
        "e"
      ],
      [
        "an",
        "y"
      ],
      [
        "Ġg",
        "l"
      ],
      [
        "hil",
        "e"
      ],
      [
        "end",
        "ed"
      ],
      [
        "a",
        "z"
      ],
      [
        "b",
        "ook"
      ],
      [
        "ad",
        "u"
      ],
      [
        "Ġ1",
        "1"
      ],
      [
        "Ġbe",
        "g"
      ],
      [
        "Ġt",
        "reat"
      ],
      [
        "et",
        "h"
      ],
      [
        "Ġsec",
        "retary"
      ],
      [
        "uth",
        "or"
      ],
      [
        "Ġcom",
        "ple"
      ],
      [
        "Ġs",
        "ix"
      ],
      [
        "ord",
        "ing"
      ],
      [
        "Ġnew",
        "s"
      ],
      [
        "Ġne",
        "ar"
      ],
      [
        "ĠJ",
        "am"
      ],
      [
        "Ġdem",
        "and"
      ],
      [
        "Ġro",
        "ad"
      ],
      [
        "ĠT",
        "e"
      ],
      [
        "ha",
        "l"
      ],
      [
        "Ġp",
        "le"
      ],
      [
        "ĠH",
        "igh"
      ],
      [
        "Ġcan",
        "not"
      ],
      [
        "Ġbr",
        "other"
      ],
      [
        "Ġconne",
        "ction"
      ],
      [
        "Ġall",
        "ow"
      ],
      [
        "at",
        "ch"
      ],
      [
        "as",
        "ht"
      ],
      [
        "ĠM",
        "ad"
      ],
      [
        "Ġl",
        "ist"
      ],
      [
        "ĠG",
        "u"
      ],
      [
        "Ġve",
        "hic"
      ],
      [
        "ĠC",
        "BI"
      ],
      [
        "Ġn",
        "ow"
      ],
      [
        "ĠI",
        "m"
      ],
      [
        "ĠChen",
        "n"
      ],
      [
        "Ġnot",
        "hing"
      ],
      [
        "Ġs",
        "im"
      ],
      [
        "Ġp",
        "oss"
      ],
      [
        "i",
        "or"
      ],
      [
        "in",
        "es"
      ],
      [
        "op",
        "e"
      ],
      [
        "Ġf",
        "ew"
      ],
      [
        "hi",
        "k"
      ],
      [
        "Ġl",
        "ot"
      ],
      [
        "oc",
        "k"
      ],
      [
        "al",
        "am"
      ],
      [
        "Ġ",
        "ed"
      ],
      [
        "Ġ1",
        "4"
      ],
      [
        "w",
        "ar"
      ],
      [
        "ĠS",
        "ome"
      ],
      [
        "read",
        "y"
      ],
      [
        "Ġa",
        "ir"
      ],
      [
        "Ġse",
        "ver"
      ],
      [
        "Ġtr",
        "uth"
      ],
      [
        "Ġvide",
        "o"
      ],
      [
        "Ġdire",
        "cted"
      ],
      [
        "Ġt",
        "est"
      ],
      [
        "Ġup",
        "on"
      ],
      [
        "ace",
        "book"
      ],
      [
        "Ġ2",
        "00"
      ],
      [
        "ic",
        "ip"
      ],
      [
        "Ġla",
        "un"
      ],
      [
        "Ġl",
        "it"
      ],
      [
        "Ġc",
        "laim"
      ],
      [
        "st",
        "and"
      ],
      [
        "Ġfor",
        "m"
      ],
      [
        "Ġd",
        "el"
      ],
      [
        "arent",
        "s"
      ],
      [
        "ar",
        "ch"
      ],
      [
        "Ġrele",
        "ased"
      ],
      [
        "ang",
        "u"
      ],
      [
        "pl",
        "oy"
      ],
      [
        "Ġacc",
        "ident"
      ],
      [
        "and",
        "id"
      ],
      [
        "Ġare",
        "a"
      ],
      [
        "Ġsever",
        "al"
      ],
      [
        "Ġto",
        "ld"
      ],
      [
        "ain",
        "s"
      ],
      [
        "ff",
        "ic"
      ],
      [
        "ĠThe",
        "se"
      ],
      [
        "t",
        "s"
      ],
      [
        "el",
        "f"
      ],
      [
        "Ġs",
        "l"
      ],
      [
        "ar",
        "ay"
      ],
      [
        "ĠF",
        "acebook"
      ],
      [
        "Ġbec",
        "ome"
      ],
      [
        "Ġro",
        "le"
      ],
      [
        "v",
        "ing"
      ],
      [
        "m",
        "en"
      ],
      [
        "Ġal",
        "ready"
      ],
      [
        "a",
        "it"
      ],
      [
        "i",
        "ol"
      ],
      [
        "Ġser",
        "ious"
      ],
      [
        "Ġar",
        "ound"
      ],
      [
        "ĠK",
        "han"
      ],
      [
        "ak",
        "a"
      ],
      [
        "i",
        "et"
      ],
      [
        "Ġsitu",
        "ation"
      ],
      [
        "Ġs",
        "us"
      ],
      [
        "en",
        "cy"
      ],
      [
        "Ġf",
        "ul"
      ],
      [
        "or",
        "n"
      ],
      [
        "Ġre",
        "st"
      ],
      [
        "Ġele",
        "ctions"
      ],
      [
        "Ġp",
        "et"
      ],
      [
        "il",
        "y"
      ],
      [
        "asht",
        "ra"
      ],
      [
        "in",
        "ess"
      ],
      [
        "pe",
        "cted"
      ],
      [
        "Ġj",
        "ud"
      ],
      [
        "Ġp",
        "ut"
      ],
      [
        "Ġv",
        "iol"
      ],
      [
        "Ġavail",
        "able"
      ],
      [
        "Ġan",
        "sw"
      ],
      [
        "L",
        "A"
      ],
      [
        "ĠS",
        "har"
      ],
      [
        "Ġw",
        "rong"
      ],
      [
        "ĠB",
        "ank"
      ],
      [
        "Ġcle",
        "ar"
      ],
      [
        "Ġf",
        "ind"
      ],
      [
        "Ġfa",
        "ith"
      ],
      [
        "ĠS",
        "a"
      ],
      [
        "Ġ1",
        "8"
      ],
      [
        "Ġm",
        "oney"
      ],
      [
        "Ġbe",
        "h"
      ],
      [
        "Ġ2",
        "5"
      ],
      [
        "ĠChrist",
        "ian"
      ],
      [
        "Ġspe",
        "cial"
      ],
      [
        "ward",
        "s"
      ],
      [
        "Ġrun",
        "s"
      ],
      [
        "ro",
        "ss"
      ],
      [
        "ĠK",
        "arn"
      ],
      [
        "m",
        "y"
      ],
      [
        "ĠChin",
        "a"
      ],
      [
        "at",
        "ure"
      ],
      [
        "ĠT",
        "o"
      ],
      [
        "Ġalle",
        "ged"
      ],
      [
        "Ġm",
        "ajor"
      ],
      [
        "inist",
        "ry"
      ],
      [
        "ĠN",
        "ot"
      ],
      [
        "Ġany",
        "thing"
      ],
      [
        "Ġc",
        "andid"
      ],
      [
        "mit",
        "te"
      ],
      [
        "Ġf",
        "r"
      ],
      [
        "Ġse",
        "en"
      ],
      [
        "an",
        "i"
      ],
      [
        "ĠMa",
        "har"
      ],
      [
        "ĠS",
        "en"
      ],
      [
        "Ġc",
        "ity"
      ],
      [
        "Ġc",
        "ol"
      ],
      [
        "tern",
        "ational"
      ],
      [
        "Ġpolit",
        "ical"
      ],
      [
        "ĠC",
        "on"
      ],
      [
        "Ġc",
        "urrent"
      ],
      [
        "i",
        "ence"
      ],
      [
        "g",
        "r"
      ],
      [
        "Ġdid",
        "nt"
      ],
      [
        "iv",
        "ing"
      ],
      [
        "it",
        "iz"
      ],
      [
        "Ġor",
        "gan"
      ],
      [
        "Ġex",
        "per"
      ],
      [
        "ĠA",
        "mit"
      ],
      [
        "Ġwh",
        "y"
      ],
      [
        "m",
        "on"
      ],
      [
        "Ġn",
        "or"
      ],
      [
        "Ġp",
        "riv"
      ],
      [
        "ur",
        "y"
      ],
      [
        "Ġ",
        "Q"
      ],
      [
        "at",
        "aka"
      ],
      [
        "Ġre",
        "al"
      ],
      [
        "Ġp",
        "oint"
      ],
      [
        "Ġcon",
        "du"
      ],
      [
        "Ġto",
        "get"
      ],
      [
        "Ġtoget",
        "her"
      ],
      [
        "Ġsp",
        "ir"
      ],
      [
        "Ġrel",
        "ig"
      ],
      [
        "Ġrece",
        "ived"
      ],
      [
        "Ġc",
        "rick"
      ],
      [
        "Ġn",
        "ational"
      ],
      [
        "Ġ1",
        "3"
      ],
      [
        "ĠA",
        "ust"
      ],
      [
        "Ġk",
        "eep"
      ],
      [
        "Ġl",
        "ost"
      ],
      [
        "ĠMahar",
        "ashtra"
      ],
      [
        "Ġt",
        "imes"
      ],
      [
        "e",
        "k"
      ],
      [
        "c",
        "om"
      ],
      [
        "ĠD",
        "ay"
      ],
      [
        "Ġc",
        "are"
      ],
      [
        "Ġp",
        "ur"
      ],
      [
        "us",
        "h"
      ],
      [
        "con",
        "om"
      ],
      [
        "Ġres",
        "ult"
      ],
      [
        "Ġth",
        "ing"
      ],
      [
        "Ġra",
        "in"
      ],
      [
        "ĠA",
        "f"
      ],
      [
        "Ġp",
        "ublic"
      ],
      [
        "Ġvis",
        "it"
      ],
      [
        "Ġsu",
        "cc"
      ],
      [
        "ĠKarn",
        "ataka"
      ],
      [
        "Ġle",
        "ft"
      ],
      [
        "sel",
        "ves"
      ],
      [
        "Ġs",
        "k"
      ],
      [
        "e",
        "al"
      ],
      [
        "Ġde",
        "f"
      ],
      [
        "ri",
        "ver"
      ],
      [
        "Ġf",
        "urther"
      ],
      [
        "Ġh",
        "ist"
      ],
      [
        "ert",
        "ain"
      ],
      [
        "Ġdisc",
        "uss"
      ],
      [
        "ry",
        "ing"
      ],
      [
        "m",
        "i"
      ],
      [
        "Ġs",
        "omet"
      ],
      [
        "in",
        "ation"
      ],
      [
        "Ġtreat",
        "ment"
      ],
      [
        "r",
        "is"
      ],
      [
        "Ġcons",
        "id"
      ],
      [
        "Ġc",
        "rit"
      ],
      [
        "ĠH",
        "im"
      ],
      [
        "mitte",
        "e"
      ],
      [
        "id",
        "ence"
      ],
      [
        "med",
        "i"
      ],
      [
        "p",
        "h"
      ],
      [
        "Ġf",
        "ood"
      ],
      [
        "in",
        "ed"
      ],
      [
        "Ġinform",
        "ed"
      ],
      [
        "Ġt",
        "re"
      ],
      [
        "em",
        "ber"
      ],
      [
        "Ġen",
        "g"
      ],
      [
        "ĠM",
        "LA"
      ],
      [
        "ivers",
        "ity"
      ],
      [
        "Ġunt",
        "o"
      ],
      [
        "Ġp",
        "arents"
      ],
      [
        "Ġal",
        "ong"
      ],
      [
        "ctor",
        "s"
      ],
      [
        "c",
        "ha"
      ],
      [
        "ag",
        "ed"
      ],
      [
        "Ġannoun",
        "ced"
      ],
      [
        "ĠP",
        "art"
      ],
      [
        "ĠAust",
        "ral"
      ],
      [
        "Ġs",
        "ing"
      ],
      [
        "re",
        "en"
      ],
      [
        "Ġd",
        "am"
      ],
      [
        "ail",
        "s"
      ],
      [
        "Ġb",
        "re"
      ],
      [
        "ĠTh",
        "ree"
      ],
      [
        "ĠS",
        "hi"
      ],
      [
        "ent",
        "ion"
      ],
      [
        "ch",
        "i"
      ],
      [
        "st",
        "em"
      ],
      [
        "el",
        "ie"
      ],
      [
        "b",
        "and"
      ],
      [
        "Ġst",
        "ates"
      ],
      [
        "Ġtr",
        "ue"
      ],
      [
        "d",
        "om"
      ],
      [
        "Ġs",
        "ince"
      ],
      [
        "Ġs",
        "w"
      ],
      [
        "ĠO",
        "ur"
      ],
      [
        "ar",
        "at"
      ],
      [
        "ou",
        "p"
      ],
      [
        "Ġdaugh",
        "ter"
      ],
      [
        "u",
        "ck"
      ],
      [
        "Ġad",
        "mitted"
      ],
      [
        "it",
        "her"
      ],
      [
        "t",
        "he"
      ],
      [
        "ĠMed",
        "ical"
      ],
      [
        "Ġd",
        "en"
      ],
      [
        "Ġadd",
        "ed"
      ],
      [
        "Ġchan",
        "ge"
      ],
      [
        "Ġm",
        "il"
      ],
      [
        "r",
        "ish"
      ],
      [
        "Ġv",
        "ict"
      ],
      [
        "t",
        "al"
      ],
      [
        "Ġsu",
        "ff"
      ],
      [
        "Ġth",
        "ird"
      ],
      [
        "Ġf",
        "un"
      ],
      [
        "Ġfilm",
        "s"
      ],
      [
        "Ġo",
        "per"
      ],
      [
        "ĠC",
        "ollege"
      ],
      [
        "ĠH",
        "ere"
      ],
      [
        "Ġj",
        "oin"
      ],
      [
        "ĠR",
        "es"
      ],
      [
        "Ġ1",
        "6"
      ],
      [
        "ĠGod",
        "s"
      ],
      [
        "n",
        "ce"
      ],
      [
        "Ġm",
        "ight"
      ],
      [
        "er",
        "v"
      ],
      [
        "ĠMus",
        "lim"
      ],
      [
        "Ġfollow",
        "ing"
      ],
      [
        "n",
        "er"
      ],
      [
        "Ġad",
        "v"
      ],
      [
        "ere",
        "st"
      ],
      [
        "ĠT",
        "est"
      ],
      [
        "Ġd",
        "est"
      ],
      [
        "Ġle",
        "g"
      ],
      [
        "Ġre",
        "ason"
      ],
      [
        "Ġpro",
        "ject"
      ],
      [
        "Ġe",
        "y"
      ],
      [
        "Ġus",
        "e"
      ],
      [
        "el",
        "d"
      ],
      [
        "ĠW",
        "ith"
      ],
      [
        "Ġa",
        "uthor"
      ],
      [
        "Ġbeh",
        "ind"
      ],
      [
        "ĠP",
        "at"
      ],
      [
        "Ġyou",
        "ng"
      ],
      [
        "Ġwith",
        "out"
      ],
      [
        "Ġar",
        "t"
      ],
      [
        "c",
        "hes"
      ],
      [
        "Ġl",
        "angu"
      ],
      [
        "ore",
        "d"
      ],
      [
        "our",
        "s"
      ],
      [
        "ur",
        "ies"
      ],
      [
        "Ġter",
        "ror"
      ],
      [
        "Ġp",
        "op"
      ],
      [
        "st",
        "it"
      ],
      [
        "Ġm",
        "us"
      ],
      [
        "Ġt",
        "ell"
      ],
      [
        "our",
        "n"
      ],
      [
        "ĠB",
        "e"
      ],
      [
        "Ġp",
        "oll"
      ],
      [
        "Ġex",
        "pl"
      ],
      [
        "Ġf",
        "ear"
      ],
      [
        "Ġsec",
        "urity"
      ],
      [
        "Ġn",
        "am"
      ],
      [
        "Ġhow",
        "ever"
      ],
      [
        "Ġb",
        "at"
      ],
      [
        "Ġsu",
        "re"
      ],
      [
        "Ġpl",
        "ac"
      ],
      [
        "pl",
        "es"
      ],
      [
        "on",
        "es"
      ],
      [
        "Ġim",
        "medi"
      ],
      [
        "Ġin",
        "f"
      ],
      [
        "Ġg",
        "ra"
      ],
      [
        "ch",
        "n"
      ],
      [
        "t",
        "ar"
      ],
      [
        "Ġy",
        "e"
      ],
      [
        "ĠA",
        "ir"
      ],
      [
        "er",
        "y"
      ],
      [
        "Ġm",
        "in"
      ],
      [
        "Ġm",
        "od"
      ],
      [
        "e",
        "le"
      ],
      [
        "ĠS",
        "on"
      ],
      [
        "Ġc",
        "he"
      ],
      [
        "Ġknow",
        "n"
      ],
      [
        "Ġcond",
        "ition"
      ],
      [
        "Ġac",
        "ross"
      ],
      [
        "Ġcom",
        "es"
      ],
      [
        "us",
        "band"
      ],
      [
        "Ġre",
        "ve"
      ],
      [
        "Ġn",
        "ight"
      ],
      [
        "g",
        "o"
      ],
      [
        "Ġunder",
        "stand"
      ],
      [
        "C",
        "C"
      ],
      [
        "Ġresp",
        "ons"
      ],
      [
        "l",
        "ess"
      ],
      [
        "u",
        "ally"
      ],
      [
        "Ġe",
        "as"
      ],
      [
        "ĠPe",
        "ople"
      ],
      [
        "Ġl",
        "ed"
      ],
      [
        "Ġbu",
        "ild"
      ],
      [
        "Ġvar",
        "ious"
      ],
      [
        "Ġb",
        "ank"
      ],
      [
        "Ġ",
        "ver"
      ],
      [
        "re",
        "ed"
      ],
      [
        "ĠJust",
        "ice"
      ],
      [
        "ĠIs",
        "ra"
      ],
      [
        "ĠMal",
        "ay"
      ],
      [
        "Ġfe",
        "el"
      ],
      [
        "ĠCP",
        "M"
      ],
      [
        "o",
        "f"
      ],
      [
        "Ġsucc",
        "ess"
      ],
      [
        "Ġev",
        "ent"
      ],
      [
        "s",
        "hip"
      ],
      [
        "Ġacc",
        "ount"
      ],
      [
        "Ġact",
        "ress"
      ],
      [
        "ik",
        "e"
      ],
      [
        "Ġc",
        "ust"
      ],
      [
        "Ġ5",
        "0"
      ],
      [
        "itiz",
        "ens"
      ],
      [
        "ffe",
        "ct"
      ],
      [
        "Ġm",
        "et"
      ],
      [
        "Ġst",
        "rong"
      ],
      [
        "l",
        "ing"
      ],
      [
        "qu",
        "e"
      ],
      [
        "ĠTr",
        "ump"
      ],
      [
        "Ġofficial",
        "s"
      ],
      [
        "ur",
        "u"
      ],
      [
        "olog",
        "y"
      ],
      [
        "Ġf",
        "ace"
      ],
      [
        "Ġo",
        "ld"
      ],
      [
        "b",
        "s"
      ],
      [
        "Ġl",
        "od"
      ],
      [
        "ol",
        "ly"
      ],
      [
        "i",
        "as"
      ],
      [
        "Ġact",
        "iv"
      ],
      [
        "oin",
        "ted"
      ],
      [
        "Ġe",
        "ver"
      ],
      [
        "ĠA",
        "cc"
      ],
      [
        "Ġm",
        "ove"
      ],
      [
        "ĠM",
        "ore"
      ],
      [
        "Ġpro",
        "p"
      ],
      [
        "ut",
        "y"
      ],
      [
        "Ġca",
        "use"
      ],
      [
        "ar",
        "ing"
      ],
      [
        "Ġ",
        "."
      ],
      [
        "Ġrec",
        "ord"
      ],
      [
        "Ġele",
        "ction"
      ],
      [
        "Ġgr",
        "ow"
      ],
      [
        "wo",
        "od"
      ],
      [
        "ĠIsra",
        "el"
      ],
      [
        "ress",
        "ed"
      ],
      [
        "Ġcount",
        "ries"
      ],
      [
        "Ġph",
        "one"
      ],
      [
        "u",
        "ge"
      ],
      [
        "Ġiss",
        "ued"
      ],
      [
        "Ġex",
        "c"
      ],
      [
        "Ġint",
        "erest"
      ],
      [
        "Ġpro",
        "be"
      ],
      [
        "Ġ1",
        "7"
      ],
      [
        "Ġdire",
        "ctor"
      ],
      [
        "Ġw",
        "ar"
      ],
      [
        "Ġbr",
        "ing"
      ],
      [
        "ĠJehovah",
        "s"
      ],
      [
        "i",
        "eld"
      ],
      [
        "Ġsp",
        "ok"
      ],
      [
        "ar",
        "am"
      ],
      [
        "g",
        "ing"
      ],
      [
        "Ġp",
        "ric"
      ],
      [
        "m",
        "s"
      ],
      [
        "Ġor",
        "d"
      ],
      [
        "in",
        "aray"
      ],
      [
        "id",
        "d"
      ],
      [
        "Ġben",
        "ef"
      ],
      [
        "Ġca",
        "pt"
      ],
      [
        "Ġc",
        "olle"
      ],
      [
        "Ġto",
        "p"
      ],
      [
        "Ġe",
        "l"
      ],
      [
        "ĠS",
        "outh"
      ],
      [
        "Ġto",
        "tal"
      ],
      [
        "w",
        "al"
      ],
      [
        "it",
        "ha"
      ],
      [
        "ĠF",
        "in"
      ],
      [
        "Ġpr",
        "ay"
      ],
      [
        "ha",
        "nd"
      ],
      [
        "Ġcom",
        "ing"
      ],
      [
        "ĠF",
        "orm"
      ],
      [
        "ĠB",
        "al"
      ],
      [
        "ol",
        "es"
      ],
      [
        "ot",
        "t"
      ],
      [
        "Ġinform",
        "ation"
      ],
      [
        "l",
        "ish"
      ],
      [
        "Ġcomp",
        "any"
      ],
      [
        "a",
        "ul"
      ],
      [
        "k",
        "e"
      ],
      [
        "i",
        "ver"
      ],
      [
        "eng",
        "ers"
      ],
      [
        "ĠShi",
        "v"
      ],
      [
        "Ġmat",
        "ch"
      ],
      [
        "ĠKo",
        "chi"
      ],
      [
        "ĠO",
        "pp"
      ],
      [
        "ĠM",
        "ost"
      ],
      [
        "ĠP",
        "un"
      ],
      [
        "ĠT",
        "el"
      ],
      [
        "ĠS",
        "c"
      ],
      [
        "Ġsy",
        "stem"
      ],
      [
        "Ġwh",
        "om"
      ],
      [
        "Ġp",
        "ati"
      ],
      [
        "er",
        "ation"
      ],
      [
        "Ġdo",
        "ing"
      ],
      [
        "Ġf",
        "ight"
      ],
      [
        "Ġh",
        "usband"
      ],
      [
        "al",
        "ed"
      ],
      [
        "ĠN",
        "adu"
      ],
      [
        "Ġh",
        "old"
      ],
      [
        "er",
        "a"
      ],
      [
        "mer",
        "ic"
      ],
      [
        "ĠD",
        "ep"
      ],
      [
        "Ġbec",
        "ame"
      ],
      [
        "g",
        "ation"
      ],
      [
        "Ġe",
        "conom"
      ],
      [
        "Ġ",
        "&"
      ],
      [
        "ĠC",
        "or"
      ],
      [
        "Ġb",
        "as"
      ],
      [
        "am",
        "s"
      ],
      [
        "ĠB",
        "i"
      ],
      [
        "ĠD",
        "on"
      ],
      [
        "y",
        "ing"
      ],
      [
        "Ġdis",
        "e"
      ],
      [
        "li",
        "ament"
      ],
      [
        "ĠO",
        "r"
      ],
      [
        "ĠVijay",
        "an"
      ],
      [
        "Ġsay",
        "ing"
      ],
      [
        "Ġhum",
        "an"
      ],
      [
        "us",
        "hed"
      ],
      [
        "g",
        "ar"
      ],
      [
        "Ġg",
        "eneral"
      ],
      [
        "inaray",
        "i"
      ],
      [
        "'",
        "m"
      ],
      [
        "Ġpl",
        "an"
      ],
      [
        "Ġsm",
        "all"
      ],
      [
        "Ġconf",
        "ir"
      ],
      [
        "'",
        "re"
      ],
      [
        "b",
        "r"
      ],
      [
        "ĠP",
        "inarayi"
      ],
      [
        "Ġmed",
        "ical"
      ],
      [
        "z",
        "hik"
      ],
      [
        "Ġcontin",
        "ue"
      ],
      [
        "Ġprot",
        "e"
      ],
      [
        "ank",
        "a"
      ],
      [
        "ri",
        "pt"
      ],
      [
        "ĠShar",
        "ma"
      ],
      [
        "ĠPart",
        "y"
      ],
      [
        "ĠAustral",
        "ia"
      ],
      [
        "Ġre",
        "ached"
      ],
      [
        "Ġ",
        "est"
      ],
      [
        "ĠH",
        "ospital"
      ],
      [
        "Ġser",
        "ies"
      ],
      [
        "Ġle",
        "arn"
      ],
      [
        "ĠB",
        "ang"
      ],
      [
        "ĠCom",
        "mission"
      ],
      [
        "Ġsomet",
        "hing"
      ],
      [
        "ĠGu",
        "j"
      ],
      [
        "je",
        "cted"
      ],
      [
        "ĠS",
        "an"
      ],
      [
        "zhik",
        "ode"
      ],
      [
        "Ġk",
        "ind"
      ],
      [
        "Ġre",
        "v"
      ],
      [
        "Ġg",
        "ave"
      ],
      [
        "Ġsha",
        "red"
      ],
      [
        "Ġpriv",
        "ate"
      ],
      [
        "Ġmus",
        "ic"
      ],
      [
        "Ġlod",
        "ged"
      ],
      [
        "ac",
        "her"
      ],
      [
        "ĠMalay",
        "alam"
      ],
      [
        "ha",
        "s"
      ],
      [
        "Ġc",
        "ap"
      ],
      [
        "Ġbet",
        "ter"
      ],
      [
        "Ġs",
        "al"
      ],
      [
        "ĠForm",
        "er"
      ],
      [
        "so",
        "ci"
      ],
      [
        "ĠM",
        "P"
      ],
      [
        "Ġbr",
        "ought"
      ],
      [
        "Ġwick",
        "ets"
      ],
      [
        "ad",
        "i"
      ],
      [
        "os",
        "es"
      ],
      [
        "ĠKo",
        "zhikode"
      ],
      [
        "Ġt",
        "ri"
      ],
      [
        "Ġg",
        "one"
      ],
      [
        "Ġde",
        "b"
      ],
      [
        "Ġtem",
        "ple"
      ],
      [
        "b",
        "elie"
      ],
      [
        "Ġcomm",
        "un"
      ],
      [
        "u",
        "z"
      ],
      [
        "ĠE",
        "le"
      ],
      [
        "Ġm",
        "ind"
      ],
      [
        "am",
        "b"
      ],
      [
        "m",
        "u"
      ],
      [
        "ic",
        "ide"
      ],
      [
        "Ġs",
        "hi"
      ],
      [
        "Ġres",
        "ign"
      ],
      [
        "Ġfe",
        "at"
      ],
      [
        "Ġr",
        "ul"
      ],
      [
        "p",
        "r"
      ],
      [
        "Ġrem",
        "ain"
      ],
      [
        "1",
        "9"
      ],
      [
        "w",
        "hile"
      ],
      [
        "ff",
        "air"
      ],
      [
        "ĠOpp",
        "osition"
      ],
      [
        "olly",
        "wood"
      ],
      [
        "a",
        "id"
      ],
      [
        "al",
        "ity"
      ],
      [
        "Ġprog",
        "ram"
      ],
      [
        "Ġd",
        "iv"
      ],
      [
        "it",
        "ter"
      ],
      [
        "Ġed",
        "uc"
      ],
      [
        "ĠAs",
        "sembly"
      ],
      [
        "Ġv",
        "iew"
      ],
      [
        "Ġal",
        "ways"
      ],
      [
        "ol",
        "ved"
      ],
      [
        "Ġm",
        "ain"
      ],
      [
        "ĠU",
        "t"
      ],
      [
        "Ġde",
        "v"
      ],
      [
        "Ġm",
        "is"
      ],
      [
        "ed",
        "d"
      ],
      [
        "ort",
        "un"
      ],
      [
        "ĠKo",
        "h"
      ],
      [
        "ĠS",
        "pe"
      ],
      [
        "Ġ3",
        "0"
      ],
      [
        "Ġear",
        "lier"
      ],
      [
        "Ġ",
        "ident"
      ],
      [
        "in",
        "al"
      ],
      [
        "Ġp",
        "ict"
      ],
      [
        "ail",
        "ed"
      ],
      [
        "Ġv",
        "ot"
      ],
      [
        "Ġwrit",
        "ten"
      ],
      [
        "Ġprodu",
        "ced"
      ],
      [
        "ĠW",
        "est"
      ],
      [
        "Ġfriend",
        "s"
      ],
      [
        "Ġpart",
        "icip"
      ],
      [
        "Ġl",
        "ive"
      ],
      [
        "ĠF",
        "r"
      ],
      [
        "Ġfin",
        "al"
      ],
      [
        "ep",
        "t"
      ],
      [
        "ib",
        "ility"
      ],
      [
        "ĠP",
        "ra"
      ],
      [
        "ĠWhat",
        "s"
      ],
      [
        "Ġv",
        "ill"
      ],
      [
        "ĠT",
        "w"
      ],
      [
        "Ġpro",
        "cess"
      ],
      [
        "Ġs",
        "en"
      ],
      [
        "Ġpe",
        "ace"
      ],
      [
        "un",
        "g"
      ],
      [
        "Ġneed",
        "s"
      ],
      [
        "Ġpr",
        "ice"
      ],
      [
        "Ġp",
        "ay"
      ],
      [
        "Ġh",
        "ig"
      ],
      [
        "Ġm",
        "ess"
      ],
      [
        "ab",
        "ad"
      ],
      [
        "ĠAd",
        "d"
      ],
      [
        "Ġpre",
        "p"
      ],
      [
        "r",
        "up"
      ],
      [
        "Ġst",
        "ay"
      ],
      [
        "ĠKoh",
        "li"
      ],
      [
        "ĠUn",
        "iversity"
      ],
      [
        "Ġimmedi",
        "ately"
      ],
      [
        "ĠJam",
        "mu"
      ],
      [
        "ak",
        "es"
      ],
      [
        "c",
        "ing"
      ],
      [
        "Ġv",
        "al"
      ],
      [
        "o",
        "on"
      ],
      [
        "op",
        "s"
      ],
      [
        "c",
        "ent"
      ],
      [
        "Ġb",
        "ased"
      ],
      [
        "ĠC",
        "an"
      ],
      [
        "Ġdec",
        "ided"
      ],
      [
        "Ġc",
        "ost"
      ],
      [
        "Ġf",
        "all"
      ],
      [
        "Ġg",
        "old"
      ],
      [
        "ĠH",
        "ome"
      ],
      [
        "Ġan",
        "g"
      ],
      [
        "Ġw",
        "arn"
      ],
      [
        "an",
        "while"
      ],
      [
        "g",
        "y"
      ],
      [
        "ove",
        "red"
      ],
      [
        "l",
        "am"
      ],
      [
        "Ġm",
        "or"
      ],
      [
        "Ġc",
        "ertain"
      ],
      [
        "Ġj",
        "ob"
      ],
      [
        "ĠGuj",
        "arat"
      ],
      [
        "Ġst",
        "ory"
      ],
      [
        "Ġcurrent",
        "ly"
      ],
      [
        "ĠJ",
        "os"
      ],
      [
        "Ġstate",
        "ment"
      ],
      [
        "Ġl",
        "o"
      ],
      [
        "Ġinj",
        "uries"
      ],
      [
        "Ġ",
        "es"
      ],
      [
        "in",
        "et"
      ],
      [
        "ĠP",
        "ri"
      ],
      [
        "i",
        "ent"
      ],
      [
        "Ġper",
        "form"
      ],
      [
        "ĠG",
        "eneral"
      ],
      [
        "en",
        "ces"
      ],
      [
        "p",
        "or"
      ],
      [
        "ren",
        "g"
      ],
      [
        "Ġth",
        "ought"
      ],
      [
        "Ġex",
        "pected"
      ],
      [
        "c",
        "ies"
      ],
      [
        "Ġdet",
        "ails"
      ],
      [
        "Ġp",
        "un"
      ],
      [
        "Ġa",
        "p"
      ],
      [
        "ĠM",
        "ar"
      ],
      [
        "ĠH",
        "er"
      ],
      [
        "Ġg",
        "en"
      ],
      [
        "n",
        "ed"
      ],
      [
        "Ġde",
        "part"
      ],
      [
        "ĠL",
        "et"
      ],
      [
        "ĠSh",
        "ri"
      ],
      [
        "Ġst",
        "r"
      ],
      [
        "ĠK",
        "ing"
      ],
      [
        "Ġtra",
        "in"
      ],
      [
        "Ġh",
        "it"
      ],
      [
        "Ġcont",
        "est"
      ],
      [
        "ill",
        "ion"
      ],
      [
        "Ġrel",
        "ations"
      ],
      [
        "Ġp",
        "ri"
      ],
      [
        "ĠUt",
        "tar"
      ],
      [
        "Ġcrick",
        "et"
      ],
      [
        "ĠF",
        "ollow"
      ],
      [
        "ĠK",
        "ann"
      ],
      [
        "Ġl",
        "ight"
      ],
      [
        "ĠCha",
        "nd"
      ],
      [
        "if",
        "ul"
      ],
      [
        "Ġp",
        "ress"
      ],
      [
        "Ġinclud",
        "e"
      ],
      [
        "Ġto",
        "day"
      ],
      [
        "Ġhist",
        "ory"
      ],
      [
        "ĠMo",
        "han"
      ],
      [
        "ĠM",
        "ay"
      ],
      [
        "ĠJ",
        "ay"
      ],
      [
        "ĠD",
        "ont"
      ],
      [
        "r",
        "ation"
      ],
      [
        "ĠRam",
        "esh"
      ],
      [
        "Ġansw",
        "er"
      ],
      [
        "Ġ1",
        "00"
      ],
      [
        "Ġsu",
        "icide"
      ],
      [
        "h",
        "u"
      ],
      [
        "ĠHe",
        "alth"
      ],
      [
        "ĠO",
        "ther"
      ],
      [
        "Ġcam",
        "p"
      ],
      [
        "Ġwork",
        "ers"
      ],
      [
        "Ġlaun",
        "ched"
      ],
      [
        "Ġa",
        "ge"
      ],
      [
        "ir",
        "us"
      ],
      [
        "ĠSec",
        "retary"
      ],
      [
        "w",
        "am"
      ],
      [
        "Ġd",
        "ies"
      ],
      [
        "Ġdevelop",
        "ment"
      ],
      [
        "ĠC",
        "M"
      ],
      [
        "Ġproblem",
        "s"
      ],
      [
        "ĠW",
        "here"
      ],
      [
        "ou",
        "ra"
      ],
      [
        "ĠUn",
        "ited"
      ],
      [
        "Ġs",
        "old"
      ],
      [
        "Ġspe",
        "ak"
      ],
      [
        "Ġcon",
        "cer"
      ],
      [
        "Ġst",
        "ars"
      ],
      [
        "Ġle",
        "vel"
      ],
      [
        "Ġst",
        "reng"
      ],
      [
        "in",
        "t"
      ],
      [
        "Ġres",
        "pect"
      ],
      [
        "ĠW",
        "ill"
      ],
      [
        "om",
        "s"
      ],
      [
        "hy",
        "a"
      ],
      [
        "ĠM",
        "inistry"
      ],
      [
        "ud",
        "e"
      ],
      [
        "ĠS",
        "al"
      ],
      [
        "ab",
        "inet"
      ],
      [
        "Ġfr",
        "ont"
      ],
      [
        "Ġa",
        "ward"
      ],
      [
        "ĠO",
        "f"
      ],
      [
        "Ġare",
        "as"
      ],
      [
        "he",
        "st"
      ],
      [
        "Ġm",
        "ot"
      ],
      [
        "Ġb",
        "ro"
      ],
      [
        "Ġd",
        "ou"
      ],
      [
        "we",
        "et"
      ],
      [
        "ir",
        "c"
      ],
      [
        "ic",
        "le"
      ],
      [
        "Ġe",
        "qu"
      ],
      [
        "ĠD",
        "ire"
      ],
      [
        "Ġmark",
        "et"
      ],
      [
        "ĠInd",
        "ias"
      ],
      [
        "ĠTh",
        "ose"
      ],
      [
        "Ġplay",
        "ed"
      ],
      [
        "Ġvir",
        "al"
      ],
      [
        "ĠA",
        "re"
      ],
      [
        "Ġwe",
        "ek"
      ],
      [
        "Ġde",
        "p"
      ],
      [
        "ut",
        "ed"
      ],
      [
        "ĠMe",
        "anwhile"
      ],
      [
        "Ġhar",
        "d"
      ],
      [
        "Ġd",
        "ra"
      ],
      [
        "Ġre",
        "ally"
      ],
      [
        "Ġen",
        "c"
      ],
      [
        "n",
        "el"
      ],
      [
        "ĠA",
        "g"
      ],
      [
        "ĠV",
        "ir"
      ],
      [
        "ĠN",
        "e"
      ],
      [
        "Ġlik",
        "ely"
      ],
      [
        "itness",
        "es"
      ],
      [
        "Ġp",
        "ar"
      ],
      [
        "Ġexam",
        "ple"
      ],
      [
        "iet",
        "y"
      ],
      [
        "av",
        "irus"
      ],
      [
        "ĠE",
        "ar"
      ],
      [
        "ĠS",
        "at"
      ],
      [
        "Ġcha",
        "ll"
      ],
      [
        "Ġm",
        "aking"
      ],
      [
        "Ġf",
        "ree"
      ],
      [
        "'",
        "ll"
      ],
      [
        "n",
        "an"
      ],
      [
        "Ġin",
        "it"
      ],
      [
        "ĠEng",
        "land"
      ],
      [
        "Ġ2",
        "4"
      ],
      [
        "ow",
        "s"
      ],
      [
        "Ġb",
        "oy"
      ],
      [
        "on",
        "avirus"
      ],
      [
        "Ġword",
        "s"
      ],
      [
        "Ġde",
        "al"
      ],
      [
        "ov",
        "ed"
      ],
      [
        "Ġevery",
        "thing"
      ],
      [
        "Ġdistrict",
        "s"
      ],
      [
        "Ġpet",
        "ition"
      ],
      [
        "ĠB",
        "ollywood"
      ],
      [
        "Ġst",
        "ep"
      ],
      [
        "Ġcl",
        "ose"
      ],
      [
        "Ġey",
        "es"
      ],
      [
        "b",
        "y"
      ],
      [
        "t",
        "a"
      ],
      [
        "at",
        "ives"
      ],
      [
        "Ġb",
        "ad"
      ],
      [
        "ĠP",
        "l"
      ],
      [
        "ĠD",
        "r"
      ],
      [
        "Ġth",
        "ou"
      ],
      [
        "ĠS",
        "un"
      ],
      [
        "m",
        "ad"
      ],
      [
        "Ġallow",
        "ed"
      ],
      [
        "led",
        "ge"
      ],
      [
        "Ġha",
        "l"
      ],
      [
        "on",
        "se"
      ],
      [
        "Ġs",
        "ol"
      ],
      [
        "ĠW",
        "om"
      ],
      [
        "ast",
        "han"
      ],
      [
        "at",
        "ic"
      ],
      [
        "Ġk",
        "ing"
      ],
      [
        "qu",
        "ir"
      ],
      [
        "ĠP",
        "aul"
      ],
      [
        "ru",
        "ction"
      ],
      [
        "se",
        "qu"
      ],
      [
        "ĠFollow",
        "ing"
      ],
      [
        "Ġas",
        "k"
      ],
      [
        "ffair",
        "s"
      ],
      [
        "Ġr",
        "ushed"
      ],
      [
        "Ġlit",
        "tle"
      ],
      [
        "9",
        "9"
      ],
      [
        "a",
        "ut"
      ],
      [
        "Ġf",
        "oot"
      ],
      [
        "ous",
        "es"
      ],
      [
        "Ġloc",
        "al"
      ],
      [
        "Ġsh",
        "ort"
      ],
      [
        "Ġhapp",
        "y"
      ],
      [
        "Ġserv",
        "ice"
      ],
      [
        "ad",
        "av"
      ],
      [
        "Ġmar",
        "ried"
      ],
      [
        "h",
        "is"
      ],
      [
        "id",
        "s"
      ],
      [
        "ĠSt",
        "ates"
      ],
      [
        "Ġtak",
        "ing"
      ],
      [
        "Ġdis",
        "p"
      ],
      [
        "Ġbe",
        "gan"
      ],
      [
        "ĠJ",
        "an"
      ],
      [
        "ĠChenn",
        "ai"
      ],
      [
        "ic",
        "ult"
      ],
      [
        "Ġchan",
        "ged"
      ],
      [
        "es",
        "e"
      ],
      [
        "ĠRaj",
        "asthan"
      ],
      [
        "l",
        "ine"
      ],
      [
        "Ġst",
        "ar"
      ],
      [
        "ĠP",
        "re"
      ],
      [
        "ar",
        "a"
      ],
      [
        "i",
        "o"
      ],
      [
        "Ġc",
        "ele"
      ],
      [
        "Ġreve",
        "aled"
      ],
      [
        "Ġ",
        "X"
      ],
      [
        "Ġf",
        "ell"
      ],
      [
        "Ġhand",
        "s"
      ],
      [
        "Ġl",
        "ives"
      ],
      [
        "ĠF",
        "our"
      ],
      [
        "p",
        "ted"
      ],
      [
        "y",
        "er"
      ],
      [
        "Ġany",
        "one"
      ],
      [
        "Ġs",
        "ong"
      ],
      [
        "je",
        "e"
      ],
      [
        "Ġt",
        "ax"
      ],
      [
        "Ġgr",
        "oup"
      ],
      [
        "er",
        "c"
      ],
      [
        "tern",
        "al"
      ],
      [
        "Ġatt",
        "ended"
      ],
      [
        "ĠD",
        "ist"
      ],
      [
        "ĠA",
        "pp"
      ],
      [
        "ĠHind",
        "i"
      ],
      [
        "ĠA",
        "meric"
      ],
      [
        "ort",
        "s"
      ],
      [
        "Ġdise",
        "ase"
      ],
      [
        "ĠTw",
        "itter"
      ],
      [
        "ri",
        "age"
      ],
      [
        "Ġem",
        "ploy"
      ],
      [
        "Ġvehic",
        "les"
      ],
      [
        "Ġp",
        "an"
      ],
      [
        "ĠOn",
        "ly"
      ],
      [
        "Ġp",
        "ast"
      ],
      [
        "Ġprov",
        "ided"
      ],
      [
        "il",
        "ar"
      ],
      [
        "Ġw",
        "ait"
      ],
      [
        "ĠT",
        "ha"
      ],
      [
        "b",
        "ed"
      ],
      [
        "as",
        "ter"
      ],
      [
        "ĠB",
        "l"
      ],
      [
        "Ġa",
        "w"
      ],
      [
        "ĠB",
        "har"
      ],
      [
        "ĠS",
        "ri"
      ],
      [
        "s",
        "h"
      ],
      [
        "Ġc",
        "ho"
      ],
      [
        "ian",
        "ce"
      ],
      [
        "Ġw",
        "r"
      ],
      [
        "ĠC",
        "up"
      ],
      [
        "ha",
        "b"
      ],
      [
        "ess",
        "ion"
      ],
      [
        "oh",
        "n"
      ],
      [
        "y",
        "ear"
      ],
      [
        "f",
        "ted"
      ],
      [
        "Ġwork",
        "ing"
      ],
      [
        "Ġw",
        "he"
      ],
      [
        "Ġposs",
        "ible"
      ],
      [
        "go",
        "ing"
      ],
      [
        "Ġind",
        "eed"
      ],
      [
        "ct",
        "s"
      ],
      [
        "Ġf",
        "ield"
      ],
      [
        "Ġread",
        "y"
      ],
      [
        "our",
        "se"
      ],
      [
        "n",
        "ers"
      ],
      [
        "Ġst",
        "ated"
      ],
      [
        "ia",
        "h"
      ],
      [
        "Ġsing",
        "le"
      ],
      [
        "ĠCent",
        "ral"
      ],
      [
        "ĠL",
        "ater"
      ],
      [
        "is",
        "ing"
      ],
      [
        "s",
        "ide"
      ],
      [
        "ĠH",
        "ar"
      ],
      [
        "Ġfun",
        "ction"
      ],
      [
        "g",
        "re"
      ],
      [
        "ro",
        "p"
      ],
      [
        "is",
        "es"
      ],
      [
        "ĠAcc",
        "ording"
      ],
      [
        "he",
        "ad"
      ],
      [
        "ri",
        "f"
      ],
      [
        "t",
        "i"
      ],
      [
        "Ġsh",
        "ot"
      ],
      [
        "ĠS",
        "am"
      ],
      [
        "Ġre",
        "jected"
      ],
      [
        "Ġm",
        "iss"
      ],
      [
        "al",
        "i"
      ],
      [
        "Ġplac",
        "es"
      ],
      [
        "Ġth",
        "ough"
      ],
      [
        "ĠW",
        "h"
      ],
      [
        "Ġb",
        "ail"
      ],
      [
        "Ġs",
        "up"
      ],
      [
        "Ġhim",
        "self"
      ],
      [
        "Ġresp",
        "ond"
      ],
      [
        "ag",
        "ar"
      ],
      [
        "j",
        "u"
      ],
      [
        "Ġle",
        "ave"
      ],
      [
        "Ġful",
        "l"
      ],
      [
        "ud",
        "d"
      ],
      [
        "ĠY",
        "adav"
      ],
      [
        "Ġdiff",
        "icult"
      ],
      [
        "Ġcre",
        "ated"
      ],
      [
        "ĠF",
        "il"
      ],
      [
        "Ġcandid",
        "ate"
      ],
      [
        "ĠThe",
        "ir"
      ],
      [
        "Ġh",
        "uge"
      ],
      [
        "Ġon",
        "es"
      ],
      [
        "ĠJ",
        "ohn"
      ],
      [
        "Ġsp",
        "read"
      ],
      [
        "Ġpric",
        "es"
      ],
      [
        "e",
        "ous"
      ],
      [
        "Ġc",
        "irc"
      ],
      [
        "Ġfor",
        "g"
      ],
      [
        "ere",
        "nce"
      ],
      [
        "Ġa",
        "ut"
      ],
      [
        "ical",
        "ly"
      ],
      [
        "Ġw",
        "al"
      ],
      [
        "Ġyou",
        "th"
      ],
      [
        "Ġcom",
        "mittee"
      ],
      [
        "ĠR",
        "an"
      ],
      [
        "Ġh",
        "on"
      ],
      [
        "Ġam",
        "ount"
      ],
      [
        "ĠR",
        "o"
      ],
      [
        "l",
        "al"
      ],
      [
        "iz",
        "e"
      ],
      [
        "Ġd",
        "river"
      ],
      [
        "an",
        "cial"
      ],
      [
        "Ġ2",
        "1"
      ],
      [
        "ra",
        "p"
      ],
      [
        "ĠM",
        "am"
      ],
      [
        "ad",
        "a"
      ],
      [
        "Ġstud",
        "y"
      ],
      [
        "Ġocc",
        "ur"
      ],
      [
        "Ġr",
        "oles"
      ],
      [
        "ĠS",
        "p"
      ],
      [
        "ĠPar",
        "liament"
      ],
      [
        "ed",
        "s"
      ],
      [
        "Ġt",
        "rying"
      ],
      [
        "Ġs",
        "ide"
      ],
      [
        "Ġab",
        "le"
      ],
      [
        "ĠK",
        "ap"
      ],
      [
        "ĠM",
        "ess"
      ],
      [
        "Ġc",
        "ult"
      ],
      [
        "Ġeng",
        "ine"
      ],
      [
        "if",
        "y"
      ],
      [
        "Ġl",
        "oss"
      ],
      [
        "Ġunt",
        "il"
      ],
      [
        "ĠC",
        "l"
      ],
      [
        "ĠS",
        "ub"
      ],
      [
        "Ġ2",
        "2"
      ],
      [
        "Ġhe",
        "ard"
      ],
      [
        "j",
        "ab"
      ],
      [
        "Ġthem",
        "selves"
      ],
      [
        "Ġp",
        "o"
      ],
      [
        "t",
        "o"
      ],
      [
        "ĠS",
        "ure"
      ],
      [
        "Ġph",
        "ot"
      ],
      [
        "l",
        "ished"
      ],
      [
        "Ġbl",
        "ood"
      ],
      [
        "Ġel",
        "se"
      ],
      [
        "Ġlar",
        "ge"
      ],
      [
        "D",
        "I"
      ],
      [
        "Ġdest",
        "ro"
      ],
      [
        "Ġresp",
        "onse"
      ],
      [
        "Ġo",
        "pt"
      ],
      [
        "ĠAf",
        "ric"
      ],
      [
        "ul",
        "ation"
      ],
      [
        "Ġn",
        "ation"
      ],
      [
        "ĠE",
        "n"
      ],
      [
        "Ġf",
        "av"
      ],
      [
        "Ġshi",
        "fted"
      ],
      [
        "ir",
        "th"
      ],
      [
        "it",
        "es"
      ],
      [
        "Ġheav",
        "y"
      ],
      [
        "Ġquest",
        "ions"
      ],
      [
        "Ġc",
        "ast"
      ],
      [
        "Ġra",
        "ised"
      ],
      [
        "Ġclaim",
        "ed"
      ],
      [
        "he",
        "t"
      ],
      [
        "Ġdec",
        "la"
      ],
      [
        "ous",
        "and"
      ],
      [
        "Ġc",
        "ollege"
      ],
      [
        "Ġst",
        "ri"
      ],
      [
        "ĠR",
        "uss"
      ],
      [
        "Ġt",
        "or"
      ],
      [
        "ul",
        "am"
      ],
      [
        "Ġfeat",
        "ures"
      ],
      [
        "ĠMo",
        "ham"
      ],
      [
        "Ġe",
        "ffect"
      ],
      [
        "quir",
        "y"
      ],
      [
        "Ġte",
        "acher"
      ],
      [
        "Ġs",
        "ister"
      ],
      [
        "W",
        "e"
      ],
      [
        "Ġse",
        "ven"
      ],
      [
        "Ġte",
        "chn"
      ],
      [
        "Ġc",
        "oun"
      ],
      [
        "ian",
        "s"
      ],
      [
        "I",
        "D"
      ],
      [
        "e",
        "es"
      ],
      [
        "ĠP",
        "al"
      ],
      [
        "Ġoff",
        "ice"
      ],
      [
        "ach",
        "ing"
      ],
      [
        "ĠSt",
        "ud"
      ],
      [
        "in",
        "em"
      ],
      [
        "Ġdr",
        "ink"
      ],
      [
        "Ġpoint",
        "s"
      ],
      [
        "r",
        "on"
      ],
      [
        "Ġex",
        "cept"
      ],
      [
        "Ġdemand",
        "ed"
      ],
      [
        "ĠDist",
        "rict"
      ],
      [
        "ug",
        "u"
      ],
      [
        "5",
        "0"
      ],
      [
        "Ġind",
        "ust"
      ],
      [
        "ĠPun",
        "jab"
      ],
      [
        "ĠH",
        "y"
      ],
      [
        "Ġeas",
        "y"
      ],
      [
        "Ġres",
        "c"
      ],
      [
        "ru",
        "ct"
      ],
      [
        "pp",
        "er"
      ],
      [
        "Ġpass",
        "ed"
      ],
      [
        "Ġmil",
        "it"
      ],
      [
        "Ġcomm",
        "and"
      ],
      [
        "Ġatt",
        "end"
      ],
      [
        "ĠI",
        "P"
      ],
      [
        "Ġknow",
        "ledge"
      ],
      [
        "Ġpro",
        "f"
      ],
      [
        "ĠD",
        "av"
      ],
      [
        "ĠP",
        "er"
      ],
      [
        "Ġse",
        "arch"
      ],
      [
        "nd",
        "er"
      ],
      [
        "s",
        "c"
      ],
      [
        "om",
        "as"
      ],
      [
        "Ġele",
        "ct"
      ],
      [
        "Ġcont",
        "rol"
      ],
      [
        "le",
        "ep"
      ],
      [
        "Ġrele",
        "ase"
      ],
      [
        "ĠG",
        "r"
      ],
      [
        "Ġin",
        "ternational"
      ],
      [
        "ve",
        "re"
      ],
      [
        "Ġs",
        "ou"
      ],
      [
        "Ġp",
        "ain"
      ],
      [
        "Ġlar",
        "gest"
      ],
      [
        "ĠR",
        "ep"
      ],
      [
        "Ġse",
        "x"
      ],
      [
        "Ġserv",
        "ices"
      ],
      [
        "rish",
        "nan"
      ],
      [
        "ĠC",
        "o"
      ],
      [
        "Ġbeg",
        "in"
      ],
      [
        "i",
        "od"
      ],
      [
        "ĠY",
        "es"
      ],
      [
        "ĠAr",
        "my"
      ],
      [
        "Ġas",
        "sembly"
      ],
      [
        "Ġe",
        "ff"
      ],
      [
        "ĠY",
        "our"
      ],
      [
        "Ġgr",
        "ant"
      ],
      [
        "Ġ4",
        "0"
      ],
      [
        "ple",
        "ment"
      ],
      [
        "Ġiss",
        "ues"
      ],
      [
        "Ġbus",
        "iness"
      ],
      [
        "Ġst",
        "ation"
      ],
      [
        "as",
        "ons"
      ],
      [
        "or",
        "ies"
      ],
      [
        "Ġme",
        "an"
      ],
      [
        "Ġeduc",
        "ation"
      ],
      [
        "ou",
        "d"
      ],
      [
        "Ġm",
        "om"
      ],
      [
        "Ġme",
        "ans"
      ],
      [
        "Ġadd",
        "ress"
      ],
      [
        "ut",
        "ure"
      ],
      [
        "Ġcapt",
        "ain"
      ],
      [
        "Ġsh",
        "oot"
      ],
      [
        "u",
        "le"
      ],
      [
        "Ġmar",
        "riage"
      ],
      [
        "Ġc",
        "ou"
      ],
      [
        "ĠThe",
        "res"
      ],
      [
        "Ġo",
        "il"
      ],
      [
        "ĠCent",
        "re"
      ],
      [
        "g",
        "ations"
      ],
      [
        "ĠB",
        "ab"
      ],
      [
        "Ġacc",
        "om"
      ],
      [
        "ĠTel",
        "ugu"
      ],
      [
        "Ġlangu",
        "age"
      ],
      [
        "Ġknow",
        "s"
      ],
      [
        "ne",
        "y"
      ],
      [
        "Ġg",
        "re"
      ],
      [
        "Ġpun",
        "ish"
      ],
      [
        "Ġt",
        "ill"
      ],
      [
        "em",
        "pt"
      ],
      [
        "Ġrelig",
        "ion"
      ],
      [
        "b",
        "o"
      ],
      [
        "Ġmem",
        "ber"
      ],
      [
        "al",
        "d"
      ],
      [
        "Ġcondu",
        "cted"
      ],
      [
        "Ġh",
        "ouses"
      ],
      [
        "Ġdestro",
        "y"
      ],
      [
        "Ġcele",
        "br"
      ],
      [
        "Ġt",
        "weet"
      ],
      [
        "Ġc",
        "ant"
      ],
      [
        "Ġpart",
        "ies"
      ],
      [
        "ĠK",
        "e"
      ],
      [
        "ers",
        "on"
      ],
      [
        "Ġse",
        "at"
      ],
      [
        "or",
        "th"
      ],
      [
        "ĠI",
        "ran"
      ],
      [
        "Ġm",
        "er"
      ],
      [
        "il",
        "t"
      ],
      [
        "Ġe",
        "ight"
      ],
      [
        "Ġc",
        "ourse"
      ],
      [
        "ĠB",
        "o"
      ],
      [
        "Ġin",
        "n"
      ],
      [
        "ĠTh",
        "omas"
      ],
      [
        "z",
        "e"
      ],
      [
        "Ġconst",
        "itu"
      ],
      [
        "Ġt",
        "w"
      ],
      [
        "Ġpolit",
        "ics"
      ],
      [
        "Ġsa",
        "w"
      ],
      [
        "Ġde",
        "fe"
      ],
      [
        "ĠS",
        "y"
      ],
      [
        "Ġcust",
        "ody"
      ],
      [
        "Ġb",
        "ow"
      ],
      [
        "Ġevery",
        "one"
      ],
      [
        "Ġden",
        "ied"
      ],
      [
        "j",
        "oy"
      ],
      [
        "i",
        "er"
      ],
      [
        "en",
        "ed"
      ],
      [
        "Ġcrit",
        "ic"
      ],
      [
        "s",
        "pe"
      ],
      [
        "Ġper",
        "iod"
      ],
      [
        "ak",
        "k"
      ],
      [
        "Ġwith",
        "in"
      ],
      [
        "Ġmonth",
        "s"
      ],
      [
        "re",
        "am"
      ],
      [
        "ard",
        "s"
      ],
      [
        "ag",
        "ue"
      ],
      [
        "Ġopp",
        "ortun"
      ],
      [
        "o",
        "id"
      ],
      [
        "Ġme",
        "as"
      ],
      [
        "Ġre",
        "du"
      ],
      [
        "Ġdid",
        "n"
      ],
      [
        "Ġbel",
        "ong"
      ],
      [
        "Ġconfir",
        "med"
      ],
      [
        "ĠVir",
        "at"
      ],
      [
        "Ġha",
        "ving"
      ],
      [
        "Ġal",
        "one"
      ],
      [
        "Ġwork",
        "s"
      ],
      [
        "port",
        "s"
      ],
      [
        "Ġim",
        "plement"
      ],
      [
        "Ġe",
        "at"
      ],
      [
        "ĠDire",
        "ctor"
      ],
      [
        "Ġm",
        "ag"
      ],
      [
        "a",
        "pt"
      ],
      [
        "Ġbuild",
        "ing"
      ],
      [
        "eng",
        "er"
      ],
      [
        "ĠT",
        "ra"
      ],
      [
        "Ġp",
        "ow"
      ],
      [
        "ĠM",
        "at"
      ],
      [
        "ĠM",
        "u"
      ],
      [
        "ĠHind",
        "u"
      ],
      [
        "Ġl",
        "ess"
      ],
      [
        "itizens",
        "hip"
      ],
      [
        "Ġac",
        "cept"
      ],
      [
        "Ġopp",
        "osition"
      ],
      [
        "stit",
        "ution"
      ],
      [
        "Ġneed",
        "ed"
      ],
      [
        "ay",
        "am"
      ],
      [
        "c",
        "le"
      ],
      [
        "om",
        "es"
      ],
      [
        "or",
        "k"
      ],
      [
        "Ġsen",
        "ior"
      ],
      [
        "Ġto",
        "wards"
      ],
      [
        "Ġprov",
        "ide"
      ],
      [
        "Ġcam",
        "era"
      ],
      [
        "Ġteam",
        "s"
      ],
      [
        "Ġf",
        "uture"
      ],
      [
        "Ġvehic",
        "le"
      ],
      [
        "Ġapp",
        "ointed"
      ],
      [
        "Ġauthor",
        "ities"
      ],
      [
        "Ġev",
        "il"
      ],
      [
        "Ġhal",
        "f"
      ],
      [
        "res",
        "ent"
      ],
      [
        "Ġocc",
        "as"
      ],
      [
        "Ġh",
        "ope"
      ],
      [
        "Ġapp",
        "lic"
      ],
      [
        "ĠS",
        "ever"
      ],
      [
        "ĠAs",
        "h"
      ],
      [
        "Ġl",
        "iving"
      ],
      [
        "Ġle",
        "ast"
      ],
      [
        "Ġg",
        "ame"
      ],
      [
        "it",
        "ive"
      ],
      [
        "Ġwor",
        "ship"
      ],
      [
        "all",
        "s"
      ],
      [
        "ĠB",
        "y"
      ],
      [
        "c",
        "il"
      ],
      [
        "am",
        "es"
      ],
      [
        "Ġsure",
        "ly"
      ],
      [
        "ce",
        "ed"
      ],
      [
        "a",
        "fter"
      ],
      [
        "Ġ",
        "ur"
      ],
      [
        "Ġp",
        "osition"
      ],
      [
        "Ġfar",
        "m"
      ],
      [
        "le",
        "y"
      ],
      [
        "ha",
        "d"
      ],
      [
        "ĠBengal",
        "uru"
      ],
      [
        "m",
        "iss"
      ],
      [
        "itha",
        "la"
      ],
      [
        "od",
        "ies"
      ],
      [
        "ĠSever",
        "al"
      ],
      [
        "ĠC",
        "O"
      ],
      [
        "Ġst",
        "o"
      ],
      [
        "ĠChenn",
        "ithala"
      ],
      [
        "ĠNo",
        "body"
      ],
      [
        "rup",
        "t"
      ],
      [
        "e",
        "e"
      ],
      [
        "ĠS",
        "m"
      ],
      [
        "Ġpr",
        "in"
      ],
      [
        "Ġ",
        "ens"
      ],
      [
        "har",
        "an"
      ],
      [
        "ra",
        "nd"
      ],
      [
        "ĠBang",
        "l"
      ],
      [
        "Ġacc",
        "ording"
      ],
      [
        "Ġpart",
        "s"
      ],
      [
        "ĠA",
        "h"
      ],
      [
        "Ġk",
        "ey"
      ],
      [
        "Ġc",
        "ur"
      ],
      [
        "und",
[...]
