{
  "version": "1.0",
  "truncation": null,
  "padding": null,
  "added_tokens": [
    {
      "id": 0,
      "content": "<bos>",
      "single_word": false,
      "lstrip": false,
      "rstrip": false,
      "normalized": false,
      "special": true
    },
    {
      "id": 1,
      "content": "<eos>",
      "single_word": false,
      "lstrip": false,
      "rstrip": false,
      "normalized": false,
      "special": true
    },
    {
      "id": 2,
      "content": "<pad>",
      "single_word": false,
      "lstrip": false,
      "rstrip": false,
      "normalized": false,
      "special": true
    },
    {
      "id": 3,
      "content": "<unk>",
      "single_word": false,
      "lstrip": false,
      "rstrip": false,
      "normalized": false,
      "special": true
    }
  ],
  "normalizer": null,
  "pre_tokenizer": {
    "type": "Whitespace"
  },
  "post_processor": {
    "type": "TemplateProcessing",
    "single": [
      {
        "SpecialToken": {
          "id": "<bos>",
          "type_id": 0
        }
      },
      {
        "Sequence": {
          "id": "A",
          "type_id": 0
        }
      },
      {
        "SpecialToken": {
          "id": "<eos>",
          "type_id": 0
        }
      }
    ],
    "pair": [
      {
        "Sequence": {
          "id": "A",
          "type_id": 0
        }
      },
      {
        "Sequence": {
          "id": "B",
          "type_id": 1
        }
      }
    ],
    "special_tokens": {
      "<bos>": {
        "id": "<bos>",
        "ids": [
          0
        ],
        "tokens": [
          "<bos>"
        ]
      },
      "<eos>": {
        "id": "<eos>",
        "ids": [
          1
        ],
        "tokens": [
          "<eos>"
        ]
      }
    }
  },
  "decoder": null,
  "model": {
    "type": "BPE",
    "dropout": null,
    "unk_token": "<unk>",
    "continuing_subword_prefix": null,
    "end_of_word_suffix": null,
    "fuse_unk": false,
    "byte_fallback": false,
    "ignore_merges": false,
    "vocab": {
      "<bos>": 0,
      "<eos>": 1,
      "<pad>": 2,
      "<unk>": 3,
      "!": 4,
      "\"": 5,
      "#": 6,
      "$": 7,
      "%": 8,
      "&": 9,
      "'": 10,
      "(": 11,
      ")": 12,
      "*": 13,
      "+": 14,
      ",": 15,
      "-": 16,
      ".": 17,
      "/": 18,
      "0": 19,
      "1": 20,
      "2": 21,
      "3": 22,
      "4": 23,
      "5": 24,
      "6": 25,
      "7": 26,
      "8": 27,
      "9": 28,
      ":": 29,
      "<": 30,
      "=": 31,
      ">": 32,
      "?": 33,
      "@": 34,
      "A": 35,
      "B": 36,
      "C": 37,
      "D": 38,
      "E": 39,
      "F": 40,
      "G": 41,
      "H": 42,
      "I": 43,
      "J": 44,
      "K": 45,
      "L": 46,
      "M": 47,
      "N": 48,
      "O": 49,
      "P": 50,
      "Q": 51,
      "R": 52,
      "S": 53,
      "T": 54,
      "U": 55,
      "V": 56,
      "W": 57,
      "X": 58,
      "Y": 59,
      "Z": 60,
      "[": 61,
      "\\": 62,
      "]": 63,
      "^": 64,
      "_": 65,
      "`": 66,
      "a": 67,
      "b": 68,
      "c": 69,
      "d": 70,
      "e": 71,
      "f": 72,
      "g": 73,
      "h": 74,
      "i": 75,
      "j": 76,
      "k": 77,
      "l": 78,
      "m": 79,
      "n": 80,
      "o": 81,
      "p": 82,
      "q": 83,
      "r": 84,
      "s": 85,
      "t": 86,
      "u": 87,
      "v": 88,
      "w": 89,
      "x": 90,
      "y": 91,
      "z": 92,
      "{": 93,
      "|": 94,
      "}": 95,
      "~": 96,
      "¢": 97,
      "£": 98,
      "¤": 99,
      "¥": 100,
      "§": 101,
      "¨": 102,
      "©": 103,
      "«": 104,
      "¬": 105,
      "­": 106,
      "®": 107,
      "¯": 108,
      "°": 109,
      "±": 110,
      "²": 111,
      "³": 112,
      "´": 113,
      "µ": 114,
      "¶": 115,
      "·": 116,
      "¹": 117,
      "º": 118,
      "»": 119,
      "¼": 120,
      "½": 121,
      "¾": 122,
      "À": 123,
      "Á": 124,
      "Â": 125,
      "Ä": 126,
      "Å": 127,
      "Æ": 128,
      "Ç": 129,
      "È": 130,
      "É": 131,
      "Ë": 132,
      "Í": 133,
      "Î": 134,
      "Ñ": 135,
      "Ó": 136,
      "Ô": 137,
      "Ö": 138,
      "×": 139,
      "Ø": 140,
      "Ú": 141,
      "Ü": 142,
      "Þ": 143,
      "ß": 144,
      "à": 145,
      "á": 146,
      "â": 147,
      "ã": 148,
      "ä": 149,
      "å": 150,
      "æ": 151,
      "ç": 152,
      "è": 153,
      "é": 154,
      "ê": 155,
      "ë": 156,
      "ì": 157,
      "í": 158,
      "î": 159,
      "ï": 160,
      "ð": 161,
      "ñ": 162,
      "ò": 163,
      "ó": 164,
      "ô": 165,
      "õ": 166,
      "ö": 167,
      "ø": 168,
      "ù": 169,
      "ú": 170,
      "û": 171,
      "ü": 172,
      "ý": 173,
      "þ": 174,
      "Ā": 175,
      "ā": 176,
      "ă": 177,
      "ą": 178,
      "č": 179,
      "Đ": 180,
      "đ": 181,
      "ē": 182,
      "ĕ": 183,
      "ę": 184,
      "ě": 185,
      "ĝ": 186,
      "ğ": 187,
      "Ġ": 188,
      "ġ": 189,
      "ħ": 190,
      "ĩ": 191,
      "ī": 192,
      "ĭ": 193,
      "İ": 194,
      "ı": 195,
      "ĺ": 196,
      "ľ": 197,
      "Ł": 198,
      "ł": 199,
      "ń": 200,
      "ņ": 201,
      "ŋ": 202,
      "Ō": 203,
      "ō": 204,
      "ŏ": 205,
      "Ő": 206,
      "œ": 207,
      "Ŕ": 208,
      "Ś": 209,
      "ś": 210,
      "Ş": 211,
      "ş": 212,
      "Š": 213,
      "š": 214,
      "ţ": 215,
      "ũ": 216,
      "ū": 217,
      "ŭ": 218,
      "ź": 219,
      "ż": 220,
      "ž": 221,
      "Ɔ": 222,
      "Ə": 223,
      "Ɛ": 224,
      "ƒ": 225,
      "ƚ": 226,
      "ơ": 227,
      "ư": 228,
      "ƶ": 229,
      "ǎ": 230,
      "ǐ": 231,
      "ǒ": 232,
      "ǔ": 233,
      "ǝ": 234,
      "Ǧ": 235,
      "ǵ": 236,
      "ȃ": 237,
      "ș": 238,
      "ȟ": 239,
      "ȯ": 240,
      "ɐ": 241,
      "ɑ": 242,
      "ɒ": 243,
      "ɔ": 244,
      "ɕ": 245,
      "ɖ": 246,
      "ə": 247,
      "ɛ": 248,
      "ɜ": 249,
      "ɡ": 250,
      "ɢ": 251,
      "ɣ": 252,
      "ɤ": 253,
      "ɥ": 254,
      "ɦ": 255,
      "ɨ": 256,
      "ɪ": 257,
      "ɫ": 258,
      "ɭ": 259,
      "ɮ": 260,
      "ɯ": 261,
      "ɰ": 262,
      "ɲ": 263,
      "ɳ": 264,
      "ɴ": 265,
      "ɸ": 266,
      "ɹ": 267,
      "ɽ": 268,
      "ɾ": 269,
      "ʀ": 270,
      "ʁ": 271,
      "ʂ": 272,
      "ʃ": 273,
      "ʈ": 274,
      "ʊ": 275,
      "ʋ": 276,
      "ʌ": 277,
      "ʎ": 278,
      "ʏ": 279,
      "ʐ": 280,
      "ʑ": 281,
      "ʒ": 282,
      "ʔ": 283,
      "ʕ": 284,
      "ʰ": 285,
      "ʱ": 286,
      "ʲ": 287,
      "ʷ": 288,
      "ʹ": 289,
      "ʻ": 290,
      "ʼ": 291,
      "ʾ": 292,
      "ʿ": 293,
      "ˀ": 294,
      "ˈ": 295,
      "ˌ": 296,
      "ː": 297,
      "˚": 298,
      "˜": 299,
      "ˤ": 300,
      "˥": 301,
      "˦": 302,
      "˧": 303,
      "˨": 304,
      "˩": 305,
      "̀": 306,
      "́": 307,
      "̂": 308,
      "̃": 309,
      "̄": 310,
      "̇": 311,
      "̈": 312,
      "̌": 313,
      "̍": 314,
      "̞": 315,
      "̣": 316,
      "̥": 317,
      "̩": 318,
      "̪": 319,
      "̯": 320,
      "̰": 321,
      "͘": 322,
      "͜": 323,
      "͡": 324,
      "Έ": 325,
      "Ό": 326,
      "Α": 327,
      "Β": 328,
      "Γ": 329,
      "Δ": 330,
      "Ε": 331,
      "Ζ": 332,
      "Η": 333,
      "Θ": 334,
      "Ι": 335,
      "Κ": 336,
      "Λ": 337,
      "Μ": 338,
      "Ν": 339,
      "Ο": 340,
      "Π": 341,
      "Σ": 342,
      "Τ": 343,
      "Υ": 344,
      "Φ": 345,
      "Ψ": 346,
      "Ω": 347,
      "ά": 348,
      "έ": 349,
      "ή": 350,
      "ί": 351,
      "ΰ": 352,
      "α": 353,
      "β": 354,
      "γ": 355,
      "δ": 356,
      "ε": 357,
      "ζ": 358,
      "η": 359,
      "θ": 360,
      "ι": 361,
      "κ": 362,
      "λ": 363,
      "μ": 364,
      "ν": 365,
      "ξ": 366,
      "ο": 367,
      "π": 368,
      "ρ": 369,
      "ς": 370,
      "σ": 371,
      "τ": 372,
      "υ": 373,
      "φ": 374,
      "χ": 375,
      "ψ": 376,
      "ω": 377,
      "ό": 378,
      "ύ": 379,
      "ώ": 380,
      "Ϝ": 381,
      "ϵ": 382,
      "Ё": 383,
      "Є": 384,
      "І": 385,
      "Ї": 386,
      "Ј": 387,
      "А": 388,
      "Б": 389,
      "В": 390,
      "Г": 391,
      "Д": 392,
      "Е": 393,
      "Ж": 394,
      "З": 395,
      "И": 396,
      "К": 397,
      "Л": 398,
      "М": 399,
      "Н": 400,
      "О": 401,
      "П": 402,
      "Р": 403,
      "С": 404,
      "Т": 405,
      "У": 406,
      "Ф": 407,
      "Х": 408,
      "Ц": 409,
      "Ч": 410,
      "Ш": 411,
      "Щ": 412,
      "Ы": 413,
      "Э": 414,
      "Ю": 415,
      "Я": 416,
      "а": 417,
      "б": 418,
      "в": 419,
      "г": 420,
      "д": 421,
      "е": 422,
      "ж": 423,
      "з": 424,
      "и": 425,
      "й": 426,
      "к": 427,
      "л": 428,
      "м": 429,
      "н": 430,
      "о": 431,
      "п": 432,
      "р": 433,
      "с": 434,
      "т": 435,
      "у": 436,
      "ф": 437,
      "х": 438,
      "ц": 439,
      "ч": 440,
      "ш": 441,
      "щ": 442,
      "ъ": 443,
      "ы": 444,
      "ь": 445,
      "э": 446,
      "ю": 447,
      "я": 448,
      "ѐ": 449,
      "ё": 450,
      "є": 451,
      "і": 452,
      "ї": 453,
      "ј": 454,
      "љ": 455,
      "Ґ": 456,
      "ғ": 457,
      "Қ": 458,
      "қ": 459,
      "ҟ": 460,
      "ҡ": 461,
      "ң": 462,
      "ү": 463,
      "ұ": 464,
      "ҳ": 465,
      "ҷ": 466,
      "Ӏ": 467,
      "ӏ": 468,
      "ә": 469,
      "Ӝ": 470,
      "ӝ": 471,
      "Ӟ": 472,
      "ӟ": 473,
      "ӣ": 474,
      "Ӥ": 475,
      "ӥ": 476,
      "Ӧ": 477,
      "ӧ": 478,
      "Ө": 479,
      "ө": 480,
      "Ӵ": 481,
      "ӵ": 482,
      "Ա": 483,
      "Բ": 484,
      "Գ": 485,
      "Զ": 486,
      "Կ": 487,
      "Ղ": 488,
      "Մ": 489,
      "Ս": 490,
      "Վ": 491,
      "Տ": 492,
      "Փ": 493,
      "ա": 494,
      "դ": 495,
      "ե": 496,
      "զ": 497,
      "ի": 498,
      "լ": 499,
      "կ": 500,
      "ճ": 501,
      "մ": 502,
      "յ": 503,
      "ն": 504,
      "շ": 505,
      "ո": 506,
      "պ": 507,
      "ս": 508,
      "վ": 509,
      "տ": 510,
      "ր": 511,
      "ւ": 512,
      "փ": 513,
      "ք": 514,
      "և": 515,
      "։": 516,
      "ְ": 517,
      "ֱ": 518,
      "ִ": 519,
      "ֵ": 520,
      "ֶ": 521,
      "ַ": 522,
      "ָ": 523,
      "ֹ": 524,
      "ּ": 525,
      "־": 526,
      "ׁ": 527,
      "א": 528,
      "ב": 529,
      "ג": 530,
      "ד": 531,
      "ה": 532,
      "ו": 533,
      "ז": 534,
      "ח": 535,
      "ט": 536,
      "י": 537,
      "ך": 538,
      "כ": 539,
      "ל": 540,
      "ם": 541,
      "מ": 542,
      "ן": 543,
      "נ": 544,
      "ס": 545,
      "ע": 546,
      "פ": 547,
      "צ": 548,
      "ק": 549,
      "ר": 550,
      "ש": 551,
      "ת": 552,
      "ء": 553,
      "آ": 554,
      "أ": 555,
      "ؤ": 556,
      "إ": 557,
      "ئ": 558,
      "ا": 559,
      "ب": 560,
      "ة": 561,
      "ت": 562,
      "ث": 563,
      "ج": 564,
      "ح": 565,
      "خ": 566,
      "د": 567,
      "ذ": 568,
      "ر": 569,
      "ز": 570,
      "س": 571,
      "ش": 572,
      "ص": 573,
      "ض": 574,
      "ط": 575,
      "ظ": 576,
      "ع": 577,
      "غ": 578,
      "ـ": 579,
      "ف": 580,
      "ق": 581,
      "ك": 582,
      "ل": 583,
      "م": 584,
      "ن": 585,
      "ه": 586,
      "و": 587,
      "ى": 588,
      "ي": 589,
      "ٍ": 590,
      "َ": 591,
      "ُ": 592,
      "ِ": 593,
      "ّ": 594,
      "ْ": 595,
      "١": 596,
      "٣": 597,
      "ٱ": 598,
      "ٷ": 599,
      "ٹ": 600,
      "ٽ": 601,
      "پ": 602,
      "چ": 603,
      "ڇ": 604,
      "ڈ": 605,
      "ډ": 606,
      "ڌ": 607,
      "ڍ": 608,
      "ڑ": 609,
      "ڔ": 610,
      "ژ": 611,
      "ڙ": 612,
      "ڠ": 613,
      "ڤ": 614,
      "ک": 615,
      "ڪ": 616,
      "ګ": 617,
      "ڬ": 618,
      "گ": 619,
      "ڳ": 620,
      "ں": 621,
      "ڻ": 622,
      "ھ": 623,
      "ہ": 624,
      "ۂ": 625,
      "ۆ": 626,
      "ۇ": 627,
      "ۋ": 628,
      "ی": 629,
      "ێ": 630,
      "ے": 631,
      "ە": 632,
      "۱": 633,
      "ܐ": 634,
      "ܒ": 635,
      "ܓ": 636,
      "ܘ": 637,
      "ܛ": 638,
      "ܝ": 639,
      "ܟ": 640,
      "ܠ": 641,
      "ܡ": 642,
      "ܢ": 643,
      "ܥ": 644,
      "ܦ": 645,
      "ܩ": 646,
      "ܪ": 647,
      "ܫ": 648,
      "ܬ": 649,
      "ܲ": 650,
      "ܵ": 651,
      "ܿ": 652,
      "މ": 653,
      "ލ": 654,
      "ާ": 655,
      "ެ": 656,
      "ँ": 657,
      "ं": 658,
      "ः": 659,
      "अ": 660,
      "आ": 661,
      "इ": 662,
      "ई": 663,
      "उ": 664,
      "ऊ": 665,
      "ए": 666,
      "औ": 667,
      "क": 668,
      "ख": 669,
      "ग": 670,
      "घ": 671,
      "ङ": 672,
      "च": 673,
      "छ": 674,
      "ज": 675,
      "झ": 676,
      "ञ": 677,
      "ट": 678,
      "ठ": 679,
      "ड": 680,
      "ढ": 681,
      "ण": 682,
      "त": 683,
      "थ": 684,
      "द": 685,
      "ध": 686,
      "न": 687,
      "प": 688,
      "फ": 689,
      "ब": 690,
      "भ": 691,
      "म": 692,
      "य": 693,
      "र": 694,
      "ऱ": 695,
      "ल": 696,
      "ळ": 697,
      "व": 698,
      "श": 699,
      "ष": 700,
      "स": 701,
      "ह": 702,
      "़": 703,
      "ा": 704,
      "ि": 705,
      "ी": 706,
      "ु": 707,
      "ू": 708,
      "ृ": 709,
      "े": 710,
      "ै": 711,
      "ॉ": 712,
      "ो": 713,
      "ौ": 714,
      "्": 715,
      "ॐ": 716,
      "।": 717,
      "ঁ": 718,
      "ং": 719,
      "অ": 720,
      "আ": 721,
      "ই": 722,
      "উ": 723,
      "এ": 724,
      "ও": 725,
      "ক": 726,
      "খ": 727,
      "গ": 728,
      "ঘ": 729,
      "ঙ": 730,
      "চ": 731,
      "ছ": 732,
      "জ": 733,
      "ট": 734,
      "ঠ": 735,
      "ড": 736,
      "ঢ": 737,
      "ণ": 738,
      "ত": 739,
      "থ": 740,
      "দ": 741,
      "ধ": 742,
      "ন": 743,
      "প": 744,
      "ফ": 745,
      "ব": 746,
      "ভ": 747,
      "ম": 748,
      "য": 749,
      "র": 750,
      "ল": 751,
      "শ": 752,
      "ষ": 753,
      "স": 754,
      "হ": 755,
      "়": 756,
      "া": 757,
      "ি": 758,
      "ী": 759,
      "ু": 760,
      "ৃ": 761,
      "ে": 762,
      "ৈ": 763,
      "ো": 764,
      "্": 765,
      "ৰ": 766,
      "৳": 767,
      "ਆ": 768,
      "ਕ": 769,
      "ਗ": 770,
      "ਘ": 771,
      "ਚ": 772,
      "ਛ": 773,
      "ਜ": 774,
      "ਝ": 775,
      "ਟ": 776,
      "ਠ": 777,
      "ਡ": 778,
      "ਣ": 779,
      "ਤ": 780,
      "ਥ": 781,
      "ਦ": 782,
      "ਧ": 783,
      "ਨ": 784,
      "ਪ": 785,
      "ਬ": 786,
      "ਮ": 787,
      "ਰ": 788,
      "ਲ": 789,
      "ਸ": 790,
      "ਹ": 791,
      "਼": 792,
      "ਾ": 793,
      "ਿ": 794,
      "ੀ": 795,
      "ੁ": 796,
      "ੂ": 797,
      "ੇ": 798,
      "ੋ": 799,
      "੍": 800,
      "ੜ": 801,
      "ੰ": 802,
      "ੱ": 803,
      "અ": 804,
      "ઇ": 805,
      "ક": 806,
      "ખ": 807,
      "ગ": 808,
      "જ": 809,
      "ઢ": 810,
      "દ": 811,
      "ધ": 812,
      "ન": 813,
      "પ": 814,
      "ભ": 815,
      "મ": 816,
      "ર": 817,
      "લ": 818,
      "વ": 819,
      "હ": 820,
      "ા": 821,
      "ી": 822,
      "ુ": 823,
      "ે": 824,
      "ો": 825,
      "્": 826,
      "ଆ": 827,
      "ଇ": 828,
      "ଓ": 829,
      "କ": 830,
      "ଡ": 831,
      "ତ": 832,
      "ଦ": 833,
      "ନ": 834,
      "ପ": 835,
      "ବ": 836,
      "ମ": 837,
      "ର": 838,
      "ସ": 839,
      "ହ": 840,
      "଼": 841,
      "ା": 842,
      "ି": 843,
      "ୀ": 844,
      "ୁ": 845,
      "େ": 846,
      "୍": 847,
      "୭": 848,
      "அ": 849,
      "ஆ": 850,
      "இ": 851,
      "ஈ": 852,
      "உ": 853,
      "எ": 854,
      "ஏ": 855,
      "ஐ": 856,
      "க": 857,
      "ங": 858,
      "ச": 859,
      "ஜ": 860,
      "ஞ": 861,
      "ட": 862,
      "ண": 863,
      "த": 864,
      "ந": 865,
      "ன": 866,
      "ப": 867,
      "ம": 868,
      "ய": 869,
      "ர": 870,
      "ற": 871,
      "ல": 872,
      "ள": 873,
      "ழ": 874,
      "வ": 875,
      "ஶ": 876,
      "ஷ": 877,
      "ஸ": 878,
      "ா": 879,
      "ி": 880,
      "ீ": 881,
      "ு": 882,
      "ூ": 883,
      "ெ": 884,
      "ே": 885,
      "ை": 886,
      "ொ": 887,
      "ோ": 888,
      "்": 889,
      "ం": 890,
      "ఆ": 891,
      "ఇ": 892,
      "ఉ": 893,
      "ఒ": 894,
      "క": 895,
      "ఖ": 896,
      "గ": 897,
      "జ": 898,
      "ఞ": 899,
      "ట": 900,
      "డ": 901,
      "ణ": 902,
      "త": 903,
      "థ": 904,
      "ద": 905,
      "ధ": 906,
      "న": 907,
      "ప": 908,
      "బ": 909,
      "మ": 910,
      "య": 911,
      "ర": 912,
      "ల": 913,
      "వ": 914,
      "శ": 915,
      "ష": 916,
      "స": 917,
      "హ": 918,
      "ా": 919,
      "ి": 920,
      "ీ": 921,
      "ు": 922,
      "ె": 923,
      "ే": 924,
      "ై": 925,
      "ొ": 926,
      "ో": 927,
      "్": 928,
      "ಂ": 929,
      "ಅ": 930,
      "ಆ": 931,
      "ಈ": 932,
      "ಉ": 933,
      "ಕ": 934,
      "ಖ": 935,
      "ಗ": 936,
      "ಘ": 937,
      "ಚ": 938,
      "ಜ": 939,
      "ಟ": 940,
      "ಠ": 941,
      "ಡ": 942,
      "ಣ": 943,
      "ತ": 944,
      "ಥ": 945,
      "ದ": 946,
      "ಧ": 947,
      "ನ": 948,
      "ಪ": 949,
      "ಬ": 950,
      "ಭ": 951,
      "ಮ": 952,
      "ಯ": 953,
      "ರ": 954,
      "ಲ": 955,
      "ಳ": 956,
      "ವ": 957,
      "ಶ": 958,
      "ಷ": 959,
      "ಸ": 960,
      "ಹ": 961,
      "ಾ": 962,
      "ಿ": 963,
      "ೀ": 964,
      "ು": 965,
      "ೂ": 966,
      "ೃ": 967,
      "ೆ": 968,
      "ೇ": 969,
      "ೈ": 970,
      "ೊ": 971,
      "ೋ": 972,
      "್": 973,
      "ം": 974,
      "ഃ": 975,
      "അ": 976,
      "ആ": 977,
      "ഇ": 978,
      "ഈ": 979,
      "ഉ": 980,
      "ഊ": 981,
      "ഋ": 982,
      "ഌ": 983,
      "എ": 984,
      "ഏ": 985,
      "ഐ": 986,
      "ഒ": 987,
      "ഓ": 988,
      "ഔ": 989,
      "ക": 990,
      "ഖ": 991,
      "ഗ": 992,
      "ഘ": 993,
      "ങ": 994,
      "ച": 995,
      "ഛ": 996,
      "ജ": 997,
      "ഝ": 998,
      "ഞ": 999,
      "ട": 1000,
      "ഠ": 1001,
      "ഡ": 1002,
      "ഢ": 1003,
      "ണ": 1004,
      "ത": 1005,
      "ഥ": 1006,
      "ദ": 1007,
      "ധ": 1008,
      "ന": 1009,
      "ഩ": 1010,
      "പ": 1011,
      "ഫ": 1012,
      "ബ": 1013,
      "ഭ": 1014,
      "മ": 1015,
      "യ": 1016,
      "ര": 1017,
      "റ": 1018,
      "ല": 1019,
      "ള": 1020,
      "ഴ": 1021,
      "വ": 1022,
      "ശ": 1023,
      "ഷ": 1024,
      "സ": 1025,
      "ഹ": 1026,
      "഼": 1027,
      "ാ": 1028,
      "ി": 1029,
      "ീ": 1030,
      "ു": 1031,
      "ൂ": 1032,
      "ൃ": 1033,
      "െ": 1034,
      "േ": 1035,
      "ൈ": 1036,
      "ൊ": 1037,
      "ോ": 1038,
      "ൌ": 1039,
      "്": 1040,
      "ൗ": 1041,
      "ൟ": 1042,
      "ൠ": 1043,
      "ൡ": 1044,
      "ൢ": 1045,
      "൦": 1046,
      "൧": 1047,
      "൨": 1048,
      "൩": 1049,
      "൪": 1050,
      "൫": 1051,
      "൬": 1052,
      "൭": 1053,
      "൮": 1054,
      "൯": 1055,
      "൵": 1056,
      "൹": 1057,
      "ൺ": 1058,
      "ൻ": 1059,
      "ർ": 1060,
      "ൽ": 1061,
      "ൾ": 1062,
      "ൿ": 1063,
      "ං": 1064,
      "අ": 1065,
      "එ": 1066,
      "ක": 1067,
      "ග": 1068,
      "ඟ": 1069,
      "ජ": 1070,
      "ට": 1071,
      "ඩ": 1072,
      "ණ": 1073,
      "ත": 1074,
      "ද": 1075,
      "ධ": 1076,
      "න": 1077,
      "ප": 1078,
      "බ": 1079,
      "ම": 1080,
      "ය": 1081,
      "ර": 1082,
      "ල": 1083,
      "ව": 1084,
      "ශ": 1085,
      "ස": 1086,
      "හ": 1087,
      "ළ": 1088,
      "්": 1089,
      "ා": 1090,
      "ැ": 1091,
      "ි": 1092,
      "ී": 1093,
      "ු": 1094,
      "ෙ": 1095,
      "ේ": 1096,
      "ො": 1097,
      "ෝ": 1098,
      "ก": 1099,
      "ข": 1100,
      "ค": 1101,
      "ง": 1102,
      "จ": 1103,
      "ฉ": 1104,
      "ช": 1105,
      "ฌ": 1106,
      "ญ": 1107,
      "ฏ": 1108,
      "ฐ": 1109,
      "ฑ": 1110,
      "ณ": 1111,
      "ด": 1112,
      "ต": 1113,
      "ถ": 1114,
      "ท": 1115,
      "ธ": 1116,
      "น": 1117,
      "บ": 1118,
      "ป": 1119,
      "ผ": 1120,
      "พ": 1121,
      "ภ": 1122,
      "ม": 1123,
      "ย": 1124,
      "ร": 1125,
      "ฤ": 1126,
      "ล": 1127,
      "ว": 1128,
      "ศ": 1129,
      "ษ": 1130,
      "ส": 1131,
      "ห": 1132,
      "อ": 1133,
      "ฯ": 1134,
      "ะ": 1135,
      "ั": 1136,
      "า": 1137,
      "ำ": 1138,
      "ิ": 1139,
      "ี": 1140,
      "ื": 1141,
      "ุ": 1142,
      "ู": 1143,
      "฿": 1144,
      "เ": 1145,
      "แ": 1146,
      "โ": 1147,
      "ใ": 1148,
      "ไ": 1149,
      "็": 1150,
      "่": 1151,
      "้": 1152,
      "๋": 1153,
      "์": 1154,
      "ກ": 1155,
      "ງ": 1156,
      "ຊ": 1157,
      "ຍ": 1158,
      "ດ": 1159,
      "ຕ": 1160,
      "ທ": 1161,
      "ນ": 1162,
      "ບ": 1163,
      "ພ": 1164,
      "ມ": 1165,
      "ຣ": 1166,
      "ລ": 1167,
      "ວ": 1168,
      "ສ": 1169,
      "ຫ": 1170,
      "ຮ": 1171,
      "ະ": 1172,
      "ັ": 1173,
      "າ": 1174,
      "ີ": 1175,
      "ູ": 1176,
      "ົ": 1177,
      "ຼ": 1178,
      "ແ": 1179,
      "ໄ": 1180,
      "້": 1181,
      "ໍ": 1182,
      "་": 1183,
      "༌": 1184,
      "།": 1185,
      "ཀ": 1186,
      "ག": 1187,
      "ང": 1188,
      "ཆ": 1189,
      "ཏ": 1190,
      "ཐ": 1191,
      "ད": 1192,
      "ན": 1193,
      "པ": 1194,
      "ཕ": 1195,
      "བ": 1196,
      "མ": 1197,
      "ཚ": 1198,
      "ཛ": 1199,
      "འ": 1200,
      "ར": 1201,
      "ལ": 1202,
      "ས": 1203,
      "ཧ": 1204,
      "ི": 1205,
      "ུ": 1206,
      "ོ": 1207,
      "ྒ": 1208,
      "ྤ": 1209,
      "ྥ": 1210,
      "ྨ": 1211,
      "ྱ": 1212,
      "ྲ": 1213,
      "࿒": 1214,
      "က": 1215,
      "ဂ": 1216,
      "င": 1217,
      "ဇ": 1218,
      "တ": 1219,
      "န": 1220,
      "ပ": 1221,
      "ဘ": 1222,
      "မ": 1223,
      "ရ": 1224,
      "လ": 1225,
      "ဝ": 1226,
      "သ": 1227,
      "ဟ": 1228,
      "အ": 1229,
      "ါ": 1230,
      "ာ": 1231,
      "ိ": 1232,
      "ု": 1233,
      "ူ": 1234,
      "ေ": 1235,
      "း": 1236,
      "္": 1237,
      "်": 1238,
      "ျ": 1239,
      "ွ": 1240,
      "ှ": 1241,
      "၁": 1242,
      "ა": 1243,
      "ბ": 1244,
      "გ": 1245,
      "დ": 1246,
      "ე": 1247,
      "ვ": 1248,
      "ზ": 1249,
      "თ": 1250,
      "ი": 1251,
      "კ": 1252,
      "ლ": 1253,
      "მ": 1254,
      "ნ": 1255,
      "ო": 1256,
      "პ": 1257,
      "რ": 1258,
      "ს": 1259,
      "ტ": 1260,
      "უ": 1261,
      "ფ": 1262,
      "ქ": 1263,
      "ღ": 1264,
      "ყ": 1265,
      "შ": 1266,
      "ჩ": 1267,
      "ც": 1268,
      "წ": 1269,
      "ჭ": 1270,
      "ხ": 1271,
      "ჯ": 1272,
      "ም": 1273,
      "ሥ": 1274,
      "ሱ": 1275,
      "ሳ": 1276,
      "ባ": 1277,
      "ተ": 1278,
      "ን": 1279,
      "አ": 1280,
      "ኣ": 1281,
      "እ": 1282,
      "ክ": 1283,
      "ኽ": 1284,
      "ግ": 1285,
      "፡": 1286,
      "Ꭶ": 1287,
      "Ꭹ": 1288,
      "Ꭿ": 1289,
      "Ꮃ": 1290,
      "Ꮒ": 1291,
      "Ꮝ": 1292,
      "Ꮧ": 1293,
      "Ꮳ": 1294,
      "Ꮼ": 1295,
      "ᐃ": 1296,
      "ᑖ": 1297,
      "ᑦ": 1298,
      "ᑭ": 1299,
      "ᒃ": 1300,
      "ᓗ": 1301,
      "ᕿ": 1302,
      "ᖃ": 1303,
      "ᖅ": 1304,
      "ᚲ": 1305,
      "ក": 1306,
      "គ": 1307,
      "ង": 1308,
      "ច": 1309,
      "ណ": 1310,
      "ត": 1311,
      "ទ": 1312,
      "ធ": 1313,
      "ន": 1314,
      "ប": 1315,
      "ភ": 1316,
      "ម": 1317,
      "រ": 1318,
      "វ": 1319,
      "ស": 1320,
      "អ": 1321,
      "ា": 1322,
      "ី": 1323,
      "ូ": 1324,
      "ែ": 1325,
      "ំ": 1326,
      "៉": 1327,
      "័": 1328,
      "្": 1329,
      "។": 1330,
      "៛": 1331,
      "២": 1332,
      "ᠠ": 1333,
      "ᠯ": 1334,
      "ᠶ": 1335,
      "ᡠ": 1336,
      "ᮊ": 1337,
      "ᮒ": 1338,
      "ᮔ": 1339,
      "ᮕ": 1340,
      "ᮘ": 1341,
      "ᮙ": 1342,
      "ᮞ": 1343,
      "ᮤ": 1344,
      "ᮥ": 1345,
      "ᮦ": 1346,
      "᮪": 1347,
      "ᱚ": 1348,
      "ᱛ": 1349,
      "ᱟ": 1350,
      "ᱦ": 1351,
      "ᱫ": 1352,
      "ᱱ": 1353,
      "ᱵ": 1354,
      "ᱷ": 1355,
      "ᱽ": 1356,
      "ᵊ": 1357,
      "ᵗ": 1358,
      "ᵻ": 1359,
      "ḇ": 1360,
      "ḍ": 1361,
      "ḗ": 1362,
      "ḡ": 1363,
      "Ḥ": 1364,
      "ḥ": 1365,
      "ḷ": 1366,
      "ḻ": 1367,
      "ṃ": 1368,
      "ṅ": 1369,
      "ṇ": 1370,
      "ṉ": 1371,
      "ṓ": 1372,
      "ṛ": 1373,
      "Ṣ": 1374,
      "ṣ": 1375,
      "Ṭ": 1376,
      "ṭ": 1377,
      "ṽ": 1378,
      "Ẓ": 1379,
      "ẓ": 1380,
      "ạ": 1381,
      "ả": 1382,
      "ầ": 1383,
      "ậ": 1384,
      "ể": 1385,
      "ệ": 1386,
      "ị": 1387,
      "ọ": 1388,
      "ố": 1389,
      "ồ": 1390,
      "ỗ": 1391,
      "ộ": 1392,
      "ớ": 1393,
      "ờ": 1394,
      "ở": 1395,
      "ợ": 1396,
      "ứ": 1397,
      "ỳ": 1398,
      "ἀ": 1399,
      "ἄ": 1400,
      "ἅ": 1401,
      "ἆ": 1402,
      "Ἀ": 1403,
      "Ἁ": 1404,
      "Ἄ": 1405,
      "ἐ": 1406,
      "ἑ": 1407,
      "Ἐ": 1408,
      "ἡ": 1409,
      "Ἡ": 1410,
      "ἰ": 1411,
      "ἱ": 1412,
      "ὀ": 1413,
      "ὄ": 1414,
      "ὅ": 1415,
      "Ὀ": 1416,
      "Ὅ": 1417,
      "ὐ": 1418,
      "ὔ": 1419,
      "ὕ": 1420,
      "ὠ": 1421,
      "ὡ": 1422,
      "ὤ": 1423,
      "Ὠ": 1424,
      "ὰ": 1425,
      "ὴ": 1426,
      "ὶ": 1427,
      "ᾠ": 1428,
      "ᾱ": 1429,
      "ᾶ": 1430,
      "ῆ": 1431,
      "ῑ": 1432,
      "ῖ": 1433,
      "ῥ": 1434,
      "ῦ": 1435,
      "Ῥ": 1436,
      "ῳ": 1437,
      "ῶ": 1438,
      "​": 1439,
      "‌": 1440,
      "‍": 1441,
      "‎": 1442,
      "‏": 1443,
      "‐": 1444,
      "‑": 1445,
      "–": 1446,
      "—": 1447,
      "―": 1448,
      "‘": 1449,
      "’": 1450,
      "‚": 1451,
      "“": 1452,
      "”": 1453,
      "†": 1454,
      "‡": 1455,
      "•": 1456,
      "․": 1457,
      "…": 1458,
      "‧": 1459,
      "‪": 1460,
      "‬": 1461,
      "‭": 1462,
      "′": 1463,
      "″": 1464,
      "‹": 1465,
      "›": 1466,
      "⁄": 1467,
      "⁠": 1468,
      "⁡": 1469,
      "⁰": 1470,
      "⁴": 1471,
      "⁻": 1472,
      "ⁿ": 1473,
      "₂": 1474,
      "₠": 1475,
      "₡": 1476,
      "₢": 1477,
      "₣": 1478,
      "₥": 1479,
      "₦": 1480,
      "₧": 1481,
      "₨": 1482,
      "₩": 1483,
      "₪": 1484,
      "₫": 1485,
      "€": 1486,
      "₭": 1487,
      "₮": 1488,
      "₯": 1489,
      "₰": 1490,
      "₱": 1491,
      "₲": 1492,
      "₳": 1493,
      "₴": 1494,
      "₵": 1495,
      "₸": 1496,
      "₹": 1497,
      "₺": 1498,
      "₽": 1499,
      "℃": 1500,
      "℉": 1501,
      "ℓ": 1502,
      "№": 1503,
      "™": 1504,
      "ℳ": 1505,
      "⅓": 1506,
      "Ⅰ": 1507,
      "←": 1508,
      "↑": 1509,
      "→": 1510,
      "↓": 1511,
      "↗": 1512,
      "↹": 1513,
      "⇒": 1514,
      "⇦": 1515,
      "⇨": 1516,
      "⇩": 1517,
      "∂": 1518,
      "∈": 1519,
      "∑": 1520,
      "−": 1521,
      "∕": 1522,
      "∗": 1523,
      "∙": 1524,
      "√": 1525,
      "∝": 1526,
      "∠": 1527,
      "∫": 1528,
      "∶": 1529,
      "∼": 1530,
      "≈": 1531,
      "≠": 1532,
      "≡": 1533,
      "≤": 1534,
      "≥": 1535,
      "⊆": 1536,
      "⊇": 1537,
      "⊗": 1538,
      "⊿": 1539,
      "⋅": 1540,
      "⋯": 1541,
      "⌘": 1542,
      "⌥": 1543,
      "⏺": 1544,
      "─": 1545,
      "■": 1546,
      "□": 1547,
      "▪": 1548,
      "▴": 1549,
      "▶": 1550,
      "▷": 1551,
      "▸": 1552,
      "►": 1553,
      "▾": 1554,
      "◀": 1555,
      "◆": 1556,
      "◇": 1557,
      "◊": 1558,
      "○": 1559,
      "●": 1560,
      "◦": 1561,
      "◯": 1562,
      "◾": 1563,
      "☃": 1564,
      "☛": 1565,
      "☞": 1566,
      "☠": 1567,
      "☺": 1568,
      "♀": 1569,
      "♂": 1570,
      "♔": 1571,
      "♕": 1572,
      "♘": 1573,
      "♚": 1574,
      "♛": 1575,
      "♞": 1576,
      "♥": 1577,
      "♦": 1578,
      "♨": 1579,
      "♩": 1580,
      "♪": 1581,
      "♫": 1582,
      "♬": 1583,
      "♭": 1584,
      "⚠": 1585,
      "⚫": 1586,
      "⚽": 1587,
      "⛖": 1588,
      "✍": 1589,
      "✔": 1590,
      "✳": 1591,
      "❍": 1592,
      "❏": 1593,
      "❑": 1594,
      "❓": 1595,
      "❖": 1596,
      "❗": 1597,
      "❤": 1598,
      "➖": 1599,
      "➡": 1600,
      "➤": 1601,
      "⟨": 1602,
      "⟩": 1603,
      "⠈": 1604,
      "⠰": 1605,
      "⦁": 1606,
      "⬤": 1607,
      "⭕": 1608,
      "ⱨ": 1609,
      "ⱬ": 1610,
      "Ⲅ": 1611,
      "ⴰ": 1612,
      "ⴷ": 1613,
      "ⴻ": 1614,
      "ⴼ": 1615,
      "ⵉ": 1616,
      "ⵎ": 1617,
      "ⵏ": 1618,
      "ⵔ": 1619,
      "ⵖ": 1620,
      "ⵗ": 1621,
      "ⵙ": 1622,
      "ⵜ": 1623,
      "ⵝ": 1624,
      "ⵣ": 1625,
      "々": 1626,
      "あ": 1627,
      "い": 1628,
      "う": 1629,
      "か": 1630,
      "ぎ": 1631,
      "く": 1632,
      "ぐ": 1633,
      "け": 1634,
      "こ": 1635,
      "し": 1636,
      "じ": 1637,
      "ぞ": 1638,
      "だ": 1639,
      "て": 1640,
      "と": 1641,
      "の": 1642,
      "び": 1643,
      "べ": 1644,
      "ま": 1645,
      "め": 1646,
      "も": 1647,
      "や": 1648,
      "ゅ": 1649,
      "よ": 1650,
      "ら": 1651,
      "り": 1652,
      "ん": 1653,
      "ア": 1654,
      "ィ": 1655,
      "イ": 1656,
      "カ": 1657,
      "ク": 1658,
      "ゴ": 1659,
      "サ": 1660,
      "ザ": 1661,
      "シ": 1662,
      "ジ": 1663,
      "ス": 1664,
      "ソ": 1665,
      "タ": 1666,
      "ッ": 1667,
      "デ": 1668,
      "ト": 1669,
      "ド": 1670,
      "プ": 1671,
      "ボ": 1672,
      "マ": 1673,
      "ム": 1674,
      "メ": 1675,
      "ャ": 1676,
      "ヨ": 1677,
      "ラ": 1678,
      "リ": 1679,
      "ル": 1680,
      "レ": 1681,
      "ロ": 1682,
      "ワ": 1683,
      "ン": 1684,
      "ー": 1685,
      "ㄱ": 1686,
      "ㄴ": 1687,
      "ㄷ": 1688,
      "ㄹ": 1689,
      "ㅁ": 1690,
      "ㅂ": 1691,
      "ㅅ": 1692,
      "ㅇ": 1693,
      "ㅗ": 1694,
      "ㅡ": 1695,
      "ㅣ": 1696,
      "一": 1697,
      "七": 1698,
      "三": 1699,
      "上": 1700,
      "与": 1701,
      "世": 1702,
      "东": 1703,
      "中": 1704,
      "丹": 1705,
      "为": 1706,
      "丽": 1707,
      "久": 1708,
      "之": 1709,
      "乐": 1710,
      "九": 1711,
      "亂": 1712,
      "予": 1713,
      "争": 1714,
      "二": 1715,
      "五": 1716,
      "井": 1717,
      "亚": 1718,
      "京": 1719,
      "亮": 1720,
      "人": 1721,
      "仁": 1722,
      "介": 1723,
      "仙": 1724,
      "代": 1725,
      "伊": 1726,
      "伎": 1727,
      "会": 1728,
      "伯": 1729,
      "伽": 1730,
      "位": 1731,
      "住": 1732,
      "余": 1733,
      "佛": 1734,
      "作": 1735,
      "例": 1736,
      "修": 1737,
      "倉": 1738,
      "傘": 1739,
      "傳": 1740,
      "元": 1741,
      "光": 1742,
      "克": 1743,
      "兒": 1744,
      "內": 1745,
      "八": 1746,
      "公": 1747,
      "六": 1748,
      "兰": 1749,
      "共": 1750,
      "典": 1751,
      "兼": 1752,
      "冈": 1753,
      "列": 1754,
      "別": 1755,
      "利": 1756,
      "别": 1757,
      "到": 1758,
      "刻": 1759,
      "剣": 1760,
      "剧": 1761,
      "劉": 1762,
      "力": 1763,
      "加": 1764,
      "勃": 1765,
      "勇": 1766,
      "動": 1767,
      "勢": 1768,
      "包": 1769,
      "化": 1770,
      "北": 1771,
      "匹": 1772,
      "区": 1773,
      "医": 1774,
      "區": 1775,
      "十": 1776,
      "千": 1777,
      "华": 1778,
      "南": 1779,
      "占": 1780,
      "卿": 1781,
      "县": 1782,
      "參": 1783,
      "及": 1784,
      "叛": 1785,
      "古": 1786,
      "台": 1787,
      "叶": 1788,
      "合": 1789,
      "名": 1790,
      "吳": 1791,
      "呼": 1792,
      "命": 1793,
      "和": 1794,
      "品": 1795,
      "哈": 1796,
      "員": 1797,
      "唐": 1798,
      "善": 1799,
      "嘉": 1800,
      "四": 1801,
      "因": 1802,
      "団": 1803,
      "园": 1804,
      "図": 1805,
      "国": 1806,
      "國": 1807,
      "園": 1808,
      "圓": 1809,
      "圖": 1810,
      "土": 1811,
      "地": 1812,
      "圳": 1813,
      "坊": 1814,
      "城": 1815,
      "埔": 1816,
      "基": 1817,
      "堂": 1818,
      "報": 1819,
      "墨": 1820,
      "复": 1821,
      "夏": 1822,
      "夕": 1823,
      "多": 1824,
      "夜": 1825,
      "大": 1826,
      "天": 1827,
      "太": 1828,
      "夫": 1829,
      "头": 1830,
      "奥": 1831,
      "奧": 1832,
      "如": 1833,
      "妙": 1834,
      "姜": 1835,
      "姫": 1836,
      "娡": 1837,
      "嫌": 1838,
      "子": 1839,
      "孔": 1840,
      "学": 1841,
      "孫": 1842,
      "學": 1843,
      "宁": 1844,
      "宇": 1845,
      "安": 1846,
      "宏": 1847,
      "定": 1848,
      "客": 1849,
      "宫": 1850,
      "宮": 1851,
      "家": 1852,
      "富": 1853,
      "寒": 1854,
      "寢": 1855,
      "寨": 1856,
      "寫": 1857,
      "寺": 1858,
      "封": 1859,
      "小": 1860,
      "少": 1861,
      "尔": 1862,
      "尼": 1863,
      "尾": 1864,
      "屋": 1865,
      "屏": 1866,
      "属": 1867,
      "山": 1868,
      "岐": 1869,
      "岛": 1870,
      "岩": 1871,
      "岳": 1872,
      "峯": 1873,
      "峰": 1874,
      "島": 1875,
      "崎": 1876,
      "崴": 1877,
      "嶽": 1878,
      "川": 1879,
      "州": 1880,
      "工": 1881,
      "巻": 1882,
      "市": 1883,
      "帆": 1884,
      "帝": 1885,
      "師": 1886,
      "幌": 1887,
      "平": 1888,
      "幹": 1889,
      "广": 1890,
      "庐": 1891,
      "底": 1892,
      "庙": 1893,
      "府": 1894,
      "座": 1895,
      "廣": 1896,
      "式": 1897,
      "弓": 1898,
      "弗": 1899,
      "张": 1900,
      "張": 1901,
      "形": 1902,
      "律": 1903,
      "徐": 1904,
      "御": 1905,
      "復": 1906,
      "徳": 1907,
      "徹": 1908,
      "徽": 1909,
      "心": 1910,
      "忍": 1911,
      "志": 1912,
      "忙": 1913,
      "思": 1914,
      "怪": 1915,
      "悪": 1916,
      "情": 1917,
      "意": 1918,
      "感": 1919,
      "慶": 1920,
      "懲": 1921,
      "戯": 1922,
      "戸": 1923,
      "房": 1924,
      "所": 1925,
      "扇": 1926,
      "手": 1927,
      "技": 1928,
      "投": 1929,
      "担": 1930,
      "拉": 1931,
      "招": 1932,
      "拜": 1933,
      "拼": 1934,
      "摩": 1935,
      "摺": 1936,
      "支": 1937,
      "政": 1938,
      "故": 1939,
      "文": 1940,
      "斎": 1941,
      "斐": 1942,
      "斬": 1943,
      "新": 1944,
      "方": 1945,
      "族": 1946,
      "旗": 1947,
      "日": 1948,
      "旦": 1949,
      "昌": 1950,
      "星": 1951,
      "春": 1952,
      "是": 1953,
      "普": 1954,
      "景": 1955,
      "智": 1956,
      "暴": 1957,
      "曲": 1958,
      "曼": 1959,
      "曾": 1960,
      "月": 1961,
      "有": 1962,
      "望": 1963,
      "朝": 1964,
      "木": 1965,
      "本": 1966,
      "札": 1967,
      "术": 1968,
      "朴": 1969,
      "杉": 1970,
      "李": 1971,
      "村": 1972,
      "条": 1973,
      "東": 1974,
      "松": 1975,
      "林": 1976,
      "果": 1977,
      "枪": 1978,
      "柿": 1979,
      "栋": 1980,
      "株": 1981,
      "桂": 1982,
      "桌": 1983,
      "梁": 1984,
      "條": 1985,
      "梨": 1986,
      "梭": 1987,
      "梯": 1988,
      "森": 1989,
      "椿": 1990,
      "楠": 1991,
      "業": 1992,
      "槍": 1993,
      "槟": 1994,
      "樂": 1995,
      "横": 1996,
      "樫": 1997,
      "橫": 1998,
      "檜": 1999,
      "次": 2000,
      "欣": 2001,
      "歌": 2002,
      "正": 2003,
      "武": 2004,
      "死": 2005,
      "殷": 2006,
      "殿": 2007,
      "母": 2008,
      "毓": 2009,
      "毛": 2010,
      "毫": 2011,
      "氏": 2012,
      "民": 2013,
      "水": 2014,
      "永": 2015,
      "汉": 2016,
      "江": 2017,
      "池": 2018,
      "沒": 2019,
      "沟": 2020,
      "河": 2021,
      "油": 2022,
      "治": 2023,
      "法": 2024,
      "泥": 2025,
      "泰": 2026,
      "泸": 2027,
      "泾": 2028,
      "洄": 2029,
      "津": 2030,
      "洪": 2031,
      "派": 2032,
      "浑": 2033,
      "浜": 2034,
      "浦": 2035,
      "海": 2036,
      "淮": 2037,
      "深": 2038,
      "清": 2039,
      "渋": 2040,
      "渭": 2041,
      "港": 2042,
      "湖": 2043,
      "湘": 2044,
      "滝": 2045,
      "滿": 2046,
      "漢": 2047,
      "漫": 2048,
      "澎": 2049,
      "濟": 2050,
      "瀘": 2051,
      "瀬": 2052,
      "瀾": 2053,
      "灣": 2054,
      "火": 2055,
      "烧": 2056,
      "照": 2057,
      "熊": 2058,
      "父": 2059,
      "版": 2060,
      "牧": 2061,
      "物": 2062,
      "特": 2063,
      "狂": 2064,
      "狩": 2065,
      "狼": 2066,
      "獣": 2067,
      "玉": 2068,
      "王": 2069,
      "玛": 2070,
      "玫": 2071,
      "班": 2072,
      "現": 2073,
      "球": 2074,
      "瑪": 2075,
      "瑰": 2076,
      "生": 2077,
      "用": 2078,
      "田": 2079,
      "甲": 2080,
      "町": 2081,
      "画": 2082,
      "界": 2083,
      "畫": 2084,
      "登": 2085,
      "白": 2086,
      "百": 2087,
      "皇": 2088,
      "皖": 2089,
      "盂": 2090,
      "盆": 2091,
      "盈": 2092,
      "盛": 2093,
      "省": 2094,
      "真": 2095,
      "砚": 2096,
      "硬": 2097,
      "硯": 2098,
      "磐": 2099,
      "礎": 2100,
      "社": 2101,
      "祁": 2102,
      "祝": 2103,
      "神": 2104,
      "祭": 2105,
      "禁": 2106,
      "福": 2107,
      "禿": 2108,
      "租": 2109,
      "秩": 2110,
      "穂": 2111,
      "窩": 2112,
      "立": 2113,
      "競": 2114,
      "等": 2115,
      "简": 2116,
      "節": 2117,
      "簡": 2118,
      "糖": 2119,
      "納": 2120,
      "紙": 2121,
      "紫": 2122,
      "絵": 2123,
      "線": 2124,
      "縣": 2125,
      "繩": 2126,
      "红": 2127,
      "纳": 2128,
      "纸": 2129,
      "维": 2130,
      "罗": 2131,
      "羅": 2132,
      "羊": 2133,
      "羌": 2134,
      "羽": 2135,
      "翻": 2136,
      "者": 2137,
      "耶": 2138,
      "联": 2139,
      "聪": 2140,
      "聯": 2141,
      "肉": 2142,
      "能": 2143,
      "脚": 2144,
      "臧": 2145,
      "自": 2146,
      "臺": 2147,
      "舍": 2148,
      "舞": 2149,
      "船": 2150,
      "良": 2151,
      "节": 2152,
      "芥": 2153,
      "芬": 2154,
      "花": 2155,
      "苏": 2156,
      "苑": 2157,
      "若": 2158,
      "英": 2159,
      "茶": 2160,
      "草": 2161,
      "荼": 2162,
      "菜": 2163,
      "華": 2164,
      "落": 2165,
      "葉": 2166,
      "蓮": 2167,
      "薬": 2168,
      "藍": 2169,
      "蘇": 2170,
      "蘋": 2171,
      "蘭": 2172,
      "虛": 2173,
      "虫": 2174,
      "蛇": 2175,
      "行": 2176,
      "街": 2177,
      "表": 2178,
      "製": 2179,
      "西": 2180,
      "親": 2181,
      "言": 2182,
      "詩": 2183,
      "話": 2184,
      "認": 2185,
      "語": 2186,
      "諸": 2187,
      "謹": 2188,
      "警": 2189,
      "语": 2190,
      "谷": 2191,
      "貴": 2192,
      "贤": 2193,
      "贵": 2194,
      "贾": 2195,
      "资": 2196,
      "赤": 2197,
      "越": 2198,
      "足": 2199,
      "距": 2200,
      "車": 2201,
      "軟": 2202,
      "輿": 2203,
      "辰": 2204,
      "连": 2205,
      "通": 2206,
      "連": 2207,
      "道": 2208,
      "那": 2209,
      "邪": 2210,
      "郎": 2211,
      "郡": 2212,
      "部": 2213,
      "鄉": 2214,
      "酒": 2215,
      "里": 2216,
      "重": 2217,
      "野": 2218,
      "金": 2219,
      "鉄": 2220,
      "銀": 2221,
      "銘": 2222,
      "鎮": 2223,
      "银": 2224,
      "镇": 2225,
      "長": 2226,
      "长": 2227,
      "間": 2228,
      "閣": 2229,
      "闕": 2230,
      "间": 2231,
      "阪": 2232,
      "阳": 2233,
      "阿": 2234,
      "陀": 2235,
      "陕": 2236,
      "院": 2237,
      "陳": 2238,
      "陽": 2239,
      "隆": 2240,
      "隋": 2241,
      "隔": 2242,
      "隠": 2243,
      "雁": 2244,
      "集": 2245,
      "雛": 2246,
      "離": 2247,
      "雪": 2248,
      "雲": 2249,
      "霧": 2250,
      "霸": 2251,
      "青": 2252,
      "静": 2253,
      "面": 2254,
      "革": 2255,
      "韓": 2256,
      "音": 2257,
      "顺": 2258,
      "風": 2259,
      "风": 2260,
      "香": 2261,
      "高": 2262,
      "鬼": 2263,
      "魚": 2264,
      "魯": 2265,
      "鲸": 2266,
      "鳥": 2267,
      "鶴": 2268,
      "鸟": 2269,
      "鸡": 2270,
      "鸢": 2271,
      "鹤": 2272,
      "麟": 2273,
      "黄": 2274,
      "黒": 2275,
      "鼓": 2276,
      "鼠": 2277,
      "ꜜ": 2278,
      "ꦂ": 2279,
      "ꦏ": 2280,
      "ꦕ": 2281,
      "ꦗ": 2282,
      "ꦠ": 2283,
      "ꦧ": 2284,
      "ꦩ": 2285,
      "ꦪ": 2286,
      "ꦫ": 2287,
      "ꦮ": 2288,
      "ꦱ": 2289,
      "ꦸ": 2290,
      "ꦼ": 2291,
      "각": 2292,
      "강": 2293,
      "경": 2294,
      "광": 2295,
      "국": 2296,
      "궐": 2297,
      "금": 2298,
      "기": 2299,
      "꽃": 2300,
      "내": 2301,
      "도": 2302,
      "독": 2303,
      "동": 2304,
      "두": 2305,
      "드": 2306,
      "라": 2307,
      "로": 2308,
      "류": 2309,
      "만": 2310,
      "목": 2311,
      "민": 2312,
      "박": 2313,
      "부": 2314,
      "붓": 2315,
      "사": 2316,
      "산": 2317,
      "서": 2318,
      "선": 2319,
      "성": 2320,
      "소": 2321,
      "수": 2322,
      "시": 2323,
      "신": 2324,
      "양": 2325,
      "역": 2326,
      "옥": 2327,
      "울": 2328,
      "원": 2329,
      "월": 2330,
      "은": 2331,
      "익": 2332,
      "장": 2333,
      "전": 2334,
      "정": 2335,
      "제": 2336,
      "조": 2337,
      "족": 2338,
      "주": 2339,
      "지": 2340,
      "진": 2341,
      "천": 2342,
      "철": 2343,
      "치": 2344,
      "침": 2345,
      "컵": 2346,
      "판": 2347,
      "평": 2348,
      "하": 2349,
      "한": 2350,
      "해": 2351,
      "행": 2352,
      "허": 2353,
      "": 2354,
      "": 2355,
      "": 2356,
      "": 2357,
      "": 2358,
      "": 2359,
      "": 2360,
      "": 2361,
      "": 2362,
      "": 2363,
      "": 2364,
      "": 2365,
      "": 2366,
      "": 2367,
      "": 2368,
      "": 2369,
      "": 2370,
      "": 2371,
      "": 2372,
      "": 2373,
      "": 2374,
      "": 2375,
      "": 2376,
      "": 2377,
      "": 2378,
      "": 2379,
      "": 2380,
      "": 2381,
      "什": 2382,
      "ﷲ": 2383,
      "ﷺ": 2384,
      "️": 2385,
      "﹣": 2386,
      "ﺇ": 2387,
      "ﺎ": 2388,
      "ﻍ": 2389,
      "﻿": 2390,
      "，": 2391,
      "ￗ": 2392,
      "￼": 2393,
      "𐌂": 2394,
      "𐌲": 2395,
      "𐎁": 2396,
      "𐎍": 2397,
      "𐎓": 2398,
      "𐤁": 2399,
      "𐤋": 2400,
      "𐤏": 2401,
      "𐤕": 2402,
      "𓈖": 2403,
      "𝛿": 2404,
      "🅾": 2405,
      "🎙": 2406,
      "🏷": 2407,
      "🏻": 2408,
      "🏼": 2409,
      "🏽": 2410,
      "🏾": 2411,
      "🏿": 2412,
      "🐝": 2413,
      "🐞": 2414,
      "👇": 2415,
      "👉": 2416,
      "👧": 2417,
      "👨": 2418,
      "👩": 2419,
      "💃": 2420,
      "💕": 2421,
      "💞": 2422,
      "💯": 2423,
      "📌": 2424,
      "📍": 2425,
      "📎": 2426,
      "📣": 2427,
      "📮": 2428,
      "🔅": 2429,
      "🔎": 2430,
      "🔖": 2431,
      "🔘": 2432,
      "🔥": 2433,
      "🔰": 2434,
      "🔳": 2435,
      "🔴": 2436,
      "🔸": 2437,
      "🔹": 2438,
      "🕵": 2439,
      "😄": 2440,
      "😉": 2441,
      "😊": 2442,
      "😍": 2443,
      "😘": 2444,
      "😜": 2445,
      "😠": 2446,
      "🙂": 2447,
      "🙏": 2448,
      "🚩": 2449,
      "🤩": 2450,
      "🥰": 2451,
      "ന്": 2452,
      "ക്": 2453,
      "ത്": 2454,
      "്‍": 2455,
      "ക്ക": 2456,
      "ന്ന": 2457,
      "തി": 2458,
      "്ട": 2459,
      "ും": 2460,
      "പ്": 2461,
      "ില": 2462,
      "സ്": 2463,
      "മാ": 2464,
      "ങ്": 2465,
      "ുന്ന": 2466,
      "ച്": 2467,
      "്യ": 2468,
      "ിയ": 2469,
      "ര്‍": 2470,
      "ിക്ക": 2471,
      "ങ്ങ": 2472,
      "ത്തി": 2473,
      "ട്ട": 2474,
      "ണ്": 2475,
      "റ്": 2476,
      "യി": 2477,
      "ച്ച": 2478,
      "വി": 2479,
      "ത്ത": 2480,
      "പ്പ": 2481,
      "നി": 2482,
      "്ല": 2483,
      "ണ്ട": 2484,
      "ുക": 2485,
      "ന്‍": 2486,
      "പ്ര": 2487,
      "രു": 2488,
      "ടെ": 2489,
      "ാണ്": 2490,
      "രി": 2491,
      "ല്‍": 2492,
      "റ്റ": 2493,
      "ങ്ങള": 2494,
      "െയ": 2495,
      "ുന്നു": 2496,
      "രാ": 2497,
      "ില്‍": 2498,
      "റെ": 2499,
      "കാ": 2500,
      "ിച്ച": 2501,
      "്ര": 2502,
      "ാന": 2503,
      "മു": 2504,
      "ായി": 2505,
      "ക്ക്": 2506,
      "ള്": 2507,
      "ള്ള": 2508,
      "തു": 2509,
      "ഞ്": 2510,
      "അവ": 2511,
      "ല്ല": 2512,
      "ടു": 2513,
      "ക്ഷ": 2514,
      "ത്ര": 2515,
      "ില്ല": 2516,
      "വാ": 2517,
      "സി": 2518,
      "സം": 2519,
      "മ്": 2520,
      "പി": 2521,
      "കള": 2522,
      "എന്ന": 2523,
      "ന്ന്": 2524,
      "ുടെ": 2525,
      "രിക്ക": 2526,
      "ായ": 2527,
      "ദ്": 2528,
      "ന്റെ": 2529,
      "കു": 2530,
      "താ": 2531,
      "ണ്ട്": 2532,
      "ചെയ": 2533,
      "ഞ്ഞ": 2534,
      "ന്ത്": 2535,
      "രുന്നു": 2536,
      "ുള്ള": 2537,
      "പ്പെ": 2538,
      "യും": 2539,
      "പോ": 2540,
      "നാ": 2541,
      "ക്കാ": 2542,
      "ദേ": 2543,
      "സ്ഥ": 2544,
      "യാ": 2545,
      "പാ": 2546,
      "നെ": 2547,
      "വേ": 2548,
      "ടി": 2549,
      "മായി": 2550,
      "റി": 2551,
      "വര": 2552,
      "ള്‍": 2553,
      "ഒരു": 2554,
      "കോ": 2555,
      "ങ്ങള്‍": 2556,
      "മെ": 2557,
      "പു": 2558,
      "മി": 2559,
      "പറ": 2560,
      "ണം": 2561,
      "നു": 2562,
      "ുന്നത്": 2563,
      "സാ": 2564,
      "തെ": 2565,
      "കേ": 2566,
      "രം": 2567,
      "നേ": 2568,
      "ിൽ": 2569,
      "ര്യ": 2570,
      "നട": 2571,
      "ധി": 2572,
      "ങ്ക": 2573,
      "മായ": 2574,
      "വും": 2575,
      "ിച്ചു": 2576,
      "ല്ലാ": 2577,
      "ട്ടു": 2578,
      "്‌": 2579,
      "ിലെ": 2580,
      "വെ": 2581,
      "മാണ്": 2582,
      "കൂ": 2583,
      "ങ്ങൾ": 2584,
      "ബി": 2585,
      "ചി": 2586,
      "പേ": 2587,
      "ന്ത": 2588,
      "ന്ദ": 2589,
      "ന്നു": 2590,
      "ക്കു": 2591,
      "റ്റ്": 2592,
      "ത്തെ": 2593,
      "റിയ": 2594,
      "രെ": 2595,
      "ന്നും": 2596,
      "വീ": 2597,
      "കൊ": 2598,
      "ന്ത്യ": 2599,
      "ലീ": 2600,
      "ട്ടി": 2601,
      "ദ്യ": 2602,
      "ാന്‍": 2603,
      "ത്തില്‍": 2604,
      "യു": 2605,
      "ഭാ": 2606,
      "വര്‍": 2607,
      "ട്": 2608,
      "ത്തില": 2609,
      "ച്ച്": 2610,
      "ഇന്ത്യ": 2611,
      "ശ്": 2612,
      "മേ": 2613,
      "ുകള": 2614,
      "ലി": 2615,
      "ചെയ്യ": 2616,
      "ചെയ്": 2617,
      "ായിരുന്നു": 2618,
      "നം": 2619,
      "രോ": 2620,
      "യാണ്": 2621,
      "സ്‌": 2622,
      "ദി": 2623,
      "ത്ത്": 2624,
      "രിച്ച": 2625,
      "ോ": 2626,
      "ാൻ": 2627,
      "ംഗ": 2628,
      "മോ": 2629,
      "രാജ": 2630,
      "പ്പോ": 2631,
      "രണ": 2632,
      "തുട": 2633,
      "ക്കി": 2634,
      "തീ": 2635,
      "ഞ്ഞു": 2636,
      "സ്റ്റ": 2637,
      "യോ": 2638,
      "യ്": 2639,
      "അതി": 2640,
      "ദേശ": 2641,
      "യുടെ": 2642,
      "െടു": 2643,
      "മ്മ": 2644,
      "ത്തു": 2645,
      "പ്രതി": 2646,
      "ഡ്": 2647,
      "വ്യ": 2648,
      "സു": 2649,
      "സ്ഥാന": 2650,
      "ബാ": 2651,
      "ിലും": 2652,
      "മന്ത്": 2653,
      "എന്നാ": 2654,
      "ഷ്ട": 2655,
      "ത്യ": 2656,
      "ന്നെ": 2657,
      "ന്‍റെ": 2658,
      "ദേഹ": 2659,
      "ത്തിൽ": 2660,
      "ഴി": 2661,
      "ക്കും": 2662,
      "വ്": 2663,
      "ദ്ധ": 2664,
      "ണ്‍": 2665,
      "മന്ത്രി": 2666,
      "കി": 2667,
      "നീ": 2668,
      "ഗ്ര": 2669,
      "േഷ": 2670,
      "യില്‍": 2671,
      "പരി": 2672,
      "മൂ": 2673,
      "പൊ": 2674,
      "വർ": 2675,
      "ധാന": 2676,
      "ട്ട്": 2677,
      "കള്‍": 2678,
      "ുകയും": 2679,
      "ക്ര": 2680,
      "ളി": 2681,
      "ടിയ": 2682,
      "നിയ": 2683,
      "ിക്കുന്ന": 2684,
      "ദ്ദേഹ": 2685,
      "ന്ധ": 2686,
      "യെ": 2687,
      "െയും": 2688,
      "ലീസ്": 2689,
      "ഡി": 2690,
      "ാം": 2691,
      "ന്ദ്ര": 2692,
      "യം": 2693,
      "രുടെ": 2694,
      "ണി": 2695,
      "ശ്ര": 2696,
      "ജി": 2697,
      "ലോ": 2698,
      "ചിത്ര": 2699,
      "അദ്ദേഹ": 2700,
      "രുന്ന": 2701,
      "മ്പ": 2702,
      "നോ": 2703,
      "സമ": 2704,
      "ഭവ": 2705,
      "ജെ": 2706,
      "കാര്യ": 2707,
      "എന്നി": 2708,
      "ഹി": 2709,
      "ധ്യ": 2710,
      "അത്": 2711,
      "ഹു": 2712,
      "ഇത്": 2713,
      "പറഞ്ഞു": 2714,
      "ലാ": 2715,
      "പെ": 2716,
      "ഇതി": 2717,
      "ത്തിന്റെ": 2718,
      "കൾ": 2719,
      "ിച്ചി": 2720,
      "ഖ്യ": 2721,
      "ത്തിന്": 2722,
      "കെ": 2723,
      "യിൽ": 2724,
      "അവര്‍": 2725,
      "നില": 2726,
      "വു": 2727,
      "ട്ടുണ്ട്": 2728,
      "ങ്ങളുടെ": 2729,
      "റ്റി": 2730,
      "നും": 2731,
      "തോ": 2732,
      "ശു": 2733,
      "രൂ": 2734,
      "ണ്ടു": 2735,
      "ജീ": 2736,
      "ക്ത": 2737,
      "പ്രധാന": 2738,
      "യില": 2739,
      "നല്‍": 2740,
      "00": 2741,
      "തന്നെ": 2742,
      "\"\"": 2743,
      "പ്പ്": 2744,
      "റു": 2745,
      "പക്ഷ": 2746,
      "ശി": 2747,
      "ണെ": 2748,
      "ശ്യ": 2749,
      "ത്തിയ": 2750,
      "കര": 2751,
      "ഹാ": 2752,
      "അറിയ": 2753,
      "ച്ചു": 2754,
      "ക്കിയ": 2755,
      "രീ": 2756,
      "വരെ": 2757,
      "ണ്ടി": 2758,
      "സഹ": 2759,
      "സ്വ": 2760,
      "ണ്ടാ": 2761,
      "ബന്ധ": 2762,
      "പ്പെട": 2763,
      "സംഭവ": 2764,
      "ജന": 2765,
      "ക്കുന്ന": 2766,
      "സെ": 2767,
      "പൂ": 2768,
      "ക്കെ": 2769,
      "ലിയ": 2770,
      "ൊരു": 2771,
      "ഗ്": 2772,
      "പ്പെടു": 2773,
      "ക്കുക": 2774,
      "സര്‍": 2775,
      "മാന": 2776,
      "േക്ക്": 2777,
      "ഫ്": 2778,
      "നിങ്ങള്‍": 2779,
      "രേ": 2780,
      "അത": 2781,
      "അനു": 2782,
      "കട": 2783,
      "ഴ്": 2784,
      "നിന്ന്": 2785,
      "പറയ": 2786,
      "പുറ": 2787,
      "വേഷ": 2788,
      "രക്ഷ": 2789,
      "എല്ലാ": 2790,
      "ങ്ങനെ": 2791,
      "എസ്": 2792,
      "എന്നാല്‍": 2793,
      "ടതി": 2794,
      "ട്ടില്ല": 2795,
      "ജ്": 2796,
      "ഉപ": 2797,
      "ിയുടെ": 2798,
      "വിടെ": 2799,
      "ചെ": 2800,
      "പ്പെട്ട": 2801,
      "ശേഷ": 2802,
      "ുകള്‍": 2803,
      "യൂ": 2804,
      "ുകൾ": 2805,
      "രൂപ": 2806,
      "ാപ": 2807,
      "അദ്ദേഹം": 2808,
      "അന്": 2809,
      "ിക്കുന്നു": 2810,
      "ലും": 2811,
      "ചാ": 2812,
      "രാജ്യ": 2813,
      "ഷ്": 2814,
      "എം": 2815,
      "ബ്": 2816,
      "വള": 2817,
      "മില്ല": 2818,
      "ിക്കുക": 2819,
      "ലെ": 2820,
      "യോഗ": 2821,
      "മീ": 2822,
      "ഷ്യ": 2823,
      "വശ്യ": 2824,
      "മാത്ര": 2825,
      "ുകൊ": 2826,
      "വന": 2827,
      "ചെയ്തു": 2828,
      "അല്ലാ": 2829,
      "ലഭ": 2830,
      "ന്നി": 2831,
      "താണ്": 2832,
      "ാര്‍": 2833,
      "രും": 2834,
      "വസ": 2835,
      "ഞാന്‍": 2836,
      "ണ്ടെ": 2837,
      "തിയ": 2838,
      "കാണ": 2839,
      "ട്ര": 2840,
      "നിര്‍": 2841,
      "പിന്ന": 2842,
      "ഭി": 2843,
      "ച്ചി": 2844,
      "കാര": 2845,
      "ത്രിയ": 2846,
      "അല്ലാഹു": 2847,
      "ഭാഗ": 2848,
      "ന്നാണ്": 2849,
      "സംസ്ഥാന": 2850,
      "തിര": 2851,
      "ബിജെ": 2852,
      "ബോ": 2853,
      "വില": 2854,
      "ഏറ്റ": 2855,
      "ങ്ങളെ": 2856,
      "ന്റ": 2857,
      "ഫോ": 2858,
      "നല്‍ക": 2859,
      "നിര": 2860,
      "ങ്ങളും": 2861,
      "വൈ": 2862,
      "ലം": 2863,
      "കം": 2864,
      "..": 2865,
      "രോഗ": 2866,
      "യിലെ": 2867,
      "പര": 2868,
      "കര്‍": 2869,
      "റാ": 2870,
      "കുറ": 2871,
      "കഴ": 2872,
      "കൃ": 2873,
      "െയാണ്": 2874,
      "രിച്ചു": 2875,
      "മറ്റ": 2876,
      "മെന്ന്": 2877,
      "നായി": 2878,
      "20": 2879,
      "സ്റ്റ്": 2880,
      "ആവശ്യ": 2881,
      "മാര്‍": 2882,
      "ഡിയ": 2883,
      "നിയമ": 2884,
      "റോ": 2885,
      "ണ്ണ": 2886,
      "ിക്കും": 2887,
      "വിധ": 2888,
      "എന്നാൽ": 2889,
      "മുഖ്യ": 2890,
      "ചോ": 2891,
      "ങ്ങിയ": 2892,
      "ആദ്യ": 2893,
      "ിയും": 2894,
      "പോലീസ്": 2895,
      "വിശ്": 2896,
      "ത്സ": 2897,
      "കോടതി": 2898,
      "ചേ": 2899,
      "ങ്കിലും": 2900,
      "അന്വേഷ": 2901,
      "സർ": 2902,
      "ശാ": 2903,
      "രിക്കുന്നു": 2904,
      "ീയ": 2905,
      "ഞ്ഞെടു": 2906,
      "ഗാ": 2907,
      "ത്താ": 2908,
      "തിരെ": 2909,
      "കഴി": 2910,
      "നൽ": 2911,
      "ടും": 2912,
      "ൈവ": 2913,
      "വിജ": 2914,
      "ക്കള": 2915,
      "തല": 2916,
      "ഗു": 2917,
      "മുള്ള": 2918,
      "ത്തിലെ": 2919,
      "ണ്ടായി": 2920,
      "അഭി": 2921,
      "സൂ": 2922,
      "ധാ": 2923,
      "യായിരുന്നു": 2924,
      "ളം": 2925,
      "രാഷ്ട": 2926,
      "ക്രമ": 2927,
      "കേന്ദ്ര": 2928,
      "ഴു": 2929,
      "ഇതു": 2930,
      "ദാ": 2931,
      "രാഷ്ട്ര": 2932,
      "എന്": 2933,
      "യായ": 2934,
      "ങ്ങി": 2935,
      "രിയ": 2936,
      "ിക്കുന്നത്": 2937,
      "ിക്കാ": 2938,
      "രിക്കുന്നത്": 2939,
      "പൊലീസ്": 2940,
      "വരും": 2941,
      "ലക്ഷ": 2942,
      "നായ": 2943,
      "കൂടു": 2944,
      "േണ്ട": 2945,
      "ഞാൻ": 2946,
      "ചു": 2947,
      "ന്റ്": 2948,
      "സീ": 2949,
      "പ്പി": 2950,
      "േറ്റ": 2951,
      "ിക്കു": 2952,
      "നിർ": 2953,
      "എന്ത": 2954,
      "ത്‌": 2955,
      "മല്ല": 2956,
      "ദു": 2957,
      "ജോ": 2958,
      "ഹോ": 2959,
      "ര്‍ച്ച": 2960,
      "സര്‍ക്കാ": 2961,
      "ടുത്ത": 2962,
      "ചില": 2963,
      "സോ": 2964,
      "ബൈ": 2965,
      "വാഹ": 2966,
      "വിദ്യ": 2967,
      "നാം": 2968,
      "ത്ഥ": 2969,
      "ശുപ": 2970,
      "ുകയാണ്": 2971,
      "ചെയ്ത": 2972,
      "കേസ": 2973,
      "ിച്ചത്": 2974,
      "തം": 2975,
      "ഉത്ത": 2976,
      "ബു": 2977,
      "രായ": 2978,
      "ആശുപ": 2979,
      "ൂടെ": 2980,
      "ഭൂ": 2981,
      "ഗോ": 2982,
      "സംഘ": 2983,
      "സ്ത്ര": 2984,
      "ലു": 2985,
      "യ്ക്ക്": 2986,
      "ട്ടിയ": 2987,
      "നേതാ": 2988,
      "സിനി": 2989,
      "അറ": 2990,
      "വ്യക്ത": 2991,
      "ന്ധി": 2992,
      "ാർ": 2993,
      "കളും": 2994,
      "കൂടുത": 2995,
      "ങ്ങളില്‍": 2996,
      "ഷേ": 2997,
      "ത്തോ": 2998,
      "പടി": 2999,
      "ണു": 3000,
      "രിക്കും": 3001,
      "ന്ത്ര": 3002,
      "്യാ": 3003,
      "ബിജെപി": 3004,
      "ീക": 3005,
      "കോണ്‍": 3006,
      "വലിയ": 3007,
      "സത്യ": 3008,
      "കളെ": 3009,
      "മന": 3010,
      "ത്വ": 3011,
      "ടാ": 3012,
      "രണ്ട്": 3013,
      "സൈ": 3014,
      "ഏറ്റവും": 3015,
      "മായിരുന്നു": 3016,
      "പ്രവര്‍": 3017,
      "ലോക": 3018,
      "ദൈവ": 3019,
      "ക്‌": 3020,
      "ശേഷം": 3021,
      "പല": 3022,
      "രിക്കുന്ന": 3023,
      "ഗ്രസ്": 3024,
      "പരാ": 3025,
      "നിക്ക്": 3026,
      "ാനും": 3027,
      "ഇട": 3028,
      "ആയി": 3029,
      "തന്ന": 3030,
      "പറഞ്ഞ": 3031,
      "തൊ": 3032,
      "നമ്": 3033,
      "ധന": 3034,
      "അവരുടെ": 3035,
      "ിലാ": 3036,
      "കേര": 3037,
      "പ്രധാനമന്ത്രി": 3038,
      "ജാ": 3039,
      "തായി": 3040,
      "അവർ": 3041,
      "സേ": 3042,
      "അധി": 3043,
      "കും": 3044,
      "കുന്നു": 3045,
      "പുതിയ": 3046,
      "സ്ഥി": 3047,
      "എന്നിവ": 3048,
      "കുട്ടി": 3049,
      "കളുടെ": 3050,
      "ജീവി": 3051,
      "മാർ": 3052,
      "കർ": 3053,
      "പ്പു": 3054,
      "കൈ": 3055,
      "ിലാണ്": 3056,
      "ക്കുന്നു": 3057,
      "പ്പെട്ടു": 3058,
      "എന്റെ": 3059,
      "മല": 3060,
      "സിനിമ": 3061,
      "ഷി": 3062,
      "തും": 3063,
      "19": 3064,
      "പ്പം": 3065,
      "മുന്ന": 3066,
      "ചെയ്തി": 3067,
      "തിന്": 3068,
      "വോ": 3069,
      "പ്പോള്‍": 3070,
      "ത്തിയി": 3071,
      "നിന്നും": 3072,
      "വിവര": 3073,
      "തീരു": 3074,
      "തൃ": 3075,
      "തേ": 3076,
      "ണിയ": 3077,
      "ങ്കില്‍": 3078,
      "കഴിഞ്ഞ": 3079,
      "തുടര്‍": 3080,
      "പരിശ": 3081,
      "പേര്‍": 3082,
      "വരു": 3083,
      "ആശുപത്രിയ": 3084,
      "ല്ലാം": 3085,
      "എന്ന്": 3086,
      "മുഖ്യമന്ത്രി": 3087,
      "കരു": 3088,
      "മാനം": 3089,
      "സ്സ": 3090,
      "മിക": 3091,
      "പ്പിക്ക": 3092,
      "ആണ്": 3093,
      "പ്പാ": 3094,
      "ജില്ല": 3095,
      "ിലേക്ക്": 3096,
      "ക്തി": 3097,
      "നല്ല": 3098,
      "ക്കോ": 3099,
      "വധി": 3100,
      "യാള": 3101,
      "കേരള": 3102,
      "രണ്ടു": 3103,
      "മാറ്റ": 3104,
      "വളരെ": 3105,
      "ഇരു": 3106,
      "സഹായ": 3107,
      "മൊ": 3108,
      "കാല": 3109,
      "െന്ന്": 3110,
      "ടീ": 3111,
      "പേര": 3112,
      "പക്ഷേ": 3113,
      "തര": 3114,
      "ഞ്ച": 3115,
      "ശ്രമ": 3116,
      "ണെന്ന്": 3117,
      "അവന്‍": 3118,
      "റിച്ച്": 3119,
      "ംഗ്": 3120,
      "അതു": 3121,
      "ണാ": 3122,
      "റിപ്പോ": 3123,
      "പിന്നീ": 3124,
      "നിങ്ങളുടെ": 3125,
      "എനിക്ക്": 3126,
      "നുള്ള": 3127,
      "മത്സ": 3128,
      "ങ്ങളിൽ": 3129,
      "ഡോ": 3130,
      "പ്രസി": 3131,
      "ശ്രീ": 3132,
      "ത്തും": 3133,
      "സ്ത": 3134,
      "ുകളും": 3135,
      "മുണ്ട്": 3136,
      "നാണ്": 3137,
      "അട": 3138,
      "്യം": 3139,
      "പ്പോഴ": 3140,
      "തിരു": 3141,
      "ക്ഷി": 3142,
      "പാര്‍": 3143,
      "കാശ": 3144,
      "വിഷ": 3145,
      "കാരം": 3146,
      "ഉയ": 3147,
      "അംഗ": 3148,
      "ല്": 3149,
      "അധ്യ": 3150,
      "ക്കം": 3151,
      "ന്നാ": 3152,
      "ണമെ": 3153,
      "സഭ": 3154,
      "മ്പോ": 3155,
      "ഗ്രഹ": 3156,
      "ഷേധ": 3157,
      "ഇവിടെ": 3158,
      "ആര്‍": 3159,
      "ോട്": 3160,
      "ിയി": 3161,
      "രംഭ": 3162,
      "ഴ്ച": 3163,
      "കുന്ന": 3164,
      "ഉപയോഗ": 3165,
      "വെള്ള": 3166,
      "മനു": 3167,
      "വന്‍": 3168,
      "ചെയ്യുന്ന": 3169,
      "ക്കാര്യ": 3170,
      "പരാതി": 3171,
      "രേന്ദ്ര": 3172,
      "നമ്മു": 3173,
      "സംഗ": 3174,
      "ുകാ": 3175,
      "ിയെ": 3176,
      "ഇന്ത്യന്‍": 3177,
      "പ്രദേശ": 3178,
      "ാനാ": 3179,
      "കൂട്ട": 3180,
      "പ്പിച്ചു": 3181,
      "ഉറ": 3182,
      "പഠ": 3183,
      "കുടും": 3184,
      "ക്ട": 3185,
      "ന്യൂ": 3186,
      "അല്ല": 3187,
      "രിക": 3188,
      "നിങ്ങൾ": 3189,
      "മുന്‍": 3190,
      "ലേ": 3191,
      "മുഖ": 3192,
      "വാദ": 3193,
      "കണ്ടെ": 3194,
      "നിന്ന": 3195,
      "ത്തിനു": 3196,
      "നമ്മുടെ": 3197,
      "അപ": 3198,
      "പ്രത്യ": 3199,
      "വിശ്വാ": 3200,
      "അങ്ങനെ": 3201,
      "മതി": 3202,
      "തോടെ": 3203,
      "സർക്കാ": 3204,
      "ഹൈ": 3205,
      "വയ": 3206,
      "ഞങ്ങള്‍": 3207,
      "സ്വാ": 3208,
      "രുന്നില്ല": 3209,
      "കഴിയ": 3210,
      "ന്മാ": 3211,
      "പതി": 3212,
      "ചിത്രം": 3213,
      "പ്രവർ": 3214,
      "തിരഞ്ഞെടു": 3215,
      "സൗ": 3216,
      "ഴ്‌": 3217,
      "ക്കുന്നത്": 3218,
      "ണ്ടും": 3219,
      "ത്തുന്ന": 3220,
      "ണ്ടായ": 3221,
      "പങ്ക": 3222,
      "ുമായി": 3223,
      "ുള്ളത്": 3224,
      "ഉണ്ടാ": 3225,
      "നടപടി": 3226,
      "അന്വേഷണം": 3227,
      "വഴി": 3228,
      "മാക്കി": 3229,
      "സമയം": 3230,
      "നമു": 3231,
      "ഇക്കാര്യ": 3232,
      "ഹൃ": 3233,
      "ുണ്ട്": 3234,
      "ക്ഷേ": 3235,
      "പിന്നീട്": 3236,
      "ിക്കുകയും": 3237,
      "തെര": 3238,
      "നാഥ": 3239,
      "തയ": 3240,
      "തുടങ്ങിയ": 3241,
      "ന്തി": 3242,
      "നില്‍": 3243,
      "ടന": 3244,
      "ണോ": 3245,
      "ക്കിയി": 3246,
      "എന": 3247,
      "വിട": 3248,
      "നിരവധി": 3249,
      "ലൈ": 3250,
      "മനുഷ്യ": 3251,
      "ോഗ": 3252,
      "ഞ്ച്": 3253,
      "ാണ്‌": 3254,
      "പ്രാ": 3255,
      "അടി": 3256,
      "പ്രീ": 3257,
      "താര": 3258,
      "പ്രവര്‍ത്ത": 3259,
      "പരിക്ക": 3260,
      "ിയില്‍": 3261,
      "വിജയ": 3262,
      "ക്കാൻ": 3263,
      "ഭാഷ": 3264,
      "സ്വീ": 3265,
      "ങ്ങന": 3266,
      "ട്ടെ": 3267,
      "ക്കൊ": 3268,
      "മരണ": 3269,
      "ത്തിന്‍റെ": 3270,
      "പൂര്‍": 3271,
      "ാനുള്ള": 3272,
      "കോണ്‍ഗ്രസ്": 3273,
      "ദീ": 3274,
      "സര്‍ക്കാര്‍": 3275,
      "മോദി": 3276,
      "ആള": 3277,
      "ഉട": 3278,
      "10": 3279,
      "യേ": 3280,
      "തട": 3281,
      "സ്ത്രീ": 3282,
      "ജീവ": 3283,
      "ഭരണ": 3284,
      "കുടുംബ": 3285,
      "വേണ്ടി": 3286,
      "ിക്കാൻ": 3287,
      "നരേന്ദ്ര": 3288,
      "\"\"\"": 3289,
      "ോഷ": 3290,
      "കുറ്റ": 3291,
      "പ്രസിഡ": 3292,
      "ുകയായിരുന്നു": 3293,
      "യഹോ": 3294,
      "പീ": 3295,
      "രീക്ഷ": 3296,
      "ഗ്രാ": 3297,
      "റും": 3298,
      "വിള": 3299,
      "അവരെ": 3300,
      "ിലേ": 3301,
      "ഭീ": 3302,
      "കീ": 3303,
      "സ്ഥല": 3304,
      "പ്രവേ": 3305,
      "പറയുന്നു": 3306,
      "ര്‍ശ": 3307,
      "മൃ": 3308,
      "പരിശോ": 3309,
      "രാഹു": 3310,
      "ക്യാ": 3311,
      "മൂന്ന്": 3312,
      "എന്നു": 3313,
      "വരാ": 3314,
      "ങ്കിൽ": 3315,
      "വേണ്ട": 3316,
      "സിൽ": 3317,
      "ക്കാന്‍": 3318,
      "നയ": 3319,
      "മറ": 3320,
      "ഫി": 3321,
      "െയ്": 3322,
      "ുകൊണ്ട്": 3323,
      "ബെ": 3324,
      "തുടർ": 3325,
      "ഉത്തര": 3326,
      "വന്ന": 3327,
      "ത്തിലാണ്": 3328,
      "സ്റ്റി": 3329,
      "വരുടെ": 3330,
      "പ്രത്യേ": 3331,
      "അവസ": 3332,
      "ആരംഭ": 3333,
      "മികച്ച": 3334,
      "തെരഞ്ഞെടു": 3335,
      "മേഖ": 3336,
      "വില്‍": 3337,
      "അറിയിച്ചു": 3338,
      "ദ്ദേശ": 3339,
      "ക്കുകയും": 3340,
      "പോയി": 3341,
      "സെക്ര": 3342,
      "പങ്കെടു": 3343,
      "ദിവസ": 3344,
      "സെക്രട്ട": 3345,
      "ആരോ": 3346,
      "ാത്ത": 3347,
      "അധ്യക്ഷ": 3348,
      "പോലീ": 3349,
      "പ്പെട്ടി": 3350,
      "കോടി": 3351,
      "ത്രി": 3352,
      "നൽക": 3353,
      "പ്രശ": 3354,
      "മഹ": 3355,
      "ിക്കാന്‍": 3356,
      "നിന്നു": 3357,
      "യായും": 3358,
      "പ്രഖ്യ": 3359,
      "ന്യ": 3360,
      "ാനം": 3361,
      "ശ്രദ്ധ": 3362,
      "ആക്രമ": 3363,
      "ചോദ്യ": 3364,
      "മും": 3365,
      "ന്തപു": 3366,
      "ണ്ടായിരുന്നു": 3367,
      "പദ്ധ": 3368,
      "തിരിച്ച": 3369,
      "വിക": 3370,
      "നഗ": 3371,
      "സ്വീക": 3372,
      "തുടര്‍ന്ന്": 3373,
      "ൃഷ്ട": 3374,
      "ചന": 3375,
      "വുമായി": 3376,
      "സംസാ": 3377,
      "ക്കേ": 3378,
      "കയ": 3379,
      "സുരക്ഷ": 3380,
      "ശത": 3381,
      "തിരുവന": 3382,
      "ംഗ്ല": 3383,
      "ത്തിയത്": 3384,
      "വഴ": 3385,
      "അവിടെ": 3386,
      "ങ്ക്": 3387,
      "ആത്": 3388,
      "നടന്ന": 3389,
      "പ്പോൾ": 3390,
      "തിരുവനന്തപു": 3391,
      "പൂർ": 3392,
      "തന്റെ": 3393,
      "രംഗ": 3394,
      "മ്പ്": 3395,
      "സിന്റെ": 3396,
      "ട്ടോ": 3397,
      "എന്നെ": 3398,
      "വഹ": 3399,
      "പദ്ധതി": 3400,
      "എങ്ങനെ": 3401,
      "അമേ": 3402,
      "നേര": 3403,
      "പിട": 3404,
      "പ്രായ": 3405,
      "മഹാ": 3406,
      "കൊല്ല": 3407,
      "ചോദ": 3408,
      "15": 3409,
      "സില്‍": 3410,
      "കൂടി": 3411,
      ".\"": 3412,
      "അപകട": 3413,
      "വിധാന": 3414,
      "വകു": 3415,
      "കഥ": 3416,
      "ശിക്ഷ": 3417,
      "ോഗ": 3418,
      "രണം": 3419,
      "യാത്ര": 3420,
      "കല": 3421,
      "രോഗ്യ": 3422,
      "മേഖല": 3423,
      "ിക": 3424,
      "പ്രഖ്യാപ": 3425,
      "കോൺ": 3426,
      "പോലെ": 3427,
      "ഇല്ല": 3428,
      "സംവിധാന": 3429,
      "കോള": 3430,
      "ക്രി": 3431,
      "കൂടുതല്‍": 3432,
      "രിക്കുകയാണ്": 3433,
      "യിലാണ്": 3434,
      "ന്തര": 3435,
      "പിന്": 3436,
      "ൊന്നും": 3437,
      "സമയ": 3438,
      "കാരണ": 3439,
      "അടുത്ത": 3440,
      "നിറ": 3441,
      "പിതാ": 3442,
      "ഉള്ള": 3443,
      "ഇത്ത": 3444,
      "പ്പെടുത്ത": 3445,
      "സംഭവം": 3446,
      "000": 3447,
      "പ്പിച്ച": 3448,
      "സാധ്യ": 3449,
      "വിശ": 3450,
      "യുള്ള": 3451,
      "ടക": 3452,
      "തീര്‍ച്ച": 3453,
      "നഷ്ട": 3454,
      "നിൽ": 3455,
      "പ്രതിഷേധ": 3456,
      "മന്": 3457,
      "്യൂ": 3458,
      "സും": 3459,
      "വണ": 3460,
      "കന്‍": 3461,
      "ിലൂടെ": 3462,
      "അമേരിക്ക": 3463,
      "വീട്ട": 3464,
      "എന്‍": 3465,
      "മുത": 3466,
      "ചേര്‍": 3467,
      "മരിച്ച": 3468,
      "നടത്ത": 3469,
      "യഹോവ": 3470,
      "ദേശീയ": 3471,
      "ട്ടും": 3472,
      "കൊണ്ടു": 3473,
      "ക്കെതിരെ": 3474,
      "12": 3475,
      "രുന്നത്": 3476,
      "ബാധ": 3477,
      "മാധ്യ": 3478,
      "ഗാന്ധി": 3479,
      "കരണ": 3480,
      "ശക്ത": 3481,
      "അറസ്റ്റ്": 3482,
      "മാധ്യമ": 3483,
      "വൃ": 3484,
      "ക്കുള്ള": 3485,
      "തിനെ": 3486,
      "ജ്ഞ": 3487,
      "കാരണം": 3488,
      "ഇതുവരെ": 3489,
      "ആർ": 3490,
      "ഫീ": 3491,
      "വം": 3492,
      "യില്ല": 3493,
      "സമ്": 3494,
      "സന്ത": 3495,
      "ാര്‍ത്ഥ": 3496,
      "എന്താണ്": 3497,
      "സന്ദ": 3498,
      "അയ": 3499,
      "ഷാ": 3500,
      "സ്ഥാപ": 3501,
      "മാത്രം": 3502,
      "യുവ": 3503,
      "കാര്യം": 3504,
      "മായും": 3505,
      "അതേ": 3506,
      "ച്ചത്": 3507,
      "റിപ്പോര്‍": 3508,
      "കേസ്": 3509,
      "ഉണ്ടായി": 3510,
      "വല": 3511,
      "പൊലീ": 3512,
      "ക്കായി": 3513,
      "സ്ഥിതി": 3514,
      "ഡല്‍": 3515,
      "നമ്മ": 3516,
      "അടു": 3517,
      "തായ": 3518,
      "തിരുവനന്തപുരം": 3519,
      "ന്ദി": 3520,
      "ഒരാ": 3521,
      "ക്കള്‍": 3522,
      "മുൻ": 3523,
      "ിലുള്ള": 3524,
      "തമി": 3525,
      "ഡിയോ": 3526,
      "പാല": 3527,
      "ആരോഗ്യ": 3528,
      "വാര്‍": 3529,
      "വിശ്വസ": 3530,
      "പേർ": 3531,
      "പങ്": 3532,
      "പ്പോഴും": 3533,
      "ഭാര്യ": 3534,
      "ിയാണ്": 3535,
      "മന്ത്രിയ": 3536,
      "മുംബൈ": 3537,
      "നെതിരെ": 3538,
      "ക്കാര": 3539,
      "ചൈ": 3540,
      "ജീവിത": 3541,
      "തന്നെയാണ്": 3542,
      "ക്കൂ": 3543,
      "വിൽ": 3544,
      "പ്രതീ": 3545,
      "വസ്ഥ": 3546,
      "തെന്ന്": 3547,
      "കണ": 3548,
      "അമ്മ": 3549,
      "തീര്‍ച്ചയായും": 3550,
      "പ്പെടുന്ന": 3551,
      "പ്രത്യേക": 3552,
      "സെക്രട്ടറി": 3553,
      "പിടി": 3554,
      "പാർ": 3555,
      "ഗുരു": 3556,
      "സാധ": 3557,
      "മത": 3558,
      "ണ്ഡ": 3559,
      "ശയ": 3560,
      "ഫല": 3561,
      "കണ്ട": 3562,
      "വിന്റെ": 3563,
      "സാഹ": 3564,
      "സഭാ": 3565,
      "ത്തിലും": 3566,
      "ച്ഛ": 3567,
      "നേടിയ": 3568,
      "ിയാ": 3569,
      "കൂടുതൽ": 3570,
      "ക്കുറിച്ച്": 3571,
      "കൊണ്ട്": 3572,
      "ഇന്ത്യൻ": 3573,
      "ിക്കൊ": 3574,
      "പാത": 3575,
      "ടേ": 3576,
      "എടു": 3577,
      "രേഖ": 3578,
      "മനസ്സ": 3579,
      "വ്യാ": 3580,
      "ഗണ": 3581,
      "വീണ്ടും": 3582,
      "ആരോപ": 3583,
      "നിന": 3584,
      "ആരാ": 3585,
      "കൊല": 3586,
      "പക്ഷെ": 3587,
      "തള്ള": 3588,
      "യ്‌": 3589,
      "മ്മി": 3590,
      "അവര": 3591,
      "രണ്ട": 3592,
      "നേതാവ്": 3593,
      "വിവാഹ": 3594,
      "ത്തേ": 3595,
      "ബന്ധി": 3596,
      "വാഹന": 3597,
      "ക്കാം": 3598,
      "ഉദ്യ": 3599,
      "ഥി": 3600,
      "രാഷ്ട്രീയ": 3601,
      "സ്യ": 3602,
      "കളില്‍": 3603,
      "യായി": 3604,
      "ത്യാ": 3605,
      "സുപ്രീ": 3606,
      "മഴ": 3607,
      "നേരി": 3608,
      "ിച്ചിരുന്നു": 3609,
      "ചെയ്യുന്നു": 3610,
      "സുപ്രീം": 3611,
      "ഓരോ": 3612,
      "ിച്ചിട്ടുണ്ട്": 3613,
      "എഴു": 3614,
      "...": 3615,
      "ട്‌": 3616,
      "ഒന്ന": 3617,
      "സിന്": 3618,
      "ബിജെപ": 3619,
      "എന്നീ": 3620,
      "സീറ്റ": 3621,
      "ഇറ": 3622,
      "കമ്പ": 3623,
      "ഒഴി": 3624,
      "വില്ല": 3625,
      "പ്രവർത്ത": 3626,
      "ർച്ച": 3627,
      "സ്വന്ത": 3628,
      "ചെയ്യും": 3629,
      "മെന്നും": 3630,
      "അന": 3631,
      "മെഡ": 3632,
      "സംബന്ധ": 3633,
      "മാണ": 3634,
      "മത്സര": 3635,
      "ദ്ര": 3636,
      "ണിത്": 3637,
      "മറ്റ്": 3638,
      "പ്പെട്ട്": 3639,
      "മാതാ": 3640,
      "50": 3641,
      "ഭക്ഷ": 3642,
      "ുകളില്‍": 3643,
      "തില്‍": 3644,
      "വസം": 3645,
      "ളു": 3646,
      "ട്ടം": 3647,
      "വേദ": 3648,
      "ചികി": 3649,
      "മോദ": 3650,
      "മരിച്ചു": 3651,
      "പ്പെടുത്തി": 3652,
      "18": 3653,
      "വിഭാഗ": 3654,
      "നാട്ട": 3655,
      "സമീ": 3656,
      "വിക്ക": 3657,
      "ഇന്ത്യയുടെ": 3658,
      "മറ്റു": 3659,
      "രിച്ചി": 3660,
      "െന്നും": 3661,
      "നടത്തി": 3662,
      "ലക്ഷം": 3663,
      "ാല്‍": 3664,
      "ുകൂ": 3665,
      "ഉൾ": 3666,
      "റായി": 3667,
      "പറ്റ": 3668,
      "ദേശം": 3669,
      "ണ്ടോ": 3670,
      "എന്‍റെ": 3671,
      "കൂട": 3672,
      "പാകി": 3673,
      "സഹോ": 3674,
      "ദിവസം": 3675,
      "പോ": 3676,
      "ഏറെ": 3677,
      "ഒന്നും": 3678,
      "അടിസ്ഥാന": 3679,
      "മാണ്‌": 3680,
      "കരണം": 3681,
      "പൗ": 3682,
      "ല്ലോ": 3683,
      "ആര": 3684,
      "ങ്ങനെയ": 3685,
      "മൂന്നു": 3686,
      "ചരി": 3687,
      "പുര": 3688,
      "ഷം": 3689,
      "നടത്തിയ": 3690,
      "മട": 3691,
      "എത്ര": 3692,
      "ഭവി": 3693,
      "ബ്ല": 3694,
      "നാല്‍": 3695,
      "ഞ്ഞി": 3696,
      "തൊരു": 3697,
      "എത്തി": 3698,
      "14": 3699,
      "ഇവ": 3700,
      "തന്ത്ര": 3701,
      "ഹ്": 3702,
      "ധാരണ": 3703,
      "കലാ": 3704,
      "കൃത": 3705,
      "ദം": 3706,
      "ഡ്ര": 3707,
      "നിങ്ങളെ": 3708,
      "പിന്നെ": 3709,
      "തമ്മ": 3710,
      "വിവിധ": 3711,
      "ണമെന്ന്": 3712,
      "വദ": 3713,
      "ൊപ്പം": 3714,
      "പ്പെടുന്നു": 3715,
      "ങ്ങളാണ്": 3716,
      "കൂടിയ": 3717,
      "വരാണ്": 3718,
      "പുറത്തു": 3719,
      "ഞങ്ങൾ": 3720,
      "സർക്കാർ": 3721,
      "രോധ": 3722,
      "സമീപ": 3723,
      "തരി": 3724,
      "കൊടു": 3725,
      "ദൂ": 3726,
      "ുകളുടെ": 3727,
      "യാള്‍": 3728,
      "ബ്ര": 3729,
      "എല്‍": 3730,
      "നല്‍കിയ": 3731,
      "ീഷ": 3732,
      "രിൽ": 3733,
      "ഏക": 3734,
      "റില്‍": 3735,
      "അവൻ": 3736,
      "മെഡിക്ക": 3737,
      "തിക": 3738,
      "ജു": 3739,
      "തീരുമാന": 3740,
      "ർശ": 3741,
      "ിലോ": 3742,
      "പ്രസിഡന്റ്": 3743,
      "സഹോദ": 3744,
      "ിലി": 3745,
      "കണ്ണ": 3746,
      "മാറി": 3747,
      "ിയിൽ": 3748,
      "ക്കൾ": 3749,
      "ൂര്‍": 3750,
      "ചികിത്സ": 3751,
      "അമി": 3752,
      "എന്തു": 3753,
      "തുറ": 3754,
      "രായി": 3755,
      "പ്രകാരം": 3756,
      "ഫ്ര": 3757,
      "ജയ": 3758,
      "മാറ്റി": 3759,
      "പ്രതീക്ഷ": 3760,
      "സൃഷ്ട": 3761,
      "ണ്ണം": 3762,
      "ദ്ധി": 3763,
      "എല്ലാം": 3764,
      "ഉണ്ട്": 3765,
      "നിങ്ങള": 3766,
      "താരം": 3767,
      "കള്‍ക്ക്": 3768,
      "വൈറ": 3769,
      "നിന്നുള്ള": 3770,
      "പേക്ഷ": 3771,
      "വായ": 3772,
      "പരിക്കേറ്റ": 3773,
      "എൻ": 3774,
      "അന്വേഷണ": 3775,
      "ശ്മീ": 3776,
      "ഇവര്‍": 3777,
      "ത്തിക": 3778,
      "ഭ്യ": 3779,
      "കേസെടു": 3780,
      "ീസ്": 3781,
      "ചൂ": 3782,
      "ചര്യ": 3783,
      "അവര്‍ക്ക്": 3784,
      "സംവിധാനം": 3785,
      "കുതി": 3786,
      "ഭയ": 3787,
      "ങ്ങള്‍ക്ക്": 3788,
      "രിച്ച്": 3789,
      "ദിന": 3790,
      "ദൃ": 3791,
      "ഉള്‍": 3792,
      "വ്യക്തി": 3793,
      "ചേർ": 3794,
      "പ്രശ്‌": 3795,
      "ണെന്നും": 3796,
      "ത്തോടെ": 3797,
      "മൂഹ": 3798,
      "വിമാന": 3799,
      "ര്": 3800,
      "വരുന്ന": 3801,
      "വന്നു": 3802,
      "പാട": 3803,
      "ളെ": 3804,
      "അവതരി": 3805,
      "നേഹ": 3806,
      "സമാ": 3807,
      "റേ": 3808,
      "സ്ട": 3809,
      "അറസ്റ്റ": 3810,
      "തുണ": 3811,
      "വിഡ്": 3812,
      "ത്തിലുള്ള": 3813,
      "ളള": 3814,
      "ക്രിക്ക": 3815,
      "പ്പിക്കുന്ന": 3816,
      "അനുവദ": 3817,
      "ഞ്ഞ്": 3818,
      "നിന്റെ": 3819,
      "വിഷയ": 3820,
      "മൃത": 3821,
      "ക്കോടതി": 3822,
      "ങ്ങളിലും": 3823,
      "നമുക്ക്": 3824,
      "ഗം": 3825,
      "എഫ്": 3826,
      "ല്യ": 3827,
      "ആഗ്രഹ": 3828,
      "സ്താ": 3829,
      "തങ്ങളുടെ": 3830,
      "ഇക്കാര്യം": 3831,
      "വിശദ": 3832,
      "നിങ്ങള്‍ക്ക്": 3833,
      "വിദേശ": 3834,
      "ഷ്‌": 3835,
      "ുകളിൽ": 3836,
      "ലഭ്യ": 3837,
      "സാമ്പ": 3838,
      "ഭൂമ": 3839,
      "ഓഫ്": 3840,
      "ക്കുറ": 3841,
      "പ്രവേശി": 3842,
      "രുത്": 3843,
      "ചുമ": 3844,
      "അല്ലെ": 3845,
      "പ്രവര്‍ത്തി": 3846,
      "ത്തിനും": 3847,
      "വിദ്യാ": 3848,
      "തയ്യാ": 3849,
      "ഇനി": 3850,
      "ത്രം": 3851,
      "വുന്ന": 3852,
      "രാഹുല്‍": 3853,
      "പോലും": 3854,
      "രീതി": 3855,
      "രണ്ടാം": 3856,
      "ർത്ത": 3857,
      "മാര": 3858,
      "മറു": 3859,
      "ൊക്കെ": 3860,
      "കളാണ്": 3861,
      "ചെയ്യുന്നത്": 3862,
      "16": 3863,
      "നഗര": 3864,
      "സാഹചര്യ": 3865,
      "കളിൽ": 3866,
      "ടാതെ": 3867,
      "ഇംഗ്ല": 3868,
      "മക": 3869,
      "തൊഴ": 3870,
      "താമ": 3871,
      "വാദി": 3872,
      "ഹൈക്കോടതി": 3873,
      "വീഡിയോ": 3874,
      "ഹമ്മ": 3875,
      "സാമ്പത്തിക": 3876,
      "ശം": 3877,
      "പ്രിയ": 3878,
      "രിക്കുക": 3879,
      "രാമ": 3880,
      "ആശുപത്രിയില്‍": 3881,
      "വിന്": 3882,
      "പിന്തുണ": 3883,
      "തിനു": 3884,
      "നേരത്തെ": 3885,
      "സ്തു": 3886,
      "വിപ": 3887,
      "13": 3888,
      "തുടങ്ങി": 3889,
      "ക്കാണ്": 3890,
      "വ്യക്തമാക്കി": 3891,
      "ഹൃദ": 3892,
      "ബന്ധിച്ച്": 3893,
      "ഇങ്ങനെ": 3894,
      "യേശു": 3895,
      "ഞാന": 3896,
      "പൊതു": 3897,
      "ീല": 3898,
      "ചീ": 3899,
      "ചെയ്തത്": 3900,
      "ജനറ": 3901,
      "പേരെ": 3902,
      "മൃതദേഹ": 3903,
      "പരീക്ഷ": 3904,
      "പടിയ": 3905,
      "മീറ്റ": 3906,
      "രജി": 3907,
      "സിപി": 3908,
      "ട്ടുള്ള": 3909,
      "ത്വം": 3910,
      "പ്പില്‍": 3911,
      "200": 3912,
      "വൻ": 3913,
      "മാത്രമാണ്": 3914,
      "17": 3915,
      "നല്‍കി": 3916,
      "രാജ്": 3917,
      "വിട്ടു": 3918,
      "ഗതി": 3919,
      "ധികം": 3920,
      "പ്രശ്": 3921,
      "വിന്‍റെ": 3922,
      "േദ": 3923,
      "ചെയ്‌": 3924,
      "തുടർന്ന്": 3925,
      "തോന്ന": 3926,
      "ചര്‍ച്ച": 3927,
      "ക്കിയത്": 3928,
      "ഞ്ചാ": 3929,
      "എനിക്ക": 3930,
      "േഷ്": 3931,
      "ഞങ്ങളുടെ": 3932,
      "സംഭവത്തില്‍": 3933,
      "പ്രതിപക്ഷ": 3934,
      "െയാ": 3935,
      "ചൈന": 3936,
      "ചോദ്യം": 3937,
      "ിലു": 3938,
      "വിനെ": 3939,
      "തെളി": 3940,
      "ഇതിന്": 3941,
      "മോഹ": 3942,
      "സംഭവി": 3943,
      "വിട്ട": 3944,
      "റിന്റെ": 3945,
      "ഗുരുതര": 3946,
      "ന്‍സ്": 3947,
      "സമ്മ": 3948,
      "പരിശോധന": 3949,
      "നാല്": 3950,
      "പാട്": 3951,
      "മാന്‍": 3952,
      "ഒരിക്ക": 3953,
      "ായ്": 3954,
      "ക്കാര്‍": 3955,
      "ിലായി": 3956,
      "തവണ": 3957,
      "കോൺഗ്രസ്": 3958,
      "ക്സ്": 3959,
      "ഇഷ്ട": 3960,
      "മുട്ട": 3961,
      "േയ": 3962,
      "ചന്ദ്ര": 3963,
      "െങ്കിലും": 3964,
      "ചെയ്യുക": 3965,
      "അതിന്": 3966,
      "പറയുന്നത്": 3967,
      "തന്‍റെ": 3968,
      "മ്പോൾ": 3969,
      "ഡല്‍ഹി": 3970,
      "കോണ്‍ഗ്ര": 3971,
      "സിങ്": 3972,
      "നിശ്": 3973,
      "ഡെ": 3974,
      "ഇന്‍": 3975,
      "മറ്റൊരു": 3976,
      "ഷ്ണ": 3977,
      "അവനെ": 3978,
      "ഘാ": 3979,
      "ാലും": 3980,
      "വ്യക്തമാ": 3981,
      "ഫാ": 3982,
      "മീഡിയ": 3983,
      "ഷണ": 3984,
      "ഗി": 3985,
      "''": 3986,
      "ടോ": 3987,
      "നെയും": 3988,
      "നിടെ": 3989,
      "ദേശ്": 3990,
      "രിക്കു": 3991,
      "ല്‍പ": 3992,
      "പിന്നാ": 3993,
      "ഞ്ചി": 3994,
      "ഭ്യാ": 3995,
      "സന്തോഷ": 3996,
      "പങ്കു": 3997,
      "എന്താ": 3998,
      "മെന്റ്": 3999
    },
    "merges": [
      [
        "ന",
        "്"
      ],
      [
        "ക",
        "്"
      ],
      [
        "ത",
        "്"
      ],
      [
        "്",
        "‍"
      ],
      [
        "ക്",
        "ക"
      ],
      [
        "ന്",
        "ന"
      ],
      [
        "ത",
        "ി"
      ],
      [
        "്",
        "ട"
      ],
      [
        "ു",
        "ം"
      ],
      [
        "പ",
        "്"
      ],
      [
        "ി",
        "ല"
      ],
      [
        "സ",
        "്"
      ],
      [
        "മ",
        "ാ"
      ],
      [
        "ങ",
        "്"
      ],
      [
        "ു",
        "ന്ന"
      ],
      [
        "ച",
        "്"
      ],
      [
        "്",
        "യ"
      ],
      [
        "ി",
        "യ"
      ],
      [
        "ര",
        "്‍"
      ],
      [
        "ി",
        "ക്ക"
      ],
      [
        "ങ്",
        "ങ"
      ],
      [
        "ത്",
        "തി"
      ],
      [
        "ട",
        "്ട"
      ],
      [
        "ണ",
        "്"
      ],
      [
        "റ",
        "്"
      ],
      [
        "യ",
        "ി"
      ],
      [
        "ച്",
        "ച"
      ],
      [
        "വ",
        "ി"
      ],
      [
        "ത്",
        "ത"
      ],
      [
        "പ്",
        "പ"
      ],
      [
        "ന",
        "ി"
      ],
      [
        "്",
        "ല"
      ],
      [
        "ണ",
        "്ട"
      ],
      [
        "ു",
        "ക"
      ],
      [
        "ന്",
        "‍"
      ],
      [
        "പ്",
        "ര"
      ],
      [
        "ര",
        "ു"
      ],
      [
        "ട",
        "െ"
      ],
      [
        "ാ",
        "ണ്"
      ],
      [
        "ര",
        "ി"
      ],
      [
        "ല",
        "്‍"
      ],
      [
        "റ്",
        "റ"
      ],
      [
        "ങ്ങ",
        "ള"
      ],
      [
        "െ",
        "യ"
      ],
      [
        "ുന്ന",
        "ു"
      ],
      [
        "ര",
        "ാ"
      ],
      [
        "ില",
        "്‍"
      ],
      [
        "റ",
        "െ"
      ],
      [
        "ക",
        "ാ"
      ],
      [
        "ി",
        "ച്ച"
      ],
      [
        "്",
        "ര"
      ],
      [
        "ാ",
        "ന"
      ],
      [
        "മ",
        "ു"
      ],
      [
        "ാ",
        "യി"
      ],
      [
        "ക്",
        "ക്"
      ],
      [
        "ള",
        "്"
      ],
      [
        "ള്",
        "ള"
      ],
      [
        "ത",
        "ു"
      ],
      [
        "ഞ",
        "്"
      ],
      [
        "അ",
        "വ"
      ],
      [
        "ല",
        "്ല"
      ],
      [
        "ട",
        "ു"
      ],
      [
        "ക്",
        "ഷ"
      ],
      [
        "ത്",
        "ര"
      ],
      [
        "ില",
        "്ല"
      ],
      [
        "വ",
        "ാ"
      ],
      [
        "സ",
        "ി"
      ],
      [
        "സ",
        "ം"
      ],
      [
        "മ",
        "്"
      ],
      [
        "പ",
        "ി"
      ],
      [
        "ക",
        "ള"
      ],
      [
        "എ",
        "ന്ന"
      ],
      [
        "ന്",
        "ന്"
      ],
      [
        "ു",
        "ടെ"
      ],
      [
        "ര",
        "ിക്ക"
      ],
      [
        "ാ",
        "യ"
      ],
      [
        "ദ",
        "്"
      ],
      [
        "ന്",
        "റെ"
      ],
      [
        "ക",
        "ു"
      ],
      [
        "ത",
        "ാ"
      ],
      [
        "ണ്ട",
        "്"
      ],
      [
        "ച",
        "െയ"
      ],
      [
        "ഞ്",
        "ഞ"
      ],
      [
        "ന്",
        "ത്"
      ],
      [
        "ര",
        "ുന്നു"
      ],
      [
        "ു",
        "ള്ള"
      ],
      [
        "പ്പ",
        "െ"
      ],
      [
        "യ",
        "ും"
      ],
      [
        "പ",
        "ോ"
      ],
      [
        "ന",
        "ാ"
      ],
      [
        "ക്ക",
        "ാ"
      ],
      [
        "ദ",
        "േ"
      ],
      [
        "സ്",
        "ഥ"
      ],
      [
        "യ",
        "ാ"
      ],
      [
        "പ",
        "ാ"
      ],
      [
        "ന",
        "െ"
      ],
      [
        "വ",
        "േ"
      ],
      [
        "ട",
        "ി"
      ],
      [
        "മാ",
        "യി"
      ],
      [
        "റ",
        "ി"
      ],
      [
        "വ",
        "ര"
      ],
      [
        "ള",
        "്‍"
      ],
      [
        "ഒ",
        "രു"
      ],
      [
        "ക",
        "ോ"
      ],
      [
        "ങ്ങള",
        "്‍"
      ],
      [
        "മ",
        "െ"
      ],
      [
        "പ",
        "ു"
      ],
      [
        "മ",
        "ി"
      ],
      [
        "പ",
        "റ"
      ],
      [
        "ണ",
        "ം"
      ],
      [
        "ന",
        "ു"
      ],
      [
        "ുന്ന",
        "ത്"
      ],
      [
        "സ",
        "ാ"
      ],
      [
        "ത",
        "െ"
      ],
      [
        "ക",
        "േ"
      ],
      [
        "ര",
        "ം"
      ],
      [
        "ന",
        "േ"
      ],
      [
        "ി",
        "ൽ"
      ],
      [
        "ര",
        "്യ"
      ],
      [
        "ന",
        "ട"
      ],
      [
        "ധ",
        "ി"
      ],
      [
        "ങ്",
        "ക"
      ],
      [
        "മാ",
        "യ"
      ],
      [
        "വ",
        "ും"
      ],
      [
        "ിച്ച",
        "ു"
      ],
      [
        "ല്ല",
        "ാ"
      ],
      [
        "ട്ട",
        "ു"
      ],
      [
        "്",
        "‌"
      ],
      [
        "ില",
        "െ"
      ],
      [
        "വ",
        "െ"
      ],
      [
        "മാ",
        "ണ്"
      ],
      [
        "ക",
        "ൂ"
      ],
      [
        "ങ്ങ",
        "ൾ"
      ],
      [
        "ബ",
        "ി"
      ],
      [
        "ച",
        "ി"
      ],
      [
        "പ",
        "േ"
      ],
      [
        "ന്",
        "ത"
      ],
      [
        "ന്",
        "ദ"
      ],
      [
        "ന്ന",
        "ു"
      ],
      [
        "ക്ക",
        "ു"
      ],
      [
        "റ്",
        "റ്"
      ],
      [
        "ത്ത",
        "െ"
      ],
      [
        "റ",
        "ിയ"
      ],
      [
        "ര",
        "െ"
      ],
      [
        "ന്ന",
        "ും"
      ],
      [
        "വ",
        "ീ"
      ],
      [
        "ക",
        "ൊ"
      ],
      [
        "ന്ത്",
        "യ"
      ],
      [
        "ല",
        "ീ"
      ],
      [
        "ട്ട",
        "ി"
      ],
      [
        "ദ",
        "്യ"
      ],
      [
        "ാ",
        "ന്‍"
      ],
      [
        "ത്തി",
        "ല്‍"
      ],
      [
        "യ",
        "ു"
      ],
      [
        "ഭ",
        "ാ"
      ],
      [
        "വ",
        "ര്‍"
      ],
      [
        "ട",
        "്"
      ],
      [
        "ത്തി",
        "ല"
      ],
      [
        "ച്",
        "ച്"
      ],
      [
        "ഇ",
        "ന്ത്യ"
      ],
      [
        "ശ",
        "്"
      ],
      [
        "മ",
        "േ"
      ],
      [
        "ുക",
        "ള"
      ],
      [
        "ല",
        "ി"
      ],
      [
        "ചെയ",
        "്യ"
      ],
      [
        "ചെയ",
        "്"
      ],
      [
        "ായി",
        "രുന്നു"
      ],
      [
        "ന",
        "ം"
      ],
      [
        "ര",
        "ോ"
      ],
      [
        "യ",
        "ാണ്"
      ],
      [
        "സ്",
        "‌"
      ],
      [
        "ദ",
        "ി"
      ],
      [
        "ത്",
        "ത്"
      ],
      [
        "രി",
        "ച്ച"
      ],
      [
        "േ",
        "ാ"
      ],
      [
        "ാ",
        "ൻ"
      ],
      [
        "ം",
        "ഗ"
      ],
      [
        "മ",
        "ോ"
      ],
      [
        "രാ",
        "ജ"
      ],
      [
        "പ്പ",
        "ോ"
      ],
      [
        "ര",
        "ണ"
      ],
      [
        "തു",
        "ട"
      ],
      [
        "ക്ക",
        "ി"
      ],
      [
        "ത",
        "ീ"
      ],
      [
        "ഞ്ഞ",
        "ു"
      ],
      [
        "സ്",
        "റ്റ"
      ],
      [
        "യ",
        "ോ"
      ],
      [
        "യ",
        "്"
      ],
      [
        "അ",
        "തി"
      ],
      [
        "ദേ",
        "ശ"
      ],
      [
        "യ",
        "ുടെ"
      ],
      [
        "െ",
        "ടു"
      ],
      [
        "മ്",
        "മ"
      ],
      [
        "ത്ത",
        "ു"
      ],
      [
        "പ്ര",
        "തി"
      ],
      [
        "ഡ",
        "്"
      ],
      [
        "വ",
        "്യ"
      ],
      [
        "സ",
        "ു"
      ],
      [
        "സ്ഥ",
        "ാന"
      ],
      [
        "ബ",
        "ാ"
      ],
      [
        "ില",
        "ും"
      ],
      [
        "മ",
        "ന്ത്"
      ],
      [
        "എന്ന",
        "ാ"
      ],
      [
        "ഷ",
        "്ട"
      ],
      [
        "ത്",
        "യ"
      ],
      [
        "ന്ന",
        "െ"
      ],
      [
        "ന്‍",
        "റെ"
      ],
      [
        "ദേ",
        "ഹ"
      ],
      [
        "ത്തി",
        "ൽ"
      ],
      [
        "ഴ",
        "ി"
      ],
      [
        "ക്ക",
        "ും"
      ],
      [
        "വ",
        "്"
      ],
      [
        "ദ്",
        "ധ"
      ],
      [
        "ണ",
        "്‍"
      ],
      [
        "മന്ത്",
        "രി"
      ],
      [
        "ക",
        "ി"
      ],
      [
        "ന",
        "ീ"
      ],
      [
        "ഗ",
        "്ര"
      ],
      [
        "േ",
        "ഷ"
      ],
      [
        "യ",
        "ില്‍"
      ],
      [
        "പ",
        "രി"
      ],
      [
        "മ",
        "ൂ"
      ],
      [
        "പ",
        "ൊ"
      ],
      [
        "വ",
        "ർ"
      ],
      [
        "ധ",
        "ാന"
      ],
      [
        "ട്ട",
        "്"
      ],
      [
        "കള",
        "്‍"
      ],
      [
        "ുക",
        "യും"
      ],
      [
        "ക്",
        "ര"
      ],
      [
        "ള",
        "ി"
      ],
      [
        "ട",
        "ിയ"
      ],
      [
        "ന",
        "ിയ"
      ],
      [
        "ിക്ക",
        "ുന്ന"
      ],
      [
        "ദ്",
        "ദേഹ"
      ],
      [
        "ന്",
        "ധ"
      ],
      [
        "യ",
        "െ"
      ],
      [
        "െയ",
        "ും"
      ],
      [
        "ലീ",
        "സ്"
      ],
      [
        "ഡ",
        "ി"
      ],
      [
        "ാ",
        "ം"
      ],
      [
        "ന്ദ",
        "്ര"
      ],
      [
        "യ",
        "ം"
      ],
      [
        "രു",
        "ടെ"
      ],
      [
        "ണ",
        "ി"
      ],
      [
        "ശ",
        "്ര"
      ],
      [
        "ജ",
        "ി"
      ],
      [
        "ല",
        "ോ"
      ],
      [
        "ചി",
        "ത്ര"
      ],
      [
        "അ",
        "ദ്ദേഹ"
      ],
      [
        "ര",
        "ുന്ന"
      ],
      [
        "മ്",
        "പ"
      ],
      [
        "ന",
        "ോ"
      ],
      [
        "സ",
        "മ"
      ],
      [
        "ഭ",
        "വ"
      ],
      [
        "ജ",
        "െ"
      ],
      [
        "കാ",
        "ര്യ"
      ],
      [
        "എന്ന",
        "ി"
      ],
      [
        "ഹ",
        "ി"
      ],
      [
        "ധ",
        "്യ"
      ],
      [
        "അ",
        "ത്"
      ],
      [
        "ഹ",
        "ു"
      ],
      [
        "ഇ",
        "ത്"
      ],
      [
        "പറ",
        "ഞ്ഞു"
      ],
      [
        "ല",
        "ാ"
      ],
      [
        "പ",
        "െ"
      ],
      [
        "ഇ",
        "തി"
      ],
      [
        "ത്തി",
        "ന്റെ"
      ],
      [
        "ക",
        "ൾ"
      ],
      [
        "ിച്ച",
        "ി"
      ],
      [
        "ഖ",
        "്യ"
      ],
      [
        "ത്തി",
        "ന്"
      ],
      [
        "ക",
        "െ"
      ],
      [
        "യി",
        "ൽ"
      ],
      [
        "അവ",
        "ര്‍"
      ],
      [
        "ന",
        "ില"
      ],
      [
        "വ",
        "ു"
      ],
      [
        "ട്ടു",
        "ണ്ട്"
      ],
      [
        "ങ്ങള",
        "ുടെ"
      ],
      [
        "റ്റ",
        "ി"
      ],
      [
        "ന",
        "ും"
      ],
      [
        "ത",
        "ോ"
      ],
      [
        "ശ",
        "ു"
      ],
      [
        "ര",
        "ൂ"
      ],
      [
        "ണ്ട",
        "ു"
      ],
      [
        "ജ",
        "ീ"
      ],
      [
        "ക്",
        "ത"
      ],
      [
        "പ്ര",
        "ധാന"
      ],
      [
        "യ",
        "ില"
      ],
      [
        "ന",
        "ല്‍"
      ],
      [
        "0",
        "0"
      ],
      [
        "ത",
        "ന്നെ"
      ],
      [
        "\"",
        "\""
      ],
      [
        "പ്",
        "പ്"
      ],
      [
        "റ",
        "ു"
      ],
      [
        "പ",
        "ക്ഷ"
      ],
      [
        "ശ",
        "ി"
      ],
      [
        "ണ",
        "െ"
      ],
      [
        "ശ",
        "്യ"
      ],
      [
        "ത്തി",
        "യ"
      ],
      [
        "ക",
        "ര"
      ],
      [
        "ഹ",
        "ാ"
      ],
      [
        "അ",
        "റിയ"
      ],
      [
        "ച്ച",
        "ു"
      ],
      [
        "ക്ക",
        "ിയ"
      ],
      [
        "ര",
        "ീ"
      ],
      [
        "വര",
        "െ"
      ],
      [
        "ണ്ട",
        "ി"
      ],
      [
        "സ",
        "ഹ"
      ],
      [
        "സ്",
        "വ"
      ],
      [
        "ണ്ട",
        "ാ"
      ],
      [
        "ബ",
        "ന്ധ"
      ],
      [
        "പ്പെ",
        "ട"
      ],
      [
        "സം",
        "ഭവ"
      ],
      [
        "ജ",
        "ന"
      ],
      [
        "ക്ക",
        "ുന്ന"
      ],
      [
        "സ",
        "െ"
      ],
      [
        "പ",
        "ൂ"
      ],
      [
        "ക്ക",
        "െ"
      ],
      [
        "ല",
        "ിയ"
      ],
      [
        "ൊ",
        "രു"
      ],
      [
        "ഗ",
        "്"
      ],
      [
        "പ്പെ",
        "ടു"
      ],
      [
        "ക്ക",
        "ുക"
      ],
      [
        "സ",
        "ര്‍"
      ],
      [
        "മാ",
        "ന"
      ],
      [
        "േ",
        "ക്ക്"
      ],
      [
        "ഫ",
        "്"
      ],
      [
        "നി",
        "ങ്ങള്‍"
      ],
      [
        "ര",
        "േ"
      ],
      [
        "അ",
        "ത"
      ],
      [
        "അ",
        "നു"
      ],
      [
        "ക",
        "ട"
      ],
      [
        "ഴ",
        "്"
      ],
      [
        "നി",
        "ന്ന്"
      ],
      [
        "പറ",
        "യ"
      ],
      [
        "പു",
        "റ"
      ],
      [
        "വേ",
        "ഷ"
      ],
      [
        "ര",
        "ക്ഷ"
      ],
      [
        "എ",
        "ല്ലാ"
      ],
      [
        "ങ്ങ",
        "നെ"
      ],
      [
        "എ",
        "സ്"
      ],
      [
        "എന്നാ",
        "ല്‍"
      ],
      [
        "ട",
        "തി"
      ],
      [
        "ട്ട",
        "ില്ല"
      ],
      [
        "ജ",
        "്"
      ],
      [
        "ഉ",
        "പ"
      ],
      [
        "ിയ",
        "ുടെ"
      ],
      [
        "വി",
        "ടെ"
      ],
      [
        "ച",
        "െ"
      ],
      [
        "പ്പെ",
        "ട്ട"
      ],
      [
        "ശ",
        "േഷ"
      ],
      [
        "ുക",
        "ള്‍"
      ],
      [
        "യ",
        "ൂ"
      ],
      [
        "ുക",
        "ൾ"
      ],
      [
        "രൂ",
        "പ"
      ],
      [
        "ാ",
        "പ"
      ],
      [
        "അദ്ദേഹ",
        "ം"
      ],
      [
        "അ",
        "ന്"
      ],
      [
        "ിക്ക",
        "ുന്നു"
      ],
      [
        "ല",
        "ും"
      ],
      [
        "ച",
        "ാ"
      ],
      [
        "രാജ",
        "്യ"
      ],
      [
        "ഷ",
        "്"
      ],
      [
        "എ",
        "ം"
      ],
      [
        "ബ",
        "്"
      ],
      [
        "വ",
        "ള"
      ],
      [
        "മ",
        "ില്ല"
      ],
      [
        "ിക്ക",
        "ുക"
      ],
      [
        "ല",
        "െ"
      ],
      [
        "യോ",
        "ഗ"
      ],
      [
        "മ",
        "ീ"
      ],
      [
        "ഷ",
        "്യ"
      ],
      [
        "വ",
        "ശ്യ"
      ],
      [
        "മാ",
        "ത്ര"
      ],
      [
        "ുക",
        "ൊ"
      ],
      [
        "വ",
        "ന"
      ],
      [
        "ചെയ്",
        "തു"
      ],
      [
        "അ",
        "ല്ലാ"
      ],
      [
        "ല",
        "ഭ"
      ],
      [
        "ന്ന",
        "ി"
      ],
      [
        "ത",
        "ാണ്"
      ],
      [
        "ാ",
        "ര്‍"
      ],
      [
        "ര",
        "ും"
      ],
      [
        "വ",
        "സ"
      ],
      [
        "ഞ",
        "ാന്‍"
      ],
      [
        "ണ്ട",
        "െ"
      ],
      [
        "തി",
        "യ"
      ],
      [
        "കാ",
        "ണ"
      ],
      [
        "ട",
        "്ര"
      ],
      [
        "നി",
        "ര്‍"
      ],
      [
        "പി",
        "ന്ന"
      ],
      [
        "ഭ",
        "ി"
      ],
      [
        "ച്ച",
        "ി"
      ],
      [
        "കാ",
        "ര"
      ],
      [
        "ത്ര",
        "ിയ"
      ],
      [
        "അല്ലാ",
        "ഹു"
      ],
      [
        "ഭാ",
        "ഗ"
      ],
      [
        "ന്ന",
        "ാണ്"
      ],
      [
        "സം",
        "സ്ഥാന"
      ],
      [
        "തി",
        "ര"
      ],
      [
        "ബി",
        "ജെ"
      ],
      [
        "ബ",
        "ോ"
      ],
      [
        "വ",
        "ില"
      ],
      [
        "ഏ",
        "റ്റ"
      ],
      [
        "ങ്ങള",
        "െ"
      ],
      [
        "ന്",
        "റ"
      ],
      [
        "ഫ",
        "ോ"
      ],
      [
        "നല്‍",
        "ക"
      ],
      [
        "നി",
        "ര"
      ],
      [
        "ങ്ങള",
        "ും"
      ],
      [
        "വ",
        "ൈ"
      ],
      [
        "ല",
        "ം"
      ],
      [
        "ക",
        "ം"
      ],
      [
        ".",
        "."
      ],
      [
        "രോ",
        "ഗ"
      ],
      [
        "യ",
        "ിലെ"
      ],
      [
        "പ",
        "ര"
      ],
      [
        "ക",
        "ര്‍"
      ],
      [
        "റ",
        "ാ"
      ],
      [
        "കു",
        "റ"
      ],
      [
        "ക",
        "ഴ"
      ],
      [
        "ക",
        "ൃ"
      ],
      [
        "െയ",
        "ാണ്"
      ],
      [
        "രിച്ച",
        "ു"
      ],
      [
        "മ",
        "റ്റ"
      ],
      [
        "മെ",
        "ന്ന്"
      ],
      [
        "ന",
        "ായി"
      ],
      [
        "2",
        "0"
      ],
      [
        "സ്",
        "റ്റ്"
      ],
      [
        "ആ",
        "വശ്യ"
      ],
      [
        "മാ",
        "ര്‍"
      ],
      [
        "ഡ",
        "ിയ"
      ],
      [
        "നിയ",
        "മ"
      ],
      [
        "റ",
        "ോ"
      ],
      [
        "ണ്",
        "ണ"
      ],
      [
        "ിക്ക",
        "ും"
      ],
      [
        "വി",
        "ധ"
      ],
      [
        "എന്നാ",
        "ൽ"
      ],
      [
        "മു",
        "ഖ്യ"
      ],
      [
        "ച",
        "ോ"
      ],
      [
        "ങ്ങ",
        "ിയ"
      ],
      [
        "ആ",
        "ദ്യ"
      ],
      [
        "ിയ",
        "ും"
      ],
      [
        "പോ",
        "ലീസ്"
      ],
      [
        "വി",
        "ശ്"
      ],
      [
        "ത്",
        "സ"
      ],
      [
        "കോ",
        "ടതി"
      ],
      [
        "ച",
        "േ"
      ],
      [
        "ങ്ക",
        "ിലും"
      ],
      [
        "അന്",
        "വേഷ"
      ],
      [
        "സ",
        "ർ"
      ],
      [
        "ശ",
        "ാ"
      ],
      [
        "രിക്ക",
        "ുന്നു"
      ],
      [
        "ീ",
        "യ"
      ],
      [
        "ഞ്ഞ",
        "െടു"
      ],
      [
        "ഗ",
        "ാ"
      ],
      [
        "ത്ത",
        "ാ"
      ],
      [
        "തി",
        "രെ"
      ],
      [
        "ക",
        "ഴി"
      ],
      [
        "ന",
        "ൽ"
      ],
      [
        "ട",
        "ും"
      ],
      [
        "ൈ",
        "വ"
      ],
      [
        "വി",
        "ജ"
      ],
      [
        "ക്ക",
        "ള"
      ],
      [
        "ത",
        "ല"
      ],
      [
        "ഗ",
        "ു"
      ],
      [
        "മു",
        "ള്ള"
      ],
      [
        "ത്തില",
        "െ"
      ],
      [
        "ണ്ട",
        "ായി"
      ],
      [
        "അ",
        "ഭി"
      ],
      [
        "സ",
        "ൂ"
      ],
      [
        "ധ",
        "ാ"
      ],
      [
        "യ",
        "ായിരുന്നു"
      ],
      [
        "ള",
        "ം"
      ],
      [
        "രാ",
        "ഷ്ട"
      ],
      [
        "ക്ര",
        "മ"
      ],
      [
        "കേ",
        "ന്ദ്ര"
      ],
      [
        "ഴ",
        "ു"
      ],
      [
        "ഇ",
        "തു"
      ],
      [
        "ദ",
        "ാ"
      ],
      [
        "രാഷ്ട",
        "്ര"
      ],
      [
        "എ",
        "ന്"
      ],
      [
        "യ",
        "ായ"
      ],
      [
        "ങ്ങ",
        "ി"
      ],
      [
        "ര",
        "ിയ"
      ],
      [
        "ിക്ക",
        "ുന്നത്"
      ],
      [
        "ിക്ക",
        "ാ"
      ],
      [
        "രിക്ക",
        "ുന്നത്"
      ],
      [
        "പൊ",
        "ലീസ്"
      ],
      [
        "വര",
        "ും"
      ],
      [
        "ല",
        "ക്ഷ"
      ],
      [
        "ന",
        "ായ"
      ],
      [
        "കൂ",
        "ടു"
      ],
      [
        "േ",
        "ണ്ട"
      ],
      [
        "ഞ",
        "ാൻ"
      ],
      [
        "ച",
        "ു"
      ],
      [
        "ന്",
        "റ്"
      ],
      [
        "സ",
        "ീ"
      ],
      [
        "പ്പ",
        "ി"
      ],
      [
        "േ",
        "റ്റ"
      ],
      [
        "ിക്ക",
        "ു"
      ],
      [
        "നി",
        "ർ"
      ],
      [
        "എ",
        "ന്ത"
      ],
      [
        "ത്",
        "‌"
      ],
      [
        "മ",
        "ല്ല"
      ],
      [
        "ദ",
        "ു"
      ],
      [
        "ജ",
        "ോ"
      ],
      [
        "ഹ",
        "ോ"
      ],
      [
        "ര്‍",
        "ച്ച"
      ],
      [
        "സര്‍",
        "ക്കാ"
      ],
      [
        "ടു",
        "ത്ത"
      ],
      [
        "ച",
        "ില"
      ],
      [
        "സ",
        "ോ"
      ],
      [
        "ബ",
        "ൈ"
      ],
      [
        "വാ",
        "ഹ"
      ],
      [
        "വി",
        "ദ്യ"
      ],
      [
        "നാ",
        "ം"
      ],
      [
        "ത്",
        "ഥ"
      ],
      [
        "ശു",
        "പ"
      ],
      [
        "ുക",
        "യാണ്"
      ],
      [
        "ചെയ്",
        "ത"
      ],
      [
        "കേ",
        "സ"
      ],
      [
        "ിച്ച",
        "ത്"
      ],
      [
        "ത",
        "ം"
      ],
      [
        "ഉ",
        "ത്ത"
      ],
      [
        "ബ",
        "ു"
      ],
      [
        "രാ",
        "യ"
      ],
      [
        "ആ",
        "ശുപ"
      ],
      [
        "ൂ",
        "ടെ"
      ],
      [
        "ഭ",
        "ൂ"
      ],
      [
        "ഗ",
        "ോ"
      ],
      [
        "സം",
        "ഘ"
      ],
      [
        "സ്",
        "ത്ര"
      ],
      [
        "ല",
        "ു"
      ],
      [
        "യ്",
        "ക്ക്"
      ],
      [
        "ട്ട",
        "ിയ"
      ],
      [
        "നേ",
        "താ"
      ],
      [
        "സി",
        "നി"
      ],
      [
        "അ",
        "റ"
      ],
      [
        "വ്യ",
        "ക്ത"
      ],
      [
        "ന്",
        "ധി"
      ],
      [
        "ാ",
        "ർ"
      ],
      [
        "കള",
        "ും"
      ],
      [
        "കൂടു",
        "ത"
      ],
      [
        "ങ്ങള",
        "ില്‍"
      ],
      [
        "ഷ",
        "േ"
      ],
      [
        "ത്ത",
        "ോ"
      ],
      [
        "പ",
        "ടി"
      ],
      [
        "ണ",
        "ു"
      ],
      [
        "രിക്ക",
        "ും"
      ],
      [
        "ന്",
        "ത്ര"
      ],
      [
        "്യ",
        "ാ"
      ],
      [
        "ബിജെ",
        "പി"
      ],
      [
        "ീ",
        "ക"
      ],
      [
        "കോ",
        "ണ്‍"
      ],
      [
        "വ",
        "ലിയ"
      ],
      [
        "സ",
        "ത്യ"
      ],
      [
        "കള",
        "െ"
      ],
      [
        "മ",
        "ന"
      ],
      [
        "ത്",
        "വ"
      ],
      [
        "ട",
        "ാ"
      ],
      [
        "ര",
        "ണ്ട്"
      ],
      [
        "സ",
        "ൈ"
      ],
      [
        "ഏറ്റ",
        "വും"
      ],
      [
        "മായി",
        "രുന്നു"
      ],
      [
        "പ്ര",
        "വര്‍"
      ],
      [
        "ലോ",
        "ക"
      ],
      [
        "ദ",
        "ൈവ"
      ],
      [
        "ക്",
        "‌"
      ],
      [
        "ശേഷ",
        "ം"
      ],
      [
        "പ",
        "ല"
      ],
      [
        "രിക്ക",
        "ുന്ന"
      ],
      [
        "ഗ്ര",
        "സ്"
      ],
      [
        "പ",
        "രാ"
      ],
      [
        "നി",
        "ക്ക്"
      ],
      [
        "ാന",
        "ും"
      ],
      [
        "ഇ",
        "ട"
      ],
      [
        "ആ",
        "യി"
      ],
      [
        "ത",
        "ന്ന"
      ],
      [
        "പറ",
        "ഞ്ഞ"
      ],
      [
        "ത",
        "ൊ"
      ],
      [
        "ന",
        "മ്"
      ],
      [
        "ധ",
        "ന"
      ],
      [
        "അവ",
        "രുടെ"
      ],
      [
        "ില",
        "ാ"
      ],
      [
        "കേ",
        "ര"
      ],
      [
        "പ്രധാന",
        "മന്ത്രി"
      ],
      [
        "ജ",
        "ാ"
      ],
      [
        "ത",
        "ായി"
      ],
      [
        "അവ",
        "ർ"
      ],
      [
        "സ",
        "േ"
      ],
      [
        "അ",
        "ധി"
      ],
      [
        "ക",
        "ും"
      ],
      [
        "ക",
        "ുന്നു"
      ],
      [
        "പു",
        "തിയ"
      ],
      [
        "സ്ഥ",
        "ി"
      ],
      [
        "എന്നി",
        "വ"
      ],
      [
        "കു",
        "ട്ടി"
      ],
      [
        "കള",
        "ുടെ"
      ],
      [
        "ജീ",
        "വി"
      ],
      [
        "മാ",
        "ർ"
      ],
      [
        "ക",
        "ർ"
      ],
      [
        "പ്പ",
        "ു"
      ],
      [
        "ക",
        "ൈ"
      ],
      [
        "ില",
        "ാണ്"
      ],
      [
        "ക്ക",
        "ുന്നു"
      ],
      [
        "പ്പെ",
        "ട്ടു"
      ],
      [
        "എ",
        "ന്റെ"
      ],
      [
        "മ",
        "ല"
      ],
      [
        "സിനി",
        "മ"
      ],
      [
        "ഷ",
        "ി"
      ],
      [
        "ത",
        "ും"
      ],
      [
        "1",
        "9"
      ],
      [
        "പ്പ",
        "ം"
      ],
      [
        "മ",
        "ുന്ന"
      ],
      [
        "ചെയ്",
        "തി"
      ],
      [
        "തി",
        "ന്"
      ],
      [
        "വ",
        "ോ"
      ],
      [
        "പ്പോ",
        "ള്‍"
      ],
      [
        "ത്തി",
        "യി"
      ],
      [
        "നി",
        "ന്നും"
      ],
      [
        "വി",
        "വര"
      ],
      [
        "തീ",
        "രു"
      ],
      [
        "ത",
        "ൃ"
      ],
      [
        "ത",
        "േ"
      ],
      [
        "ണ",
        "ിയ"
      ],
      [
        "ങ്ക",
        "ില്‍"
      ],
      [
        "കഴി",
        "ഞ്ഞ"
      ],
      [
        "തുട",
        "ര്‍"
      ],
      [
        "പരി",
        "ശ"
      ],
      [
        "പേ",
        "ര്‍"
      ],
      [
        "വ",
        "രു"
      ],
      [
        "ആശുപ",
        "ത്രിയ"
      ],
      [
        "ല്ലാ",
        "ം"
      ],
      [
        "എ",
        "ന്ന്"
      ],
      [
        "മുഖ്യ",
        "മന്ത്രി"
      ],
      [
        "ക",
        "രു"
      ],
      [
        "മാ",
        "നം"
      ],
      [
        "സ്",
        "സ"
      ],
      [
        "മി",
        "ക"
      ],
      [
        "പ്പ",
        "ിക്ക"
      ],
      [
        "ആ",
        "ണ്"
      ],
      [
        "പ്പ",
        "ാ"
      ],
      [
        "ജ",
        "ില്ല"
      ],
      [
        "ില",
        "േക്ക്"
      ],
      [
        "ക്",
        "തി"
      ],
      [
        "ന",
        "ല്ല"
      ],
      [
        "ക്ക",
        "ോ"
      ],
      [
        "വ",
        "ധി"
      ],
      [
        "യാ",
        "ള"
      ],
      [
        "കേര",
        "ള"
      ],
      [
        "ര",
        "ണ്ടു"
      ],
      [
        "മാ",
        "റ്റ"
      ],
      [
        "വള",
        "രെ"
      ],
      [
        "ഇ",
        "രു"
      ],
      [
        "സഹ",
        "ായ"
      ],
      [
        "മ",
        "ൊ"
      ],
      [
        "കാ",
        "ല"
      ],
      [
        "െ",
        "ന്ന്"
      ],
      [
        "ട",
        "ീ"
      ],
      [
        "പേ",
        "ര"
      ],
      [
        "പക്ഷ",
        "േ"
      ],
      [
        "ത",
        "ര"
      ],
      [
        "ഞ്",
        "ച"
      ],
      [
        "ശ്ര",
        "മ"
      ],
      [
        "ണെ",
        "ന്ന്"
      ],
      [
        "അവ",
        "ന്‍"
      ],
      [
        "റി",
        "ച്ച്"
      ],
      [
        "ംഗ",
        "്"
      ],
      [
        "അ",
        "തു"
      ],
      [
        "ണ",
        "ാ"
      ],
      [
        "റി",
        "പ്പോ"
      ],
      [
        "പിന്ന",
        "ീ"
      ],
      [
        "നി",
        "ങ്ങളുടെ"
      ],
      [
        "എ",
        "നിക്ക്"
      ],
      [
        "ന",
        "ുള്ള"
      ],
      [
        "മ",
        "ത്സ"
      ],
      [
        "ങ്ങള",
        "ിൽ"
      ],
      [
        "ഡ",
        "ോ"
      ],
      [
        "പ്ര",
        "സി"
      ],
      [
        "ശ്ര",
        "ീ"
      ],
      [
        "ത്ത",
        "ും"
      ],
      [
        "സ്",
        "ത"
      ],
      [
        "ുകള",
        "ും"
      ],
      [
        "മു",
        "ണ്ട്"
      ],
      [
        "ന",
        "ാണ്"
      ],
      [
        "അ",
        "ട"
      ],
      [
        "്യ",
        "ം"
      ],
      [
        "പ്പോ",
        "ഴ"
      ],
      [
        "തി",
        "രു"
      ],
      [
        "ക്ഷ",
        "ി"
      ],
      [
        "പാ",
        "ര്‍"
      ],
      [
        "കാ",
        "ശ"
      ],
      [
        "വി",
        "ഷ"
      ],
      [
        "കാ",
        "രം"
      ],
      [
        "ഉ",
        "യ"
      ],
      [
        "അ",
        "ംഗ"
      ],
      [
        "ല",
        "്"
      ],
      [
        "അ",
        "ധ്യ"
      ],
      [
        "ക്ക",
        "ം"
      ],
      [
        "ന്ന",
        "ാ"
      ],
      [
        "ണ",
        "മെ"
      ],
      [
        "സ",
        "ഭ"
      ],
      [
        "മ്",
        "പോ"
      ],
      [
        "ഗ്ര",
        "ഹ"
      ],
      [
        "ഷേ",
        "ധ"
      ],
      [
        "ഇ",
        "വിടെ"
      ],
      [
        "ആ",
        "ര്‍"
      ],
      [
        "ോ",
        "ട്"
      ],
      [
        "ിയ",
        "ി"
      ],
      [
        "രം",
        "ഭ"
      ],
      [
        "ഴ്",
        "ച"
      ],
      [
        "ക",
        "ുന്ന"
      ],
      [
        "ഉപ",
        "യോഗ"
      ],
      [
        "വെ",
        "ള്ള"
      ],
      [
        "മ",
        "നു"
      ],
      [
        "വ",
        "ന്‍"
      ],
      [
        "ചെയ്യ",
        "ുന്ന"
      ],
      [
        "ക്കാ",
        "ര്യ"
      ],
      [
        "പരാ",
        "തി"
      ],
      [
        "രേ",
        "ന്ദ്ര"
      ],
      [
        "നമ്",
        "മു"
      ],
      [
        "സം",
        "ഗ"
      ],
      [
        "ുക",
        "ാ"
      ],
      [
        "ിയ",
        "െ"
      ],
      [
        "ഇന്ത്യ",
        "ന്‍"
      ],
      [
        "പ്ര",
        "ദേശ"
      ],
      [
        "ാന",
        "ാ"
      ],
      [
        "കൂ",
        "ട്ട"
      ],
      [
        "പ്പ",
        "ിച്ചു"
      ],
      [
        "ഉ",
        "റ"
      ],
      [
        "പ",
        "ഠ"
      ],
      [
        "കു",
        "ടും"
      ],
      [
        "ക്",
        "ട"
      ],
      [
        "ന്",
        "യൂ"
      ],
      [
        "അ",
        "ല്ല"
      ],
      [
        "രി",
        "ക"
      ],
      [
        "നി",
        "ങ്ങൾ"
      ],
      [
        "മു",
        "ന്‍"
      ],
      [
        "ല",
        "േ"
      ],
      [
        "മു",
        "ഖ"
      ],
      [
        "വാ",
        "ദ"
      ],
      [
        "ക",
        "ണ്ടെ"
      ],
      [
        "നി",
        "ന്ന"
      ],
      [
        "ത്തി",
        "നു"
      ],
      [
        "നമ്മു",
        "ടെ"
      ],
      [
        "അ",
        "പ"
      ],
      [
        "പ്ര",
        "ത്യ"
      ],
      [
        "വിശ്",
        "വാ"
      ],
      [
        "അ",
        "ങ്ങനെ"
      ],
      [
        "മ",
        "തി"
      ],
      [
        "തോ",
        "ടെ"
      ],
      [
        "സർ",
        "ക്കാ"
      ],
      [
        "ഹ",
        "ൈ"
      ],
      [
        "വ",
        "യ"
      ],
      [
        "ഞ",
        "ങ്ങള്‍"
      ],
      [
        "സ്",
        "വാ"
      ],
      [
        "രുന്ന",
        "ില്ല"
      ],
      [
        "കഴ",
        "ിയ"
      ],
      [
        "ന്",
        "മാ"
      ],
      [
        "പ",
        "തി"
      ],
      [
        "ചിത്ര",
        "ം"
      ],
      [
        "പ്ര",
        "വർ"
      ],
      [
        "തിര",
        "ഞ്ഞെടു"
      ],
      [
        "സ",
        "ൗ"
      ],
      [
        "ഴ",
        "്‌"
      ],
      [
        "ക്ക",
        "ുന്നത്"
      ],
      [
        "ണ്ട",
        "ും"
      ],
      [
        "ത്ത",
        "ുന്ന"
      ],
      [
        "ണ്ട",
        "ായ"
      ],
      [
        "പ",
        "ങ്ക"
      ],
      [
        "ു",
        "മായി"
      ],
      [
        "ുള്ള",
        "ത്"
      ],
      [
        "ഉ",
        "ണ്ടാ"
      ],
      [
        "നട",
        "പടി"
      ],
      [
        "അന്വേഷ",
        "ണം"
      ],
      [
        "വ",
        "ഴി"
      ],
      [
        "മാ",
        "ക്കി"
      ],
      [
        "സമ",
        "യം"
      ],
      [
        "ന",
        "മു"
      ],
      [
        "ഇ",
        "ക്കാര്യ"
      ],
      [
        "ഹ",
        "ൃ"
      ],
      [
        "ു",
        "ണ്ട്"
      ],
      [
        "ക്ഷ",
        "േ"
      ],
      [
        "പിന്നീ",
        "ട്"
      ],
      [
        "ിക്ക",
        "ുകയും"
      ],
      [
        "തെ",
        "ര"
      ],
      [
        "നാ",
        "ഥ"
      ],
      [
        "ത",
        "യ"
      ],
      [
        "തുട",
        "ങ്ങിയ"
      ],
      [
        "ന്",
        "തി"
      ],
      [
        "ന",
        "ില്‍"
      ],
      [
        "ട",
        "ന"
      ],
      [
        "ണ",
        "ോ"
      ],
      [
        "ക്കിയ",
        "ി"
      ],
      [
        "എ",
        "ന"
      ],
      [
        "വി",
        "ട"
      ],
      [
        "നിര",
        "വധി"
      ],
      [
        "ല",
        "ൈ"
      ],
      [
        "മനു",
        "ഷ്യ"
      ],
      [
        "ോ",
        "ഗ"
      ],
      [
        "ഞ്",
        "ച്"
      ],
      [
        "ാണ്",
        "‌"
      ],
      [
        "പ്ര",
        "ാ"
      ],
      [
        "അ",
        "ടി"
      ],
      [
        "പ്ര",
        "ീ"
      ],
      [
        "താ",
        "ര"
      ],
      [
        "പ്രവര്‍",
        "ത്ത"
      ],
      [
        "പ",
        "രിക്ക"
      ],
      [
        "ിയ",
        "ില്‍"
      ],
      [
        "വിജ",
        "യ"
      ],
      [
        "ക്കാ",
        "ൻ"
      ],
      [
        "ഭാ",
        "ഷ"
      ],
      [
        "സ്",
        "വീ"
      ],
      [
        "ങ്ങ",
        "ന"
      ],
      [
        "ട്ട",
        "െ"
      ],
      [
        "ക്ക",
        "ൊ"
      ],
      [
        "മ",
        "രണ"
      ],
      [
        "ത്തി",
        "ന്‍റെ"
      ],
      [
        "പൂ",
        "ര്‍"
      ],
      [
        "ാന",
        "ുള്ള"
      ],
      [
        "കോണ്‍",
        "ഗ്രസ്"
      ],
      [
        "ദ",
        "ീ"
      ],
      [
        "സര്‍ക്കാ",
        "ര്‍"
      ],
      [
        "മോ",
        "ദി"
      ],
      [
        "ആ",
        "ള"
      ],
      [
        "ഉ",
        "ട"
      ],
      [
        "1",
        "0"
      ],
      [
        "യ",
        "േ"
      ],
      [
        "ത",
        "ട"
      ],
      [
        "സ്ത്ര",
        "ീ"
      ],
      [
        "ജീ",
        "വ"
      ],
      [
        "ഭ",
        "രണ"
      ],
      [
        "കുടും",
        "ബ"
      ],
      [
        "വേ",
        "ണ്ടി"
      ],
      [
        "ിക്ക",
        "ാൻ"
      ],
      [
        "ന",
        "രേന്ദ്ര"
      ],
      [
        "\"\"",
        "\""
      ],
      [
        "ോ",
        "ഷ"
      ],
      [
        "കു",
        "റ്റ"
      ],
      [
        "പ്രസി",
        "ഡ"
      ],
      [
        "ുക",
        "യായിരുന്നു"
      ],
      [
        "യ",
        "ഹോ"
      ],
      [
        "പ",
        "ീ"
      ],
      [
        "രീ",
        "ക്ഷ"
      ],
      [
        "ഗ്",
        "രാ"
      ],
      [
        "റ",
        "ും"
      ],
      [
        "വി",
        "ള"
      ],
      [
        "അവ",
        "രെ"
      ],
      [
        "ില",
        "േ"
      ],
      [
        "ഭ",
        "ീ"
      ],
      [
        "ക",
        "ീ"
      ],
      [
        "സ്ഥ",
        "ല"
      ],
      [
        "പ്ര",
        "വേ"
      ],
      [
        "പറയ",
        "ുന്നു"
      ],
      [
        "ര്‍",
        "ശ"
      ],
      [
        "മ",
        "ൃ"
      ],
      [
        "പരിശ",
        "ോ"
      ],
      [
        "രാ",
        "ഹു"
      ],
      [
        "ക്",
        "യാ"
      ],
      [
        "മൂ",
        "ന്ന്"
      ],
      [
        "എന്ന",
        "ു"
      ],
      [
        "വ",
        "രാ"
      ],
      [
        "ങ്ക",
        "ിൽ"
      ],
      [
        "വേ",
        "ണ്ട"
      ],
      [
        "സി",
        "ൽ"
      ],
      [
        "ക്കാ",
        "ന്‍"
      ],
      [
        "ന",
        "യ"
      ],
      [
        "മ",
        "റ"
      ],
      [
        "ഫ",
        "ി"
      ],
      [
        "െയ",
        "്"
      ],
      [
        "ുകൊ",
        "ണ്ട്"
      ],
      [
        "ബ",
        "െ"
      ],
      [
        "തുട",
        "ർ"
      ],
      [
        "ഉത്ത",
        "ര"
      ],
      [
        "വ",
        "ന്ന"
      ],
      [
        "ത്തില",
        "ാണ്"
      ],
      [
        "സ്റ്റ",
        "ി"
      ],
      [
        "വ",
        "രുടെ"
      ],
      [
        "പ്രത്യ",
        "േ"
      ],
      [
        "അവ",
        "സ"
      ],
      [
        "ആ",
        "രംഭ"
      ],
      [
        "മിക",
        "ച്ച"
      ],
      [
        "തെര",
        "ഞ്ഞെടു"
      ],
      [
        "മേ",
        "ഖ"
      ],
      [
        "വ",
        "ില്‍"
      ],
      [
        "അറിയ",
        "ിച്ചു"
      ],
      [
        "ദ്",
        "ദേശ"
      ],
      [
        "ക്ക",
        "ുകയും"
      ],
      [
        "പോ",
        "യി"
      ],
      [
        "സെ",
        "ക്ര"
      ],
      [
        "പങ്ക",
        "െടു"
      ],
      [
        "ദി",
        "വസ"
      ],
      [
        "സെക്ര",
        "ട്ട"
      ],
      [
        "ആ",
        "രോ"
      ],
      [
        "ാ",
        "ത്ത"
      ],
      [
        "അധ്യ",
        "ക്ഷ"
      ],
      [
        "പോ",
        "ലീ"
      ],
      [
        "പ്പെ",
        "ട്ടി"
      ],
      [
        "കോ",
        "ടി"
      ],
      [
        "ത്",
        "രി"
      ],
      [
        "നൽ",
        "ക"
      ],
      [
        "പ്ര",
        "ശ"
      ],
      [
        "മ",
        "ഹ"
      ],
      [
        "ിക്ക",
        "ാന്‍"
      ],
      [
        "നി",
        "ന്നു"
      ],
      [
        "യായ",
        "ും"
      ],
      [
        "പ്ര",
        "ഖ്യ"
      ],
      [
        "ന്",
        "യ"
      ],
      [
        "ാന",
        "ം"
      ],
      [
        "ശ്ര",
        "ദ്ധ"
      ],
      [
        "ആ",
        "ക്രമ"
      ],
      [
        "ചോ",
        "ദ്യ"
      ],
      [
        "മ",
        "ും"
      ],
      [
        "ന്ത",
        "പു"
      ],
      [
        "ണ്ട",
        "ായിരുന്നു"
      ],
      [
        "പ",
        "ദ്ധ"
      ],
      [
        "തി",
        "രിച്ച"
      ],
      [
        "വി",
        "ക"
      ],
      [
        "ന",
        "ഗ"
      ],
      [
        "സ്വീ",
        "ക"
      ],
      [
        "തുടര്‍",
        "ന്ന്"
      ],
      [
        "ൃ",
        "ഷ്ട"
      ],
      [
        "ച",
        "ന"
      ],
      [
        "വു",
        "മായി"
      ],
      [
        "സം",
        "സാ"
      ],
      [
        "ക്ക",
        "േ"
      ],
      [
        "ക",
        "യ"
      ],
      [
        "സു",
        "രക്ഷ"
      ],
      [
        "ശ",
        "ത"
      ],
      [
        "തിരു",
        "വന"
      ],
      [
        "ംഗ",
        "്ല"
      ],
      [
        "ത്തിയ",
        "ത്"
      ],
      [
        "വ",
        "ഴ"
      ],
      [
        "അ",
        "വിടെ"
      ],
      [
        "ങ്",
        "ക്"
      ],
      [
        "ആ",
        "ത്"
      ],
      [
        "നട",
        "ന്ന"
      ],
      [
        "പ്പോ",
        "ൾ"
      ],
      [
        "തിരുവന",
        "ന്തപു"
      ],
      [
        "പൂ",
        "ർ"
      ],
      [
        "ത",
        "ന്റെ"
      ],
      [
        "രം",
        "ഗ"
      ],
      [
        "മ്",
        "പ്"
      ],
      [
        "സി",
        "ന്റെ"
      ],
      [
        "ട്ട",
        "ോ"
      ],
      [
        "എന്ന",
        "െ"
      ],
      [
        "വ",
        "ഹ"
      ],
      [
        "പദ്ധ",
        "തി"
      ],
      [
        "എ",
        "ങ്ങനെ"
      ],
      [
        "അ",
        "മേ"
      ],
      [
        "നേ",
        "ര"
      ],
      [
        "പി",
        "ട"
      ],
      [
        "പ്ര",
        "ായ"
      ],
      [
        "മ",
        "ഹാ"
      ],
      [
        "കൊ",
        "ല്ല"
      ],
      [
        "ചോ",
        "ദ"
      ],
      [
        "1",
        "5"
      ],
      [
        "സ",
        "ില്‍"
      ],
      [
        "കൂ",
        "ടി"
      ],
      [
        ".",
        "\""
      ],
      [
        "അപ",
        "കട"
      ],
      [
        "വി",
        "ധാന"
      ],
      [
        "വ",
        "കു"
      ],
      [
        "ക",
        "ഥ"
      ],
      [
        "ശി",
        "ക്ഷ"
      ],
      [
        "ോ",
        "ഗ"
      ],
      [
        "ര",
        "ണം"
      ],
      [
        "യാ",
        "ത്ര"
      ],
      [
        "ക",
        "ല"
      ],
      [
        "രോഗ",
        "്യ"
      ],
      [
        "മേഖ",
        "ല"
      ],
      [
        "ി",
        "ക"
      ],
      [
        "പ്രഖ്യ",
        "ാപ"
      ],
      [
        "കോ",
        "ൺ"
      ],
      [
        "പോ",
        "ലെ"
      ],
      [
        "ഇ",
        "ല്ല"
      ],
      [
        "സം",
        "വിധാന"
      ],
      [
        "കോ",
        "ള"
      ],
      [
        "ക്",
        "രി"
      ],
      [
        "കൂടുത",
        "ല്‍"
      ],
      [
        "രിക്ക",
        "ുകയാണ്"
      ],
      [
        "യില",
        "ാണ്"
      ],
      [
        "ന്ത",
        "ര"
      ],
      [
        "പി",
        "ന്"
      ],
      [
        "ൊ",
        "ന്നും"
      ],
      [
        "സമ",
        "യ"
      ],
      [
        "കാ",
        "രണ"
      ],
      [
        "അ",
        "ടുത്ത"
      ],
      [
        "നി",
        "റ"
      ],
      [
        "പി",
        "താ"
      ],
      [
        "ഉ",
        "ള്ള"
      ],
      [
        "ഇ",
        "ത്ത"
      ],
      [
        "പ്പെടു",
        "ത്ത"
      ],
      [
        "സംഭവ",
        "ം"
      ],
      [
        "00",
        "0"
      ],
      [
        "പ്പ",
        "ിച്ച"
      ],
      [
        "സാ",
        "ധ്യ"
      ],
      [
        "വി",
        "ശ"
      ],
      [
        "യ",
        "ുള്ള"
      ],
      [
        "ട",
        "ക"
      ],
      [
        "തീ",
        "ര്‍ച്ച"
      ],
      [
        "ന",
        "ഷ്ട"
      ],
      [
        "നി",
        "ൽ"
      ],
      [
        "പ്രതി",
        "ഷേധ"
      ],
      [
        "മ",
        "ന്"
      ],
      [
        "്യ",
        "ൂ"
      ],
      [
        "സ",
        "ും"
      ],
      [
        "വ",
        "ണ"
      ],
      [
        "ക",
        "ന്‍"
      ],
      [
        "ില",
        "ൂടെ"
      ],
      [
        "അമേ",
        "രിക്ക"
      ],
      [
        "വീ",
        "ട്ട"
      ],
      [
        "എ",
        "ന്‍"
      ],
      [
        "മു",
        "ത"
      ],
      [
        "ചേ",
        "ര്‍"
      ],
      [
        "മ",
        "രിച്ച"
      ],
      [
        "നട",
        "ത്ത"
      ],
      [
        "യഹോ",
        "വ"
      ],
      [
        "ദേശ",
        "ീയ"
      ],
      [
        "ട്ട",
        "ും"
      ],
      [
        "കൊ",
        "ണ്ടു"
      ],
      [
        "ക്കെ",
        "തിരെ"
      ],
      [
        "1",
        "2"
      ],
      [
        "ര",
        "ുന്നത്"
      ],
      [
        "ബാ",
        "ധ"
      ],
      [
        "മാ",
        "ധ്യ"
      ],
      [
        "ഗാ",
        "ന്ധി"
      ],
      [
        "ക",
        "രണ"
      ],
      [
        "ശ",
        "ക്ത"
      ],
      [
        "അറ",
        "സ്റ്റ്"
      ],
      [
        "മാധ്യ",
        "മ"
      ],
      [
        "വ",
        "ൃ"
      ],
      [
        "ക്ക",
        "ുള്ള"
      ],
      [
        "തി",
        "നെ"
      ],
      [
        "ജ്",
        "ഞ"
      ],
      [
        "കാര",
        "ണം"
      ],
      [
        "ഇതു",
        "വരെ"
      ],
      [
        "ആ",
        "ർ"
      ],
      [
        "ഫ",
        "ീ"
      ],
      [
        "വ",
        "ം"
      ],
      [
        "യ",
        "ില്ല"
      ],
      [
        "സ",
        "മ്"
      ],
      [
        "സ",
        "ന്ത"
      ],
      [
        "ാര്‍",
        "ത്ഥ"
      ],
      [
        "എന്ത",
        "ാണ്"
      ],
      [
        "സ",
        "ന്ദ"
      ],
      [
        "അ",
        "യ"
      ],
      [
        "ഷ",
        "ാ"
      ],
      [
        "സ്ഥ",
        "ാപ"
      ],
      [
        "മാത്ര",
        "ം"
      ],
      [
        "യു",
        "വ"
      ],
      [
        "കാര്യ",
        "ം"
      ],
      [
        "മാ",
        "യും"
      ],
      [
        "അത",
        "േ"
      ],
      [
        "ച്ച",
        "ത്"
      ],
      [
        "റിപ്പോ",
        "ര്‍"
      ],
      [
        "കേ",
        "സ്"
      ],
      [
        "ഉ",
        "ണ്ടായി"
      ],
      [
        "വ",
        "ല"
      ],
      [
        "പൊ",
        "ലീ"
      ],
      [
        "ക്ക",
        "ായി"
      ],
      [
        "സ്ഥി",
        "തി"
      ],
      [
        "ഡ",
        "ല്‍"
      ],
      [
        "ന",
        "മ്മ"
      ],
      [
        "അ",
        "ടു"
      ],
      [
        "ത",
        "ായ"
      ],
      [
        "തിരുവനന്തപു",
        "രം"
      ],
      [
        "ന്ദ",
        "ി"
      ],
      [
        "ഒ",
        "രാ"
      ],
      [
        "ക്ക",
        "ള്‍"
      ],
      [
        "മു",
        "ൻ"
      ],
      [
        "ില",
        "ുള്ള"
      ],
      [
        "ത",
        "മി"
      ],
      [
        "ഡിയ",
        "ോ"
      ],
      [
        "പാ",
        "ല"
      ],
      [
        "ആ",
        "രോഗ്യ"
      ],
      [
        "വാ",
        "ര്‍"
      ],
      [
        "വിശ്",
        "വസ"
      ],
      [
        "പേ",
        "ർ"
      ],
      [
        "പ",
        "ങ്"
      ],
      [
        "പ്പോഴ",
        "ും"
      ],
      [
        "ഭാ",
        "ര്യ"
      ],
      [
        "ിയ",
        "ാണ്"
      ],
      [
        "മന്",
        "ത്രിയ"
      ],
      [
        "മും",
        "ബൈ"
      ],
      [
        "നെ",
        "തിരെ"
      ],
      [
        "ക്കാ",
        "ര"
      ],
      [
        "ച",
        "ൈ"
      ],
      [
        "ജീവി",
        "ത"
      ],
      [
        "തന്ന",
        "െയാണ്"
      ],
      [
        "ക്ക",
        "ൂ"
      ],
      [
        "വി",
        "ൽ"
      ],
      [
        "പ്ര",
        "തീ"
      ],
      [
        "വ",
        "സ്ഥ"
      ],
      [
        "തെ",
        "ന്ന്"
      ],
      [
        "ക",
        "ണ"
      ],
      [
        "അ",
        "മ്മ"
      ],
      [
        "തീര്‍ച്ച",
        "യായും"
      ],
      [
        "പ്പെട",
        "ുന്ന"
      ],
      [
        "പ്രത്യേ",
        "ക"
      ],
      [
        "സെക്രട്ട",
        "റി"
      ],
      [
        "പി",
        "ടി"
      ],
      [
        "പാ",
        "ർ"
      ],
      [
        "ഗു",
        "രു"
      ],
      [
        "സാ",
        "ധ"
      ],
      [
        "മ",
        "ത"
      ],
      [
        "ണ്",
        "ഡ"
      ],
      [
        "ശ",
        "യ"
      ],
      [
        "ഫ",
        "ല"
      ],
      [
        "ക",
        "ണ്ട"
      ],
      [
        "വി",
        "ന്റെ"
      ],
      [
        "സാ",
        "ഹ"
      ],
      [
        "സ",
        "ഭാ"
      ],
      [
        "ത്തില",
        "ും"
      ],
      [
        "ച്",
        "ഛ"
      ],
      [
        "നേ",
        "ടിയ"
      ],
      [
        "ിയ",
        "ാ"
      ],
      [
        "കൂടുത",
        "ൽ"
      ],
      [
        "ക്കു",
        "റിച്ച്"
      ],
      [
        "കൊ",
        "ണ്ട്"
      ],
      [
        "ഇന്ത്യ",
        "ൻ"
      ],
      [
        "ിക്ക",
        "ൊ"
      ],
      [
        "പാ",
        "ത"
      ],
      [
        "ട",
        "േ"
      ],
      [
        "എ",
        "ടു"
      ],
      [
        "രേ",
        "ഖ"
      ],
      [
        "മന",
        "സ്സ"
      ],
      [
        "വ്യ",
        "ാ"
      ],
      [
        "ഗ",
        "ണ"
      ],
      [
        "വീ",
        "ണ്ടും"
      ],
      [
        "ആരോ",
        "പ"
      ],
      [
        "നി",
        "ന"
      ],
      [
        "ആ",
        "രാ"
      ],
      [
        "കൊ",
        "ല"
      ],
      [
        "പക്ഷ",
        "െ"
      ],
      [
        "ത",
        "ള്ള"
      ],
      [
        "യ",
        "്‌"
      ],
      [
        "മ്",
        "മി"
      ],
      [
        "അവ",
        "ര"
      ],
      [
        "ര",
        "ണ്ട"
      ],
      [
        "നേതാ",
        "വ്"
      ],
      [
        "വി",
        "വാഹ"
      ],
      [
        "ത്ത",
        "േ"
      ],
      [
        "ബ",
        "ന്ധി"
      ],
      [
        "വാഹ",
        "ന"
      ],
      [
        "ക്കാ",
        "ം"
      ],
      [
        "ഉ",
        "ദ്യ"
      ],
      [
        "ഥ",
        "ി"
      ],
      [
        "രാഷ്ട്ര",
        "ീയ"
      ],
      [
        "സ്",
        "യ"
      ],
      [
        "കള",
        "ില്‍"
      ],
      [
        "യ",
        "ായി"
      ],
      [
        "ത്",
        "യാ"
      ],
      [
        "സു",
        "പ്രീ"
      ],
      [
        "മ",
        "ഴ"
      ],
      [
        "നേ",
        "രി"
      ],
      [
        "ിച്ചി",
        "രുന്നു"
      ],
      [
        "ചെയ്യ",
        "ുന്നു"
      ],
      [
        "സുപ്രീ",
        "ം"
      ],
      [
        "ഓ",
        "രോ"
      ],
      [
        "ിച്ചി",
        "ട്ടുണ്ട്"
      ],
      [
        "എ",
        "ഴു"
      ],
      [
        "..",
        "."
      ],
      [
        "ട",
        "്‌"
      ],
      [
        "ഒ",
        "ന്ന"
      ],
      [
        "സി",
        "ന്"
      ],
      [
        "ബിജെ",
        "പ"
      ],
      [
        "എന്ന",
        "ീ"
      ],
      [
        "സീ",
        "റ്റ"
      ],
      [
        "ഇ",
        "റ"
      ],
      [
        "ക",
        "മ്പ"
      ],
      [
        "ഒ",
        "ഴി"
      ],
      [
        "വ",
        "ില്ല"
      ],
      [
        "പ്രവർ",
        "ത്ത"
      ],
      [
        "ർ",
        "ച്ച"
      ],
      [
        "സ്വ",
        "ന്ത"
      ],
      [
        "ചെയ്യ",
        "ും"
      ],
      [
        "മെ",
        "ന്നും"
      ],
      [
        "അ",
        "ന"
      ],
      [
        "മെ",
        "ഡ"
      ],
      [
        "സം",
        "ബന്ധ"
      ],
      [
        "മാ",
        "ണ"
      ],
      [
        "മത്സ",
        "ര"
      ],
      [
        "ദ",
        "്ര"
      ],
      [
        "ണി",
        "ത്"
      ],
      [
        "മ",
        "റ്റ്"
      ],
      [
        "പ്പെ",
        "ട്ട്"
      ],
      [
        "മാ",
        "താ"
      ],
      [
        "5",
        "0"
      ],
      [
        "ഭ",
        "ക്ഷ"
      ],
      [
        "ുകള",
        "ില്‍"
      ],
      [
        "തി",
        "ല്‍"
      ],
      [
        "വ",
        "സം"
      ],
      [
        "ള",
        "ു"
      ],
      [
        "ട്ട",
        "ം"
      ],
      [
        "വേ",
        "ദ"
      ],
      [
        "ചി",
        "കി"
      ],
      [
        "മോ",
        "ദ"
      ],
      [
        "മ",
        "രിച്ചു"
      ],
      [
        "പ്പെടു",
        "ത്തി"
      ],
      [
        "1",
        "8"
      ],
      [
        "വി",
        "ഭാഗ"
      ],
      [
        "നാ",
        "ട്ട"
      ],
      [
        "സമ",
        "ീ"
      ],
      [
        "വ",
        "ിക്ക"
      ],
      [
        "ഇന്ത്യ",
        "യുടെ"
      ],
      [
        "മറ്റ",
        "ു"
      ],
      [
        "രിച്ച",
        "ി"
      ],
      [
        "െ",
        "ന്നും"
      ],
      [
        "നട",
        "ത്തി"
      ],
      [
        "ലക്ഷ",
        "ം"
      ],
      [
        "ാ",
        "ല്‍"
      ],
      [
        "ുക",
        "ൂ"
      ],
      [
        "ഉ",
        "ൾ"
      ],
      [
        "റ",
        "ായി"
      ],
      [
        "പ",
        "റ്റ"
      ],
      [
        "ദേശ",
        "ം"
      ],
      [
        "ണ്ട",
        "ോ"
      ],
      [
        "എ",
        "ന്‍റെ"
      ],
      [
        "കൂ",
        "ട"
      ],
      [
        "പാ",
        "കി"
      ],
      [
        "സഹ",
        "ോ"
      ],
      [
        "ദി",
        "വസം"
      ],
      [
        "പേ",
        "ാ"
      ],
      [
        "ഏ",
        "റെ"
      ],
      [
        "ഒ",
        "ന്നും"
      ],
      [
        "അടി",
        "സ്ഥാന"
      ],
      [
        "മാണ്",
        "‌"
      ],
      [
        "കര",
        "ണം"
      ],
      [
        "പ",
        "ൗ"
      ],
      [
        "ല്ല",
        "ോ"
      ],
      [
        "ആ",
        "ര"
      ],
      [
        "ങ്ങന",
        "െയ"
      ],
      [
        "മൂ",
        "ന്നു"
      ],
      [
        "ച",
        "രി"
      ],
      [
        "പു",
        "ര"
      ],
      [
        "ഷ",
        "ം"
      ],
      [
        "നട",
        "ത്തിയ"
      ],
      [
        "മ",
        "ട"
      ],
      [
        "എ",
        "ത്ര"
      ],
      [
        "ഭ",
        "വി"
      ],
      [
        "ബ",
        "്ല"
      ],
      [
        "നാ",
        "ല്‍"
      ],
      [
        "ഞ്ഞ",
        "ി"
      ],
      [
        "ത",
        "ൊരു"
      ],
      [
        "എ",
        "ത്തി"
      ],
      [
        "1",
        "4"
      ],
      [
        "ഇ",
        "വ"
      ],
      [
        "ത",
        "ന്ത്ര"
      ],
      [
        "ഹ",
        "്"
      ],
      [
        "ധാ",
        "രണ"
      ],
      [
        "ക",
        "ലാ"
      ],
      [
        "കൃ",
        "ത"
      ],
      [
        "ദ",
        "ം"
      ],
      [
        "ഡ",
        "്ര"
      ],
      [
        "നി",
        "ങ്ങളെ"
      ],
      [
        "പി",
        "ന്നെ"
      ],
      [
        "ത",
        "മ്മ"
      ],
      [
        "വി",
        "വിധ"
      ],
      [
        "ണ",
        "മെന്ന്"
      ],
      [
        "വ",
        "ദ"
      ],
      [
        "ൊ",
        "പ്പം"
      ],
      [
        "പ്പെട",
        "ുന്നു"
      ],
      [
        "ങ്ങള",
        "ാണ്"
      ],
      [
        "കൂ",
        "ടിയ"
      ],
      [
        "വര",
        "ാണ്"
      ],
      [
        "പുറ",
        "ത്തു"
      ],
      [
        "ഞ",
        "ങ്ങൾ"
      ],
      [
        "സർക്കാ",
        "ർ"
      ],
      [
        "രോ",
        "ധ"
      ],
      [
        "സമീ",
        "പ"
      ],
      [
        "ത",
        "രി"
      ],
      [
        "കൊ",
        "ടു"
      ],
      [
        "ദ",
        "ൂ"
      ],
      [
        "ുകള",
        "ുടെ"
      ],
      [
        "യാ",
        "ള്‍"
      ],
      [
        "ബ",
        "്ര"
      ],
      [
        "എ",
        "ല്‍"
      ],
      [
        "നല്‍ക",
        "ിയ"
      ],
      [
        "ീ",
        "ഷ"
      ],
      [
        "രി",
        "ൽ"
      ],
      [
        "ഏ",
        "ക"
      ],
      [
        "റ",
        "ില്‍"
      ],
      [
        "അവ",
        "ൻ"
      ],
      [
        "മെഡ",
        "ിക്ക"
      ],
      [
        "തി",
        "ക"
      ],
      [
        "ജ",
        "ു"
      ],
      [
        "തീരു",
        "മാന"
      ],
      [
        "ർ",
        "ശ"
      ],
      [
        "ില",
        "ോ"
      ],
      [
        "പ്രസിഡ",
        "ന്റ്"
      ],
      [
        "സഹോ",
        "ദ"
      ],
      [
        "ില",
        "ി"
      ],
      [
        "ക",
        "ണ്ണ"
      ],
      [
        "മാ",
        "റി"
      ],
      [
        "ിയ",
        "ിൽ"
      ],
      [
        "ക്ക",
        "ൾ"
      ],
      [
        "ൂ",
        "ര്‍"
      ],
      [
        "ചികി",
        "ത്സ"
      ],
      [
        "അ",
        "മി"
      ],
      [
        "എന്",
        "തു"
      ],
      [
        "തു",
        "റ"
      ],
      [
        "രാ",
        "യി"
      ],
      [
        "പ്ര",
        "കാരം"
      ],
      [
        "ഫ",
        "്ര"
      ],
      [
        "ജ",
        "യ"
      ],
      [
        "മാ",
        "റ്റി"
      ],
      [
        "പ്രതീ",
        "ക്ഷ"
      ],
      [
        "സ",
        "ൃഷ്ട"
      ],
      [
        "ണ്",
        "ണം"
      ],
      [
        "ദ്",
        "ധി"
      ],
      [
        "എല്ലാ",
        "ം"
      ],
      [
        "ഉ",
        "ണ്ട്"
      ],
      [
        "നി",
        "ങ്ങള"
      ],
      [
        "താ",
        "രം"
      ],
      [
        "കള്‍",
        "ക്ക്"
      ],
      [
        "വൈ",
        "റ"
      ],
      [
        "നിന്ന",
        "ുള്ള"
      ],
      [
        "പേ",
        "ക്ഷ"
      ],
      [
        "വാ",
        "യ"
      ],
      [
        "പരിക്ക",
        "േറ്റ"
      ],
      [
        "എ",
        "ൻ"
      ],
      [
        "അന്വേഷ",
        "ണ"
      ],
      [
        "ശ്",
        "മീ"
      ],
      [
        "ഇ",
        "വര്‍"
      ],
      [
        "ത്തി",
        "ക"
      ],
      [
        "ഭ",
        "്യ"
      ],
      [
        "കേസ",
        "െടു"
      ],
      [
        "ീ",
        "സ്"
      ],
      [
        "ച",
        "ൂ"
      ],
      [
        "ച",
        "ര്യ"
      ],
      [
        "അവര്‍",
        "ക്ക്"
      ],
      [
        "സംവിധാന",
        "ം"
      ],
      [
        "കു",
        "തി"
      ],
      [
        "ഭ",
        "യ"
      ],
      [
        "ങ്ങള്‍",
        "ക്ക്"
      ],
      [
        "രി",
        "ച്ച്"
      ],
      [
        "ദി",
        "ന"
      ],
      [
        "ദ",
        "ൃ"
      ],
      [
        "ഉ",
        "ള്‍"
      ],
      [
        "വ്യ",
        "ക്തി"
      ],
      [
        "ചേ",
        "ർ"
      ],
      [
        "പ്രശ",
        "്‌"
      ],
      [
        "ണെ",
        "ന്നും"
      ],
      [
        "ത്തോ",
        "ടെ"
      ],
      [
        "മൂ",
        "ഹ"
      ],
      [
        "വി",
        "മാന"
      ],
      [
        "ര",
        "്"
      ],
      [
        "വര",
        "ുന്ന"
      ],
      [
        "വ",
        "ന്നു"
      ],
      [
        "പാ",
        "ട"
      ],
      [
        "ള",
        "െ"
      ],
      [
        "അവ",
        "തരി"
      ],
      [
        "നേ",
        "ഹ"
      ],
      [
        "സ",
        "മാ"
      ],
      [
        "റ",
        "േ"
      ],
      [
        "സ",
        "്ട"
      ],
      [
        "അറ",
        "സ്റ്റ"
      ],
      [
        "തു",
        "ണ"
      ],
      [
        "വി",
        "ഡ്"
      ],
      [
        "ത്തില",
        "ുള്ള"
      ],
      [
        "ള",
        "ള"
      ],
      [
        "ക്",
        "രിക്ക"
      ],
      [
        "പ്പ",
        "ിക്കുന്ന"
      ],
      [
        "അനു",
        "വദ"
      ],
      [
        "ഞ്",
        "ഞ്"
      ],
      [
        "നി",
        "ന്റെ"
      ],
      [
        "വിഷ",
        "യ"
      ],
      [
        "മൃ",
        "ത"
      ],
      [
        "ക്കോ",
        "ടതി"
      ],
      [
        "ങ്ങള",
        "ിലും"
      ],
      [
        "നമു",
        "ക്ക്"
      ],
      [
        "ഗ",
        "ം"
      ],
      [
        "എ",
        "ഫ്"
      ],
      [
        "ല",
        "്യ"
      ],
      [
        "ആ",
        "ഗ്രഹ"
      ],
      [
        "സ്",
        "താ"
      ],
      [
        "ത",
        "ങ്ങളുടെ"
      ],
      [
        "ഇക്കാര്യ",
        "ം"
      ],
      [
        "വിശ",
        "ദ"
      ],
      [
        "നിങ്ങള്‍",
        "ക്ക്"
      ],
      [
        "വി",
        "ദേശ"
      ],
      [
        "ഷ",
        "്‌"
      ],
      [
        "ുകള",
        "ിൽ"
      ],
      [
        "ലഭ",
        "്യ"
      ],
      [
        "സാ",
        "മ്പ"
      ],
      [
        "ഭൂ",
        "മ"
      ],
      [
        "ഓ",
        "ഫ്"
      ],
      [
        "ക്കു",
        "റ"
      ],
      [
        "പ്രവേ",
        "ശി"
      ],
      [
        "രു",
        "ത്"
      ],
      [
        "ചു",
        "മ"
      ],
      [
        "അല്ല",
        "െ"
      ],
      [
        "പ്രവര്‍",
        "ത്തി"
      ],
      [
        "ത്തി",
        "നും"
      ],
      [
        "വിദ്യ",
        "ാ"
      ],
      [
        "തയ",
        "്യാ"
      ],
      [
        "ഇ",
        "നി"
      ],
      [
        "ത്ര",
        "ം"
      ],
      [
        "വ",
        "ുന്ന"
      ],
      [
        "രാഹു",
        "ല്‍"
      ],
      [
        "പോ",
        "ലും"
      ],
      [
        "രീ",
        "തി"
      ],
      [
        "രണ്ട",
        "ാം"
      ],
      [
        "ർ",
        "ത്ത"
      ],
      [
        "മാ",
        "ര"
      ],
      [
        "മ",
        "റു"
      ],
      [
        "ൊ",
        "ക്കെ"
      ],
      [
        "കള",
        "ാണ്"
      ],
      [
        "ചെയ്യ",
        "ുന്നത്"
      ],
      [
        "1",
        "6"
      ],
      [
        "നഗ",
        "ര"
      ],
      [
        "സാഹ",
        "ചര്യ"
      ],
      [
        "കള",
        "ിൽ"
      ],
      [
        "ടാ",
        "തെ"
      ],
      [
        "ഇ",
        "ംഗ്ല"
      ],
      [
        "മ",
        "ക"
      ],
      [
        "തൊ",
        "ഴ"
      ],
      [
        "താ",
        "മ"
      ],
      [
        "വാ",
        "ദി"
      ],
      [
        "ഹൈ",
        "ക്കോടതി"
      ],
      [
        "വീ",
        "ഡിയോ"
      ],
      [
        "ഹ",
        "മ്മ"
      ],
      [
        "സാമ്പ",
        "ത്തിക"
      ],
      [
        "ശ",
        "ം"
      ],
      [
        "പ്ര",
        "ിയ"
      ],
      [
        "രിക്ക",
        "ുക"
      ],
      [
        "രാ",
        "മ"
      ],
      [
        "ആശുപത്രിയ",
        "ില്‍"
      ],
      [
        "വി",
        "ന്"
      ],
      [
        "പിന്",
        "തുണ"
      ],
      [
        "തി",
        "നു"
      ],
      [
        "നേര",
        "ത്തെ"
      ],
      [
        "സ്",
        "തു"
      ],
      [
        "വി",
        "പ"
      ],
      [
        "1",
        "3"
      ],
      [
        "തുട",
        "ങ്ങി"
      ],
      [
        "ക്ക",
        "ാണ്"
      ],
      [
        "വ്യക്ത",
        "മാക്കി"
      ],
      [
        "ഹൃ",
        "ദ"
      ],
      [
        "ബന്ധി",
        "ച്ച്"
      ],
      [
        "ഇ",
        "ങ്ങനെ"
      ],
      [
        "യേ",
        "ശു"
      ],
      [
        "ഞ",
        "ാന"
      ],
      [
        "പൊ",
        "തു"
      ],
      [
        "ീ",
        "ല"
      ],
      [
        "ച",
        "ീ"
      ],
      [
        "ചെയ്ത",
        "ത്"
      ],
      [
        "ജന",
        "റ"
      ],
      [
        "പേ",
        "രെ"
      ],
      [
        "മൃത",
        "ദേഹ"
      ],
      [
        "പ",
        "രീക്ഷ"
      ],
      [
        "പ",
        "ടിയ"
      ],
      [
        "മീ",
        "റ്റ"
      ],
      [
        "ര",
        "ജി"
      ],
      [
        "സി",
        "പി"
      ],
      [
        "ട്ട",
        "ുള്ള"
      ],
      [
        "ത്വ",
        "ം"
      ],
      [
        "പ്പ",
        "ില്‍"
      ],
      [
        "2",
        "00"
      ],
      [
        "വ",
        "ൻ"
      ],
      [
        "മാത്ര",
        "മാണ്"
      ],
      [
        "1",
        "7"
      ],
      [
        "നല്‍",
        "കി"
      ],
      [
        "രാജ",
        "്"
      ],
      [
        "വി",
        "ട്ടു"
      ],
      [
        "ഗ",
        "തി"
      ],
      [
        "ധി",
        "കം"
      ],
      [
        "പ്ര",
        "ശ്"
      ],
      [
        "വി",
        "ന്‍റെ"
      ],
      [
        "േ",
        "ദ"
      ],
      [
        "ചെയ",
        "്‌"
      ],
      [
        "തുടർ",
        "ന്ന്"
      ],
      [
        "തോ",
        "ന്ന"
      ],
      [
        "ച",
        "ര്‍ച്ച"
      ],
      [
        "ക്കിയ",
        "ത്"
      ],
      [
        "ഞ്",
        "ചാ"
      ],
      [
        "എന",
        "ിക്ക"
      ],
      [
        "േഷ",
        "്"
      ],
      [
        "ഞ",
        "ങ്ങളുടെ"
      ],
      [
        "സംഭവ",
        "ത്തില്‍"
      ],
      [
        "പ്രതി",
        "പക്ഷ"
      ],
      [
        "െയ",
        "ാ"
      ],
      [
        "ചൈ",
        "ന"
      ],
      [
        "ചോദ്യ",
        "ം"
      ],
      [
        "ില",
        "ു"
      ],
      [
        "വി",
        "നെ"
      ],
      [
        "തെ",
        "ളി"
      ],
      [
        "ഇതി",
        "ന്"
      ],
      [
        "മോ",
        "ഹ"
      ],
      [
        "സം",
        "ഭവി"
      ],
      [
        "വി",
        "ട്ട"
      ],
      [
        "റി",
        "ന്റെ"
      ],
      [
        "ഗുരു",
        "തര"
      ],
      [
        "ന്‍",
        "സ്"
      ],
      [
        "സ",
        "മ്മ"
      ],
      [
        "പരിശോ",
        "ധന"
      ],
      [
        "നാ",
        "ല്"
      ],
      [
        "പാ",
        "ട്"
      ],
      [
        "മാ",
        "ന്‍"
      ],
      [
        "ഒ",
        "രിക്ക"
      ],
      [
        "ായ",
        "്"
      ],
      [
        "ക്കാ",
        "ര്‍"
      ],
      [
        "ില",
        "ായി"
      ],
      [
        "ത",
        "വണ"
      ],
      [
        "കോൺ",
        "ഗ്രസ്"
      ],
      [
        "ക്",
        "സ്"
      ],
      [
        "ഇ",
        "ഷ്ട"
      ],
      [
        "മു",
        "ട്ട"
      ],
      [
        "േ",
        "യ"
      ],
      [
        "ച",
        "ന്ദ്ര"
      ],
      [
        "െ",
        "ങ്കിലും"
      ],
      [
        "ചെയ്യ",
        "ുക"
      ],
      [
        "അതി",
        "ന്"
      ],
      [
        "പറയ",
        "ുന്നത്"
      ],
      [
        "ത",
        "ന്‍റെ"
      ],
      [
        "മ്പോ",
        "ൾ"
      ],
      [
        "ഡല്‍",
        "ഹി"
      ],
      [
        "കോണ്‍",
        "ഗ്ര"
      ],
      [
        "സി",
        "ങ്"
      ],
      [
        "നി",
        "ശ്"
      ],
      [
        "ഡ",
        "െ"
      ],
      [
        "ഇ",
        "ന്‍"
      ],
      [
        "മറ്റ",
        "ൊരു"
      ],
      [
        "ഷ്",
        "ണ"
      ],
      [
        "അവ",
        "നെ"
      ],
      [
        "ഘ",
        "ാ"
      ],
      [
        "ാ",
        "ലും"
      ],
      [
        "വ്യക്ത",
        "മാ"
      ],
      [
        "ഫ",
        "ാ"
      ],
      [
        "മീ",
        "ഡിയ"
      ],
      [
        "ഷ",
        "ണ"
      ],
      [
        "ഗ",
        "ി"
      ],
      [
        "'",
        "'"
      ],
      [
        "ട",
        "ോ"
      ],
      [
        "ന",
        "െയും"
      ],
      [
        "നി",
        "ടെ"
      ],
      [
        "ദേ",
        "ശ്"
      ],
      [
        "രിക്ക",
        "ു"
      ],
      [
        "ല്‍",
        "പ"
      ],
      [
        "പിന്ന",
        "ാ"
      ],
      [
        "ഞ്",
        "ചി"
      ],
      [
        "ഭ",
        "്യാ"
      ],
      [
        "സന്ത",
        "ോഷ"
      ],
      [
        "പങ്",
        "കു"
      ],
      [
        "എന്",
        "താ"
      ],
      [
        "മെ",
        "ന്റ്"
      ]
    ]
  }
}