{
  "version": "1.0",
  "truncation": null,
  "padding": null,
  "added_tokens": [
    {
      "id": 0,
      "content": "<bos>",
      "single_word": false,
      "lstrip": false,
      "rstrip": false,
      "normalized": false,
      "special": true
    },
    {
      "id": 1,
      "content": "<eos>",
      "single_word": false,
      "lstrip": false,
      "rstrip": false,
      "normalized": false,
      "special": true
    },
    {
      "id": 2,
      "content": "<pad>",
      "single_word": false,
      "lstrip": false,
      "rstrip": false,
      "normalized": false,
      "special": true
    },
    {
      "id": 3,
      "content": "<unk>",
      "single_word": false,
      "lstrip": false,
      "rstrip": false,
      "normalized": false,
      "special": true
    }
  ],
  "normalizer": null,
  "pre_tokenizer": {
    "type": "ByteLevel",
    "add_prefix_space": true,
    "trim_offsets": true,
    "use_regex": true
  },
  "post_processor": {
    "type": "TemplateProcessing",
    "single": [
      {
        "SpecialToken": {
          "id": "<bos>",
          "type_id": 0
        }
      },
      {
        "Sequence": {
          "id": "A",
          "type_id": 0
        }
      },
      {
        "SpecialToken": {
          "id": "<eos>",
          "type_id": 0
        }
      }
    ],
    "pair": [
      {
        "Sequence": {
          "id": "A",
          "type_id": 0
        }
      },
      {
        "Sequence": {
          "id": "B",
          "type_id": 1
        }
      }
    ],
    "special_tokens": {
      "<bos>": {
        "id": "<bos>",
        "ids": [
          0
        ],
        "tokens": [
          "<bos>"
        ]
      },
      "<eos>": {
        "id": "<eos>",
        "ids": [
          1
        ],
        "tokens": [
          "<eos>"
        ]
      }
    }
  },
  "decoder": {
    "type": "ByteLevel",
    "add_prefix_space": true,
    "trim_offsets": true,
    "use_regex": true
  },
  "model": {
    "type": "BPE",
    "dropout": null,
    "unk_token": "<unk>",
    "continuing_subword_prefix": null,
    "end_of_word_suffix": null,
    "fuse_unk": false,
    "byte_fallback": false,
    "ignore_merges": false,
    "vocab": {
      "<bos>": 0,
      "<eos>": 1,
      "<pad>": 2,
      "<unk>": 3,
      "!": 4,
      "\"": 5,
      "#": 6,
      "$": 7,
      "%": 8,
      "&": 9,
      "'": 10,
      "(": 11,
      ")": 12,
      "*": 13,
      "+": 14,
      ",": 15,
      "-": 16,
      ".": 17,
      "/": 18,
      "0": 19,
      "1": 20,
      "2": 21,
      "3": 22,
      "4": 23,
      "5": 24,
      "6": 25,
      "7": 26,
      "8": 27,
      "9": 28,
      ":": 29,
      "<": 30,
      "=": 31,
      ">": 32,
      "?": 33,
      "@": 34,
      "A": 35,
      "B": 36,
      "C": 37,
      "D": 38,
      "E": 39,
      "F": 40,
      "G": 41,
      "H": 42,
      "I": 43,
      "J": 44,
      "K": 45,
      "L": 46,
      "M": 47,
      "N": 48,
      "O": 49,
      "P": 50,
      "Q": 51,
      "R": 52,
      "S": 53,
      "T": 54,
      "U": 55,
      "V": 56,
      "W": 57,
      "X": 58,
      "Y": 59,
      "Z": 60,
      "[": 61,
      "\\": 62,
      "]": 63,
      "^": 64,
      "_": 65,
      "`": 66,
      "a": 67,
      "b": 68,
      "c": 69,
      "d": 70,
      "e": 71,
      "f": 72,
      "g": 73,
      "h": 74,
      "i": 75,
      "j": 76,
      "k": 77,
      "l": 78,
      "m": 79,
      "n": 80,
      "o": 81,
      "p": 82,
      "q": 83,
      "r": 84,
      "s": 85,
      "t": 86,
      "u": 87,
      "v": 88,
      "w": 89,
      "x": 90,
      "y": 91,
      "z": 92,
      "{": 93,
      "|": 94,
      "}": 95,
      "~": 96,
      "¡": 97,
      "¢": 98,
      "£": 99,
      "¤": 100,
      "¥": 101,
      "¦": 102,
      "§": 103,
      "¨": 104,
      "©": 105,
      "ª": 106,
      "«": 107,
      "¬": 108,
      "®": 109,
      "¯": 110,
      "°": 111,
      "±": 112,
      "²": 113,
      "³": 114,
      "´": 115,
      "µ": 116,
      "¶": 117,
      "·": 118,
      "¸": 119,
      "¹": 120,
      "º": 121,
      "»": 122,
      "¼": 123,
      "½": 124,
      "¾": 125,
      "¿": 126,
      "Â": 127,
      "Ã": 128,
      "Ä": 129,
      "Å": 130,
      "Æ": 131,
      "Ç": 132,
      "È": 133,
      "É": 134,
      "Ê": 135,
      "Ë": 136,
      "Ì": 137,
      "Í": 138,
      "Î": 139,
      "Ï": 140,
      "Ð": 141,
      "Ñ": 142,
      "Ò": 143,
      "Ó": 144,
      "Ô": 145,
      "Õ": 146,
      "Ö": 147,
      "×": 148,
      "Ø": 149,
      "Ù": 150,
      "Ú": 151,
      "Û": 152,
      "Ü": 153,
      "Þ": 154,
      "à": 155,
      "á": 156,
      "â": 157,
      "ã": 158,
      "ä": 159,
      "å": 160,
      "æ": 161,
      "ç": 162,
      "è": 163,
      "é": 164,
      "ê": 165,
      "ë": 166,
      "ì": 167,
      "í": 168,
      "î": 169,
      "ï": 170,
      "ð": 171,
      "Ċ": 172,
      "Ġ": 173,
      "Ģ": 174,
      "ģ": 175,
      "Ĥ": 176,
      "ĥ": 177,
      "Ħ": 178,
      "ħ": 179,
      "Ĩ": 180,
      "ĩ": 181,
      "Ī": 182,
      "ī": 183,
      "Ĭ": 184,
      "ĭ": 185,
      "Į": 186,
      "į": 187,
      "İ": 188,
      "ı": 189,
      "Ĳ": 190,
      "ĳ": 191,
      "Ĵ": 192,
      "ĵ": 193,
      "Ķ": 194,
      "ķ": 195,
      "ĸ": 196,
      "Ĺ": 197,
      "ĺ": 198,
      "Ļ": 199,
      "ļ": 200,
      "Ľ": 201,
      "ľ": 202,
      "Ŀ": 203,
      "ŀ": 204,
      "Ł": 205,
      "ł": 206,
      "Ń": 207,
      "à´": 208,
      "àµ": 209,
      "àµį": 210,
      "Ġà´": 211,
      "à´¿": 212,
      "à´¨": 213,
      "àµģ": 214,
      "à´ķ": 215,
      "à´¾": 216,
      "à´¤": 217,
      "à´°": 218,
      "à´¯": 219,
      "à´Ł": 220,
      "à´²": 221,
      "âĢ": 222,
      "àµĨ": 223,
      "à´Ĥ": 224,
      "àµįâĢ": 225,
      "àµįâĢį": 226,
      "à´±": 227,
      "à´µ": 228,
      "à´®": 229,
      "à´ª": 230,
      "à´£": 231,
      "à´³": 232,
      "Ġà´ª": 233,
      "à´ļ": 234,
      "à´Ļ": 235,
      "àµĩ": 236,
      "à´¸": 237,
      "àµĭ": 238,
      "Ġà´ķ": 239,
      "Ġà´ħ": 240,
      "àµģà´Ĥ": 241,
      "Ġà´¸": 242,
      "Ġà´¨": 243,
      "Ġà´µ": 244,
      "Ġà´®": 245,
      "àµĢ": 246,
      "à´¦": 247,
      "à´·": 248,
      "Ġà´İ": 249,
      "Ġà´¤": 250,
      "Ġà´ĩ": 251,
      "à´§": 252,
      "àµį.": 253,
      "àµĤ": 254,
      "àµ¼": 255,
      "àµ½": 256,
      "à´¶": 257,
      "àµģ.": 258,
      "Ġà´ļ": 259,
      "à´ŀ": 260,
      "Ġà´Ĩ": 261,
      "à´¹": 262,
      "à´Ĺ": 263,
      "àµĬ": 264,
      "à´Ļà´³": 265,
      "à´ķà´³": 266,
      "àµįâĢĮ": 267,
      "Ġà´İà´¨": 268,
      "à´¨à´¤": 269,
      "à´µà´°": 270,
      "à´ľ": 271,
      "Ġà´°": 272,
      "àµ»": 273,
      "à´´": 274,
      "ĠâĢ": 275,
      "àµ¾": 276,
      "Ġà´¬": 277,
      "à´Ń": 278,
      "à´¥": 279,
      "Ġà´ī": 280,
      "à´¡": 281,
      "Ġà´Ĵ": 282,
      "Ġà´ľ": 283,
      "à´¬": 284,
      "àµĪ": 285,
      "à´°à´¤": 286,
      "Ġà´ħà´¤": 287,
      "à´¯à´¤": 288,
      "à´¿.": 289,
      "Ġà´¶": 290,
      "à´ķà´¯": 291,
      "Ġà´ĩà´¤": 292,
      "à´°à´®": 293,
      "Ġà´ħà´µ": 294,
      "à´¯à´®": 295,
      "Ġà´²": 296,
      "ĠâĢĭ": 297,
      "Ġà´Ĵà´°": 298,
      "Ġà´¯": 299,
      "Ġà´¦": 300,
      "à´Łà´¤": 301,
      "à´ķà´°": 302,
      "à´¾à´Ĥ": 303,
      "Ġà´ªà´±": 304,
      "Ġà´ĩà´¨": 305,
      "Ġà´Ń": 306,
      "Ġà´Ĺ": 307,
      "à´ĸ": 308,
      "Ġà´ªà´°": 309,
      "Ġà´±": 310,
      "àµģà´Ĥ.": 311,
      "àµĥ": 312,
      "Ġà´ħà´¨": 313,
      "àµĩà´¾": 314,
      "à´Ĥ.": 315,
      "Ġà´ŀ": 316,
      "à´«": 317,
      "à´Ļàµ¾": 318,
      "Ġà´Ł": 319,
      "à´°à´£": 320,
      "à´ķàµ¾": 321,
      "Ġà´ħà´µà´°": 322,
      "Ġ1": 323,
      "Ġà´Ī": 324,
      "à´¯à´ķ": 325,
      "à´µà´¨": 326,
      "Ġà´¹": 327,
      "Ġà´ı": 328,
      "à´°à´µ": 329,
      "à´°à´ķ": 330,
      "Ġà´«": 331,
      "à´°à´¸": 332,
      "Ġà´¸à´®": 333,
      "à´İ": 334,
      "à´¤à´®": 335,
      "Ġà´Ĩà´°": 336,
      "Ġà´¤à´¨": 337,
      "Ġà´¡": 338,
      "à´¯à´¨": 339,
      "Ġà´¨à´Ł": 340,
      "àµį,": 341,
      "Ġà´ĵ": 342,
      "Ġà´ħà´±": 343,
      "Ġà´ªà´±à´ŀ": 344,
      "à´¨à´®": 345,
      "Ġà´µà´°": 346,
      "à´ļà´¤": 347,
      "à´ªà´¤": 348,
      "à´¯à´¯": 349,
      "Ġ2": 350,
      "à´¤à´°": 351,
      "à´·à´£": 352,
      "Ġà´®à´¨": 353,
      "à´²à´¯": 354,
      "à´¨à´Ļ": 355,
      "à´µà´¸": 356,
      "àµ¼à´ķ": 357,
      "Ġà´ħà´²": 358,
      "àµ¼à´¤": 359,
      "à´Łà´Ļ": 360,
      "Ġà´¨à´²": 361,
      "Ġà´ħà´¦": 362,
      "à´Ńà´µ": 363,
      "à´¯à´Ļ": 364,
      "Ġà´°à´£": 365,
      "àµĹ": 366,
      "Ġà´®à´±": 367,
      "Ġà´ķà´´": 368,
      "à´³à´¤": 369,
      "Ġà´ķà´£": 370,
      "Ġ.": 371,
      "à´Ĺà´¤": 372,
      "à´¯à´ª": 373,
      "à´ĺ": 374,
      "Ġà´ħà´Ł": 375,
      "à´Ļà´¨": 376,
      "à´¤à´¨": 377,
      "à´Łà´°": 378,
      "Ġ(": 379,
      "à´¤à´¤": 380,
      "Ġà´īà´£": 381,
      "àµįâĢį,": 382,
      "àµº": 383,
      "Ġà´ħà´µà´¨": 384,
      "à´°à´§": 385,
      "à´Łà´¨": 386,
      "Ġà´¨à´®": 387,
      "Ġà´ªà´±à´¯": 388,
      "Ġà´İà´²": 389,
      "à´ķà´²": 390,
      "00": 391,
      "\"\"": 392,
      "à´£à´®": 393,
      "àµįâĢį.": 394,
      "Ġà´ħà´ª": 395,
      "à´°à´Ļ": 396,
      "à´Łà´ķ": 397,
      "à´®à´¤": 398,
      "àµįâĢĮ.": 399,
      "à´²à´¤": 400,
      "à´°à´¨": 401,
      "Ġà´īà´ª": 402,
      "à´·à´¨": 403,
      "Ġà´ıà´±": 404,
      "à´°à´¦": 405,
      "à´°à´¯": 406,
      "à´¯à´°": 407,
      "à´µà´¯": 408,
      "Ġà´¨à´Łà´¤": 409,
      "à´¿à´Ĥ": 410,
      "Ġà´İà´¤": 411,
      "à´µà´¶": 412,
      "Ġà´¸à´¹": 413,
      "à´¿,": 414,
      "à´®à´¯": 415,
      "à´¨à´¯": 416,
      "àµĨ.": 417,
      "à´²à´ª": 418,
      "Ġà´ħà´§": 419,
      "àµ½à´ķ": 420,
      "Ġà´Ĩà´¶": 421,
      "Ġà´ħà´®": 422,
      "à´¤à´²": 423,
      "Ġà´Ĩà´¦": 424,
      "à´¹à´¤": 425,
      "Ġà´ªà´ķ": 426,
      "à´ķà´¤": 427,
      "à´±à´¤": 428,
      "à´±à´µ": 429,
      "à´ķà´¨": 430,
      "à´Ĥ,": 431,
      "à´µà´¤": 432,
      "Ġà´ķà´°": 433,
      "Ġà´ŀà´Ļ": 434,
      "à´ķà´ª": 435,
      "Ġà´µà´¨": 436,
      "Ġà´Ĩà´ķ": 437,
      "Ġà´²à´Ń": 438,
      "à´ªà´Ł": 439,
      "à´ķà´±": 440,
      "Ġà´¸à´°": 441,
      "à´ķà´®": 442,
      "àµ¼à´¨": 443,
      "Ġà´µà´²": 444,
      "Ġà´·": 445,
      "àµįâĢĭ": 446,
      "à´ļà´¯": 447,
      "Ġà´ħà´Ń": 448,
      "à´¯à´µ": 449,
      "Ġà´Ĵà´¨": 450,
      "Ġà´®à´°": 451,
      "Ġà´®à´¤": 452,
      "Ġà´§": 453,
      "ĠâĢľ": 454,
      "Ġà´¸à´¨": 455,
      "à´ķà´£": 456,
      "Ġà´µà´³": 457,
      "à´°à´ŀ": 458,
      "Ġ3": 459,
      "Ġà´Ĩà´µà´¶": 460,
      "à´¯à´®à´¨": 461,
      "à´ªà´¨": 462,
      "Ġà´īà´¤": 463,
      "à´Łà´¯": 464,
      "âĢĭ": 465,
      "à´ªà´°": 466,
      "Ġà´¬à´¨": 467,
      "à´²à´µ": 468,
      "àµģà´Ĥ,": 469,
      "à´ł": 470,
      "Ġà´ĩà´µ": 471,
      "à´¨à´®à´¨": 472,
      "à´¾à´Ĥ.": 473,
      "Ġà´Ĳ": 474,
      "Ġà´Ĩà´¯": 475,
      "à´¸à´°": 476,
      "Ġà´ľà´¨": 477,
      "àµĭ?": 478,
      "à´²à´ķ": 479,
      "à´ħ": 480,
      "Ġà´ķà´®": 481,
      "Ġà´īà´¦": 482,
      "Ġà´ĩà´°": 483,
      "Ġà´ªà´Ļ": 484,
      "à´±à´ķ": 485,
      "à´¬à´¨": 486,
      "Ġà´¨àµ½à´ķ": 487,
      "Ġ-": 488,
      "ĠâĢĿ": 489,
      "Ġà´ħà´Ļ": 490,
      "Ġà´Ĩà´£": 491,
      "à´¯à´¸": 492,
      "Ġà´µà´³à´°": 493,
      "à´¯à´²": 494,
      "Ġà´İà´¸": 495,
      "à´£à´¤": 496,
      "Ġà´İà´Ļ": 497,
      "àµį?": 498,
      "àµĨà´¾": 499,
      "àµ¼à´Ł": 500,
      "Ġà´°à´ķ": 501,
      "à´°à´¶": 502,
      "Ġà´¸à´¤": 503,
      "à´ªà´ķ": 504,
      "à´İà´¸": 505,
      "Ġà´¤à´®": 506,
      "àµ¼à´®": 507,
      "Ġ'": 508,
      "à´§à´¤": 509,
      "à´°à´µà´°": 510,
      "à´ľà´¯": 511,
      "à´Łà´±": 512,
      "Ġà´¨à´Łà´¨": 513,
      "Ġà´²à´ķ": 514,
      "à´·à´¤": 515,
      "Ġ\"\"": 516,
      "Ġà´ĩà´µà´°": 517,
      "Ġ20": 518,
      "Ġ5": 519,
      "à´Ļàµ¾à´ķ": 520,
      "Ġà´ķà´³": 521,
      "à´·à´®": 522,
      "à´ªà´±": 523,
      "à´²à´®": 524,
      "à´¨à´µ": 525,
      "Ġà´ªà´¤": 526,
      "Ġà´īà´³": 527,
      "ĠâĢİ": 528,
      "à´±à´ª": 529,
      "à´¯àµ»": 530,
      "Ġà´¶à´°": 531,
      "Ġ4": 532,
      "à´Łà´®": 533,
      "à´¨à´µà´°": 534,
      "Ġà´ħà´ķ": 535,
      "à´Ĺà´Ļ": 536,
      "Ġà´ħà´±à´¸": 537,
      "ĠâĢĺ": 538,
      "à´¤à´ª": 539,
      "Ġà´īà´ªà´¯": 540,
      "à´¨à´ķ": 541,
      "à´Ĳ": 542,
      "à´Łà´ª": 543,
      "Ġà´µà´´": 544,
      "à´°à´¹": 545,
      "Ġà´ħà´¯": 546,
      "à´¦à´°": 547,
      "à´ķàµ¾à´ķ": 548,
      "Ġà´ħà´µà´¸": 549,
      "à´Ĺà´®": 550,
      "Ġà´¨à´Łà´ªà´Ł": 551,
      "à´·à´¯": 552,
      "Ġà´¯à´¹": 553,
      "Ġà´®à´°à´£": 554,
      "à´±à´Ļ": 555,
      "Ġà´ĩà´ª": 556,
      "à´ªà´¯": 557,
      "àµ»à´¸": 558,
      "à´¯à´±": 559,
      "à´²à´¨": 560,
      "à´ķà´°à´£": 561,
      "Ġà´ĩà´ķ": 562,
      "à´¸à´Ń": 563,
      "àµĩ,": 564,
      "à´¤àµ½": 565,
      "à´ļà´°": 566,
      "à´®à´¨": 567,
      "Ġà´ªà´¦": 568,
      "Ġà´İà´Ł": 569,
      "à´§à´¨": 570,
      "à´ªà´£": 571,
      "àµĢà´Ĥ": 572,
      "à´µà´¦": 573,
      "à´ľà´¨": 574,
      "à´±à´¨": 575,
      "Ġà´ĩà´²": 576,
      "à´Ńà´µà´¤": 577,
      "Ġà´ªà´²": 578,
      "Ġà´®à´¹": 579,
      "..": 580,
      "àµĨ,": 581,
      "Ġà´®à´¨à´¸": 582,
      "Ġà´ªà´Ł": 583,
      "Ġà´ıà´¤": 584,
      "à´¤à´ķ": 585,
      "àµģ:": 586,
      "Ġà´ħà´¸": 587,
      "Ġà´¶à´ķ": 588,
      "Ġà´ĸ": 589,
      "à´ļà´¨": 590,
      "Ġà´¨à´¨": 591,
      "àµģ,": 592,
      "à´µàµ¼": 593,
      "Ġà´ĵà´«": 594,
      "à´µà´£": 595,
      "Ġà´ķà´²": 596,
      "à´¡à´¨": 597,
      "à´ķà´ļ": 598,
      "à´µà´ķ": 599,
      "Ġà´Ĩà´³": 600,
      "à´ĩ": 601,
      "à´ŀà´¤": 602,
      "Ġà´¨à´Łà´ķ": 603,
      "Ġà´ħà´µàµ¼": 604,
      "Ġà´ļà´°": 605,
      "à´±à´±": 606,
      "à´¤à´¯": 607,
      "à´°à´µàµ¼à´¤": 608,
      "à´±à´°": 609,
      "Ġà´ªà´ł": 610,
      "à´¸à´¨": 611,
      "à´Ĩ": 612,
      "àµ¼à´µ": 613,
      "à´¸à´®": 614,
      "à´µà´²": 615,
      "Ġà´¨à´°": 616,
      "Ġà´ħà´°": 617,
      "à´·àµ»": 618,
      "Ġà´ĵà´°": 619,
      "à´°à´µà´§": 620,
      "à´¶à´Ļ": 621,
      "Ġà´®à´£": 622,
      "Ġà´¸àµ¼à´ķ": 623,
      "à´¶à´¤": 624,
      "à´°à´Ł": 625,
      "Ġ6": 626,
      "Ġà´¤à´Ł": 627,
      "à´®à´°": 628,
      "à´±à´¯": 629,
      "à´ķà´£à´®": 630,
      "à´¹à´®": 631,
      "à´°à´³": 632,
      "à´±à´²": 633,
      "à´Łà´²": 634,
      "à´²à´Ļ": 635,
      "Ġà´ĩà´¯": 636,
      "à´®à´¸": 637,
      "Ġ19": 638,
      "à´Ĥ:": 639,
      "àµ¼à´ļ": 640,
      "Ġà´ľà´¯": 641,
      "à´¨à´²": 642,
      "à´§à´®": 643,
      "Ġà´µàµ¼": 644,
      "Ġà´ħà´ŀ": 645,
      "à´¿:": 646,
      "Ġà´¤à´Ļ": 647,
      "âĢĮ": 648,
      "à´§à´ª": 649,
      "à´³à´µà´°": 650,
      "à´ķà´Ł": 651,
      "Ġà´Ĩà´¤": 652,
      "à´Łàµ¼à´¨": 653,
      "à´¨à´¨": 654,
      "Ġà´Ĵà´´": 655,
      "àµ¼à´ª": 656,
      "à´°à´ĸ": 657,
      "Ġà´µà´ķ": 658,
      "àµĤ.": 659,
      "Ġà´ªà´£": 660,
      "à´±à´®": 661,
      "Ġà´ħà´µà´³": 662,
      "à´µà´¨à´¨": 663,
      "àµ»à´¡": 664,
      "à´ªà´®": 665,
      "Ġà´Ńà´°à´£": 666,
      "à´¹à´¨": 667,
      "Ġà´Ĩà´Ĺ": 668,
      "à´İà´¨": 669,
      "à´¶à´¨": 670,
      "Ġ7": 671,
      "Ġà´¤à´³": 672,
      "Ġà´¶à´¤à´®": 673,
      "à´¤à´°à´®": 674,
      "Ġà´ľà´¨à´Ļ": 675,
      "000": 676,
      "à´¤à´°à´µ": 677,
      "Ġà´ĩà´Ł": 678,
      "à´®à´±": 679,
      "Ġà´İà´£": 680,
      "àµĭ.": 681,
      "à´Ľ": 682,
      "à´ĺà´Łà´¨": 683,
      "à´±à´ļ": 684,
      "Ġ10": 685,
      "Ġà´ĩà´Ļ": 686,
      "à´¥à´¯": 687,
      "à´Ĺà´¸": 688,
      "à´¯àµ¼": 689,
      "à´¨à´±": 690,
      "Ġà´Ĩà´¨": 691,
      "à´±àµ¼": 692,
      "Ġà´İà´´": 693,
      "Ġà´ķà´Ł": 694,
      "Ġ\"\"\"": 695,
      "à´ķà´µ": 696,
      "àµºà´Ĺ": 697,
      "Ġ8": 698,
      "Ġà´Ńà´ķ": 699,
      "àµ½à´¨": 700,
      "à´¹à´°": 701,
      "Ġ\"": 702,
      "à´³à´µ": 703,
      "àµ½à´ª": 704,
      "à´°à´³à´¤": 705,
      "à´®à´²": 706,
      "Ġà´ªà´°à´®": 707,
      "àµį:": 708,
      "àµ¼à´£": 709,
      "à´¦à´®": 710,
      "Ġà´Ĩà´¸": 711,
      "Ġà´¹à´°": 712,
      "àµ¼à´¥": 713,
      "Ġà´ĺ": 714,
      "ĠâĢĶ": 715,
      "àµ¼à´¦": 716,
      "Ġ201": 717,
      "à´°à´£à´®": 718,
      "Ġ?": 719,
      "Ġà´¨à´·": 720,
      "Ġà´¤à´¯": 721,
      "âĢĿ": 722,
      "Ġà´¨à´Ĺ": 723,
      "Ġà´ıà´ķ": 724,
      "Ġ12": 725,
      "à´²à´ķà´³": 726,
      "à´ķàµ½": 727,
      "Ġà´¤à´°": 728,
      "à´¸à´¤": 729,
      "à´²à´°": 730,
      "à´¡à´²": 731,
      "à´±à´¡": 732,
      "à´°à´ª": 733,
      "à´±à´ŀ": 734,
      "à´®à´¦": 735,
      "Ġ15": 736,
      "à´¨à´ª": 737,
      "à´¨à´µà´¨": 738,
      "àµ¾à´ª": 739,
      "àµ¼à´¶": 740,
      "Ġà´īà´¯à´°": 741,
      "à´Ĺà´£": 742,
      "Ġà´ĵà´Ł": 743,
      "à´¥à´²à´¤": 744,
      "à´¯à´®à´Ļ": 745,
      "à´µà´®": 746,
      "Ġà´īà´±à´ª": 747,
      "à´ķàµ»": 748,
      "Ġà´®à´´": 749,
      "à´°à´ļ": 750,
      "âĢ¦": 751,
      "àµ¼à´¡": 752,
      "àµ¼à´ľ": 753,
      "Ġà´ķà´£à´ķ": 754,
      "à´¦à´¨": 755,
      "Ġà´Ĩà´±": 756,
      "à´³à´ķ": 757,
      "à´¥à´¨": 758,
      "à´¯à´ķà´¨": 759,
      "à´·à´£à´¤": 760,
      "Ġà´īà´¯": 761,
      "Ġà´ħà´ªà´ķ": 762,
      "à´£à´¯": 763,
      "à´µà´ļ": 764,
      "Ġà´Ķ": 765,
      "Ġà´ķà´¥": 766,
      "Ġà´Ĵà´Ł": 767,
      "Ġà´ħà´µàµ»": 768,
      "âĢį": 769,
      "Ġà´µà´¸": 770,
      "à´¸à´¯": 771,
      "à´¯à´µà´°": 772,
      "Ġà´ħà´µà´¤à´°": 773,
      "à´¤à´µ": 774,
      "Ġ9": 775,
      "ĠâĢĻ": 776,
      "à´¯à´µà´¸": 777,
      "Ġà´ķà´¤": 778,
      "àµ¾à´ķ": 779,
      "à´ļà´±": 780,
      "âĢĻ": 781,
      "à´µà´°à´Ļ": 782,
      "Ġà´ĩà´·": 783,
      "Ġà´İà´ķ": 784,
      "Ġ,": 785,
      "à´·à´ª": 786,
      "Ġà´ķà´¸": 787,
      "Ġ:": 788,
      "à´¶à´¯": 789,
      "Ġà´®à´²à´¯": 790,
      "à´¨à´¸": 791,
      "Ġà´ªà´ŀ": 792,
      "à´¸à´®à´¯": 793,
      "à´¤à´¦": 794,
      "à´¹à´ļà´°": 795,
      "àµĭ,": 796,
      "à´¤à´ķà´°": 797,
      "Ġà´īàµ¾à´ª": 798,
      "Ġà´īà´¨": 799,
      "à´ļà´ª": 800,
      "Ġà´¬à´¹": 801,
      "Ġà´¸à´®à´¯": 802,
      "à´ĸà´²à´¯": 803,
      "à´ľà´±": 804,
      "Ġà´ľà´¸": 805,
      "Ġà´Ĭ": 806,
      "àµĩ?": 807,
      "àµĭà´Ĥ": 808,
      "Ġà´ªà´¨": 809,
      "20": 810,
      "Ġà´¤à´ķà´°": 811,
      "à´¬à´°": 812,
      "Ġà´ķà´ª": 813,
      "Ġà´°à´ľ": 814,
      "Ġà´ħà´ļ": 815,
      "à´¶à´®": 816,
      "Ġà´¨à´Łà´ª": 817,
      "Ġà´®à´²": 818,
      "Ġà´®à´ķ": 819,
      "à´£à´±": 820,
      "à´¯à´¤à´¯": 821,
      "Ġ11": 822,
      "Ġà´±à´£": 823,
      "à´ĺà´Ł": 824,
      "Ġà´®à´ķà´¨": 825,
      "à´¶à´ķ": 826,
      "à´¨à´°": 827,
      "à´İà´²": 828,
      "à´¯à´®à´¸à´Ń": 829,
      "à´¯à´£": 830,
      "à´·à´Ļ": 831,
      "à´ļà´µà´°": 832,
      "à´µà´±": 833,
      "à´ļà´ķ": 834,
      "Ġà´īà´Łà´¨": 835,
      "Ġà´ªà´¶": 836,
      "à´¦à´µ": 837,
      "à´®à´³": 838,
      "à´±à´¸": 839,
      "âģ": 840,
      "à´Ĥ?": 841,
      "âģł": 842,
      "àµ»à´±": 843,
      "à´·à´ķ": 844,
      "Ġà´ķà´¶": 845,
      "Ġà´İà´µ": 846,
      "Ġà´ĩà´¸": 847,
      "Ġà´µà´ļ": 848,
      "Ġà´ħà´¬": 849,
      "à´ķà´¸": 850,
      "àµģ?": 851,
      "Ġ14": 852,
      "Ġà´Ĩà´Ń": 853,
      "Ġ200": 854,
      "à´³à´³": 855,
      "àµį-": 856,
      "Ġ25": 857,
      "Ġà´¤à´²": 858,
      "à´¤à´Ļ": 859,
      "à´¯àµ½": 860,
      "àµģà´Ĥ?": 861,
      "Ġà´ħà´µà´ķ": 862,
      "Ġà´¸à´ŀ": 863,
      "à´¬à´¤": 864,
      "à´°à´®à´£à´¤": 865,
      "àµĩ.": 866,
      "àµĮ": 867,
      "Ġ18": 868,
      "àµ½à´¹": 869,
      "à´°à´£à´Ļ": 870,
      "à´´à´ķ": 871,
      "à´¶à´¦": 872,
      "Ġà´Ĵà´ª": 873,
      "àµĪà´Ĥ": 874,
      "Ġà´ĵà´¸": 875,
      "à´°à´®à´²": 876,
      "Ġà´ªà´ķà´°": 877,
      "Ġà´¬à´¸": 878,
      "Ġà´ħà´µà´¯": 879,
      "Ġà´®à´§": 880,
      "à´³à´ľ": 881,
      "à´§à´°": 882,
      "Ġà´ıà´´": 883,
      "Ġà´İà´«": 884,
      "Ġà´¸à´®à´°": 885,
      "à´³à´¯": 886,
      "à´Ĵ": 887,
      "à´µà´ª": 888,
      "à´¾.": 889,
      "Ġà´ħà´£": 890,
      "Ġà´ĩà´±": 891,
      "Ġà´ķà´Łà´¨": 892,
      "à´ķà´´": 893,
      "à´İà´«": 894,
      "àµįâĢĮ?": 895,
      "à´±à´£": 896,
      "Ġà´ķà´¯à´±": 897,
      "Ġ13": 898,
      "à´®à´ķ": 899,
      "à´ľà´°": 900,
      "à´¥à´°": 901,
      "Ġà´ıà´ķà´¦": 902,
      "à´°à´Ń": 903,
      "Ġà´ļà´¨": 904,
      "à´¦à´¤": 905,
      "Ġà´ªà´°à´¸": 906,
      "Ġà´ļà´Łà´Ļ": 907,
      "Ġà´ĩà´Łà´ª": 908,
      "Ġà´³": 909,
      "Âł": 910,
      "Ġà´µà´¯à´¸": 911,
      "à´°à´®à´£": 912,
      "Ġà´Ĵà´±": 913,
      "),": 914,
      "Ġà´ľà´¨à´¤": 915,
      "Ġà´¨à´¯": 916,
      "à´¥à´®": 917,
      "àµįâĢĮ,": 918,
      "à´ĸà´ª": 919,
      "àµ¼à´·": 920,
      "Ġà´µà´¹": 921,
      "Ġà´¤à´µà´£": 922,
      "Ġ''": 923,
      "à´Łàµ¼": 924,
      "àµºà´¸": 925,
      "à´Ńà´¯": 926,
      "à´§à´µ": 927,
      "Ġà´¯à´¥": 928,
      "Ġ16": 929,
      "Ġà´°à´®": 930,
      "à´ľà´¸": 931,
      "Ġà´¤à´ķ": 932,
      "àµĨ?": 933,
      "Ġà´®à´¦": 934,
      "Ġà´µà´§": 935,
      "à´£à´¨": 936,
      "à´¸à´²": 937,
      "Ġà´¡à´²": 938,
      "Ġ50": 939,
      "Ġà´Ĩà´µ": 940,
      "Ġà´£": 941,
      "à´¤à´¨à´Ļ": 942,
      "à´¢": 943,
      "à´µàµ»": 944,
      "Ġà´Ĩà´²": 945,
      "à´·à´µ": 946,
      "Ġà´Ķà´¦": 947,
      "Ġà´ľà´®": 948,
      "âĢĭâĢĭ": 949,
      "Ġà´ħà´ªà´ķà´Łà´¤": 950,
      "Ġà´ķà´¨": 951,
      "Ġà´¬à´²": 952,
      "à´Ĺà´µ": 953,
      "Ġà´¸à´®à´¯à´¤": 954,
      "à´ĸà´°": 955,
      "à´ķà´°à´®": 956,
      "à´°à´£à´¤": 957,
      "à´¤à´µà´°": 958,
      "à´¸à´°à´¤": 959,
      "Ġà´¸à´ľ": 960,
      "à´¦à´¯": 961,
      "Ġà´¸à´Ļ": 962,
      "ĠâĢĶâģł": 963,
      "Ġà´¨à´µ": 964,
      "à´·à´ķà´³": 965,
      "à´·à´£à´Ļ": 966,
      "à´¯à´®à´²": 967,
      "Ġ17": 968,
      "Ġà´¸àµ¼à´µ": 969,
      "Ġà´Ĺà´¤": 970,
      "à´µà´¹": 971,
      "à´¶à´µ": 972,
      "Ġà´İàµ»": 973,
      "à´ªà´°à´®": 974,
      "à´Łà´µà´°": 975,
      "à´¿)": 976,
      "Ġà´ĵà´ª": 977,
      "à´Ĩà´°": 978,
      "à´²à´±": 979,
      "Ġà´İà´ª": 980,
      "Ġà´ħà´µàµ¼à´ķ": 981,
      "à´Łàµ»": 982,
      "Ġà´ħà´¶": 983,
      "à´²à´²": 984,
      "à´³à´®": 985,
      "à´®à´¹à´¤": 986,
      "Ġà´ħà´µàµ¾": 987,
      "à´¸à´°à´Ļ": 988,
      "Ġà´Ńà´°": 989,
      "Ġà´ķà´¨à´¤": 990,
      "à´¹à´¸": 991,
      "Ġà´ĩà´Łà´¯": 992,
      "à´ķàµ¼": 993,
      "à´£à´²": 994,
      "Ġà´ĺà´Ł": 995,
      "Ġà´¸à´ĸ": 996,
      "à´¾,": 997,
      "à´µà´§": 998,
      "à´µà´´": 999,
      "Ġà´ľà´¨à´±à´²": 1000,
      "à´¹à´¨à´Ļ": 1001,
      "Ġà´®à´ŀ": 1002,
      "à´Łà´£": 1003,
      "à´°àµ»": 1004,
      "àµįâĢĭ.": 1005,
      "Ġàµ½": 1006,
      "à´±àµ½": 1007,
      "à´Ĺà´³": 1008,
      "à´¸à´Ļ": 1009,
      "à´®à´ķà´³": 1010,
      "à´ĥ": 1011,
      "à´ħà´¤": 1012,
      "Ġà´®à´ķà´³": 1013,
      "à´ĺà´Łà´¨à´¯": 1014,
      "Ġ30": 1015,
      "à´¤à´ķà´³": 1016,
      "Ġà´Ĩà´ª": 1017,
      "à´¦à´°à´¨": 1018,
      "Ġà´İà´³": 1019,
      "à´Ńà´µà´Ļ": 1020,
      "à´§à´¯": 1021,
      "Ġà´¨à´¶": 1022,
      "Ġà´ļàµ¼à´ļ": 1023,
      "à´²à´£": 1024,
      "àµģàµį": 1025,
      "Ġà´ªà´´": 1026,
      "Ġà´«à´²": 1027,
      "àµ¼à´Ĺ": 1028,
      "àµįâĢį)": 1029,
      "àµįâĢį:": 1030,
      "Ġà´īà´ªà´¦": 1031,
      "à´¤à´°à´¤": 1032,
      "à´·à´ķà´°": 1033,
      "à´§à´Ļ": 1034,
      "Ġà´Ĩà´ĺ": 1035,
      "al": 1036,
      "à´³à´ª": 1037,
      "or": 1038,
      "à´µà´¸à´Ļ": 1039,
      "Ġà´ħà´Ĺ": 1040,
      "à´Ľà´¨": 1041,
      "in": 1042,
      "Ġà´±à´¦": 1043,
      "à´°à´£à´¯": 1044,
      "Ġà´°à´µ": 1045,
      "à´·à´¯à´¤": 1046,
      "Ġà´®à´Łà´Ļ": 1047,
      "à´°à´®à´¤": 1048,
      "à´ªà´³": 1049,
      "à´¹à´Ļ": 1050,
      "Ġà´Ĺà´µ": 1051,
      "à´§à´¨à´¯": 1052,
      "àµ½à´µ": 1053,
      "er": 1054,
      "à´ĸà´¤": 1055,
      "à´¦à´Ĺà´¤": 1056,
      "à´ļà´Ł": 1057,
      "àµºà´ķ": 1058,
      "an": 1059,
      "Ġà´¡à´¯": 1060,
      "Ġà´¸à´²": 1061,
      "Ġà´Ĵà´³": 1062,
      "à´ķà´ķ": 1063,
      "à´µà´¨à´ķ": 1064,
      "à´°à´ķà´Ł": 1065,
      "on": 1066,
      "Ġ100": 1067,
      "Ġà´Ĩà´§": 1068,
      "à´«à´²": 1069,
      "à´ªà´¨à´Ļ": 1070,
      "à´ķà´³à´¯": 1071,
      "Ġà´¤à´Łà´¯": 1072,
      "à´¸à´£": 1073,
      "Ġà´§à´°": 1074,
      "à´²à´ļ": 1075,
      "Ġà´ħà´¯à´ļ": 1076,
      "à´µàµ¼à´ķ": 1077,
      "Ġà´ħà´ľ": 1078,
      "Ġà´ĩà´¦": 1079,
      "à´µà´³": 1080,
      "Ġà´¨à´¦": 1081,
      "à´¸à´±": 1082,
      "à´¯à´®à´¤": 1083,
      "à´²à´§": 1084,
      "à´ķà´£à´ķ": 1085,
      "99": 1086,
      "Ġà´¦à´ķ": 1087,
      "Ġ24": 1088,
      "à´°à´ªà´¤": 1089,
      "Ġà´ħà´´": 1090,
      "àµį!": 1091,
      "Ġà´īà´¯àµ¼à´¨": 1092,
      "Ġà´īà´ļ": 1093,
      "à´§à´ķ": 1094,
      "à´ľà´¯à´¨": 1095,
      "Ġà´Ĩà´´": 1096,
      "Ġà´Ľ": 1097,
      "à´°à´®à´Ļ": 1098,
      "Ġà´ĩà´µà´¯": 1099,
      "Ġà´®à´°à´£à´¤": 1100,
      "à´ķà´°à´£à´Ļ": 1101,
      "Ġà´ħà´¡": 1102,
      "à´¨à´Ł": 1103,
      "Ġ!": 1104,
      "Ġà´Ļ": 1105,
      "Ġà´ªà´²à´°": 1106,
      "à´µà´µ": 1107,
      "à´¤à´°à´£": 1108,
      "à´¦à´Ĺ": 1109,
      "Ġà´¡à´¯à´±à´ķ": 1110,
      "à´¤à´µà´£": 1111,
      "à´ªà´²": 1112,
      "à´£à´°": 1113,
      "à´¿âĢĭ": 1114,
      "à´²à´¸": 1115,
      "à´ªà´¦": 1116,
      "Ġà´ħà´Łà´ķ": 1117,
      "Ġà´ħà´Łà´Ļ": 1118,
      "à´³à´¨": 1119,
      "à´°à´ľ": 1120,
      "Ġà´µà´Łà´ķ": 1121,
      "à´İà´®": 1122,
      "à´¶à´ª": 1123,
      "àµģà´Ĥ:": 1124,
      "à´¦à´Ļ": 1125,
      "Ġà´īà´²": 1126,
      "Ġà´±à´·": 1127,
      "à´¤à´ķà´¤": 1128,
      "à´Ĺà´°": 1129,
      "Ġ21": 1130,
      "à´ĵ": 1131,
      "à´§à´ķà´°": 1132,
      "à´µà´Ł": 1133,
      "à´£à´µ": 1134,
      "à´µà´¸à´¤": 1135,
      "à´ķà´°à´£à´¤": 1136,
      "à´£à´ķ": 1137,
      "à´®àµ¾": 1138,
      "à´®àµ¼à´¶": 1139,
      "à´¸à´µ": 1140,
      "Ġà´ķà´¯": 1141,
      "àµį)": 1142,
      "Ġà´Ĵà´ķ": 1143,
      "Ġà´Ĩàµ¼": 1144,
      "Ġà´ħà´ªà´ķà´Ł": 1145,
      "à´ľà´¯à´ª": 1146,
      "Ġà´ªà´ļ": 1147,
      "ĠâĢĵ": 1148,
      "Ġà´®à´´à´¯": 1149,
      "à´°à´²": 1150,
      "Ġà´¸à´µ": 1151,
      "Ġà´µà´¯": 1152,
      "Ġà´ķà´µ": 1153,
      "Ġà´ľà´¡": 1154,
      "à´ī": 1155,
      "à´ĺà´¤": 1156,
      "à´¯à´®à´ª": 1157,
      "Ġ22": 1158,
      "à´®à´£": 1159,
      "à´°à´ļà´°": 1160,
      "à´´à´ª": 1161,
      "à´ļà´ķà´³": 1162,
      "à´ķà´ķà´ª": 1163,
      "à´ªàµ¼": 1164,
      "Ġà´¸à´¸": 1165,
      "Ġà´¡àµ½à´¹": 1166,
      "à´ķà´¸à´¨": 1167,
      "Ġ40": 1168,
      "à´®à´®": 1169,
      "à´¿-": 1170,
      "àµįâĢĮ)": 1171,
      "à´£à´Ļ": 1172,
      "à´ħà´µà´°": 1173,
      "Ġà´İà´ŀ": 1174,
      "ĠN": 1175,
      "à´ªà´±à´¯": 1176,
      "à´®à´Ļ": 1177,
      "Ġà´Ĩà´¹": 1178,
      "...": 1179,
      "à´¬à´²": 1180,
      "Ġà´¶à´¬": 1181,
      "Ġà´Ĳà´ķ": 1182,
      "Ġà´ĩà´±à´ķ": 1183,
      "à´Łà´µ": 1184,
      "à´³à´¨à´¤": 1185,
      "Ġà´ıà´°": 1186,
      "à´ħà´²": 1187,
      "Ġà´Ĩà´¶à´Ļ": 1188,
      "Ġ/": 1189,
      "Ġt": 1190,
      "Ġà´ĩà´±à´Ļ": 1191,
      "à´ŀà´Ļ": 1192,
      "Ġà´¨à´Ĺà´°à´¤": 1193,
      "Ġà´ķà´±": 1194,
      "à´ĩà´¤": 1195,
      "ĠâĢ¦": 1196,
      "à´Ĥ)": 1197,
      "à´Ĥ!": 1198,
      "19": 1199,
      "ĠR": 1200,
      "àµģ.\"": 1201,
      "à´ķà´Ļ": 1202,
      "à´ľà´®": 1203,
      "à´¬àµ¼": 1204,
      "50": 1205,
      "at": 1206,
      "à´¶à´¦à´®": 1207,
      "Ġà´İà´¯à´°": 1208,
      "Ġà´īà´Łàµ»": 1209,
      "à´ĸà´²à´ķà´³": 1210,
      "Ġà´Ĳà´¸": 1211,
      "àµ»à´ª": 1212,
      "à´¸à´Ńà´¯": 1213,
      "ĠA": 1214,
      "à´¥à´²": 1215,
      "âĢĿ\"": 1216,
      "à´¥à´¤": 1217,
      "Ġà´ĩà´Łà´¤": 1218,
      "àµĨà´Ĥ": 1219,
      "Ġà´īà´®": 1220,
      "ĠM": 1221,
      "Ġà´ļà´¤": 1222,
      "Ġâ": 1223,
      ".\"": 1224,
      "à´ļà´²": 1225,
      "à´ĸà´²": 1226,
      "à´ĩà´¨": 1227,
      "à´²àµ¼": 1228,
      "àµ»à´ķ": 1229,
      "Ġà´ĩà´²à´ķ": 1230,
      "à´ªà´°à´¯": 1231,
      "Ġà´ħà´«": 1232,
      "à´Ĺà´¨": 1233,
      "Ġà´Ĵà´¤": 1234,
      "à´¾à´Ĥ,": 1235,
      "à´°à´¶à´¸": 1236,
      "àµĢ.": 1237,
      "à´®à´µ": 1238,
      "àµį.\"": 1239,
      "Ġà´¤à´Łà´¸": 1240,
      "à´¬à´±": 1241,
      "Ġà´¤à´°à´¤": 1242,
      "à´¸à´¸": 1243,
      "Ġà´ķà´Łà´²": 1244,
      "Ġà´¸à´ķà´²": 1245,
      "à´ªà´Ļ": 1246,
      "à´¿?": 1247,
      "Ġà´¸à´¦": 1248,
      "à´µàµ¼à´£": 1249,
      "Ġ23": 1250,
      "Ġà´Ńà´¯à´ª": 1251,
      "à´ķà´¥": 1252,
      "à´İàµ½": 1253,
      "à´µà´Ļ": 1254,
      "à´¤à´®à´²": 1255,
      "Ġà´İà´ļ": 1256,
      "à´¤àµ¼": 1257,
      "Ġà´¸à´Ńà´¯": 1258,
      "Ġà´¨à´°à´ķ": 1259,
      "Ġà´²à´³": 1260,
      "Ġ37": 1261,
      "Ġà´ķà´ķ": 1262,
      "ar": 1263,
      "à´Ĺà´ª": 1264,
      "Ġà´°à´¹à´¸": 1265,
      "à´£à´ª": 1266,
      "Ġà´īà´Łà´®": 1267,
      "Ġ2020": 1268,
      "Ġà´ªà´¦à´µ": 1269,
      "à´¥à´µ": 1270,
      "Ġà´ļà´²à´ļ": 1271,
      "ĠS": 1272,
      "à´¤à´±": 1273,
      "à´¸à´«": 1274,
      "à´¦àµ¼à´¶": 1275,
      "àµĪ:": 1276,
      "en": 1277,
      "Ġà´ĩà´µàµ¼": 1278,
      "à´¤à´¸": 1279,
      "Ġà´Ĭà´°": 1280,
      "à´µà´¤à´¨": 1281,
      "Ġà´ĺà´Łà´ķ": 1282,
      "à´°à´®à´¨": 1283,
      "à´ľà´ķ": 1284,
      "à´³à´µà´¨": 1285,
      "Ġà´¤à´¤": 1286,
      "à´´à´¯": 1287,
      "Ġà´ħà´Łà´ļ": 1288,
      "à´µà´¸à´µ": 1289,
      "Ġà´µàµ¼à´§": 1290,
      "\"\"\"": 1291,
      "àµ¾à´¡": 1292,
      "Ġ[": 1293,
      "àµĨ)": 1294,
      "à´µà´Ń": 1295,
      "à´¶à´°": 1296,
      "Ġà´Ĩàµ¼à´ķ": 1297,
      "à´¥à´²à´Ļ": 1298,
      "Ġà´®à´¸": 1299,
      "àµ¼à´Ń": 1300,
      "Ġ28": 1301,
      "à´ľà´¨à´Ļ": 1302,
      "Ġà´ľà´¨à´±àµ½": 1303,
      "Ġà´ĩà´®": 1304,
      "à´±à´µà´°": 1305,
      "à´·à´ķà´¨": 1306,
      "Ġà´Ńà´°à´£à´ĺà´Łà´¨": 1307,
      "es": 1308,
      "à´µà´ķà´²": 1309,
      "Ġà´®à´¹à´¤": 1310,
      "Ġà´ľà´²": 1311,
      "Ġà´īà´°": 1312,
      "Ġà´Ĺà´µà´£": 1313,
      "à´¨à´¦": 1314,
      "à´ªà´ķà´°": 1315,
      "à´¨à´¤à´²": 1316,
      "Ġà´ķà´Łà´ķ": 1317,
      "à´¯à´Ł": 1318,
      "Ġà´¤à´²à´¯": 1319,
      "à´¯à´ķà´°à´®": 1320,
      "à´ĸà´£": 1321,
      "à´¹à´µ": 1322,
      "à´ªà´±à´ŀ": 1323,
      "Ġà´Ńàµ¼à´¤": 1324,
      "Ġà´ªà´łà´¨": 1325,
      "à´·à´£à´²": 1326,
      "Ġà´¶à´¤": 1327,
      "Ġà´ħà´Łà´¯": 1328,
      "am": 1329,
      "à´Łà´ķà´¯": 1330,
      "à´¾à´Ĥ?": 1331,
      "à´¤à´ķà´¨": 1332,
      "Ġà´İà´¯": 1333,
      "à´¯à´§": 1334,
      "Ġà´ªà´²à´¤": 1335,
      "Ġà´ªà´³": 1336,
      "Ġà´İà´¡": 1337,
      "à´²à´µà´´": 1338,
      "Ġà´ķà´ł": 1339,
      "à´°à´ķà´Łà´¨": 1340,
      "Ġà´İàµ½": 1341,
      "à´ķà´³à´ŀ": 1342,
      "à´¸àµ¼": 1343,
      "Ġà´ķàµ¼à´£": 1344,
      "Ġà´ĩà´°à´Ł": 1345,
      "Ġà´İà´±à´£": 1346,
      "à´ļà´®": 1347,
      "Ġà´Ĵà´®": 1348,
      "Ġà´ħà´¹à´®": 1349,
      "Ġà´Ĳà´ª": 1350,
      "Ġà´ķà´·": 1351,
      "Ġà´¸à´®àµ¼à´ª": 1352,
      "à´ªà´ķà´®": 1353,
      "Ġà´ħà´µà´§": 1354,
      "ĠI": 1355,
      "Ġà´ıà´·": 1356,
      "Ġà´ĵà´³": 1357,
      "à´¯à´¦": 1358,
      "Ġà´±àµºà´¸": 1359,
      "Ġà´ĩàµ»": 1360,
      "Ġà´¸à´Ń": 1361,
      "Ġà´īà´ªà´Ń": 1362,
      "Ġà´µàµ¼à´·": 1363,
      "à´ĺà´°": 1364,
      "à´±àµ»": 1365,
      "à´³à´°": 1366,
      "Ġà´ĵà´¹à´°": 1367,
      "ĠC": 1368,
      "à´¡àµ½à´¹": 1369,
      "Ġà´¬à´ľà´±": 1370,
      "Ġà´¸à´ļ": 1371,
      "à´¯à´ķàµ»": 1372,
      "à´·à´£à´®": 1373,
      "Ġà´ħà´ķà´²": 1374,
      "Ġ..": 1375,
      "à´ķà´°à´£à´®": 1376,
      "à´·à´£à´µ": 1377,
      "à´ªà´µ": 1378,
      "àµ¼à´¬": 1379,
      "à´³à´Ļ": 1380,
      "Ġb": 1381,
      ").": 1382,
      "à´¡à´²à´¤": 1383,
      "Ġ60": 1384,
      "Ġà´Ĩàµ»à´¡": 1385,
      "à´ļà´¸": 1386,
      "Ġà´¸à´®à´¯à´®": 1387,
      "à´¤à´£": 1388,
      "Ġà´µàµ»": 1389,
      "à´®àµ»": 1390,
      "à´Ī": 1391,
      "à´¹à´¨à´¤": 1392,
      "Ġà´°à´ŀ": 1393,
      "à´¤à´²à´¤": 1394,
      "à´¯à´¶": 1395,
      "à´µàµ½": 1396,
      "à´¡à´²à´Ļ": 1397,
      "Ġà´ħà´°à´Ļ": 1398,
      "à´¯à´®à´¸à´Ńà´¯": 1399,
      "Ġà´Ĺà´µà´°": 1400,
      "àµį'": 1401,
      "à´ļà´µ": 1402,
      "àµ¼à´£à´®": 1403,
      "à´ªà´£à´Ļ": 1404,
      "Ġà´¤à´Łà´µ": 1405,
      "Ġà´ħà´¥à´µ": 1406,
      "Ġà´ĩà´ŀ": 1407,
      "Ġà´ľà´¨à´¤à´¯": 1408,
      "à´Ĵà´°": 1409,
      "Ġà´ħà´³à´µ": 1410,
      "à´ķà´¯à´±": 1411,
      "Ġà´®à´®": 1412,
      "àµģ!": 1413,
      "Ġà´ĩàµ»à´¸": 1414,
      "Ġ26": 1415,
      "Ġ27": 1416,
      "Ġ500": 1417,
      "à´¬à´Ļ": 1418,
      "Ġà´ħà´µà´¸à´°": 1419,
      "Ġà´¤à´£": 1420,
      "Ġà´İà´®": 1421,
      "à´³à´±": 1422,
      "Ġà´¶à´®": 1423,
      "à´Ńà´µà´®": 1424,
      "à´°à´¤à´¯": 1425,
      "àµ¼à´¶à´¨": 1426,
      "Ġ32": 1427,
      "à´ļà´¨à´¯": 1428,
      "Ġ35": 1429,
      "Ġà´ĵà´£": 1430,
      "Ġà´Ĩà´²à´ª": 1431,
      "à´·à´¯à´Ļ": 1432,
      "àµįâĢį?": 1433,
      "Ġà´µàµ¼à´¦": 1434,
      "àµģà´ĥ": 1435,
      "à´Ĺà´±": 1436,
      "Ġà´§à´¨": 1437,
      "Ġà´¤à´Łà´ŀ": 1438,
      "à´¾âĢĭ": 1439,
      "Ġ31": 1440,
      "à´·à´£àµ½": 1441,
      "à´²à´¯à´¤": 1442,
      "Ġ2019": 1443,
      "Ġà´µà´§à´¶": 1444,
      "Ġà´ħà´¨à´¨": 1445,
      "Ġà´µà´Ł": 1446,
      "à´¾âĢį": 1447,
      "ad": 1448,
      "à´¶à´¨à´¤": 1449,
      "à´µà´¨à´¯": 1450,
      "Ġà´¶à´¶": 1451,
      "àµįâĢį-": 1452,
      "à´¸à´ª": 1453,
      "à´µà´³à´¤": 1454,
      "Ġà´īà´ªà´°": 1455,
      "Ġà´¶à´¬à´°": 1456,
      "à´µà´¸à´®": 1457,
      "Ġà´ªà´²à´ª": 1458,
      "àµ¼à´¸": 1459,
      "à´¯à´£à´®": 1460,
      "Ġà´«à´²à´®": 1461,
      "à´ķà´°à´µ": 1462,
      "à´¹àµ»": 1463,
      "âĢ¦.": 1464,
      "à´¨à´¡": 1465,
      "à´ľà´¯à´®": 1466,
      "à´°à´°": 1467,
      "à´ķà´°à´°": 1468,
      "30": 1469,
      "à´İàµ»": 1470,
      "à´Ĳà´¯": 1471,
      "Ġà´µà´ķà´¯": 1472,
      "Ġà´ħà´¤à´²": 1473,
      "Ġà´®à´®à´¤": 1474,
      "Ġà´ħà´°à´µ": 1475,
      "Ġà´ıàµ¼à´ª": 1476,
      "Ġà´ħà´ķà´¤": 1477,
      "àµ½à´¸": 1478,
      "Ġà´¸à´¹à´ķà´°à´£": 1479,
      "Ġà´§à´¨à´®à´¨": 1480,
      "à´¿âĢĮ": 1481,
      "à´¯à´ķà´®": 1482,
      "Ġà´Ĺà´£": 1483,
      "à´´à´¤": 1484,
      "à´ĸà´ķà´³": 1485,
      "à´ľà´¯à´¤": 1486,
      "àµįâĢį!": 1487,
      "àµįâĢ¦": 1488,
      "Ġ199": 1489,
      "à´¡à´±": 1490,
      "à´°à´£à´µ": 1491,
      "à´°à´¦à´®": 1492,
      "Ġà´µà´£": 1493,
      "Ġà´ķà´¥à´¯": 1494,
      "Ġà´ħà´µà´¶": 1495,
      "Ġà´Ńà´°à´£à´ķ": 1496,
      "à´§à´¨à´µ": 1497,
      "Ġà´µàµ¼à´·à´¤": 1498,
      "à´Ńà´µà´µ": 1499,
      "Ġà´¦à´°": 1500,
      "à´¤à´ķà´Ļ": 1501,
      "Ġà´¸à´¬": 1502,
      "Ġà´¹àµ¼à´ľ": 1503,
      "Ġà´®à´²à´ª": 1504,
      "àµĤ,": 1505,
      "Ġà´«à´¯à´²": 1506,
      "Ġà´°à´¸": 1507,
      "Ġ70": 1508,
      "à´¸àµ½": 1509,
      "à´¤à´¨à´¤": 1510,
      "à´ªà´¨à´¤": 1511,
      "Ġà´¨à´Ĺà´°": 1512,
      "Ġà´ľà´¨à´¸": 1513,
      "Ġà´Ĺà´°": 1514,
      "-à´¾à´Ĥ": 1515,
      "Ġ0": 1516,
      "Ġà´µà´¯à´¨": 1517,
      "à´®à´ª": 1518,
      "Ġà´İà´¬": 1519,
      "Ġ|": 1520,
      "à´¯à´ľ": 1521,
      "Ġà´Ĩà´¨à´¨": 1522,
      "à´¹à´°à´®": 1523,
      "à´İà´¯": 1524,
      "à´Ĺà´²": 1525,
      "à´µà´¨à´Ļ": 1526,
      "Ġà´Ĩà´Ł": 1527,
      "Ġ29": 1528,
      "Ġ80": 1529,
      "Ġà´īà´¯àµ¼à´¤": 1530,
      "à´®à´±à´¯": 1531,
      "à´ĸà´®": 1532,
      "ĠP": 1533,
      "à´ļà´ķà´¨": 1534,
      "Ġà´®à´Ł": 1535,
      "Ġà´ľà´µ": 1536,
      "à´¡à´°": 1537,
      "Ġà´ıà´ľà´¨": 1538,
      "Ġà´²à´£": 1539,
      "ĪĻ": 1540,
      "ic": 1541,
      "à´ªà´ķà´¨": 1542,
      "à´°à´¹à´Ļ": 1543,
      "Ġà´īà´±à´Ļ": 1544,
      "Ġà´ªà´µ": 1545,
      "à´Ńà´ķ": 1546,
      "ion": 1547,
      "à´®à´¤à´²à´¯": 1548,
      "it": 1549,
      "à´¦à´¯à´¤": 1550,
      "à´¸à´ķ": 1551,
      "àµĩà´¾?": 1552,
      "Ġà´ļà´Ł": 1553,
      "à´°à´ķà´³": 1554,
      "Ġà´«à´£": 1555,
      "Ġà´īà´±à´ķ": 1556,
      "Ġ150": 1557,
      "à´¶à´¯à´®": 1558,
      "à´²à´Ń": 1559,
      "Ġà´Ńà´°à´£à´ĺà´Łà´¨à´¯": 1560,
      "Ġà´Ĩà´µà´°": 1561,
      "Ġ:âģł": 1562,
      "à´¤à´£à´®": 1563,
      "à´«à´²à´®": 1564,
      "à´ľà´²": 1565,
      "à´¨àµ½": 1566,
      "Ġà´¦à´®": 1567,
      "àµºà´²": 1568,
      "à´°à´£à´ķ": 1569,
      "à´Łàµ½": 1570,
      "Ġà´¦à´¶": 1571,
      "Ġà´ıà´²": 1572,
      "à´°à´ķà´Łà´®": 1573,
      "st": 1574,
      "à´µà´°à´®à´±": 1575,
      "àµį..": 1576,
      "ĠÂ": 1577,
      "Ġ-âĢį": 1578,
      "à´²à´¬": 1579,
      "à´İà´ļ": 1580,
      "àµįâĢĻ": 1581,
      "Ġà´¤à´µà´£à´¯": 1582,
      "Ġ300": 1583,
      "à´Łà´£à´®": 1584,
      "àµį...": 1585,
      "Ġà´±à´¹": 1586,
      "Ġà´¸à´®à´¨": 1587,
      "Ġà´®à´°à´£à´ª": 1588,
      "à´Ńà´µà´ª": 1589,
      "àµģâĢĭ": 1590,
      "Ġà´īà´ªà´®": 1591,
      "à´ŀà´¨": 1592,
      "à´ķà´ķà´³": 1593,
      "Ġà´ľà´ª": 1594,
      "Ġà´¶à´Ļ": 1595,
      "à´°à´¬": 1596,
      "à´Ĩàµ¼": 1597,
      "Ġà´®à´±à´ķ": 1598,
      "Ġà´ĩà´µàµ¼à´ķ": 1599,
      "à´°à´¦à´°": 1600,
      "Ġà´Ĩà´¦à´°": 1601,
      "Ġà´ªà´´à´¯": 1602,
      "àµĩà´Ĥ": 1603,
      "à´¦à´¨à´¯": 1604,
      "Ġà´¨à´Łàµ»": 1605,
      "à´·à´¤à´¯": 1606,
      "à´¤à´³": 1607,
      "Ġà´īà´ªà´¤": 1608,
      "à´¤à´°à´®à´¨": 1609,
      "Ġà´¤à´ķàµ¼à´¨": 1610,
      "à´ķà´¤à´¯": 1611,
      "àµ½à´¤": 1612,
      "à´¾âĢįà´Ĥ": 1613,
      "à´´à´²": 1614,
      "Ġà´Īà´¸": 1615,
      "Ġà´¨à´Ĺà´°à´Ļ": 1616,
      "à´ķà´¸à´¨à´¤": 1617,
      "à´Ńà´µà´¸": 1618,
      "Ġà´ĩà´³à´ķ": 1619,
      "à´Łà´¨à´¤": 1620,
      "à´§à´°à´¨": 1621,
      "à´³à´µàµ¼": 1622,
      "à´ªà´¨à´¯": 1623,
      "Ġà´ħàµ¼à´¥": 1624,
      "Ġà´ĵà´ķ": 1625,
      "Ġ-âĢįà´¾âĢįà´Ĥ": 1626,
      "à´Łà´µà´¨": 1627,
      "Ġà´µà´ŀ": 1628,
      "àµ»à´®": 1629,
      "Ġà´ĵà´µà´±": 1630,
      "à´®à´ļà´¨": 1631,
      "à´¤à´Ł": 1632,
      "àµ¼à´²à´®": 1633,
      "Ġà´ķà´³à´ķ": 1634,
      "à´ĺà´Łà´¨à´ķà´³": 1635,
      "à´¯à´µà´¯": 1636,
      "à´ªà´¨à´®": 1637,
      "à´¶à´²": 1638,
      "Ġà´ĩà´¬": 1639,
      "ue": 1640,
      "à´¸à´¹": 1641,
      "Ġà´®à´Łà´ķ": 1642,
      "Ġ2018": 1643,
      "à´ħà´¨": 1644,
      "ĠT": 1645,
      "Ġà´ħà´ªà´®": 1646,
      "à´¨à´µàµ¼à´ķ": 1647,
      "àµ¼à´ĺ": 1648,
      "à´Ĺà´¬": 1649,
      "Ġà´ķà´®à´²": 1650,
      "Ġà´ħà´µà´°à´¤": 1651,
      "à´Ńà´¤": 1652,
      "à´Ńà´°à´£": 1653,
      "Ġà´ħà´ĸ": 1654,
      "à´Ĩà´¨": 1655,
      "Ġà´İà´¯àµ¼": 1656,
      "Ġà´īà´±": 1657,
      "à´§à´ķà´®": 1658,
      "Ġ%": 1659,
      "om": 1660,
      "à´¿!": 1661,
      "à´§à´¨à´Ļ": 1662,
      "Ġ202": 1663,
      "Ġà´¨à´®à´¸": 1664,
      "10": 1665,
      "à´ĸà´¨": 1666,
      "à´ķà´°à´£à´µ": 1667,
      "à´±àµ¼à´¨": 1668,
      "à´Łàµ¼à´®": 1669,
      "Ġà´¤à´²à´®": 1670,
      "à´¯à´Ń": 1671,
      "Ġà´īà´ªà´ķà´°à´£à´Ļ": 1672,
      "à´²à´ĺà´Ł": 1673,
      "à´¯à´ķà´³": 1674,
      "àµ¾à´Ł": 1675,
      "àµĤà´Ĥ": 1676,
      "Ġà´ħà´¯à´ķ": 1677,
      "à´µà´°à´µ": 1678,
      "Ġà´®à´ľ": 1679,
      "Ġà´¤à´¦": 1680,
      "âĢĮàµį": 1681,
      "à´ĸà´Ļ": 1682,
      "à´¤à´ķàµ¾": 1683,
      "à´±àµ»à´¸": 1684,
      "ĠG": 1685,
      "à´°à´¤à´®": 1686,
      "Ġà´ļà´ķ": 1687,
      "à´ªà´ª": 1688,
      "à´ķà´°à´¨": 1689,
      "à´¤à´¶": 1690,
      "à´¨à´¬": 1691,
      "à´Ĺà´¡": 1692,
      "à´®à´¤à´²": 1693,
      "àµ½à´®": 1694,
      "à´ķà´¥à´¯": 1695,
      "à´Ĳà´İ": 1696,
      "Ġ45": 1697,
      "à´ķà´¶": 1698,
      "Ġà´ĩà´µà´¨": 1699,
      "hp": 1700,
      "à´¦à´ª": 1701,
      "à´¾?": 1702,
      "à´¤à´°à´ķ": 1703,
      "à´¯à´®à´µ": 1704,
      "Ġà´¤à´²à´¸": 1705,
      "Ġm": 1706,
      "à´³à´²": 1707,
      "à´ªà´¸": 1708,
      "ĠRe": 1709,
      "à´ħà´¦": 1710,
      "à´²à´¯à´³à´µ": 1711,
      "Ġà´¸àµ¼à´µà´ķà´²": 1712,
      "Ġbhp": 1713,
      "à´ĸà´¯": 1714,
      "Ġà´īà´±à´ļ": 1715,
      "àµ¾à´¸": 1716,
      "Ġà´Ĩà´µàµ¼à´¤": 1717,
      "Ġ33": 1718,
      "Ġà´¤à´²à´¤": 1719,
      "Ġà´§à´¨à´ķ": 1720,
      "à´°à´·": 1721,
      "Ġà´¸à´¹à´ķà´°": 1722,
      "à´ķà´Łà´¤": 1723,
      "Ġà´ľà´¨à´ª": 1724,
      "Ġ36": 1725,
      "Ġà´¨à´ķ": 1726,
      "Ġ48": 1727,
      "à´®à´§": 1728,
      "Ġà´®à´±à´¨": 1729,
      "à´£à´ļ": 1730,
      "Ġà´®à´ķàµ»": 1731,
      "à´¨à´µà´¯": 1732,
      "à´µà´¶à´¤": 1733,
      "re": 1734,
      "à´¹à´°à´£à´¤": 1735,
      "à´¸à´ķà´³": 1736,
      "Ġà´«à´²à´ª": 1737,
      "à´ķà´ľ": 1738,
      "à´Ĺà´£à´¨": 1739,
      "à´°à´±": 1740,
      "à´Ĥ-": 1741,
      "à´±à´ªà´¤": 1742,
      "à´ªà´¬": 1743,
      "à´®àµ¼": 1744,
      "à´¨à´¶": 1745,
      "à´¯à´¸à´Ń": 1746,
      "à´µà´¨à´¤": 1747,
      "à´ľàµ»": 1748,
      "à´¸à´ŀ": 1749,
      "à´µà´ľ": 1750,
      "Ġà´İà´±": 1751,
      "à´ŀà´ª": 1752,
      "Ġà´ĵàµ¼à´®": 1753,
      "Ġ370": 1754,
      "à´¶à´¨à´®": 1755,
      "Ġà´µà´²à´¤": 1756,
      "Ġ90": 1757,
      "Ġà´ĩà´°à´¯": 1758,
      "que": 1759,
      "à´¯à´¸à´¨": 1760,
      "Ġà´®à´°à´£à´®": 1761,
      "Ġà´¦à´¯": 1762,
      "àµģà´Ĥ!": 1763,
      "Ġ)": 1764,
      "ĠX": 1765,
      "Ġà´¬à´ļ": 1766,
      "Ġà´¨à´°à´ķà´¤": 1767,
      "Ġà´ªà´²à´¯": 1768,
      "Ġà´īàµ¾à´ķ": 1769,
      "àµ¼à´µà´¹": 1770,
      "à´Łà´ķà´¤": 1771,
      "à´¦à´²": 1772,
      "âĢĭâĢĭâĢĭ": 1773,
      "à´Łà´Ł": 1774,
      "à´ķà´Łà´ķ": 1775,
      "à´¨à´£": 1776,
      "à´µàµ¼à´Ĺ": 1777,
      "à´¶à´¨à´·": 1778,
      "à´¨à´µàµ¼": 1779,
      "àµ¼à´¬à´¨": 1780,
      "à´°à´¹à´®": 1781,
      "àµĭ:": 1782,
      "Ġà´¦à´¶à´²à´ķ": 1783,
      "à´¯à´µàµ¼": 1784,
      "à´ı": 1785,
      "Ġ198": 1786,
      "à´ļà´¯à´®": 1787,
      "à´Łà´ļ": 1788,
      "ĠNm": 1789,
      "à´¯à´¸à´Ńà´¯": 1790,
      "Ġà´Ĵà´¬": 1791,
      "Ġ34": 1792,
      "Ġà´ĺà´Łà´ķà´Ļ": 1793,
      "à´ħà´µà´¨": 1794,
      "le": 1795,
      "à´µà´°à´£": 1796,
      "he": 1797,
      "Ġà´µà´ļà´¨à´Ļ": 1798,
      "Ġà´ķà´°à´¯": 1799,
      "Ġtor": 1800,
      "Ġà´Ĩà´«": 1801,
      "à´ľà´¯àµ»": 1802,
      "à´¤àµ»": 1803,
      "à´¡à´ķ": 1804,
      "Ġà´ķàµº": 1805,
      "à´¤à´µà´¨": 1806,
      "à´°à´¸à´°": 1807,
      "Ġà´ħàµ¼": 1808,
      "Ġà´Ĩà´®": 1809,
      "Ġà´Ĭàµ¼à´ľ": 1810,
      "à´®àµ¼à´¦": 1811,
      "Ġtorque": 1812,
      "ĠâĪĻ": 1813,
      "Ġà´¦à´²": 1814,
      "à´¤àµ¼à´ª": 1815,
      "Ġà´°à´ľà´¨": 1816,
      "Ġà´ªà´Łà´°": 1817,
      "Ġc": 1818,
      "àµģ-": 1819,
      "à´¯à´ķà´ķ": 1820,
      "Ġà´Ľà´¤": 1821,
      "Ġà´ªà´£à´®": 1822,
      "Ġà´ħà´µà´¸à´°à´Ļ": 1823,
      "Ġà´·à´®": 1824,
      "Ġà´µà´°à´µ": 1825,
      "Ġà´®à´¤à´¤": 1826,
      "Ġà´ľà´¨à´µ": 1827,
      "à´¹à´²": 1828,
      "à´¯àµ¼à´®": 1829,
      "à´Ľàµ»": 1830,
      "Ġà´ķà´°à´¸": 1831,
      "Ġ2014": 1832,
      "à´·à´¯à´®": 1833,
      "Ġ2017": 1834,
      "ĠB": 1835,
      "Ġs": 1836,
      "Ġà´ķà´³à´¯": 1837,
      "à´°à´µà´ļ": 1838,
      "Ġà´Ńà´¯": 1839,
      "à´°à´®à´®": 1840,
      "Ġà´Ńà´µà´¨": 1841,
      "Ġà´ħà´µà´Ĺà´£": 1842,
      "à´¦à´°à´Ļ": 1843,
      "Ġ...": 1844,
      "Ġà´µà´³àµ¼à´ļ": 1845,
      "is": 1846,
      "Ġà´¶àµ¼à´®": 1847,
      "à´Ĺà´ķ": 1848,
      "àµįàµį": 1849,
      "à´¤à´ķà´®": 1850,
      "à´µàµ¼à´¤": 1851,
      "Ġ64": 1852,
      "Ġà´µàµ¼à´·à´Ļ": 1853,
      "Ġà´īàµ½à´ª": 1854,
      "à´®à´²à´¯": 1855,
      "à´¹à´¯": 1856,
      "Ġà´ķà´Łà´¤": 1857,
      "à´ŀà´¯": 1858,
      "Ġà´Īà´Ł": 1859,
      "Ġà´ıà´ª": 1860,
      "à´¥à´Ļ": 1861,
      "Ġà´¹à´¸": 1862,
      "Ġà´±à´¸": 1863,
      "à´¨à´ªà´ķ": 1864,
      "Ġ197": 1865,
      "Ġà´µà´³àµ¼à´¤": 1866,
      "à´¡à´¯": 1867,
      "âĢĺ": 1868,
      "à´²à´µà´°": 1869,
      "'.": 1870,
      "Ġà´ķà´Łà´ª": 1871,
      "à´Łàµ¼à´ļ": 1872,
      "àµĨ!": 1873,
      "à´²àµ»à´¡": 1874,
      "Ġà´ľà´¯à´°": 1875,
      "à´ľàµ»à´¸": 1876,
      "à´¸àµº": 1877,
      "Ġ75": 1878,
      "àµ½à´¡": 1879,
      "Ġà´«à´¸": 1880,
      "à´¶à´®à´¨": 1881,
      "Ġà´¶à´¸": 1882,
      "à´²à´¯à´Ļ": 1883,
      "Ġà´°à´¹": 1884,
      "Ġà´Ķà´Ł": 1885,
      "Ġà´ħà´Ńà´¯": 1886,
      "à´Ĳà´¸": 1887,
      "à´´à´ļ": 1888,
      "Ġà´¸àµ¼": 1889,
      "à´ķà´Łà´¨": 1890,
      "Ġà´¹à´°à´ľ": 1891,
      "Ġà´ķà´ļ": 1892,
      "à´¶à´Ń": 1893,
      "Ġà´ªà´°à´²": 1894,
      "Ġ250": 1895,
      "à´¤à´ļ": 1896,
      "Ġ400": 1897,
      "à´¥à´²à´®": 1898,
      "à´¨à´®à´²": 1899,
      "âĢľ": 1900,
      "Ġà´Ĩàµ¼à´Ł": 1901,
      "à´°à´¹à´¤": 1902,
      "à´¯à´µà´¨": 1903,
      "âĢĵ": 1904,
      "Ġà´ľà´²à´¨": 1905,
      "Ġà´¤àµ¼à´ķ": 1906,
      "àµ»à´µà´²": 1907,
      "Ġà´Ĳà´«": 1908,
      "àµģ)": 1909,
      "Ġà´®à´²à´ķ": 1910,
      "à´´à´Łà´Ļ": 1911,
      "à´°à´ªà´°à´®": 1912,
      "à´Ńà´ľ": 1913,
      "ĠF": 1914,
      "Ġà´ħà´ľà´¯": 1915,
      "Ġn": 1916,
      "Ġà´Ĩà´ŀ": 1917,
      "18": 1918,
      "Ġà´Ĵà´¡": 1919,
      "à´³à´³à´¤": 1920,
      "Ġà´ªà´łà´¨à´¤": 1921,
      "Ġà´µà´¯à´±": 1922,
      "Ġà´ħà´µàµ¾à´ķ": 1923,
      "àµĩ,)": 1924,
      "Ġà´ħà´µà´²": 1925,
      "Ġà´µà´´à´Ļ": 1926,
      "à´Łà´£à´¤": 1927,
      "à´¯à´ªà´°": 1928,
      "Ġà´«à´²à´Ļ": 1929,
      "Ġà´®à´¯à´ķ": 1930,
      "Ġà´°à´¤": 1931,
      "Ġà´¶à´²": 1932,
      "Ġà´¸à´®à´°à´¤": 1933,
      "ĠV": 1934,
      "à´ķà´¬": 1935,
      "à´¯àµ»à´¸": 1936,
      "Ġà´İàµ»à´ľ": 1937,
      "Ġà´īà´±à´µ": 1938,
      "à´°à´µà´®": 1939,
      "Ġà´ļà´²": 1940,
      "Ġà´¡à´¬": 1941,
      "Ġà´Ĩà´ļ": 1942,
      "Ġà´¨à´¯à´¤": 1943,
      "à´Ĺà´®à´¨": 1944,
      "Ġà´ĩàµ»à´¡": 1945,
      "à´¶à´¨à´µ": 1946,
      "àµĩ!": 1947,
      "à´²à´ķà´¨": 1948,
      "à´¿âĢĻ": 1949,
      "ĠRead": 1950,
      "à´¤à´µà´¤": 1951,
      "à´ļàµ¼": 1952,
      "Ġà´ªà´ķà´²": 1953,
      "à´´à´ŀ": 1954,
      "Ġà´ħà´ªà´ķà´Łà´ķ": 1955,
      "ala": 1956,
      "Ġà´¹à´¨": 1957,
      "Ġà´Ĺà´µàµ¼à´£": 1958,
      "15": 1959,
      "Ġp": 1960,
      "à´£àµ»": 1961,
      "à´±à´Ĺ": 1962,
      "12": 1963,
      "à´³à´µà´¯": 1964,
      "Ġà´ħà´¹": 1965,
      "à´Ļà´²": 1966,
      "Ġà´°à´ļ": 1967,
      "Ġ42": 1968,
      "à´²à´µà´¨": 1969,
      "à´¦àµ¼": 1970,
      "à´¤à´²à´¯": 1971,
      "à´ļà´µà´¨": 1972,
      "ac": 1973,
      "Ġà´µàµ¼à´Ĺ": 1974,
      "à´¦à´¯à´Ļ": 1975,
      "à´¥à´ķà´³": 1976,
      "Ġà´Ńà´°à´£à´¤": 1977,
      "à´¥à´¤à´¯": 1978,
      "àµį\"\"": 1979,
      "Ġà´¤à´²à´µà´¨": 1980,
      "Ġ2016": 1981,
      "à´İà´ĩ": 1982,
      "Ġà´°à´¸à´ķà´°à´®": 1983,
      "à´¬à´¯": 1984,
      "Ġà´ħà´±à´¬": 1985,
      "à´ªàµ»": 1986,
      "Ġà´īà´£à´°": 1987,
      "Ġ44": 1988,
      "Ġà´ĩà´³à´µ": 1989,
      "Ġà´¸à´£": 1990,
      "ĠD": 1991,
      "Ġin": 1992,
      "Ġà´¸à´¯à´¨": 1993,
      "à´´à´µ": 1994,
      "999": 1995,
      "Ġà´ĵàµ¼à´ķ": 1996,
      "ĠH": 1997,
      "Ġà´ħàµ½": 1998,
      "à´ĺà´Ļ": 1999,
      "Ġà´Ĳà´¶": 2000,
      "à´¥àµ¼": 2001,
      "ia": 2002,
      "Ġ38": 2003,
      "à´¦à´ķ": 2004,
      "à´¹à´¬": 2005,
      "à´³à´ļ": 2006,
      "à´¦à´¨à´¤": 2007,
      "à´Ĺà´£à´¨à´¯": 2008,
      "à´Ĺà´¯": 2009,
      "Ġà´ľàµ¼à´®": 2010,
      "Ġà´§à´µ": 2011,
      "Ġà´Ĵà´²": 2012,
      "à´³à´µàµ¼à´ķ": 2013,
      "il": 2014,
      "Ġà´µà´®": 2015,
      "ew": 2016,
      "and": 2017,
      "à´ĺà´®": 2018,
      "ed": 2019,
      "àµĪ,": 2020,
      "à´ŀà´Ł": 2021,
      "Ġo": 2022,
      "à´¨à´Ĺà´°": 2023,
      "Ġà´¸à´®à´Ĺ": 2024,
      "Ġà´Ĺàµ¼à´Ń": 2025,
      "Ġà´®à´´à´ķ": 2026,
      "à´·à´°": 2027,
      "ĠL": 2028,
      "Ġà´®àµ¼à´¦": 2029,
      "à´¨àµ½à´ķ": 2030,
      "Ġà´ħà´¯à´²": 2031,
      "à´¶à´¬": 2032,
      "à´¯àµ¼à´¤": 2033,
      "àµįâĢĮ!": 2034,
      "Ġ39": 2035,
      "Ġà´ªà´¬": 2036,
      "Ġà´ħà´®à´°": 2037,
      "Ġà´ĵàµºà´²": 2038,
      "à´¹àµ»à´²": 2039,
      "Ġà´Ĩà´¶à´¯à´µ": 2040,
      "à´³à´¸": 2041,
      "Ġà´Ĩà´ķà´¯": 2042,
      "ĠE": 2043,
      "à´¯à´¤à´ķà´³": 2044,
      "Ġà´¨à´¸": 2045,
      "à´ħà´®": 2046,
      "à´Ĺàµ¼": 2047,
      "Ġà´µà´·": 2048,
      "à´ľà´¯à´ķà´°à´®": 2049,
      "Ġ196": 2050,
      "à´·à´®à´¤": 2051,
      "as": 2052,
      "Ġ194": 2053,
      "à´¿'": 2054,
      "à´łà´®": 2055,
      "à´Ĺà´¤à´¯": 2056,
      "à´¤à´¤à´¯": 2057,
      "Ġà´®à´°à´£à´ķ": 2058,
      "àµĨ:": 2059,
      ".)": 2060,
      "àµ¼à´·à´ķ": 2061,
      "Ġà´ļà´Ļ": 2062,
      "us": 2063,
      "à´¨à´¯à´¤": 2064,
      "Ġf": 2065,
      "à´¬à´¸": 2066,
      "Ġà´±à´«": 2067,
      "à´°à´ªà´°": 2068,
      "Ġà´®à´°à´£à´µ": 2069,
      "Ġà´¬à´¯": 2070,
      "à´¬à´¦": 2071,
      "à´ªà´£à´¤": 2072,
      "Ġà´µà´±": 2073,
      "Ġà´¸à´ķ": 2074,
      "à´¯à´¹": 2075,
      "Ġà´īà´Łà´®à´¸": 2076,
      "Ġà´ķà´²à´ķ": 2077,
      ",,": 2078,
      "Ġà´īà´Ł": 2079,
      "Ġà´ħà´¹à´Ļ": 2080,
      "Ġà´ħà´¨à´§": 2081,
      "à´°à´¸à´ķ": 2082,
      "Ġà´®à´¤à´µ": 2083,
      "àµ¼à´²": 2084,
      "à´Ńà´Ļ": 2085,
      "16": 2086,
      "Ġà´ªà´´à´Ļ": 2087,
      "à´·à´£à´°": 2088,
      "à´¨à´ķà´¤": 2089,
      "à´¡àµ½": 2090,
      "à´¾!": 2091,
      "à´°àµ½": 2092,
      "Ġà´Ĳà´İà´¸": 2093,
      "ĠâĢĺâĢĺ": 2094,
      "à´²àµ¼à´¤": 2095,
      "à´±à´¬": 2096,
      "àµĭ!": 2097,
      "à´¦à´¨à´®": 2098,
      "à´£à´µà´°": 2099,
      "500": 2100,
      "ĠK": 2101,
      "à´ħà´ª": 2102,
      "Ġà´¬à´Ł": 2103,
      "à´°à´¤à´¤": 2104,
      "Ġà´ĺà´Łà´¨": 2105,
      "Ġà´µà´·à´³": 2106,
      "à´ķà´µà´°": 2107,
      "à´ķà´Łà´²": 2108,
      "Ġà´®à´°à´£à´¸": 2109,
      "à´´à´Ļ": 2110,
      "à´¬à´ķ": 2111,
      "Ġà´ľà´¯à´²": 2112,
      "àµį),": 2113,
      "Ġà´®à´°à´Ļ": 2114,
      "à´¤à´ķàµ¼": 2115,
      "à´°à´£à´¯à´¤": 2116,
      "à´ªàµ½": 2117,
      "àµįâĢį),": 2118,
      "Ġà´¨à´¬": 2119,
      "Ġà´®à´ķàµ¾": 2120,
      "à´Łàµº": 2121,
      "Ġà´ħà´£à´ķ": 2122,
      "so": 2123,
      "Ġà´¤à´²à´ķ": 2124,
      "Ġà´¸à´¹à´®à´¨": 2125,
      "à´¨à´ªà´°à´®": 2126,
      "25": 2127,
      "à´°à´®à´ķ": 2128,
      "Ġà´Ĩà´ķà´°": 2129,
      "àµĨâĢ¦": 2130,
      "ame": 2131,
      "Ġ195": 2132,
      "à´°à´¦àµ¼à´¶": 2133,
      "Ġ65": 2134,
      "un": 2135,
      "Ġà´ħà´ªà´ķà´Łà´®": 2136,
      "à´¬à´µ": 2137,
      "Ġà´ľà´¯à´²à´³": 2138,
      "à´µà´°à´¯": 2139,
      "Ġà´ıà´ľàµ»à´¸": 2140,
      "Ġà´ļà´°à´ķ": 2141,
      "ro": 2142,
      "à´¸à´®à´¯à´¤": 2143,
      "Ġà´ĩà´ļ": 2144,
      "à´Ĺà´¢": 2145,
      "à´Ńà´°": 2146,
      "Ġà´īà´ªà´ľ": 2147,
      "à´ªà´£à´µ": 2148,
      "à´ĵà´³": 2149,
      "Ġà´«à´¯à´°": 2150,
      "àµºà´®": 2151,
      "à´«à´°": 2152,
      "à´Łà´ŀ": 2153,
      "Ġ43": 2154,
      "Ġà´ħà´ªà´²à´ª": 2155,
      "âĢĻ.": 2156,
      "ĠâĢį": 2157,
      "Ġà´Ĩà´¶à´¯à´Ļ": 2158,
      "Ġà´¾": 2159,
      "Ġà´ħà´ªà´ķà´Łà´Ļ": 2160,
      "à´§à´¨à´ķà´³": 2161,
      "Ġà´µà´¸à´¤": 2162,
      "Ġà´¦à´¯à´µ": 2163,
      "Ġà´µà´°à´£": 2164,
      "Ġ49": 2165,
      "Ġà´´": 2166,
      "Ġà´ķà´³à´ŀ": 2167,
      "à´ļà´ķàµ¾": 2168,
      "Ġà´ľà´¨à´ķ": 2169,
      "à´®à´¶": 2170,
      "à´Łà´ªà´°": 2171,
      "àµįâĢĿ": 2172,
      "Ġà´ħà´µà´¤": 2173,
      "à´ľà´¨à´ª": 2174,
      "Ġà´¸à´¯": 2175,
      "Ġà´ĩà´Łà´ķ": 2176,
      "à´¡à´¨à´¤": 2177,
      "à´¨à´¤à´¯": 2178,
      "à´ħà´Ļ": 2179,
      "Ġà´ĩà´Łà´µ": 2180,
      "Ġà´ħàµ¼à´¤": 2181,
      "Ġà´Ĩà´¯à´¤": 2182,
      "11": 2183,
      "à´²à´®à´¤": 2184,
      "Ġà´µàµ¼à´ķ": 2185,
      "Ġà´¤à´²à´µ": 2186,
      "à´ŀà´µà´°": 2187,
      "à´¹à´¨à´®": 2188,
      "à´¡à´£": 2189,
      "Ġà´µà´´à´ķ": 2190,
      "Ġà´¶à´°à´¤": 2191,
      "Ġà´µà´§à´ķ": 2192,
      "à´Łà´¯à´ļ": 2193,
      "à´¹à´°à´£": 2194,
      "ent": 2195,
      "Ġà´¦à´¤": 2196,
      "Ġà´ķà´Łà´ķà´³": 2197,
      "à´Ĩà´ª": 2198,
      "Ġà´¤à´ķàµ¼à´¤": 2199,
      "el": 2200,
      "à¤": 2201,
      "à´Ķ": 2202,
      "à´ĤâĢĮ": 2203,
      "àµĤ!": 2204,
      "Ġà´Ĩà´ķàµ¼à´·": 2205,
      "Ġd": 2206,
      "à´ļà´°à´£": 2207,
      "àµ»à´µ": 2208,
      "à´£àµ½": 2209,
      "Ġà´Ĭà´¨": 2210,
      "à´¶à´¯à´¤": 2211,
      "à´³à´ķà´³": 2212,
      "à´¾à´Ĥ:": 2213,
      "Ġà´«à´¯àµ¼": 2214,
      "à´§à´®à´¨": 2215,
      "à´ľà´µ": 2216,
      "à´·à´®à´®": 2217,
      "ĠÂ·": 2218,
      "Ġà´¨à´´": 2219,
      "Ġà´ĵà´±à´ŀ": 2220,
      "Ġà´®à´±à´ļ": 2221,
      "à´Łà´ķà´³": 2222,
      "Ġà´ĵà´¡": 2223,
      "à´¸àµ»": 2224,
      "à´¨à´¦à´£": 2225,
      "à´²àµ»à´¸": 2226,
      "17": 2227,
      "à´¬à´°à´¤": 2228,
      "Ġà´²à´¹à´°": 2229,
      "Ġà´²à´ĺ": 2230,
      "Ġà´ķàµ¼à´·à´ķ": 2231,
      "Ġà´¨à´Ĺà´°à´®": 2232,
      "à´¶à´¯à´Ļ": 2233,
      "à´±à´ķà´³": 2234,
      "àµĭâĢĭ": 2235,
      "Ġâĸ": 2236,
      "Ġ55": 2237,
      "Ġà´±à´µà´¨": 2238,
      "Ġà´µà´³àµ¼à´¨": 2239,
      "àµĭ-": 2240,
      "ing": 2241,
      "à´§à´¸": 2242,
      "à´°à´Ĺ": 2243,
      "à´¯à´®à´ªà´°à´®": 2244,
      "ation": 2245,
      "Ġà´ĵà´¯": 2246,
      "à´°à´®à´£à´Ļ": 2247,
      "ĠAl": 2248,
      "ews": 2249,
      "àµģ...": 2250,
      "à´·à´¤à´ķà´³": 2251,
      "Ġà´¸à´ª": 2252,
      "à´¯à´£à´¨": 2253,
      "à´ªà´¦à´®": 2254,
      "Ġ125": 2255,
      "à´³à´¤à´²": 2256,
      "à´°à´¸à´µ": 2257,
      "à´ĺà´µ": 2258,
      "Ġà´¶à´ª": 2259,
      "Ġ47": 2260,
      "Ġà´²à´¯": 2261,
      "à´§à´¨à´¤": 2262,
      "Ġà´®à´°à´£à´Ļ": 2263,
      "Ġ52": 2264,
      "à´«à´²à´Ļ": 2265,
      "à´ĸà´°à´¨": 2266,
      "ur": 2267,
      "Ġà´ªà´±à´¯à´ª": 2268,
      "14": 2269,
      "à´±à´«": 2270,
      "à´µà´°à´®": 2271,
      "à´ļà´¨à´ķà´³": 2272,
      "Ġà´¸à´¹à´ª": 2273,
      "à´ķà´ŀ": 2274,
      "à´®à´¬": 2275,
      "Ġ2015": 2276,
      "à´¤à´²à´¨": 2277,
      "à´°à´¥à´®": 2278,
      "Ġà´ħà´ªà´°": 2279,
      "''": 2280,
      "Ġà´ħà´¯à´¯": 2281,
      "à´Ļà´³à´¤": 2282,
      "à´ķà´°à´¯": 2283,
      "et": 2284,
      "à´ªà´®à´²": 2285,
      "àµģàµį.": 2286,
      "à´¹à´°à´£à´Ļ": 2287,
      "à´Łà´ªà´Ł": 2288,
      "à´ļà´¯à´ª": 2289,
      "Ġà´ħà´²à´Ļ": 2290,
      "Ġà´ªà´®": 2291,
      "Ġk": 2292,
      "Ġà´Ńà´¯à´Ļ": 2293,
      "Ġà´Ĩà´¶à´¯": 2294,
      "à´±à´Ł": 2295,
      "à´ĸà´¨à´¤": 2296,
      "Ġà´¦à´³": 2297,
      "Ġà´¬à´¦": 2298,
      "ol": 2299,
      "à´¬à´®": 2300,
      "à´°à´¸à´®": 2301,
      "àµĥà´Ĥ": 2302,
      "à´µà´¨à´ķà´³": 2303,
      "à´°à´³à´¯": 2304,
      "Ġà´ĸà´¨": 2305,
      "Ġ54": 2306,
      "à´ªà´ķà´Łà´¤": 2307,
      "ĠâĢİ\"": 2308,
      "àµ½à´«": 2309,
      "à´°à´¹à´£": 2310,
      "Ġà´Ĺà´¡": 2311,
      "à´¯à´ķà´°": 2312,
      "à´İà´ķ": 2313,
      "à´¯à´ļ": 2314,
      "Ġà´ķà´¥à´ķà´³": 2315,
      "à´°à´ķà´®": 2316,
      "à´¦à´°àµ»": 2317,
      "Ġà´ªà´´à´ķ": 2318,
      "Ġà´ĸà´¤": 2319,
      "Ġà´Īà´ľ": 2320,
      "àµģà´Ĥ)": 2321,
      "à´İà´ª": 2322,
      "Ġà´µà´¯à´²": 2323,
      "Ġà´Ńà´Ł": 2324,
      "ĠW": 2325,
      "id": 2326,
      "Ġà´Ĺà´µàµ¼à´£àµ¼": 2327,
      "Ġ&": 2328,
      "Ġà´ķà´µà´°": 2329,
      "Ġà´ħà´µà´¸à´°à´®": 2330,
      "àµį/": 2331,
      "à´Ńà´®": 2332,
      "Ġà´µà´ļà´¨": 2333,
      "Ġà´Ĩà´´à´¤": 2334,
      "Ġof": 2335,
      "à´¤à´®à´¨": 2336,
      "60": 2337,
      "à´°à´¸àµ¼à´ķ": 2338,
      "à´·à´ķàµ¾": 2339,
      "Ġà´ħà´¤à´¤": 2340,
      "à´®à´Łà´ķ": 2341,
      "à´Łà´¸": 2342,
      "à´İàµ½à´İà´®": 2343,
      "Ġ120": 2344,
      "à´¯à´®à´®": 2345,
      "Ġà´ªà´±à´¯à´£": 2346,
      "ĠU": 2347,
      "Ġà´ĭ": 2348,
      "à´ĺà´¨": 2349,
      "à´¡à´Ļ": 2350,
      "à´®à´°à´£": 2351,
      "à´Ĳà´ķ": 2352,
      "àµįâĢįâĢĮ": 2353,
      "Ġà´§à´¨à´¸": 2354,
      "Ġà´ħà´ªà´ķà´Łà´ķà´°à´®": 2355,
      "Ġà´Ĩà´·": 2356,
      "à´°à´®à´µ": 2357,
      "Ġà´¨à´Ĺà´°à´¸": 2358,
      "Ġà´¸à´¹à´ķà´°à´£à´¤": 2359,
      "à´ķà´³à´²": 2360,
      "Ġà´ħà´²à´ķ": 2361,
      "à´¯àµº": 2362,
      "Ġà´¨à´¯à´¤à´¨": 2363,
      "Ġà´ľà´°": 2364,
      "à´¯à´µà´ķ": 2365,
      "Ġà´Ĺà´µàµºà´®": 2366,
      "à´µà´ªà´°": 2367,
      "à´¸àµ¼à´µ": 2368,
      "à´¯àµ¼à´ķ": 2369,
      "Ġà´Ĩà´³à´ª": 2370,
      "Ġà´¶à´¨": 2371,
      "ec": 2372,
      "à´¨àµ¼": 2373,
      "àµ»à´¸àµ¼": 2374,
      "à´¥àµ»": 2375,
      "Ġà´ķàµ¾": 2376,
      "à´²àµ»": 2377,
      "àµĪ.": 2378,
      "Ġà´īà´¯à´°à´¤": 2379,
      "àµģ..": 2380,
      "àµģà´Ĥ...": 2381,
      "Ġw": 2382,
      "à´³àµ¼": 2383,
      "àµģ.)": 2384,
      "Ġà´ķà´¬": 2385,
      "Ġà´ĸà´£": 2386,
      "Ġà´ļà´µ": 2387,
      "àµ»à´·àµ»": 2388,
      "Ġà´¤à´¸": 2389,
      "à´¨à´¤à´¨": 2390,
      "à´¯à´Ĺ": 2391,
      "Ġà´ħàµ½à´ª": 2392,
      "à´ªà´ļ": 2393,
      "Ġà´ķà´®à´¨": 2394,
      "ĠO": 2395,
      "à´·à´¤à´ķàµ¾": 2396,
      "Ġi": 2397,
      "à´ĺàµ¼": 2398,
      "Ġà´ķàµ¼à´¤": 2399,
      "Ġà´ĩàµ»à´«": 2400,
      "Ġà´Ĩà´¡": 2401,
      "Ġr": 2402,
      "à´£à´¸": 2403,
      "à´®à´¹": 2404,
      "à´¤à´ķà´µ": 2405,
      "ĠAlso": 2406,
      "à´¿âĢ¦": 2407,
      "à´¯à´ĺà´Ł": 2408,
      "àµįâĢį...": 2409,
      "à´łà´¤": 2410,
      "Ġ2000": 2411,
      "à´¤à´¯à´ļ": 2412,
      "Ġ46": 2413,
      "à´ķà´¯à´²": 2414,
      "Ġà´ķàµ¼à´·": 2415,
      "à´ªà´£à´®": 2416,
      "Ġà´§à´¨à´¸à´¹": 2417,
      "àµ»à´Ł": 2418,
      "à´·à´£à´ķ": 2419,
      "Ġà´Ĳà´¡": 2420,
      "àµĨâĢĭ": 2421,
      "à´¨à´Ĺà´±": 2422,
      "à´ªà´´": 2423,
      "Ġà´²à´§": 2424,
      "à´Ļà´¯": 2425,
      "Ġà´¬à´ľ": 2426,
      "à´Ĥ'": 2427,
      "à´ļà´¶": 2428,
      "80": 2429,
      "Ġà´ħàµ¼à´ª": 2430,
      "à´¹à´¦": 2431,
      "àµĢ,": 2432,
      "à´ĸàµ¼": 2433,
      "Ġà´¬à´°": 2434,
      "à´°à´¯à´¤": 2435,
      "Ġà´ĩà´¤à´°": 2436,
      "200": 2437,
      "ov": 2438,
      "Ġà´ħà´¸à´®": 2439,
      "à´¤àµ¼à´ķ": 2440,
      "Ġ56": 2441,
      "à´«à´±à´¨": 2442,
      "Ġà´ķàµ½à´ª": 2443,
      "àµįâĢĮ:": 2444,
      "Ġà´Ĳà´Ł": 2445,
      "40": 2446,
      "àµ¼à´Ĺà´¨": 2447,
      "à´°à´ķà´Łà´¨à´®": 2448,
      "à´ľà´¶": 2449,
      "Ġ41": 2450,
      "à´¯à´¸à´®": 2451,
      "àµį(": 2452,
      "Ġà´ĩà´³": 2453,
      "à´¹à´±": 2454,
      "Ġà´¸àµ½à´®": 2455,
      "Ġà´¯à´¨": 2456,
      "àµĬ.": 2457,
      "à´¹à´°à´£à´®": 2458,
      "Ġà´Ĩà´®à´¸": 2459,
      "à´£à´£": 2460,
      "à´µà´³à´Ļ": 2461,
      "à´²à´ľ": 2462,
      "Ġà´ħà´Łà´ŀ": 2463,
      "à´¤à´¨à´®": 2464,
      "Ġà´µà´²à´¯": 2465,
      "à´µàµ¼à´·": 2466,
      "à´§à´¨à´ķ": 2467,
      "à´łà´¯": 2468,
      "Ġà´īà´¸": 2469,
      "à´°à´ķà´Łà´¨à´¤": 2470,
      "ot": 2471,
      "à´¤à´®à´®": 2472,
      "à´¤à´²à´®": 2473,
      "à´ľà´¨à´ķà´®": 2474,
      "à´·à´ķàµ¼": 2475,
      "à´¤à´¸à´®": 2476,
      "à´ĸà´µ": 2477,
      "Ġà´®àµ½": 2478,
      "Ġà´¬à´ŀ": 2479,
      "àµģâĢ¦": 2480,
      "à´µà´¸à´¨": 2481,
      "à´¨à´Łà´ªà´Ł": 2482,
      "Ġ2011": 2483,
      "um": 2484,
      "à´µà´¤à´Ļ": 2485,
      "à´¡à´¬": 2486,
      "Ġà´Ĳà´¯": 2487,
      "à´£à´¤à´¯": 2488,
      "ir": 2489,
      "à´·à´®à´¯": 2490,
      "Ġà´ķà´ŀ": 2491,
      "Ġà´¬à´±": 2492,
      "Ġà´īà´Ń": 2493,
      "Ġà´ªà´°à´®à´ķ": 2494,
      "21": 2495,
      "à´µà´°à´Łà´Ļ": 2496,
      "à´ľà´¤": 2497,
      "à´¯à´¬": 2498,
      "à´¤à´°à´Ļ": 2499,
      "Ġà´«à´±à´µ": 2500,
      "à´¨à´Ń": 2501,
      "Ġà´ªà´°à´¤": 2502,
      "à´¦à´¸à´ŀ": 2503,
      "à´¯à´ªà´°à´®": 2504,
      "Ġà´ªà´łà´¨à´Ļ": 2505,
      "à´ļà´Łà´ķ": 2506,
      "Ġ128": 2507,
      "Ġà´ħà´²à´°": 2508,
      "Ġ51": 2509,
      "à´¹à´ķ": 2510,
      "à´ķà´µà´²": 2511,
      "à´ĵà´°": 2512,
      "à´®à´ķàµ¾": 2513,
      "Ġà´İàµ»à´¸": 2514,
      "à´®à´µà´°": 2515,
      "à´ħà´µ": 2516,
      "à´¨àµ¼à´ľ": 2517,
      "ĠIn": 2518,
      "75": 2519,
      "à´µà´°à´¤": 2520,
      "Ġà´ĩàµ»à´·": 2521,
      "Ġà´ħà´¤à´µà´°": 2522,
      "Ġà´Īà´¯": 2523,
      "àµįâĢįàµĨ": 2524,
      "Ġà´Ĩà´ļà´°": 2525,
      "Ġà´¤à´µ": 2526,
      "Ġà´¤à´°à´£": 2527,
      "Ġà´ĵà´«à´±": 2528,
      "Ġà´ľà´¨à´®": 2529,
      "Ġà´¸à´®à´°à´ķ": 2530,
      "à´¿âĢĭâĢĭ": 2531,
      "Ġv": 2532,
      "à´´à´Łà´ķ": 2533,
      "à´Łà´ķà´°": 2534,
      "Ġà´ľà´²à´ª": 2535,
      "à´¯à´¬à´¨": 2536,
      "à´ļà´¨à´¤": 2537,
      "àµģà´Ĥ.\"": 2538,
      "à´°à´ªà´ŀ": 2539,
      "Ġà´²à´ĸ": 2540,
      "à´²à´Ł": 2541,
      "Ġà´²à´Ļ": 2542,
      "Ġà´Ńà´°à´®": 2543,
      "à´µà´¶à´®": 2544,
      "ĠâĢ¦.": 2545,
      "Ġ2021": 2546,
      "Ġà´µà´¶": 2547,
      "Ġ_": 2548,
      "à´·àµ»à´¸": 2549,
      "à´²à´ķàµ¾": 2550,
      "à´ĸà´ķàµ¾": 2551,
      "Ġ2013": 2552,
      "Ġà´īà´Ńà´¯à´ķà´ķ": 2553,
      "Ġà´ªà´±à´ķ": 2554,
      "à´¸àµ¼à´ķ": 2555,
      "Ġ58": 2556,
      "àµĨàµĨ": 2557,
      "Ġà´īà´·": 2558,
      "Ġà´Ŀ": 2559,
      "à´¿(": 2560,
      "à´µà´²à´ª": 2561,
      "à´®à´¨à´¸": 2562,
      "Ġà´ķàµ¼à´¶à´¨": 2563,
      "Ġà´®à´Ļ": 2564,
      "à´Łà´®à´²": 2565,
      "à´ķàµ¼à´ķ": 2566,
      "Ġà´ĵàµ¼à´¤": 2567,
      "Ġà´Ĳà´¹": 2568,
      "à´«à´¨": 2569,
      "àµĨ...": 2570,
      "Ġà´µà´¶à´¤": 2571,
      "Ġ600": 2572,
      "à´ªà´°à´¨": 2573,
      "à´°à´¹à´µ": 2574,
      "à´µà´ľà´¨à´Ļ": 2575,
      "Ġà´ľà´²à´¸": 2576,
      "Ġà´¸à´®à´¯à´µ": 2577,
      "à´Ĩà´¦": 2578,
      "àµįâĢį'": 2579,
      "à´°à´®à´£à´®": 2580,
      "Ġà´ªà´¯": 2581,
      "Ġà´²à´ľ": 2582,
      "à´ĤâĢ¦": 2583,
      "à´±à´£à´®": 2584,
      "à´°à´ķà´¨": 2585,
      "Ġà´ķà´°à´ŀ": 2586,
      "à´¹à´ª": 2587,
      "à´¡à´¤": 2588,
      "Ġà´Ķà´°": 2589,
      "Ġà´ľà´¯à´¨": 2590,
      "à´¿),": 2591,
      "Ġà´¤à´³à´°": 2592,
      "àµ¼à´ĺà´ķ": 2593,
      "Ġ53": 2594,
      "à´ĤâĢĭ": 2595,
      "à´ķà´ķàµ¾": 2596,
      "Ġà´¥": 2597,
      "àµºà´«": 2598,
      "à´Łà´ķà´Ļ": 2599,
      "à´²à´µà´¸": 2600,
      "à´ªà´ķà´²": 2601,
      "Ġà´ĩà´Łà´¨": 2602,
      "Ġ85": 2603,
      "Ġà´«à´¯àµ¼à´«": 2604,
      "à´¸à´°à´®": 2605,
      "Ġà´ĩà´¨à´Ļ": 2606,
      "ĠàµĨ": 2607,
      "àµ½à´ªà´°": 2608,
      "ay": 2609,
      "àµ»à´Ĺ": 2610,
      "Ġà´²à´¡": 2611,
      "à´·à´ķà´°à´®": 2612,
      "à´¶à´¸": 2613,
      "ch": 2614,
      "Ġà´İà´°": 2615,
      "Ġà´®à´°à´£à´®à´Łà´ŀ": 2616,
      "Ġà´ķà´Łà´®": 2617,
      "à´ķà´¤à´¨": 2618,
      "à´łà´¨": 2619,
      "Ġà´ľà´¨à´¨": 2620,
      "90": 2621,
      "à´²à´¨à´¤": 2622,
      "à´Ļà´°": 2623,
      "Ġà´ªàµ¼à´µ": 2624,
      "iv": 2625,
      "Ġ193": 2626,
      "à´®à´±à´ķà´³": 2627,
      "ĠIP": 2628,
      "ut": 2629,
      "à´ŀà´°": 2630,
      "àµ¼à´®à´¯": 2631,
      "à´·à´£à´±": 2632,
      "13": 2633,
      "à´¯à´Łà´ķ": 2634,
      "à´Ĥ]": 2635,
      "Ġà´ķàµºà´µ": 2636,
      "Ġà´ªà´£à´µ": 2637,
      "àµ½à´¬": 2638,
      "àµ»à´ªà´¤": 2639,
      "Ġà´ĵà´Ĺà´¸": 2640,
      "ul": 2641,
      "à´°à´µà´¤": 2642,
      "à´¶à´¨à´Ļ": 2643,
      "à´¤à´µà´£à´¯": 2644,
      "à´°à´µà´ļà´¨": 2645,
      "ÂŃ": 2646,
      "àµ¼à´¥à´¤": 2647,
      "Ġà´ľà´Ĺ": 2648,
      "45": 2649,
      "Ġ350": 2650,
      "à´ļà´®à´ļ": 2651,
      "à´ªàµ¼à´ķ": 2652,
      "à´ľàµ¼": 2653,
      "à´£à´ķà´³": 2654,
      "à´§à´¨à´®": 2655,
      "à´ļàµ½": 2656,
      "Ġà´ķà´Łà´¯": 2657,
      "Ġà´¤à´ķàµ¼à´ķ": 2658,
      "Ġà´²à´¤": 2659,
      "Ġà´«à´¡": 2660,
      "à´¦àµ¼à´Ń": 2661,
      "Ġà´ľà´²à´µ": 2662,
      "à´³à´£": 2663,
      "Ġà´Ĩà´¦à´°à´µ": 2664,
      "Ġà´¹à´µ": 2665,
      "Ġà´īà´£à´Ļ": 2666,
      "à´ĸà´¨à´Ļ": 2667,
      "Ġà´ĩà´Łà´Ļ": 2668,
      "Ġ63": 2669,
      "à´ľà´¨à´¤": 2670,
      "àµ¼à´¥à´¨": 2671,
      "Ġà´Ńà´¯à´®": 2672,
      "Ġà´ħà´µà´¨à´¤": 2673,
      "à´ĺàµ¼à´·": 2674,
      "Ġà´īà´Łà´®à´¯": 2675,
      "Ġà´Ĩà´¶à´¯à´ķ": 2676,
      "Ġà´±à´¬": 2677,
      "à´¹à´¤à´¯": 2678,
      "à´°à´«": 2679,
      "à´Ĺà´®à´®": 2680,
      "Ġà´°à´ļà´¨": 2681,
      "Ġ62": 2682,
      "Ġà´¯à´ľà´®": 2683,
      "Ġà´īà´ªà´ķ": 2684,
      "à´¤à´ķà´°à´®": 2685,
      "àµģà´Ĥ..": 2686,
      "Ġg": 2687,
      "àµĩâĢĭ": 2688,
      "Ġà´Ĩà´£à´µ": 2689,
      "Ġ72": 2690,
      "Ġà´īà´ªà´Ĺ": 2691,
      "àµ»à´¨": 2692,
      "Ġ1000": 2693,
      "Ġà´¤à´ª": 2694,
      "Ġâĸª": 2695,
      "ig": 2696,
      "à´ĤâĢĻ": 2697,
      "à´¤à´¨à´ķ": 2698,
      "àµģâĢĿ": 2699,
      "à´Ĺà´²à´ķ": 2700,
      "à´·à´£à´¸": 2701,
      "à´¹à´¨à´µ": 2702,
      "Ġ73": 2703,
      "àµģà´ĤâĢ¦": 2704,
      "Ġ59": 2705,
      "à´ļà´µà´Ł": 2706,
      "à´¿.\"": 2707,
      "Ġà´¤à´Łà´¸à´ª": 2708,
      "à´§à´¤à´¯": 2709,
      "Ġà´Ķà´·": 2710,
      "Ġà´ħàµ¼à´¥à´®": 2711,
      "àµ½à´±": 2712,
      "ĠÂ»": 2713,
      "Ġà´Ĩà´ľ": 2714,
      "Ġà´Ńà´µ": 2715,
      "à´¡àµ»à´±": 2716,
      "Ġà´Ĺà´²": 2717,
      "\"\".\"": 2718,
      "à´µà´¶à´Ļ": 2719,
      "Ġà´ªà´²à´µ": 2720,
      "àµ¾à´µ": 2721,
      "Ġ99": 2722,
      "àµįâĢįâĢį": 2723,
      "ab": 2724,
      "à´«à´±": 2725,
      "à´ªà´µà´¤": 2726,
      "Ġà´ªà´ª": 2727,
      "à´¨à´¡à´¯": 2728,
      "Ġàµį": 2729,
      "à´µà´¦à´¨": 2730,
      "her": 2731,
      "à´¿âĢĭàµĨ": 2732,
      "Ġà´ªà´±à´¨": 2733,
      "à´Ķà´¨": 2734,
      "Ġà´ħà´ķà´±": 2735,
      "Ġà´ľà´¯à´¤": 2736,
      "à´³à´Łà´ķ": 2737,
      "à´§à´°àµ»": 2738,
      "Ġà´ħà´ķà´¨": 2739,
      "Ġà´¯à´¤": 2740,
      "Ġ67": 2741,
      "à´ķà´µà´£": 2742,
      "Ġà´¸à´¯àµ»à´¸": 2743,
      "Ġ57": 2744,
      "Ġ105": 2745,
      "Ġà´ªà´±à´¯à´Ł": 2746,
      "Ġà´Ĳà´¸à´ķ": 2747,
      "à´²à´¯à´¨": 2748,
      "à´¥à´ķ": 2749,
      "àµ¼à´«": 2750,
      "ap": 2751,
      "à´£à´µà´¨": 2752,
      "à´łà´Ļ": 2753,
      "à´¯à´µà´¶": 2754,
      "à´§à´ķàµ¼": 2755,
      "à´¶à´ķà´²": 2756,
      "à´ľà´ª": 2757,
      "àµºà´µ": 2758,
      "Ġà´ł": 2759,
      "Ġà´ķàµ¼à´·à´ķà´°": 2760,
      "à´ŀà´¦": 2761,
      "à´Ļà´³à´²": 2762,
      "à´¨à´Łà´¨": 2763,
      "à´ħà´¯": 2764,
      "Ġ130": 2765,
      "Ġl": 2766,
      "300": 2767,
      "àµ½à´¦": 2768,
      "à´µà´Ĺ": 2769,
      "Ġà´¨à´¯à´Ļ": 2770,
      "à´Ĺà´¦à´°": 2771,
      "à´¯à´µà´¤": 2772,
      "à´¥à´¨à´¯": 2773,
      "à´ĺà´¨à´®": 2774,
      "Ġà´ħà´Ĺà´°": 2775,
      "Ġà´®à´¯": 2776,
      "op": 2777,
      "à´ĺà´ķ": 2778,
      "à´Ĩà´±": 2779,
      "Ġà´ķà´°à´Ł": 2780,
      "Ġ2012": 2781,
      "à´ļà´ļ": 2782,
      "Ġà´µà´¶à´Ļ": 2783,
      "Ġà´Ńà´¯à´¨": 2784,
      "à´ħà´Ł": 2785,
      "à´¯àµ¼à´¬": 2786,
      "à´µà´ķà´³": 2787,
      "ag": 2788,
      "Ġà´¤à´Łà´Ļ": 2789,
      "àµģâĢĻ": 2790,
      "à´³à´Ł": 2791,
      "ĠNW": 2792,
      "à´¸à´ķàµ¾": 2793,
      "Ġ180": 2794,
      "à´°à´Ńà´°à´£": 2795,
      "Ġà´Ĩà´²à´¯à´¤": 2796,
      "àµ¾à´«": 2797,
      "à´ľà´¯à´µ": 2798,
      "àµģ'": 2799,
      "Ġà´İàµ»à´¡": 2800,
      "Ġà´īà´Łà´²": 2801,
      "Ġ2009": 2802,
      "Ġ66": 2803,
      "ore": 2804,
      "Ġà´Ńà´¦": 2805,
      "ĠJ": 2806,
      "à´¸à´°à´µ": 2807,
      "Ġà´Ĩàµ¾à´ķ": 2808,
      "Ġà´ħà´·": 2809,
      "à´¦à´±": 2810,
      "à´®à´Ł": 2811,
      "à´ļàµ»": 2812,
      "à´ĩà´Ĵ": 2813,
      "Ġà´ķà´Ļ": 2814,
      "àµį,âĢĿ": 2815,
      "Ġà´ĭà´·": 2816,
      "22": 2817,
      "àµ»à´·à´¨": 2818,
      "à´Ĺà´µà´¤": 2819,
      "Ġà´±à´ľ": 2820,
      "à´°à´³à´¯à´¤": 2821,
      "à´Łà´£à´Ļ": 2822,
      "Ġà´ªà´£à´¤": 2823,
      "Ġà´ĸà´²": 2824,
      "à´±àµº": 2825,
      "Ġà´ħà´µà´¨à´²": 2826,
      "Ġ800": 2827,
      "à´£à´ķà´°à´®": 2828,
      "à´ļà´Łà´Ļ": 2829,
      "Ġà´¸àµ¼à´Ł": 2830,
      "Ġà´ĺà´Łà´ķà´®": 2831,
      "à´¿/": 2832,
      "à´ķàµ½à´ª": 2833,
      "àµįâĢį..": 2834,
      "à´İàµ½à´İ": 2835,
      "ĠâĢĮ": 2836,
      "Name": 2837,
      "âĪĻ": 2838,
      "Ġthe": 2839,
      "Ġà´¨à´Ĺà´°à´¸à´Ń": 2840,
      "à´±à´´": 2841,
      "à´Ńà´¨": 2842,
      "Ġà´īà´³à´µ": 2843,
      "Ġï": 2844,
      "Ġà´¨à´¯à´¨": 2845,
      "ter": 2846,
      "Ġà´µà´ķà´Ń": 2847,
      "Ġà´ļà´®": 2848,
      "Ġà´®à´±à´¯": 2849,
      "Ġà´īà´ªà´ķà´°à´£": 2850,
      "Ġ2008": 2851,
      "Ġà´ıà´µà´°": 2852,
      "à´²à´¦": 2853,
      "od": 2854,
      "Ġà´İà´Ĳà´¸": 2855,
      "à´·à´ķàµ»": 2856,
      "à´¾-": 2857,
      "Ġà´¬à´·": 2858,
      "à´¢à´®": 2859,
      "à´µà´³à´°": 2860,
      "à´¦à´³": 2861,
      "à´Ĵà´¨": 2862,
      "Ġà´ħàµ¼à´ľ": 2863,
      "»¿": 2864,
      "à´Ĥ...": 2865,
      "à´®à´¸à´®": 2866,
      "Ġà´®à´°à´µ": 2867,
      "im": 2868,
      "à´¦àµ¼à´¶à´¨": 2869,
      "Ġà´¬à´¹à´³": 2870,
      "àµĨ..": 2871,
      "àµį?\"": 2872,
      "Ġà´ħà´µà´Ļ": 2873,
      "à´¤à´ľ": 2874,
      "à´ªà´±à´®": 2875,
      "à´ĩà´ª": 2876,
      "Ġà´Ĭà´¹": 2877,
      "à´¿...": 2878,
      "Ġà´ªà´²à´¤à´µà´£": 2879,
      "Ġà´¡à´¯à´±": 2880,
      "alay": 2881,
      "Ġà´¿": 2882,
      "alam": 2883,
      "Ġà´ķà´ªà´Ł": 2884,
      "à´ħà´±": 2885,
      "70": 2886,
      "Ġà´¸à´®à´¯à´Ļ": 2887,
      "Ġà´µà´´à´±": 2888,
      "à´¨à´Łà´ķ": 2889,
      "Ġà´ħà´®à´²": 2890,
      "à´¯à´¸à´¹": 2891,
      "à´µà´¯à´¸": 2892,
      "ĠIPL": 2893,
      "35": 2894,
      "Ġà´°à´ĺ": 2895,
      "Ġà´¶à´°à´¦": 2896,
      "à´²àµ¼à´ķ": 2897,
      "à´¡à´®": 2898,
      "Ġà´ªà´¯à´¨": 2899,
      "à´®à´Ĺ": 2900,
      "à´¹àµ¼": 2901,
      "à´±à´µà´¨": 2902,
      "à´¨à´ķà´°à´®": 2903,
      "Ġà´Īà´¶": 2904,
      "àµį.âĢĿ\"": 2905,
      "Ġà´ĵà´¤": 2906,
      "à´ķà´³à´Ļ": 2907,
      "àµ»à´¡à´±": 2908,
      "à´µà´°à´¨": 2909,
      "à´Ńà´µà´¨": 2910,
      "àµ¼à´¹": 2911,
      "Ġà´Łà´£": 2912,
      "à´®à´Łà´Ļ": 2913,
      "Ġà´«à´¹à´¦": 2914,
      "Ġà´Ĩàµºà´ķ": 2915,
      "àµ»à´·": 2916,
      "à´¿..": 2917,
      "Ġà´Ĳà´İ": 2918,
      "à´²à´µà´¸à´°à´Ļ": 2919,
      "65": 2920,
      "à´°à´£à´¬": 2921,
      "Ġà´¹à´®": 2922,
      "à´¯à´Łà´¨à´¤": 2923,
      "à´°à´ķàµ¾": 2924,
      "à´¶à´ķà´°": 2925,
      "à´ĩà´²": 2926,
      "à´®à´ķà´¨": 2927,
      "àµįâĢĭâĢĭ": 2928,
      "Ġà´®à´¤à´®": 2929,
      "Ġà´µàµ¼à´£": 2930,
      "Ġà´¤à´²à´ª": 2931,
      "à´¦à´¨à´Ļ": 2932,
      "à´¯à´¯à´¨": 2933,
      "Ġà´Ĭà´·": 2934,
      "à´Ĺàµº": 2935,
      "dia": 2936,
      "à´Ļà´£": 2937,
      "à´§àµ¼": 2938,
      "Ġ2010": 2939,
      "à´ªà´ķà´³": 2940,
      "à´¤à´¨à´µ": 2941,
      "Ġï»¿": 2942,
      "àµ»à´¸à´±": 2943,
      "Ġà´ĵàµ¼à´¡": 2944,
      "à´¦àµ¼à´¶à´¨à´¤": 2945,
      "Ġà´·à´µ": 2946,
      "Ġà´ªà´µà´¨": 2947,
      "Ġà´īà´Ĺ": 2948,
      "à´¡àµ¼": 2949,
      "Ġ74": 2950,
      "à´¾à´Ĥ!": 2951,
      "em": 2952,
      "àµįâĢį(": 2953,
      "à´ĸà´ķà´°à´®": 2954,
      "Ġà´§àµ¼à´®": 2955,
      "à´ªà´¶": 2956,
      "à´³à´¤à´²à´¤": 2957,
      "à´¨à´ŀ": 2958,
      "à´¤à´ķà´¯": 2959,
      "à´ľà´¯à´²à´ķ": 2960,
      "àµ¼à´£à´¯": 2961,
      "Ġà´ľà´¯à´±": 2962,
      "àµįâĢįâĢ¦": 2963,
      "Ġ68": 2964,
      "Ġà´Ĩà´Ĺà´¸": 2965,
      "Ġà´ķàµºà´Ł": 2966,
      "à´¨à´ªà´¤": 2967,
      "Ġà´ķà´·à´£à´Ļ": 2968,
      "àµ½à´ªà´¨": 2969,
      "Ġ700": 2970,
      "Ġ+": 2971,
      "àµ»à´µà´°": 2972,
      "Ġà´¸à´«": 2973,
      "Ġà´īà´¯à´°à´®": 2974,
      "Ġà´ħà´¬à´¦": 2975,
      "ĠâĻ": 2976,
      "à´ĺàµ¼à´·à´¤": 2977,
      "à´·à´£àµ¼": 2978,
      "Ġà´ªà´±à´¯à´°": 2979,
      "à´Ĳà´Ł": 2980,
      "Ġà´ľà´¯à´¸": 2981,
      "Ġ2022": 2982,
      "àµĩà´¾à´Ĥ": 2983,
      "à´ķà´³à´Łà´ķ": 2984,
      "à´¯à´¨à´ķ": 2985,
      "Ġ77": 2986,
      "à´§à´µà´¨": 2987,
      "Ġà´®à´¤à´Ļ": 2988,
      "à´ªà´¨à´µ": 2989,
      "à´ªà´ķàµ½à´ª": 2990,
      "à´ļà´²à´¨": 2991,
      "à´Ĺà´¤à´®": 2992,
      "Ġà´ªà´±à´¯à´£à´®": 2993,
      "à´·à´¦": 2994,
      "Ġà´İà´İà´ª": 2995,
      "ĠâĢ¢": 2996,
      "à´ľà´¨à´®": 2997,
      "à´«à´²à´µ": 2998,
      "Ġà´µàµ¼à´·à´®": 2999,
      "Ġ71": 3000,
      "Ġà´ĩà´³à´¯": 3001,
      "Ġ160": 3002,
      "à´¯à´ķàµ¾": 3003,
      "àµĩà´¾,": 3004,
      "Ġmm": 3005,
      "ak": 3006,
      "àµĪ-": 3007,
      "Ġà´Ĩàµ¾": 3008,
      "tion": 3009,
      "Ġà´¤à´²à´ļ": 3010,
      "à´µà´¨à´®": 3011,
      "Ġand": 3012,
      "Ġà´¦à´¹": 3013,
      "Ġ95": 3014,
      "Ġà´¶à´°à´£": 3015,
      "Ġà´Ĺà´µàµ¼": 3016,
      "à´£à´Ń": 3017,
      "os": 3018,
      "à´®à´ķà´®": 3019,
      "Ġà´®à´°à´¤": 3020,
      "Ġà´ªà´ķàµ¼à´¨": 3021,
      "à´¤à´ķàµ¼à´ķ": 3022,
      "Ġà´µàµ¼à´¤": 3023,
      "Ġ69": 3024,
      "à´¥à´ķàµ¾": 3025,
      "Ġà´·à´¹": 3026,
      "Ġà´Ńà´¯à´ķ": 3027,
      "àµ¼à´Ĺà´Ļ": 3028,
      "à´¯à´¤à´²": 3029,
      "à´¯à´®à´¨à´Łà´ªà´Ł": 3030,
      "àµ¼à´¶à´¨à´®": 3031,
      "Ġà´«à´²à´¤": 3032,
      "Ġà´®à´°à´£à´¨": 3033,
      "à´İà´ĩà´¯": 3034,
      "à´°à´¡": 3035,
      "àµįâĢįâĢĻ": 3036,
      "24": 3037,
      "Ġ2004": 3038,
      "à´°à´¯à´§": 3039,
      "à´¦àµ»": 3040,
      "à´ªà´°à´ª": 3041,
      "Ġà´ªà´¦à´¤": 3042,
      "Ġ2005": 3043,
      "Ġà´īà´Łà´®à´ķà´³": 3044,
      "àµģà´Ĥ.âĢĿ\"": 3045,
      "à´ĩà´µ": 3046,
      ".âĢĿ\"": 3047,
      "Ġà´¦à´¯à´¨": 3048,
      "UV": 3049,
      "àµºà´®à´ķ": 3050,
      "à´Ĳà´Ĩà´°": 3051,
      "Ġà´ĩà´¹à´²": 3052,
      "Ġà´¨à´µà´ľ": 3053,
      "Ġà´Ĺà´µàµ¼à´£à´±": 3054,
      "à´¸àµ»à´¸": 3055,
      "Ġà´¬à´²à´ª": 3056,
      "Ġà´®à´¤à´ªà´°à´®": 3057,
      "Ġà´ļà´²à´ŀ": 3058,
      "Ġà´ķà´²à´¯": 3059,
      "à¸": 3060,
      "à´¨à´¤à´¤à´²": 3061,
      "à´ļà´¤à´²": 3062,
      "Ġh": 3063,
      "Ġ190": 3064,
      "Ġnews": 3065,
      "Ġà´ªà´°à´¨": 3066,
      "ian": 3067,
      "pm": 3068,
      "à´ľà´¯à´Ļ": 3069,
      "Ġà´īà´ľ": 3070,
      "Ġà´Ĩàµ¼à´İà´¸": 3071,
      "à´¯à´²à´ķ": 3072,
      "à´Ĥ..": 3073,
      "Ġà´¸à´¹à´µ": 3074,
      "à´Ĩà´ķ": 3075,
      "à´°à´ķà´Łà´¨à´Ļ": 3076,
      "est": 3077,
      "à´®à´ľ": 3078,
      "àµįâĢĭ,": 3079,
      "23": 3080,
      "Ġà´«à´¯àµ½": 3081,
      "Ġà´īà´£à´ķ": 3082,
      "Ġ2007": 3083,
      "à´·à´²": 3084,
      "à´ĩà´¡": 3085,
      "ist": 3086,
      "à´®àµ¼à´¶à´¨à´µ": 3087,
      "Ġà´¹à´¸à´¨": 3088,
      "Ġ140": 3089,
      "Ġà´ħà´²à´¹à´¬": 3090,
      "ĠMalay": 3091,
      "Ġà´Ĵàµ»à´ªà´¤": 3092,
      "Ġà´ĵàµ¾": 3093,
      "àµºà´«à´±àµ»à´¸": 3094,
      "à´ľà´¯à´ķ": 3095,
      "à´°à´µà´£à´¤": 3096,
      "Ġà´īà´µ": 3097,
      "à´ªà´£à´°": 3098,
      "Ġà´±à´¯": 3099,
      "à´°à´³à´®": 3100,
      "à´µà´µà´ļ": 3101,
      "à´¸à´µà´¤": 3102,
      "Ġà´ħà´¨à´µà´§": 3103,
      "Ġà´Ĩà´´à´®": 3104,
      "à´¨à´ļ": 3105,
      "à´Łà´¤à´²": 3106,
      "Ġà´¨àµ½à´ķà´£": 3107,
      "à´Ńà´ķà´°": 3108,
      "à´Ĥ.\"": 3109,
      "à´µàµ¼à´Ĺà´¤": 3110,
      "Ġà´«à´°": 3111,
      "Ġà´ĵà´±": 3112,
      "Ġà´¨à´Ĺà´°à´µ": 3113,
      "Ġà´ĩà´°à´ķà´³": 3114,
      "Ġà´ħà´µà´¸à´°à´¤": 3115,
      "àµ¼à´µà´¤": 3116,
      "à´®àµ¼à´¶à´¨": 3117,
      "Ġ2006": 3118,
      "Ġà´ħà´°à´ķ": 3119,
      "Ġà´ļà´£": 3120,
      "à´ľà´Ĺ": 3121,
      "Ġà´·à´°": 3122,
      "Ġà´ħà´ķà´ª": 3123,
      "Ġà´®à´Ĺ": 3124,
      "Ġ84": 3125,
      "Ġà´ħà´ľà´£": 3126,
      "Ġà´¬à´¡": 3127,
      "Ġà´¨àµ½à´ķà´£à´®": 3128,
      "Ġà´ķàµºà´¸": 3129,
      "Ġà´Ĺà´³": 3130,
      "àµ»à´¡àµ¼": 3131,
      "à´²à´Ĺ": 3132,
      "à´¡à´¸": 3133,
      "Ġà´ķàµ¼à´¶à´¨à´®": 3134,
      "à´Ńà´ľà´¨": 3135,
      "àµ¼à´®à´²": 3136,
      "Ġrpm": 3137,
      "Ġà´īà´ªà´ķà´°": 3138,
      "àµ½à´Ĺ": 3139,
      "à´¥àµ¼à´ķ": 3140,
      "âĢİ": 3141,
      "Ġà´¨à´¹": 3142,
      "Ġà´²à´µ": 3143,
      "àµ»à´¹": 3144,
      "Ġà´ªà´°à´ķ": 3145,
      "à´ļà´¯à´¤": 3146,
      "à´¤à´ķàµ»": 3147,
      "à´ªà´°à´µ": 3148,
      "àµ¼à´¥à´®": 3149,
      "à´¡à´²à´®": 3150,
      "à´ªà´¨à´ķà´³": 3151,
      "Ġà´ĩà´Łà´®": 3152,
      "à´ķà´®à´²": 3153,
      "à´¨à´ķà´³": 3154,
      "ĠZ": 3155,
      "à´®à´ļ": 3156,
      "à´µà´¤à´¤": 3157,
      "Ġà´ªà´ķàµ¼à´¤": 3158,
      "Ġre": 3159,
      "à´·à´¨à´±": 3160,
      "à´¨à´Ĺ": 3161,
      "Ġà´ªà´µàµ¼": 3162,
      "26": 3163,
      "Ġà´ķà´°à´£": 3164,
      "Ġà´¬à´²à´¹": 3165,
      "à´²à´¯àµ»à´¸": 3166,
      "ĠMalayalam": 3167,
      "Ġà´ĩà´¨à´¤": 3168,
      "à´§à´ķà´¨": 3169,
      "à´Ĺà´®à´²": 3170,
      "à´®à´¤à´²à´ª": 3171,
      "àµ¼à´¥à´¨à´¯": 3172,
      "âĢĿ.": 3173,
      "à´¤à´¬": 3174,
      "àµ¾à´¤": 3175,
      "à´°à´ļà´°à´£": 3176,
      "Ġà´µà´³à´ŀ": 3177,
      "à´µà´ķàµ¾": 3178,
      "Ġà´ıàµ½à´ª": 3179,
      "Ġà´ĩà´£à´ķà´³": 3180,
      "à´¸à´¨à´¤": 3181,
      "Ġà´®à´²à´¨": 3182,
      "àµĨ-": 3183,
      "ort": 3184,
      "à´ħà´ķ": 3185,
      "à´Łà´¬à´²": 3186,
      "Ġà´ķà´«": 3187,
      "85": 3188,
      "Ġà´ªà´²àµ¼à´ķ": 3189,
      "àµĩà´¾.": 3190,
      "à´¯à´µàµ¼à´ķ": 3191,
      "à´ĩà´¯": 3192,
      "Ġ89": 3193,
      "à´¨à´ªà´°": 3194,
      "à´·à´¨à´²": 3195,
      "àµģ,âĢĿ": 3196,
      "Ġà´ħà´µà´°à´µà´°": 3197,
      "47": 3198,
      "à´µà´ľà´¨": 3199,
      "à´ªà´ķàµ»": 3200,
      "àµ¼à´ĸà´£": 3201,
      "Ġà´ĵà´µà´°": 3202,
      "à´Ļà´³à´µà´°": 3203,
      "Ġà´ľà´¯à´¶à´Ļ": 3204,
      "erala": 3205,
      "à´µà´°à´ķ": 3206,
      "à´¨à´Łà´Ļ": 3207,
      "à´¨à´Ĺàµ¼": 3208,
      "à´µà´¤à´¯": 3209,
      "Ġ78": 3210,
      "à´§à´¨à´ķàµ¾": 3211,
      "lin": 3212,
      "à´¢à´¨": 3213,
      "Ġà´¸à´Ńà´ķà´³": 3214,
      "Ġà´ķà´¨à´¯": 3215,
      "Ġa": 3216,
      "eat": 3217,
      "à´¡àµ»": 3218,
      "àµį).": 3219,
      "Ġà´Īà´¨": 3220,
      "à´£àµ¾à´¡": 3221,
      "à´®à´¡": 3222,
      "Ġà´ķà´°à´ķ": 3223,
      "à®": 3224,
      "à´£à´³": 3225,
      "Ġà´¹à´²": 3226,
      "Ġà´ıà´µ": 3227,
      "Ġà´¸à´®à´¤": 3228,
      "Ġà´ªà´ķà´°à´®": 3229,
      "à´§à´¶": 3230,
      "àµ»à´ķà´°": 3231,
      "Ġà´®à´¤à´¨": 3232,
      "Ġ110": 3233,
      "Ġà´ľà´µà´¹à´°": 3234,
      "à´²à´ŀ": 3235,
      "à´ªà´Ń": 3236,
      "Ġà´ĺà´Łà´¨à´¯": 3237,
      "à´¬àµ¼à´Ĺ": 3238,
      "Ġà´Ĳà´¤": 3239,
      "à´·à´¸": 3240,
      "ow": 3241,
      "Ġà´ħà´²à´Ł": 3242,
      "Ġ256": 3243,
      "à´µà´ŀ": 3244,
      "à´¯àµ½à´®": 3245,
      "64": 3246,
      "à´ķà´¦": 3247,
      "Ġà´ļàµ¼à´®": 3248,
      "Ġà´ħà´²àµ¼à´Ł": 3249,
      "à´İà´Ļ": 3250,
      "àµĢà´Ĥ,": 3251,
      "àµģà´Ĥ'": 3252,
      "à´¶à´ķà´²à´¨": 3253,
      "àµģâĢ¦.": 3254,
      "à´¿âĢĭâĢĭâĢĭ": 3255,
      "à´ļà´¨à´µ": 3256,
      "Ġà´ĩà´¤à´²": 3257,
      "à´Ĺà´¤à´ķ": 3258,
      "à´²à´µà´£": 3259,
      "Ġà´®à´²à´¬": 3260,
      "Ġà´¦à´¯à´¯": 3261,
      "Ġ104": 3262,
      "77": 3263,
      "Ġto": 3264,
      "à´¨àµ¼à´¨": 3265,
      "Ġà´ħà´¯àµ½à´ķ": 3266,
      "à´ķà´°à´¸": 3267,
      "à´¿à´Ĥ,": 3268,
      "28": 3269,
      "à´®à´Ń": 3270,
      "Ġà´®à´°à´£à´¶": 3271,
      "Ġà´¬à´¤": 3272,
      "àµįâĢĮ.)": 3273,
      "à´Ĥ\"\"": 3274,
      "Ġà´¸à´ķà´²à´µ": 3275,
      "à´Ĺà´®à´¨à´¤": 3276,
      "Ġvs": 3277,
      "à´ĩà´¬": 3278,
      "Ġà´ĩà´µà´³": 3279,
      "29": 3280,
      "à´µà´µà´ļà´¨": 3281,
      "àµĢâĢĭ": 3282,
      "ce": 3283,
      "Ġà´ľà´¹": 3284,
      "à´²à´ķà´Ļ": 3285,
      "à´ŀà´³": 3286,
      "à´¬àµ½": 3287,
      "Ġà´¤à´²à´¶": 3288,
      "à´¡à´¨à´ķ": 3289,
      "à´Ĥ),": 3290,
      "à´°à´®à´¸à´®": 3291,
      "ra": 3292,
      "à´Łà´µà´¯": 3293,
      "à´¶à´¤à´®": 3294,
      "Ġà´ħà´µà´¯à´µ": 3295,
      "Ġà´Ĵà´ļ": 3296,
      "à´Ĭ": 3297,
      "à´ªàµº": 3298,
      "à´¸à´¸à´±": 3299,
      "àµ»à´ªà´±": 3300,
      "à´ķà´®à´¹": 3301,
      "Ġ2003": 3302,
      "Ġà´ĩà´±à´ļ": 3303,
      "à´¯àµ»à´·": 3304,
      "à´ļà´Ļ": 3305,
      "à´ĸà´ķà´¨": 3306,
      "à´ļà´¯à´ķ": 3307,
      "ment": 3308,
      "à´¤à´µà´¯": 3309,
      "à´¨à´µàµ»": 3310,
      "39": 3311,
      "à´¾..": 3312,
      "àµģà´ĤâĢĻ": 3313,
      "à´Ļà´Ł": 3314,
      "à´¦à´¨à´µ": 3315,
      "Ġà´Ĵà´«": 3316,
      "à´İà´İà´ļ": 3317,
      "Ġà´Ķà´·à´§": 3318,
      "à´ķà´°à´¤à´¯": 3319,
      "Ġ76": 3320,
      "à´Ńà´µà´¶": 3321,
      "à´²à´§à´¨": 3322,
      "à´¨à´Łà´¤": 3323,
      "à´¾:": 3324,
      "Ġà´ªà´Łà´¯": 3325,
      "Ġà´±à´¯à´²": 3326,
      "à´¶à´¯à´µ": 3327,
      "à´¥à´²à´µ": 3328,
      "Ġà´ķàµ¾à´ķ": 3329,
      "à´¤à´Łà´Ļ": 3330,
      "à´¿\"\"": 3331,
      "à´īà´¦": 3332,
      "ww": 3333,
      "à´¹à´¬à´¨": 3334,
      "Ġà´ĩà´²à´µà´¨": 3335,
      "Ġà´ħà´¸à´¤": 3336,
      "Ġà´ħàµ¼à´¹": 3337,
      "à´²à´ķà´ª": 3338,
      "à´ĸà´±": 3339,
      "à´°à´®à´¸": 3340,
      "Ġà´ħà´µà´¤à´°à´£": 3341,
      "àµºà´ª": 3342,
      "à´ļà´µà´Łà´ķ": 3343,
      "à´¯àµ¼à´¨": 3344,
      "à´ķà´°àµ»": 3345,
      "Ġ5000": 3346,
      "Ġà´ľàµ¼à´®à´¨": 3347,
      "à´ĩà´¸": 3348,
      "Ġà´ªà´Łà´ķ": 3349,
      "à´«àµ¼": 3350,
      "à´®à´¤à´¤": 3351,
      "th": 3352,
      "Ġ91": 3353,
      "ers": 3354,
      "Ġfor": 3355,
      "à´¯à´ŀ": 3356,
      "à´¬àµ¼à´Ł": 3357,
      "à´¨à´µà´³": 3358,
      "àµįâĢį/": 3359,
      "Ġà´®à´¤à´¸": 3360,
      "à´¤à´°à´®à´²": 3361,
      "Ġà´µàµ¼à´§à´¨à´µ": 3362,
      "Ġà´ķà´ªà´Łà´µ": 3363,
      "àµĭ..": 3364,
      "Ġà´Ńà´°à´£à´¸": 3365,
      "Ġà´·à´Ł": 3366,
      "à´°à´¬à´¨": 3367,
      "à´Ĺà´¤à´¤": 3368,
      "à´ıà´¤": 3369,
      "à´ªà´·": 3370,
      ".âĢĿ": 3371,
      "48": 3372,
      "Ġon": 3373,
      "27": 3374,
      "à´¬à´£": 3375,
      "Ġ1999": 3376,
      "à´¯à´®à´Ń": 3377,
      "Ġà´ıà´Ł": 3378,
      "100": 3379,
      "Ġà´µà´¸à´¨": 3380,
      "Ġà´ĩà´£à´¯": 3381,
      "oc": 3382,
      "Ġà´Ńà´¯à´¤": 3383,
      "Ġà´ķà´±à´¨": 3384,
      "Ġà´®à´²à´®": 3385,
      "Ġà´Ĩàµ¼à´¤": 3386,
      "à´Ĺà´¶": 3387,
      "à´¦à´¯à´¸": 3388,
      "à´Īà´²": 3389,
      "Ġ86": 3390,
      "à´¶à´ķà´°à´®": 3391,
      "ess": 3392,
      "à´ªàµ¼à´¶": 3393,
      "Ġ2001": 3394,
      "àµ»à´¤": 3395,
      "à´°à´ķà´¤": 3396,
      "Ġ170": 3397,
      "Ġà´ķà´Łàµ½": 3398,
      "à´Łà´ķà´®": 3399,
      "âĢĭàµĨ": 3400,
      "à´²à´Łà´ķ": 3401,
      "Ġà´Ĵà´®à´°": 3402,
      "à´¯à´¤à´ķàµ¾": 3403,
      "Ġ83": 3404,
      "Ġà´®à´±à´ŀ": 3405,
      "Ġà´ľà´¯à´®": 3406,
      "à´°à´¤à´¨": 3407,
      "Ġ108": 3408,
      "Ġà´ħà´¤à´Ļ": 3409,
      "à´¶à´®à´¨à´¸": 3410,
      "à´¨àµ¼à´¤": 3411,
      "ĠâĻª": 3412,
      "95": 3413,
      "Ġà´ħà´¤à´±": 3414,
      "àµ»à´Ĺà´£à´¨": 3415,
      "if": 3416,
      "Ġà´¹à´ľ": 3417,
      "Ġà´®àµ½à´¸à´°": 3418,
      "Ġ61": 3419,
      "à´¯à´±à´ª": 3420,
      "Ġ2002": 3421,
      "up": 3422,
      "à´¤à´Ĺà´¤": 3423,
      "à´İà´¤": 3424,
      "Ġà´°à´®à´£": 3425,
      "àµ»à´µà´¶à´¤": 3426,
      "à´·à´°à´¤": 3427,
      "à´Ĺà´¤à´µ": 3428,
      "àµĢà´Ĥ:": 3429,
      "à´Ĩàµ¼à´Ł": 3430,
      "à´ķà´°à´ķ": 3431,
      "Ġà´¯à´¶": 3432,
      ",âĢĿ": 3433,
      "Ġà´µàµ¼à´·à´µ": 3434,
      "à´¿âĢĭâĢĭàµĨ": 3435,
      "à´ĵà´Ł": 3436,
      "Ġà´µà´°à´ļ": 3437,
      "67": 3438,
      "ri": 3439,
      "Ġ81": 3440,
      "33": 3441,
      "Ġà´ħà´ķà´®": 3442,
      "Ġà´ħà´¨à´Ļ": 3443,
      "ity": 3444,
      "à´£àµ¼": 3445,
      "Ġà´ħà´¤à´¨": 3446,
      "à´«à´·à´£à´²": 3447,
      "Ġà´ªà´Łàµ¼à´¨": 3448,
      "Ġà´ħà´ªà´ķà´Łà´¸": 3449,
      "Ġà´µà´³à´ļ": 3450,
      "à´Ĳà´¬": 3451,
      "og": 3452,
      "à´¦à´°à´®": 3453,
      "à´¯à´¨à´¯": 3454,
      "44": 3455,
      "à´¦à´¨à´ķ": 3456,
      "Ġà´Ĩà´¶à´¯à´¤": 3457,
      "à´¤à´±à´¯": 3458,
      "à´¸à´°à´£": 3459,
      "à´¹à´ļ": 3460,
      "à´µà´µà´ļà´¨à´¤": 3461,
      "à´§à´µà´¤": 3462,
      "Ġ87": 3463,
      "400": 3464,
      "àµģà´Ĥ-": 3465,
      "à´¡à´«": 3466,
      "à´µà´Ńà´ķ": 3467,
      "Ġ96": 3468,
      "à´·à´®à´¤à´¯": 3469,
      "à´°à´¥": 3470,
      "Ġà´Ĵà´¸": 3471,
      "Ġà´«à´±": 3472,
      "Ġà´ħà´³": 3473,
      "àµį.\"\"\"": 3474,
      "à´¶à´ķà´³": 3475,
      "Ġà´¶àµ¼à´®à´¯": 3476,
      "à´¬à´²à´®": 3477,
      "à´Łà´ķàµ¾": 3478,
      "Ġà´ħà´¹à´°": 3479,
      "à´§àµ»": 3480,
      "à´£à´¯à´¤": 3481,
      "à´µà´®à´²": 3482,
      "Ġà´Ĳà´±": 3483,
      "Ġà´İà´¯àµ¼à´Ł": 3484,
      "à´¯à´µàµ¼à´Ĺà´¤": 3485,
      "à´µà´¨à´®à´¨": 3486,
      "Ġ[âĢľ": 3487,
      "àµįâĢ¦.": 3488,
      "Ġà´¨à´Ĺà´±": 3489,
      "Ġà´īà´Łà´¨à´Ł": 3490,
      "à´£à´£à´®": 3491,
      "à´¹à´¨à´¨": 3492,
      "à´°à´¸à´¨": 3493,
      "à´®à´ªà´ŀ": 3494,
      "à´Łà´µàµ¼": 3495,
      "Ġà´ªà´µà´°": 3496,
      "à´¨à´¤à´ķà´³": 3497,
      "Ġà´īà´Łàµ»à´¤à´¨": 3498,
      "à´¯à´®à´®à´¨": 3499,
      "Ġà´µà´¶à´®": 3500,
      "à´Łà´¯à´ķ": 3501,
      "à´·àµº": 3502,
      "Ġà´µà´°à´¯": 3503,
      "àµ¼à´µà´®": 3504,
      "à´²à´¯à´®": 3505,
      "à´ļà´®à´°": 3506,
      "à´¯à´ķà´¤": 3507,
      "à´ªà´°à´ķà´³": 3508,
      "Ġ450": 3509,
      "Ġà´®à´¡": 3510,
      "à´¤à´°à´ª": 3511,
      "Ġà´¸à´ķà´²à´¤": 3512,
      "à´ķà´ķà´¤": 3513,
      "à´°à´¦àµ¼à´¶à´¨": 3514,
      "Ġà´¸à´¹à´¸": 3515,
      "à´·à´°à´Ļ": 3516,
      "Ġà´Ńà´°à´£à´ķà´ķ": 3517,
      "Ġà´Ĩà´Ńà´°à´£à´Ļ": 3518,
      "à´Łà´¯à´¤": 3519,
      "à´µà´£à´®": 3520,
      "Ġà´ľà´²à´¤": 3521,
      "à´µà´¨à´ķàµ¾": 3522,
      "Ġà´¨à´³": 3523,
      "à´ĺà´µà´¨": 3524,
      "Ġà´¨à´°à´¸": 3525,
      "Ġà´¤à´²à´Ļ": 3526,
      ".\"\"\"": 3527,
      "Ġà´ķà´°à´ļ": 3528,
      "Ġà´ķà´³àµ¼": 3529,
      "49": 3530,
      "Ġe": 3531,
      "à´·à´£à´¶": 3532,
      "Ġà´¸à´¹à´¤": 3533,
      "à´ħà´°": 3534,
      "Ġ82": 3535,
      "àµ¼à´£à´°": 3536,
      "Ġà´²à´¬": 3537,
      "Ġ97": 3538,
      "Ġà´İàµ»à´«": 3539,
      "VI": 3540,
      "à´ļà´µà´¯": 3541,
      "à´¤à´°à´£à´¤": 3542,
      "Ġà´µà´¤": 3543,
      "Ġ\\": 3544,
      "Ġà´ªà´ķàµ¼à´ª": 3545,
      "Ġà´ľà´¨à´²": 3546,
      "Ġà´Ĺà´¨": 3547,
      "àµģà´ĤâĢĿ": 3548,
      "ht": 3549,
      "Ġà´¬à´ķ": 3550,
      "Ġà´µà´°à´¨": 3551,
      "à´¨à´°à´¹": 3552,
      "à´°à´£à´ª": 3553,
      "Ġà´µà´°à´Ł": 3554,
      "à´²à´¯à´µ": 3555,
      "Ġ79": 3556,
      "ang": 3557,
      "à´ªà´ŀ": 3558,
      "à´³à´§": 3559,
      "à´Ļà´³à´Łà´Ļ": 3560,
      "à´ľà´¨à´µ": 3561,
      "com": 3562,
      "à´¦à´¸": 3563,
      "Ġà´®à´±à´µ": 3564,
      "\"\",": 3565,
      "Ġà´ħà´¸à´¹": 3566,
      "à´°à´ķà´¥": 3567,
      "à´²à´ķà´¤": 3568,
      "à´ĤâĢĿ": 3569,
      "à´°à´¨à´²": 3570,
      "88": 3571,
      "àµĩà´¾âĢĭ": 3572,
      "Ġà´ķà´³à´¤": 3573,
      "àµįàµį.": 3574,
      "à´¨à´°à´§": 3575,
      "à´ªà´ł": 3576,
      "Ġà´®àµ»à´®": 3577,
      "à´¬à´¹": 3578,
      "à´§à´®à´¤": 3579,
      "à´°à´¦à´µ": 3580,
      "à´ªà´ķàµ¼": 3581,
      "ĠXUV": 3582,
      "Ġà´²à´«": 3583,
      "àµĢ-": 3584,
      "Ġà´¬à´²à´®": 3585,
      "à´µà´¨à´µ": 3586,
      "à´±à´¨à´¨": 3587,
      "à´ļà´ķàµ¾à´ķ": 3588,
      "Ġà´İà´ľ": 3589,
      "à´ľà´¯à´°": 3590,
      "âĢ¦]": 3591,
      "Ġ[âĢ¦]": 3592,
      "à´£à´¦": 3593,
      "à´£à´Ł": 3594,
      "àµĨ.\"": 3595,
      "àµĭ?\"": 3596,
      "Ġà´İàµ½à´¡": 3597,
      "à´ķà´µà´¨": 3598,
      "Ġà´µàµ¼à´®": 3599,
      "Ġà´ķà´³à´®à´¶": 3600,
      "àµį'.": 3601,
      "à´īà´£": 3602,
      "àµįâĢĻ.": 3603,
      "à´ļà´¨à´®": 3604,
      "Ġ'%": 3605,
      "ĠMore": 3606,
      "à´³à´¯à´¤": 3607,
      "Ġà´ķà´¥à´ķàµ¾": 3608,
      "Ġà´Ĺà´¸": 3609,
      "à´°à´µà´¸": 3610,
      "Ġà´īà´¦à´¯": 3611,
      "32": 3612,
      "55": 3613,
      "à´¯à´®à´±": 3614,
      "Ġà´ªà´²à´¤à´°": 3615,
      "à´³à´¯à´Ł": 3616,
      "à´µà´°à´£à´®": 3617,
      "à´ķà´¥à´ķà´³": 3618,
      "à´¯à´¸à´®à´¯à´¤": 3619,
      "Ġà´ªà´±à´µ": 3620,
      "Ġà´Ĩà´ķàµ¼": 3621,
      "à´®àµº": 3622,
      "à´Ļàµ½": 3623,
      "à´¯à´®à´°": 3624,
      "Ġà´¹à´£": 3625,
      "68": 3626,
      "900": 3627,
      "Ġà´¸à´°à´¸": 3628,
      "àµģ.âĢĿ\"": 3629,
      "Ġà´ľà´Ĺà´¨": 3630,
      "Ġà´ªà´±à´¤": 3631,
      "Ġà´ķàµ¼à´·à´ķàµ¼à´ķ": 3632,
      "Ġà´Ĩà´¬": 3633,
      "à´¨àµ»": 3634,
      "à´¤à´²àµ»": 3635,
      "à´¸àµ¼à´®": 3636,
      "Ġ=": 3637,
      "à´¸àµ¼à´Ĺ": 3638,
      "à´ķà´¸à´¨à´µ": 3639,
      "hi": 3640,
      "àµĩ..": 3641,
      "Ġà´ħà´°à´ļ": 3642,
      "990": 3643,
      "Ġà´īàµ¾": 3644,
      "à´¸à´ķà´°à´®": 3645,
      "Ġà´ķà´µàµ¼": 3646,
      "à´´à´ķà´³": 3647,
      "Ġà´Łà´ļ": 3648,
      "à´ķà´²à´¯": 3649,
      "Ġà´°à´ļà´¨à´¯": 3650,
      "à´²à´¡": 3651,
      "à´ľà´¨à´¯": 3652,
      "Ġà´®à´£à´²": 3653,
      "à´³à´³à´µà´°": 3654,
      "à´ķà´²à´µ": 3655,
      "à´łà´ª": 3656,
      "av": 3657,
      "Ġà´¬à´§": 3658,
      "Ġà´īà´´": 3659,
      "à´ħà´µà´³": 3660,
      "gm": 3661,
      "à´ļà´ķà´®": 3662,
      "à´ķà´¤à´ķà´³": 3663,
      "Ġà´ªà´µà´±": 3664,
      "Ġà´ªà´ķàµ¼à´ļ": 3665,
      "à´ªà´¨à´ķ": 3666,
      "à´¯à´Łà´¨": 3667,
      "à´¤à´Ń": 3668,
      "Ġà´İà´Ĳà´İ": 3669,
      "àµ¼à´Ĺà´®": 3670,
      "Ġà´ĵàµº": 3671,
      "Ġà´ĩà´Łà´¯à´¨": 3672,
      "à´¤à´µà´£à´¤": 3673,
      "34": 3674,
      "ive": 3675,
      "Ġà´¤à´ķàµ¼à´ļ": 3676,
      "38": 3677,
      "Ġà´ĵà´«àµ¼": 3678,
      "ĠSt": 3679,
      "Ġà´Łàµ¼à´¬": 3680,
      "Ġà´Ĭà´¤": 3681,
      "Ġà´ĩàµ»à´¡à´¸": 3682,
      "à´²à´¨à´µ": 3683,
      "Ġà´ªà´²à´ķ": 3684,
      "Ġà´ªà´³à´¨": 3685,
      "à´¹à´³": 3686,
      "à´¸à´ĸ": 3687,
      "à´·à´Ń": 3688,
      "Ġà´īàµ½": 3689,
      "Ġà´Ĩà´¦à´°à´£": 3690,
      "Ġ3000": 3691,
      "à´¯à´¦à´°": 3692,
      "à´ªà´ķà´°à´£à´Ļ": 3693,
      "à´·à´±": 3694,
      "Ġà´ħà´§à´°": 3695,
      "à´ıà´±": 3696,
      "à´¿âĢį": 3697,
      "à´®à´ŀ": 3698,
      "à´µà´¶à´ķ": 3699,
      "à´īà´¤": 3700,
      "37": 3701,
      "Ġà´Ĩà´ķà´Ł": 3702,
      "à´ħà´µàµ¼": 3703,
      "Ġà´¦àµ¼à´¶": 3704,
      "Ġà´¤à´²à´µàµ»": 3705,
      "Ġà´Ĩà´¨à´¯": 3706,
      "à´¯à´®à´¸": 3707,
      "Ġ94": 3708,
      "àµ½à´ļ": 3709,
      "à´®à´¸à´ķ": 3710,
      "Ġ107": 3711,
      "Ġ1998": 3712,
      "Ġà´ħà´µà´°à´µ": 3713,
      "Ġà´¸à´®à´¸": 3714,
      "Ġà´īà´£àµ¼à´¨": 3715,
      "à´²à´¤à´¯": 3716,
      "Ġkgm": 3717,
      "à´µà´¤à´®": 3718,
      "à´®à´¯à´¤": 3719,
      "Ġà´Ĭà´Ł": 3720,
      "à´¸àµ¼à´ļ": 3721,
      "à´ķà´³à´¤": 3722,
      "Ġà´¤à´±à´¯": 3723,
      "Ġà´Ńà´Ĺà´µ": 3724,
      "Ġà´µà´°à´³": 3725,
      ".\"\"": 3726,
      "Ġà´§à´¨à´µ": 3727,
      "05": 3728,
      "àµ»à´Ń": 3729,
      "à´ķà´¤à´ķàµ¾": 3730,
      "à´¶à´ľà´°": 3731,
      "Ġà´¶à´µà´ķ": 3732,
      "36": 3733,
      "àµĭ...": 3734,
      "à´Łà´¨à´µà´§": 3735,
      "GB": 3736,
      "à´Łà´¤à´¯": 3737,
      "Ġà´®à´¨à´ª": 3738,
      "Ġà´īà´ªà´µ": 3739,
      "Ġà´ķà´°à´³": 3740,
      "Ġ88": 3741,
      "à´ħà´Ń": 3742,
      "à´İàµ»à´İ": 3743,
      "Ġà´ķà´¨à´ķ": 3744,
      "Ġà´®àµ¼à´ķ": 3745,
      "àµ½à´·": 3746,
      "à´¶àµ»": 3747,
      "àµģ.\"\"\"": 3748,
      "à´ĸàµ¼à´ľ": 3749,
      "àµĨ.âĢĿ\"": 3750,
      "ct": 3751,
      "Ġà´µàµ¼à´§à´¨": 3752,
      "à´¦àµ¼à´Ńà´Ļ": 3753,
      "Ġà´¤à´ļ": 3754,
      "Ġà´¸à´¦à´¸": 3755,
      "ĠIndia": 3756,
      "Ġà´ħàµ¼à´¬": 3757,
      "à´İà´µ": 3758,
      "à´ĵà´«": 3759,
      "à´ķà´Ń": 3760,
      "Ġà´¨à´Ļ": 3761,
      "Ġ115": 3762,
      "ĠVI": 3763,
      "Ġà´ķàµ¼à´·à´ķàµ¼": 3764,
      "àµĨ'": 3765,
      "à´İàµ½à´İà´¯": 3766,
      "Ġà´īà´®à´°": 3767,
      "à´¡à´¡": 3768,
      "Ġà´Ĵà´µ": 3769,
      "Ġà´ħà´¸à´±": 3770,
      "Ġà´µà´ļà´¨à´¤": 3771,
      "Ġà´ķàµ½à´ķ": 3772,
      "Ġà´®à´²à´ķà´³": 3773,
      "à´ĺà´¨à´Ļ": 3774,
      "Ġà´ķà´²à´°": 3775,
      "à´®à´¸à´¸": 3776,
      "àµĭà´Ĥ,": 3777,
      "à´·à´¯à´µ": 3778,
      "à´¾âĢ¦": 3779,
      "àµĢà´Ĥ.": 3780,
      "à´ļà´²à´¨à´¤": 3781,
      "Ġàµĩ": 3782,
      "à´®àµ¼à´¶à´¨à´Ļ": 3783,
      "ast": 3784,
      "à´ķàµ¼à´¤": 3785,
      "àµĤ:": 3786,
      "àµ½à´Ł": 3787,
      "Ġà´¨à´¡": 3788,
      "Ġà´ħà´ªà´µ": 3789,
      "Ġ98": 3790,
      "Ġà´¹à´¯àµ¼": 3791,
      "à´¤à´Ĺ": 3792,
      "à´·à´¯à´®à´²": 3793,
      "àµĤ..": 3794,
      "à´ĸà´ķ": 3795,
      "Ġà´¹à´¬": 3796,
      "à´Ĳà´Ĩàµ¼": 3797,
      "àµĭâĢ¦": 3798,
      "à´°à´£à´¯à´®": 3799,
      "à´İàµ»à´¯": 3800,
      "Ġà´ķà´±à´Ļ": 3801,
      "à´Ĺà´¦": 3802,
      "à´¨à´µà´°à´²": 3803,
      "Ġà´ķà´¬à´³": 3804,
      "àµģâĢĮ": 3805,
      "à´µà´ļà´¨": 3806,
      "à´ķà´°àµ¼": 3807,
      "à´ĸà´ķàµ»": 3808,
      "Ġà´¸à´®à´µ": 3809,
      "à´¦à´°à´µ": 3810,
      "à´±à´ķà´ķ": 3811,
      "umb": 3812,
      "àµ¼à´ªà´±": 3813,
      "Ġà´¬à´Ĺ": 3814,
      "à´«à´¯": 3815,
      "Ġà´Ĳà´Ĵ": 3816,
      "ain": 3817,
      "à´ªà´Łà´°": 3818,
      "à´¶à´ľà´¨": 3819,
      "Ġà´ħà´µà´¬": 3820,
      "Ġà´Ĩàµ¼à´ľ": 3821,
      "à´ĩà´°": 3822,
      "Ġà´ħà´³à´ķ": 3823,
      "à´²à´¤à´²": 3824,
      "à´ŀà´²": 3825,
      "Ġà´ıà´ķà´¨": 3826,
      "à´ķà´Łà´µ": 3827,
      "Ġ119": 3828,
      "à´ķà´°à´ª": 3829,
      "à´ªà´µà´°": 3830,
      "à´·à´¬": 3831,
      "Ġà´İà´İ": 3832,
      "Ġà´¹à´¯à´°": 3833,
      "Ġà´ıà´ķà´ª": 3834,
      "à´·à´¨àµ½": 3835,
      "Ġà´ķà´Łà´®à´¯": 3836,
      "Ġà´ªà´ķà´°à´ķ": 3837,
      "à´ķà´Łà´®": 3838,
      "Ġà´ĵà´µàµ¼": 3839,
      "à´ħà´§": 3840,
      "Ġà´ĩà´¡": 3841,
      "Ġà´ķàµ¼à´®": 3842,
      "à´ªà´ķà´Łà´Ļ": 3843,
      "à´°à´³à´¯à´ķ": 3844,
      "à´¦à´¯à´µ": 3845,
      "à´Łàµ¼à´ķ": 3846,
      "à´Ĥ(": 3847,
      "à´µàµ¼à´·à´¤": 3848,
      "Ġà´ĩàµ»à´ķ": 3849,
      "Ġà´¸à´®à´ķ": 3850,
      "'-": 3851,
      "Ġà´²à´¯à´£": 3852,
      "à´¾...": 3853,
      "à´Łà´®à´¯": 3854,
      "Ġà´İàµ»à´±": 3855,
      "Ġà´Ĩà´ªà´¤": 3856,
      "à´°à´£à´Ĺà´¤": 3857,
      "à´ĸà´°àµ»": 3858,
      "à´¯àµ¼à´ª": 3859,
      "Ġà´¤à´±à´ķ": 3860,
      "Ġà´Ĩà´¯à´ª": 3861,
      "all": 3862,
      "à´¨à´¤à´µ": 3863,
      "Ġà´ħà´¯àµ½": 3864,
      "à´ķàµ»à´¡à´±": 3865,
      "à´«à´¸à´±": 3866,
      "Ġth": 3867,
      "Ġà´İà´¯àµ¼à´²": 3868,
      "à´¹à´ķà´¨": 3869,
      "Ġà´ħà´²à´¨": 3870,
      "Ġà´Ĳà´ľ": 3871,
      "Ġà´Ĩà´ķàµ¼à´·à´ķà´®": 3872,
      "Ġà´µà´ľ": 3873,
      "Ġà´°à´ļà´¯": 3874,
      "Ġà´ĸà´Ł": 3875,
      "Ġ240": 3876,
      "à´°à´ľà´¨": 3877,
      "à´²à´ķà´°": 3878,
      "à´Ĺà´®à´¤": 3879,
      "à´°à´µà´ļà´¨à´Ļ": 3880,
      "Ġ92": 3881,
      "à´ķà´°à´¤": 3882,
      "Ġà´¯à´ħ": 3883,
      "Ġà´ªà´´à´¯à´¤": 3884,
      "ric": 3885,
      "à¦": 3886,
      "à´¤à´µàµ¼": 3887,
      "à´®àµ½": 3888,
      "à´ļà´Ńà´ķ": 3889,
      "Ġà´¤à´¬": 3890,
      "Ġà´°à´¸à´®": 3891,
      "à´İà´Ł": 3892,
      "à´ķà´®à´£": 3893,
      "69": 3894,
      "à´ķà´¯à´ļ": 3895,
      "Ġà´¦à´¨": 3896,
      "Ġà´¤à´³à´³": 3897,
      "har": 3898,
      "Ġà´ĵà´«à´°": 3899,
      "à´µà´³à´®": 3900,
      "Ġà´ħà´Ĺàµ¼à´µ": 3901,
      "à´Łà´°à´¨": 3902,
      "âĢĮàµį.": 3903,
      "Ġà´«à´²à´ķ": 3904,
      "à´Ĳà´İà´¸": 3905,
      "à´¤à´ķà´ķ": 3906,
      "Ġ{": 3907,
      "Ġà´µà´¨à´¤": 3908,
      "à´µà´°à´£à´Ļ": 3909,
      "Ġà´®à´¨à´¶": 3910,
      "31": 3911,
      "Ġà´ļà´²à´¨": 3912,
      "à´¨à´¨à´·": 3913,
      "Ġ114": 3914,
      "Ġà´¡à´ļ": 3915,
      "Ġà´¤à´³àµ¼à´¨": 3916,
      "à´Ĵà´¯": 3917,
      "Ġ>": 3918,
      "à´Łà´¨à´Ļ": 3919,
      "à´§à´®à´²": 3920,
      "à´¿âĢ¦.": 3921,
      "Ġà´¨à´ľ": 3922,
      "àµ»à´²": 3923,
      "Ġà´¦àµ¼à´¶à´¨": 3924,
      "à´Ĺà´¤à´¨": 3925,
      "à´ĺà´Łà´¨à´ķàµ¾": 3926,
      "à´¨à´Łà´¯": 3927,
      "Ġà´°àµº": 3928,
      "79": 3929,
      "Ġà´Ńà´µà´¨à´¤": 3930,
      "Ġà´ħà´®àµ¼à´¤": 3931,
      "à´°à´³à´µ": 3932,
      "à´Ľà´®": 3933,
      "Ġ144": 3934,
      "Ġà´ķà´µà´±": 3935,
      "à´¯à´²à´¹à´°": 3936,
      "Ġà´ļà´µà´±": 3937,
      "Ġà´ķà´³à´µ": 3938,
      "Ġâĸ¡": 3939,
      "ational": 3940,
      "à´¤à´°à´²": 3941,
      "à´Ĩà´¯": 3942,
      "à´§à´ķà´®à´²": 3943,
      "à´¶à´ķà´¨": 3944,
      "Ġà´Łàµº": 3945,
      "Ġ185": 3946,
      "à´«à´·à´£àµ½": 3947,
      "à´Ĺà´°à´±": 3948,
      "à´µà´²à´®": 3949,
      "Ġcon": 3950,
      "àµĩàµį": 3951,
      "Ġà´ķà´²à´£": 3952,
      "Ġà´ªà´łà´¨à´µ": 3953,
      "à´łà´°": 3954,
      "Ġ142": 3955,
      "à´¶à´¯à´ķà´°à´®": 3956,
      "à´ŀà´®": 3957,
      "Ġà´¯à´®": 3958,
      "à´¯à´£àµ»": 3959,
      "à´ŀàµ¼": 3960,
      "à´ħà´¸": 3961,
      "Ġà´¬à´¦à´²": 3962,
      "Ġà´Ńà´°à´£à´®": 3963,
      "à´Ĺàµ»": 3964,
      "à´Ļà´³à´±": 3965,
      "Ġà´īà´ªà´¨": 3966,
      "à´µàµ¼à´£à´µ": 3967,
      "àµ»à´«": 3968,
      "à´ļà´µà´ļ": 3969,
      "à´Ńà´µà´¸à´®": 3970,
      "àµºà´Ł": 3971,
      "Ġà´İàµ»à´Ł": 3972,
      "Ġ230": 3973,
      "à´Ĺàµ½": 3974,
      "àµĹ:": 3975,
      "à´°à´£à´°": 3976,
      "à¥": 3977,
      "Ġà´¸àµº": 3978,
      "Ġà´¨à´¤": 3979,
      "Ġà´¦à´£": 3980,
      "à´¤à´µàµ¼à´ķ": 3981,
      "à´®à´ķà´°à´£": 3982,
      "à´¨à´¤à´®": 3983,
      "Ġà´ľà´¯à´ķ": 3984,
      "Ġà´ĵà´¹": 3985,
      "à´ļà´µàµ¼": 3986,
      "à´¡à´±à´²": 3987,
      "à´ªà´£à´¨": 3988,
      "Ġà´ĸà´ľà´¨": 3989,
      "ell": 3990,
      "Ġà´¨à´Ĺà´°à´¸à´Ńà´¯": 3991,
      "ha": 3992,
      "à´°à´¯à´®": 3993,
      "Ġà´ħà´²à´¯": 3994,
      "à´Ķà´Ł": 3995,
      "à´¤à´³à´¤": 3996,
      "Ġà´¨à´ĸ": 3997,
      "àµ½à´ľ": 3998,
      "àµģ.âĢĿ": 3999
    },
    "merges": [
      [
        "à",
        "´"
      ],
      [
        "à",
        "µ"
      ],
      [
        "àµ",
        "į"
      ],
      [
        "Ġ",
        "à´"
      ],
      [
        "à´",
        "¿"
      ],
      [
        "à´",
        "¨"
      ],
      [
        "àµ",
        "ģ"
      ],
      [
        "à´",
        "ķ"
      ],
      [
        "à´",
        "¾"
      ],
      [
        "à´",
        "¤"
      ],
      [
        "à´",
        "°"
      ],
      [
        "à´",
        "¯"
      ],
      [
        "à´",
        "Ł"
      ],
      [
        "à´",
        "²"
      ],
      [
        "â",
        "Ģ"
      ],
      [
        "àµ",
        "Ĩ"
      ],
      [
        "à´",
        "Ĥ"
      ],
      [
        "àµį",
        "âĢ"
      ],
      [
        "àµįâĢ",
        "į"
      ],
      [
        "à´",
        "±"
      ],
      [
        "à´",
        "µ"
      ],
      [
        "à´",
        "®"
      ],
      [
        "à´",
        "ª"
      ],
      [
        "à´",
        "£"
      ],
      [
        "à´",
        "³"
      ],
      [
        "Ġà´",
        "ª"
      ],
      [
        "à´",
        "ļ"
      ],
      [
        "à´",
        "Ļ"
      ],
      [
        "àµ",
        "ĩ"
      ],
      [
        "à´",
        "¸"
      ],
      [
        "àµ",
        "ĭ"
      ],
      [
        "Ġà´",
        "ķ"
      ],
      [
        "Ġà´",
        "ħ"
      ],
      [
        "àµģ",
        "à´Ĥ"
      ],
      [
        "Ġà´",
        "¸"
      ],
      [
        "Ġà´",
        "¨"
      ],
      [
        "Ġà´",
        "µ"
      ],
      [
        "Ġà´",
        "®"
      ],
      [
        "àµ",
        "Ģ"
      ],
      [
        "à´",
        "¦"
      ],
      [
        "à´",
        "·"
      ],
      [
        "Ġà´",
        "İ"
      ],
      [
        "Ġà´",
        "¤"
      ],
      [
        "Ġà´",
        "ĩ"
      ],
      [
        "à´",
        "§"
      ],
      [
        "àµį",
        "."
      ],
      [
        "àµ",
        "Ĥ"
      ],
      [
        "àµ",
        "¼"
      ],
      [
        "àµ",
        "½"
      ],
      [
        "à´",
        "¶"
      ],
      [
        "àµģ",
        "."
      ],
      [
        "Ġà´",
        "ļ"
      ],
      [
        "à´",
        "ŀ"
      ],
      [
        "Ġà´",
        "Ĩ"
      ],
      [
        "à´",
        "¹"
      ],
      [
        "à´",
        "Ĺ"
      ],
      [
        "àµ",
        "Ĭ"
      ],
      [
        "à´Ļ",
        "à´³"
      ],
      [
        "à´ķ",
        "à´³"
      ],
      [
        "àµįâĢ",
        "Į"
      ],
      [
        "Ġà´İ",
        "à´¨"
      ],
      [
        "à´¨",
        "à´¤"
      ],
      [
        "à´µ",
        "à´°"
      ],
      [
        "à´",
        "ľ"
      ],
      [
        "Ġà´",
        "°"
      ],
      [
        "àµ",
        "»"
      ],
      [
        "à´",
        "´"
      ],
      [
        "Ġ",
        "âĢ"
      ],
      [
        "àµ",
        "¾"
      ],
      [
        "Ġà´",
        "¬"
      ],
      [
        "à´",
        "Ń"
      ],
      [
        "à´",
        "¥"
      ],
      [
        "Ġà´",
        "ī"
      ],
      [
        "à´",
        "¡"
      ],
      [
        "Ġà´",
        "Ĵ"
      ],
      [
        "Ġà´",
        "ľ"
      ],
      [
        "à´",
        "¬"
      ],
      [
        "àµ",
        "Ī"
      ],
      [
        "à´°",
        "à´¤"
      ],
      [
        "Ġà´ħ",
        "à´¤"
      ],
      [
        "à´¯",
        "à´¤"
      ],
      [
        "à´¿",
        "."
      ],
      [
        "Ġà´",
        "¶"
      ],
      [
        "à´ķ",
        "à´¯"
      ],
      [
        "Ġà´ĩ",
        "à´¤"
      ],
      [
        "à´°",
        "à´®"
      ],
      [
        "Ġà´ħ",
        "à´µ"
      ],
      [
        "à´¯",
        "à´®"
      ],
      [
        "Ġà´",
        "²"
      ],
      [
        "ĠâĢ",
        "ĭ"
      ],
      [
        "Ġà´Ĵ",
        "à´°"
      ],
      [
        "Ġà´",
        "¯"
      ],
      [
        "Ġà´",
        "¦"
      ],
      [
        "à´Ł",
        "à´¤"
      ],
      [
        "à´ķ",
        "à´°"
      ],
      [
        "à´¾",
        "à´Ĥ"
      ],
      [
        "Ġà´ª",
        "à´±"
      ],
      [
        "Ġà´ĩ",
        "à´¨"
      ],
      [
        "Ġà´",
        "Ń"
      ],
      [
        "Ġà´",
        "Ĺ"
      ],
      [
        "à´",
        "ĸ"
      ],
      [
        "Ġà´ª",
        "à´°"
      ],
      [
        "Ġà´",
        "±"
      ],
      [
        "àµģà´Ĥ",
        "."
      ],
      [
        "àµ",
        "ĥ"
      ],
      [
        "Ġà´ħ",
        "à´¨"
      ],
      [
        "àµĩ",
        "à´¾"
      ],
      [
        "à´Ĥ",
        "."
      ],
      [
        "Ġà´",
        "ŀ"
      ],
      [
        "à´",
        "«"
      ],
      [
        "à´Ļ",
        "àµ¾"
      ],
      [
        "Ġà´",
        "Ł"
      ],
      [
        "à´°",
        "à´£"
      ],
      [
        "à´ķ",
        "àµ¾"
      ],
      [
        "Ġà´ħ",
        "à´µà´°"
      ],
      [
        "Ġ",
        "1"
      ],
      [
        "Ġà´",
        "Ī"
      ],
      [
        "à´¯",
        "à´ķ"
      ],
      [
        "à´µ",
        "à´¨"
      ],
      [
        "Ġà´",
        "¹"
      ],
      [
        "Ġà´",
        "ı"
      ],
      [
        "à´°",
        "à´µ"
      ],
      [
        "à´°",
        "à´ķ"
      ],
      [
        "Ġà´",
        "«"
      ],
      [
        "à´°",
        "à´¸"
      ],
      [
        "Ġà´¸",
        "à´®"
      ],
      [
        "à´",
        "İ"
      ],
      [
        "à´¤",
        "à´®"
      ],
      [
        "Ġà´Ĩ",
        "à´°"
      ],
      [
        "Ġà´¤",
        "à´¨"
      ],
      [
        "Ġà´",
        "¡"
      ],
      [
        "à´¯",
        "à´¨"
      ],
      [
        "Ġà´¨",
        "à´Ł"
      ],
      [
        "àµį",
        ","
      ],
      [
        "Ġà´",
        "ĵ"
      ],
      [
        "Ġà´ħ",
        "à´±"
      ],
      [
        "Ġà´ªà´±",
        "à´ŀ"
      ],
      [
        "à´¨",
        "à´®"
      ],
      [
        "Ġà´µ",
        "à´°"
      ],
      [
        "à´ļ",
        "à´¤"
      ],
      [
        "à´ª",
        "à´¤"
      ],
      [
        "à´¯",
        "à´¯"
      ],
      [
        "Ġ",
        "2"
      ],
      [
        "à´¤",
        "à´°"
      ],
      [
        "à´·",
        "à´£"
      ],
      [
        "Ġà´®",
        "à´¨"
      ],
      [
        "à´²",
        "à´¯"
      ],
      [
        "à´¨",
        "à´Ļ"
      ],
      [
        "à´µ",
        "à´¸"
      ],
      [
        "àµ¼",
        "à´ķ"
      ],
      [
        "Ġà´ħ",
        "à´²"
      ],
      [
        "àµ¼",
        "à´¤"
      ],
      [
        "à´Ł",
        "à´Ļ"
      ],
      [
        "Ġà´¨",
        "à´²"
      ],
      [
        "Ġà´ħ",
        "à´¦"
      ],
      [
        "à´Ń",
        "à´µ"
      ],
      [
        "à´¯",
        "à´Ļ"
      ],
      [
        "Ġà´°",
        "à´£"
      ],
      [
        "àµ",
        "Ĺ"
      ],
      [
        "Ġà´®",
        "à´±"
      ],
      [
        "Ġà´ķ",
        "à´´"
      ],
      [
        "à´³",
        "à´¤"
      ],
      [
        "Ġà´ķ",
        "à´£"
      ],
      [
        "Ġ",
        "."
      ],
      [
        "à´Ĺ",
        "à´¤"
      ],
      [
        "à´¯",
        "à´ª"
      ],
      [
        "à´",
        "ĺ"
      ],
      [
        "Ġà´ħ",
        "à´Ł"
      ],
      [
        "à´Ļ",
        "à´¨"
      ],
      [
        "à´¤",
        "à´¨"
      ],
      [
        "à´Ł",
        "à´°"
      ],
      [
        "Ġ",
        "("
      ],
      [
        "à´¤",
        "à´¤"
      ],
      [
        "Ġà´ī",
        "à´£"
      ],
      [
        "àµįâĢį",
        ","
      ],
      [
        "àµ",
        "º"
      ],
      [
        "Ġà´ħà´µ",
        "à´¨"
      ],
      [
        "à´°",
        "à´§"
      ],
      [
        "à´Ł",
        "à´¨"
      ],
      [
        "Ġà´¨",
        "à´®"
      ],
      [
        "Ġà´ªà´±",
        "à´¯"
      ],
      [
        "Ġà´İ",
        "à´²"
      ],
      [
        "à´ķ",
        "à´²"
      ],
      [
        "0",
        "0"
      ],
      [
        "\"",
        "\""
      ],
      [
        "à´£",
        "à´®"
      ],
      [
        "àµįâĢį",
        "."
      ],
      [
        "Ġà´ħ",
        "à´ª"
      ],
      [
        "à´°",
        "à´Ļ"
      ],
      [
        "à´Ł",
        "à´ķ"
      ],
      [
        "à´®",
        "à´¤"
      ],
      [
        "àµįâĢĮ",
        "."
      ],
      [
        "à´²",
        "à´¤"
      ],
      [
        "à´°",
        "à´¨"
      ],
      [
        "Ġà´ī",
        "à´ª"
      ],
      [
        "à´·",
        "à´¨"
      ],
      [
        "Ġà´ı",
        "à´±"
      ],
      [
        "à´°",
        "à´¦"
      ],
      [
        "à´°",
        "à´¯"
      ],
      [
        "à´¯",
        "à´°"
      ],
      [
        "à´µ",
        "à´¯"
      ],
      [
        "Ġà´¨",
        "à´Łà´¤"
      ],
      [
        "à´¿",
        "à´Ĥ"
      ],
      [
        "Ġà´İ",
        "à´¤"
      ],
      [
        "à´µ",
        "à´¶"
      ],
      [
        "Ġà´¸",
        "à´¹"
      ],
      [
        "à´¿",
        ","
      ],
      [
        "à´®",
        "à´¯"
      ],
      [
        "à´¨",
        "à´¯"
      ],
      [
        "àµĨ",
        "."
      ],
      [
        "à´²",
        "à´ª"
      ],
      [
        "Ġà´ħ",
        "à´§"
      ],
      [
        "àµ½",
        "à´ķ"
      ],
      [
        "Ġà´Ĩ",
        "à´¶"
      ],
      [
        "Ġà´ħ",
        "à´®"
      ],
      [
        "à´¤",
        "à´²"
      ],
      [
        "Ġà´Ĩ",
        "à´¦"
      ],
      [
        "à´¹",
        "à´¤"
      ],
      [
        "Ġà´ª",
        "à´ķ"
      ],
      [
        "à´ķ",
        "à´¤"
      ],
      [
        "à´±",
        "à´¤"
      ],
      [
        "à´±",
        "à´µ"
      ],
      [
        "à´ķ",
        "à´¨"
      ],
      [
        "à´Ĥ",
        ","
      ],
      [
        "à´µ",
        "à´¤"
      ],
      [
        "Ġà´ķ",
        "à´°"
      ],
      [
        "Ġà´ŀ",
        "à´Ļ"
      ],
      [
        "à´ķ",
        "à´ª"
      ],
      [
        "Ġà´µ",
        "à´¨"
      ],
      [
        "Ġà´Ĩ",
        "à´ķ"
      ],
      [
        "Ġà´²",
        "à´Ń"
      ],
      [
        "à´ª",
        "à´Ł"
      ],
      [
        "à´ķ",
        "à´±"
      ],
      [
        "Ġà´¸",
        "à´°"
      ],
      [
        "à´ķ",
        "à´®"
      ],
      [
        "àµ¼",
        "à´¨"
      ],
      [
        "Ġà´µ",
        "à´²"
      ],
      [
        "Ġà´",
        "·"
      ],
      [
        "àµįâĢ",
        "ĭ"
      ],
      [
        "à´ļ",
        "à´¯"
      ],
      [
        "Ġà´ħ",
        "à´Ń"
      ],
      [
        "à´¯",
        "à´µ"
      ],
      [
        "Ġà´Ĵ",
        "à´¨"
      ],
      [
        "Ġà´®",
        "à´°"
      ],
      [
        "Ġà´®",
        "à´¤"
      ],
      [
        "Ġà´",
        "§"
      ],
      [
        "ĠâĢ",
        "ľ"
      ],
      [
        "Ġà´¸",
        "à´¨"
      ],
      [
        "à´ķ",
        "à´£"
      ],
      [
        "Ġà´µ",
        "à´³"
      ],
      [
        "à´°",
        "à´ŀ"
      ],
      [
        "Ġ",
        "3"
      ],
      [
        "Ġà´Ĩ",
        "à´µà´¶"
      ],
      [
        "à´¯à´®",
        "à´¨"
      ],
      [
        "à´ª",
        "à´¨"
      ],
      [
        "Ġà´ī",
        "à´¤"
      ],
      [
        "à´Ł",
        "à´¯"
      ],
      [
        "âĢ",
        "ĭ"
      ],
      [
        "à´ª",
        "à´°"
      ],
      [
        "Ġà´¬",
        "à´¨"
      ],
      [
        "à´²",
        "à´µ"
      ],
      [
        "àµģà´Ĥ",
        ","
      ],
      [
        "à´",
        "ł"
      ],
      [
        "Ġà´ĩ",
        "à´µ"
      ],
      [
        "à´¨à´®",
        "à´¨"
      ],
      [
        "à´¾à´Ĥ",
        "."
      ],
      [
        "Ġà´",
        "Ĳ"
      ],
      [
        "Ġà´Ĩ",
        "à´¯"
      ],
      [
        "à´¸",
        "à´°"
      ],
      [
        "Ġà´ľ",
        "à´¨"
      ],
      [
        "àµĭ",
        "?"
      ],
      [
        "à´²",
        "à´ķ"
      ],
      [
        "à´",
        "ħ"
      ],
      [
        "Ġà´ķ",
        "à´®"
      ],
      [
        "Ġà´ī",
        "à´¦"
      ],
      [
        "Ġà´ĩ",
        "à´°"
      ],
      [
        "Ġà´ª",
        "à´Ļ"
      ],
      [
        "à´±",
        "à´ķ"
      ],
      [
        "à´¬",
        "à´¨"
      ],
      [
        "Ġà´¨",
        "àµ½à´ķ"
      ],
      [
        "Ġ",
        "-"
      ],
      [
        "ĠâĢ",
        "Ŀ"
      ],
      [
        "Ġà´ħ",
        "à´Ļ"
      ],
      [
        "Ġà´Ĩ",
        "à´£"
      ],
      [
        "à´¯",
        "à´¸"
      ],
      [
        "Ġà´µà´³",
        "à´°"
      ],
      [
        "à´¯",
        "à´²"
      ],
      [
        "Ġà´İ",
        "à´¸"
      ],
      [
        "à´£",
        "à´¤"
      ],
      [
        "Ġà´İ",
        "à´Ļ"
      ],
      [
        "àµį",
        "?"
      ],
      [
        "àµĨ",
        "à´¾"
      ],
      [
        "àµ¼",
        "à´Ł"
      ],
      [
        "Ġà´°",
        "à´ķ"
      ],
      [
        "à´°",
        "à´¶"
      ],
      [
        "Ġà´¸",
        "à´¤"
      ],
      [
        "à´ª",
        "à´ķ"
      ],
      [
        "à´İ",
        "à´¸"
      ],
      [
        "Ġà´¤",
        "à´®"
      ],
      [
        "àµ¼",
        "à´®"
      ],
      [
        "Ġ",
        "'"
      ],
      [
        "à´§",
        "à´¤"
      ],
      [
        "à´°",
        "à´µà´°"
      ],
      [
        "à´ľ",
        "à´¯"
      ],
      [
        "à´Ł",
        "à´±"
      ],
      [
        "Ġà´¨à´Ł",
        "à´¨"
      ],
      [
        "Ġà´²",
        "à´ķ"
      ],
      [
        "à´·",
        "à´¤"
      ],
      [
        "Ġ",
        "\"\""
      ],
      [
        "Ġà´ĩ",
        "à´µà´°"
      ],
      [
        "Ġ2",
        "0"
      ],
      [
        "Ġ",
        "5"
      ],
      [
        "à´Ļàµ¾",
        "à´ķ"
      ],
      [
        "Ġà´ķ",
        "à´³"
      ],
      [
        "à´·",
        "à´®"
      ],
      [
        "à´ª",
        "à´±"
      ],
      [
        "à´²",
        "à´®"
      ],
      [
        "à´¨",
        "à´µ"
      ],
      [
        "Ġà´ª",
        "à´¤"
      ],
      [
        "Ġà´ī",
        "à´³"
      ],
      [
        "ĠâĢ",
        "İ"
      ],
      [
        "à´±",
        "à´ª"
      ],
      [
        "à´¯",
        "àµ»"
      ],
      [
        "Ġà´¶",
        "à´°"
      ],
      [
        "Ġ",
        "4"
      ],
      [
        "à´Ł",
        "à´®"
      ],
      [
        "à´¨",
        "à´µà´°"
      ],
      [
        "Ġà´ħ",
        "à´ķ"
      ],
      [
        "à´Ĺ",
        "à´Ļ"
      ],
      [
        "Ġà´ħà´±",
        "à´¸"
      ],
      [
        "ĠâĢ",
        "ĺ"
      ],
      [
        "à´¤",
        "à´ª"
      ],
      [
        "Ġà´īà´ª",
        "à´¯"
      ],
      [
        "à´¨",
        "à´ķ"
      ],
      [
        "à´",
        "Ĳ"
      ],
      [
        "à´Ł",
        "à´ª"
      ],
      [
        "Ġà´µ",
        "à´´"
      ],
      [
        "à´°",
        "à´¹"
      ],
      [
        "Ġà´ħ",
        "à´¯"
      ],
      [
        "à´¦",
        "à´°"
      ],
      [
        "à´ķàµ¾",
        "à´ķ"
      ],
      [
        "Ġà´ħà´µ",
        "à´¸"
      ],
      [
        "à´Ĺ",
        "à´®"
      ],
      [
        "Ġà´¨à´Ł",
        "à´ªà´Ł"
      ],
      [
        "à´·",
        "à´¯"
      ],
      [
        "Ġà´¯",
        "à´¹"
      ],
      [
        "Ġà´®",
        "à´°à´£"
      ],
      [
        "à´±",
        "à´Ļ"
      ],
      [
        "Ġà´ĩ",
        "à´ª"
      ],
      [
        "à´ª",
        "à´¯"
      ],
      [
        "àµ»",
        "à´¸"
      ],
      [
        "à´¯",
        "à´±"
      ],
      [
        "à´²",
        "à´¨"
      ],
      [
        "à´ķà´°",
        "à´£"
      ],
      [
        "Ġà´ĩ",
        "à´ķ"
      ],
      [
        "à´¸",
        "à´Ń"
      ],
      [
        "àµĩ",
        ","
      ],
      [
        "à´¤",
        "àµ½"
      ],
      [
        "à´ļ",
        "à´°"
      ],
      [
        "à´®",
        "à´¨"
      ],
      [
        "Ġà´ª",
        "à´¦"
      ],
      [
        "Ġà´İ",
        "à´Ł"
      ],
      [
        "à´§",
        "à´¨"
      ],
      [
        "à´ª",
        "à´£"
      ],
      [
        "àµĢ",
        "à´Ĥ"
      ],
      [
        "à´µ",
        "à´¦"
      ],
      [
        "à´ľ",
        "à´¨"
      ],
      [
        "à´±",
        "à´¨"
      ],
      [
        "Ġà´ĩ",
        "à´²"
      ],
      [
        "à´Ńà´µ",
        "à´¤"
      ],
      [
        "Ġà´ª",
        "à´²"
      ],
      [
        "Ġà´®",
        "à´¹"
      ],
      [
        ".",
        "."
      ],
      [
        "àµĨ",
        ","
      ],
      [
        "Ġà´®à´¨",
        "à´¸"
      ],
      [
        "Ġà´ª",
        "à´Ł"
      ],
      [
        "Ġà´ı",
        "à´¤"
      ],
      [
        "à´¤",
        "à´ķ"
      ],
      [
        "àµģ",
        ":"
      ],
      [
        "Ġà´ħ",
        "à´¸"
      ],
      [
        "Ġà´¶",
        "à´ķ"
      ],
      [
        "Ġà´",
        "ĸ"
      ],
      [
        "à´ļ",
        "à´¨"
      ],
      [
        "Ġà´¨",
        "à´¨"
      ],
      [
        "àµģ",
        ","
      ],
      [
        "à´µ",
        "àµ¼"
      ],
      [
        "Ġà´ĵ",
        "à´«"
      ],
      [
        "à´µ",
        "à´£"
      ],
      [
        "Ġà´ķ",
        "à´²"
      ],
      [
        "à´¡",
        "à´¨"
      ],
      [
        "à´ķ",
        "à´ļ"
      ],
      [
        "à´µ",
        "à´ķ"
      ],
      [
        "Ġà´Ĩ",
        "à´³"
      ],
      [
        "à´",
        "ĩ"
      ],
      [
        "à´ŀ",
        "à´¤"
      ],
      [
        "Ġà´¨à´Ł",
        "à´ķ"
      ],
      [
        "Ġà´ħà´µ",
        "àµ¼"
      ],
      [
        "Ġà´ļ",
        "à´°"
      ],
      [
        "à´±",
        "à´±"
      ],
      [
        "à´¤",
        "à´¯"
      ],
      [
        "à´°à´µ",
        "àµ¼à´¤"
      ],
      [
        "à´±",
        "à´°"
      ],
      [
        "Ġà´ª",
        "à´ł"
      ],
      [
        "à´¸",
        "à´¨"
      ],
      [
        "à´",
        "Ĩ"
      ],
      [
        "àµ¼",
        "à´µ"
      ],
      [
        "à´¸",
        "à´®"
      ],
      [
        "à´µ",
        "à´²"
      ],
      [
        "Ġà´¨",
        "à´°"
      ],
      [
        "Ġà´ħ",
        "à´°"
      ],
      [
        "à´·",
        "àµ»"
      ],
      [
        "Ġà´ĵ",
        "à´°"
      ],
      [
        "à´°à´µ",
        "à´§"
      ],
      [
        "à´¶",
        "à´Ļ"
      ],
      [
        "Ġà´®",
        "à´£"
      ],
      [
        "Ġà´¸",
        "àµ¼à´ķ"
      ],
      [
        "à´¶",
        "à´¤"
      ],
      [
        "à´°",
        "à´Ł"
      ],
      [
        "Ġ",
        "6"
      ],
      [
        "Ġà´¤",
        "à´Ł"
      ],
      [
        "à´®",
        "à´°"
      ],
      [
        "à´±",
        "à´¯"
      ],
      [
        "à´ķ",
        "à´£à´®"
      ],
      [
        "à´¹",
        "à´®"
      ],
      [
        "à´°",
        "à´³"
      ],
      [
        "à´±",
        "à´²"
      ],
      [
        "à´Ł",
        "à´²"
      ],
      [
        "à´²",
        "à´Ļ"
      ],
      [
        "Ġà´ĩ",
        "à´¯"
      ],
      [
        "à´®",
        "à´¸"
      ],
      [
        "Ġ1",
        "9"
      ],
      [
        "à´Ĥ",
        ":"
      ],
      [
        "àµ¼",
        "à´ļ"
      ],
      [
        "Ġà´ľ",
        "à´¯"
      ],
      [
        "à´¨",
        "à´²"
      ],
      [
        "à´§",
        "à´®"
      ],
      [
        "Ġà´µ",
        "àµ¼"
      ],
      [
        "Ġà´ħ",
        "à´ŀ"
      ],
      [
        "à´¿",
        ":"
      ],
      [
        "Ġà´¤",
        "à´Ļ"
      ],
      [
        "âĢ",
        "Į"
      ],
      [
        "à´§",
        "à´ª"
      ],
      [
        "à´³",
        "à´µà´°"
      ],
      [
        "à´ķ",
        "à´Ł"
      ],
      [
        "Ġà´Ĩ",
        "à´¤"
      ],
      [
        "à´Ł",
        "àµ¼à´¨"
      ],
      [
        "à´¨",
        "à´¨"
      ],
      [
        "Ġà´Ĵ",
        "à´´"
      ],
      [
        "àµ¼",
        "à´ª"
      ],
      [
        "à´°",
        "à´ĸ"
      ],
      [
        "Ġà´µ",
        "à´ķ"
      ],
      [
        "àµĤ",
        "."
      ],
      [
        "Ġà´ª",
        "à´£"
      ],
      [
        "à´±",
        "à´®"
      ],
      [
        "Ġà´ħà´µ",
        "à´³"
      ],
      [
        "à´µà´¨",
        "à´¨"
      ],
      [
        "àµ»",
        "à´¡"
      ],
      [
        "à´ª",
        "à´®"
      ],
      [
        "Ġà´Ń",
        "à´°à´£"
      ],
      [
        "à´¹",
        "à´¨"
      ],
      [
        "Ġà´Ĩ",
        "à´Ĺ"
      ],
      [
        "à´İ",
        "à´¨"
      ],
      [
        "à´¶",
        "à´¨"
      ],
      [
        "Ġ",
        "7"
      ],
      [
        "Ġà´¤",
        "à´³"
      ],
      [
        "Ġà´¶",
        "à´¤à´®"
      ],
      [
        "à´¤",
        "à´°à´®"
      ],
      [
        "Ġà´ľ",
        "à´¨à´Ļ"
      ],
      [
        "00",
        "0"
      ],
      [
        "à´¤",
        "à´°à´µ"
      ],
      [
        "Ġà´ĩ",
        "à´Ł"
      ],
      [
        "à´®",
        "à´±"
      ],
      [
        "Ġà´İ",
        "à´£"
      ],
      [
        "àµĭ",
        "."
      ],
      [
        "à´",
        "Ľ"
      ],
      [
        "à´ĺ",
        "à´Łà´¨"
      ],
      [
        "à´±",
        "à´ļ"
      ],
      [
        "Ġ1",
        "0"
      ],
      [
        "Ġà´ĩ",
        "à´Ļ"
      ],
      [
        "à´¥",
        "à´¯"
      ],
      [
        "à´Ĺ",
        "à´¸"
      ],
      [
        "à´¯",
        "àµ¼"
      ],
      [
        "à´¨",
        "à´±"
      ],
      [
        "Ġà´Ĩ",
        "à´¨"
      ],
      [
        "à´±",
        "àµ¼"
      ],
      [
        "Ġà´İ",
        "à´´"
      ],
      [
        "Ġà´ķ",
        "à´Ł"
      ],
      [
        "Ġ\"\"",
        "\""
      ],
      [
        "à´ķ",
        "à´µ"
      ],
      [
        "àµº",
        "à´Ĺ"
      ],
      [
        "Ġ",
        "8"
      ],
      [
        "Ġà´Ń",
        "à´ķ"
      ],
      [
        "àµ½",
        "à´¨"
      ],
      [
        "à´¹",
        "à´°"
      ],
      [
        "Ġ",
        "\""
      ],
      [
        "à´³",
        "à´µ"
      ],
      [
        "àµ½",
        "à´ª"
      ],
      [
        "à´°",
        "à´³à´¤"
      ],
      [
        "à´®",
        "à´²"
      ],
      [
        "Ġà´ª",
        "à´°à´®"
      ],
      [
        "àµį",
        ":"
      ],
      [
        "àµ¼",
        "à´£"
      ],
      [
        "à´¦",
        "à´®"
      ],
      [
        "Ġà´Ĩ",
        "à´¸"
      ],
      [
        "Ġà´¹",
        "à´°"
      ],
      [
        "àµ¼",
        "à´¥"
      ],
      [
        "Ġà´",
        "ĺ"
      ],
      [
        "ĠâĢ",
        "Ķ"
      ],
      [
        "àµ¼",
        "à´¦"
      ],
      [
        "Ġ20",
        "1"
      ],
      [
        "à´°à´£",
        "à´®"
      ],
      [
        "Ġ",
        "?"
      ],
      [
        "Ġà´¨",
        "à´·"
      ],
      [
        "Ġà´¤",
        "à´¯"
      ],
      [
        "âĢ",
        "Ŀ"
      ],
      [
        "Ġà´¨",
        "à´Ĺ"
      ],
      [
        "Ġà´ı",
        "à´ķ"
      ],
      [
        "Ġ1",
        "2"
      ],
      [
        "à´²",
        "à´ķà´³"
      ],
      [
        "à´ķ",
        "àµ½"
      ],
      [
        "Ġà´¤",
        "à´°"
      ],
      [
        "à´¸",
        "à´¤"
      ],
      [
        "à´²",
        "à´°"
      ],
      [
        "à´¡",
        "à´²"
      ],
      [
        "à´±",
        "à´¡"
      ],
      [
        "à´°",
        "à´ª"
      ],
      [
        "à´±",
        "à´ŀ"
      ],
      [
        "à´®",
        "à´¦"
      ],
      [
        "Ġ1",
        "5"
      ],
      [
        "à´¨",
        "à´ª"
      ],
      [
        "à´¨",
        "à´µà´¨"
      ],
      [
        "àµ¾",
        "à´ª"
      ],
      [
        "àµ¼",
        "à´¶"
      ],
      [
        "Ġà´ī",
        "à´¯à´°"
      ],
      [
        "à´Ĺ",
        "à´£"
      ],
      [
        "Ġà´ĵ",
        "à´Ł"
      ],
      [
        "à´¥",
        "à´²à´¤"
      ],
      [
        "à´¯à´®",
        "à´Ļ"
      ],
      [
        "à´µ",
        "à´®"
      ],
      [
        "Ġà´ī",
        "à´±à´ª"
      ],
      [
        "à´ķ",
        "àµ»"
      ],
      [
        "Ġà´®",
        "à´´"
      ],
      [
        "à´°",
        "à´ļ"
      ],
      [
        "âĢ",
        "¦"
      ],
      [
        "àµ¼",
        "à´¡"
      ],
      [
        "àµ¼",
        "à´ľ"
      ],
      [
        "Ġà´ķà´£",
        "à´ķ"
      ],
      [
        "à´¦",
        "à´¨"
      ],
      [
        "Ġà´Ĩ",
        "à´±"
      ],
      [
        "à´³",
        "à´ķ"
      ],
      [
        "à´¥",
        "à´¨"
      ],
      [
        "à´¯à´ķ",
        "à´¨"
      ],
      [
        "à´·à´£",
        "à´¤"
      ],
      [
        "Ġà´ī",
        "à´¯"
      ],
      [
        "Ġà´ħà´ª",
        "à´ķ"
      ],
      [
        "à´£",
        "à´¯"
      ],
      [
        "à´µ",
        "à´ļ"
      ],
      [
        "Ġà´",
        "Ķ"
      ],
      [
        "Ġà´ķ",
        "à´¥"
      ],
      [
        "Ġà´Ĵ",
        "à´Ł"
      ],
      [
        "Ġà´ħà´µ",
        "àµ»"
      ],
      [
        "âĢ",
        "į"
      ],
      [
        "Ġà´µ",
        "à´¸"
      ],
      [
        "à´¸",
        "à´¯"
      ],
      [
        "à´¯",
        "à´µà´°"
      ],
      [
        "Ġà´ħà´µ",
        "à´¤à´°"
      ],
      [
        "à´¤",
        "à´µ"
      ],
      [
        "Ġ",
        "9"
      ],
      [
        "ĠâĢ",
        "Ļ"
      ],
      [
        "à´¯",
        "à´µà´¸"
      ],
      [
        "Ġà´ķ",
        "à´¤"
      ],
      [
        "àµ¾",
        "à´ķ"
      ],
      [
        "à´ļ",
        "à´±"
      ],
      [
        "âĢ",
        "Ļ"
      ],
      [
        "à´µà´°",
        "à´Ļ"
      ],
      [
        "Ġà´ĩ",
        "à´·"
      ],
      [
        "Ġà´İ",
        "à´ķ"
      ],
      [
        "Ġ",
        ","
      ],
      [
        "à´·",
        "à´ª"
      ],
      [
        "Ġà´ķ",
        "à´¸"
      ],
      [
        "Ġ",
        ":"
      ],
      [
        "à´¶",
        "à´¯"
      ],
      [
        "Ġà´®",
        "à´²à´¯"
      ],
      [
        "à´¨",
        "à´¸"
      ],
      [
        "Ġà´ª",
        "à´ŀ"
      ],
      [
        "à´¸",
        "à´®à´¯"
      ],
      [
        "à´¤",
        "à´¦"
      ],
      [
        "à´¹",
        "à´ļà´°"
      ],
      [
        "àµĭ",
        ","
      ],
      [
        "à´¤",
        "à´ķà´°"
      ],
      [
        "Ġà´ī",
        "àµ¾à´ª"
      ],
      [
        "Ġà´ī",
        "à´¨"
      ],
      [
        "à´ļ",
        "à´ª"
      ],
      [
        "Ġà´¬",
        "à´¹"
      ],
      [
        "Ġà´¸à´®",
        "à´¯"
      ],
      [
        "à´ĸ",
        "à´²à´¯"
      ],
      [
        "à´ľ",
        "à´±"
      ],
      [
        "Ġà´ľ",
        "à´¸"
      ],
      [
        "Ġà´",
        "Ĭ"
      ],
      [
        "àµĩ",
        "?"
      ],
      [
        "àµĭ",
        "à´Ĥ"
      ],
      [
        "Ġà´ª",
        "à´¨"
      ],
      [
        "2",
        "0"
      ],
      [
        "Ġà´¤",
        "à´ķà´°"
      ],
      [
        "à´¬",
        "à´°"
      ],
      [
        "Ġà´ķ",
        "à´ª"
      ],
      [
        "Ġà´°",
        "à´ľ"
      ],
      [
        "Ġà´ħ",
        "à´ļ"
      ],
      [
        "à´¶",
        "à´®"
      ],
      [
        "Ġà´¨à´Ł",
        "à´ª"
      ],
      [
        "Ġà´®",
        "à´²"
      ],
      [
        "Ġà´®",
        "à´ķ"
      ],
      [
        "à´£",
        "à´±"
      ],
      [
        "à´¯à´¤",
        "à´¯"
      ],
      [
        "Ġ1",
        "1"
      ],
      [
        "Ġà´±",
        "à´£"
      ],
      [
        "à´ĺ",
        "à´Ł"
      ],
      [
        "Ġà´®",
        "à´ķà´¨"
      ],
      [
        "à´¶",
        "à´ķ"
      ],
      [
        "à´¨",
        "à´°"
      ],
      [
        "à´İ",
        "à´²"
      ],
      [
        "à´¯à´®",
        "à´¸à´Ń"
      ],
      [
        "à´¯",
        "à´£"
      ],
      [
        "à´·",
        "à´Ļ"
      ],
      [
        "à´ļ",
        "à´µà´°"
      ],
      [
        "à´µ",
        "à´±"
      ],
      [
        "à´ļ",
        "à´ķ"
      ],
      [
        "Ġà´ī",
        "à´Łà´¨"
      ],
      [
        "Ġà´ª",
        "à´¶"
      ],
      [
        "à´¦",
        "à´µ"
      ],
      [
        "à´®",
        "à´³"
      ],
      [
        "à´±",
        "à´¸"
      ],
      [
        "â",
        "ģ"
      ],
      [
        "à´Ĥ",
        "?"
      ],
      [
        "âģ",
        "ł"
      ],
      [
        "àµ»",
        "à´±"
      ],
      [
        "à´·",
        "à´ķ"
      ],
      [
        "Ġà´ķ",
        "à´¶"
      ],
      [
        "Ġà´İ",
        "à´µ"
      ],
      [
        "Ġà´ĩ",
        "à´¸"
      ],
      [
        "Ġà´µ",
        "à´ļ"
      ],
      [
        "Ġà´ħ",
        "à´¬"
      ],
      [
        "à´ķ",
        "à´¸"
      ],
      [
        "àµģ",
        "?"
      ],
      [
        "Ġ1",
        "4"
      ],
      [
        "Ġà´Ĩ",
        "à´Ń"
      ],
      [
        "Ġ2",
        "00"
      ],
      [
        "à´³",
        "à´³"
      ],
      [
        "àµį",
        "-"
      ],
      [
        "Ġ2",
        "5"
      ],
      [
        "Ġà´¤",
        "à´²"
      ],
      [
        "à´¤",
        "à´Ļ"
      ],
      [
        "à´¯",
        "àµ½"
      ],
      [
        "àµģà´Ĥ",
        "?"
      ],
      [
        "Ġà´ħà´µ",
        "à´ķ"
      ],
      [
        "Ġà´¸",
        "à´ŀ"
      ],
      [
        "à´¬",
        "à´¤"
      ],
      [
        "à´°à´®",
        "à´£à´¤"
      ],
      [
        "àµĩ",
        "."
      ],
      [
        "àµ",
        "Į"
      ],
      [
        "Ġ1",
        "8"
      ],
      [
        "àµ½",
        "à´¹"
      ],
      [
        "à´°à´£",
        "à´Ļ"
      ],
      [
        "à´´",
        "à´ķ"
      ],
      [
        "à´¶",
        "à´¦"
      ],
      [
        "Ġà´Ĵ",
        "à´ª"
      ],
      [
        "àµĪ",
        "à´Ĥ"
      ],
      [
        "Ġà´ĵ",
        "à´¸"
      ],
      [
        "à´°à´®",
        "à´²"
      ],
      [
        "Ġà´ª",
        "à´ķà´°"
      ],
      [
        "Ġà´¬",
        "à´¸"
      ],
      [
        "Ġà´ħà´µ",
        "à´¯"
      ],
      [
        "Ġà´®",
        "à´§"
      ],
      [
        "à´³",
        "à´ľ"
      ],
      [
        "à´§",
        "à´°"
      ],
      [
        "Ġà´ı",
        "à´´"
      ],
      [
        "Ġà´İ",
        "à´«"
      ],
      [
        "Ġà´¸à´®",
        "à´°"
      ],
      [
        "à´³",
        "à´¯"
      ],
      [
        "à´",
        "Ĵ"
      ],
      [
        "à´µ",
        "à´ª"
      ],
      [
        "à´¾",
        "."
      ],
      [
        "Ġà´ħ",
        "à´£"
      ],
      [
        "Ġà´ĩ",
        "à´±"
      ],
      [
        "Ġà´ķ",
        "à´Łà´¨"
      ],
      [
        "à´ķ",
        "à´´"
      ],
      [
        "à´İ",
        "à´«"
      ],
      [
        "àµįâĢĮ",
        "?"
      ],
      [
        "à´±",
        "à´£"
      ],
      [
        "Ġà´ķ",
        "à´¯à´±"
      ],
      [
        "Ġ1",
        "3"
      ],
      [
        "à´®",
        "à´ķ"
      ],
      [
        "à´ľ",
        "à´°"
      ],
      [
        "à´¥",
        "à´°"
      ],
      [
        "Ġà´ıà´ķ",
        "à´¦"
      ],
      [
        "à´°",
        "à´Ń"
      ],
      [
        "Ġà´ļ",
        "à´¨"
      ],
      [
        "à´¦",
        "à´¤"
      ],
      [
        "Ġà´ªà´°",
        "à´¸"
      ],
      [
        "Ġà´ļ",
        "à´Łà´Ļ"
      ],
      [
        "Ġà´ĩ",
        "à´Łà´ª"
      ],
      [
        "Ġà´",
        "³"
      ],
      [
        "Â",
        "ł"
      ],
      [
        "Ġà´µ",
        "à´¯à´¸"
      ],
      [
        "à´°à´®",
        "à´£"
      ],
      [
        "Ġà´Ĵ",
        "à´±"
      ],
      [
        ")",
        ","
      ],
      [
        "Ġà´ľ",
        "à´¨à´¤"
      ],
      [
        "Ġà´¨",
        "à´¯"
      ],
      [
        "à´¥",
        "à´®"
      ],
      [
        "àµįâĢĮ",
        ","
      ],
      [
        "à´ĸ",
        "à´ª"
      ],
      [
        "àµ¼",
        "à´·"
      ],
      [
        "Ġà´µ",
        "à´¹"
      ],
      [
        "Ġà´¤",
        "à´µà´£"
      ],
      [
        "Ġ'",
        "'"
      ],
      [
        "à´Ł",
        "àµ¼"
      ],
      [
        "àµº",
        "à´¸"
      ],
      [
        "à´Ń",
        "à´¯"
      ],
      [
        "à´§",
        "à´µ"
      ],
      [
        "Ġà´¯",
        "à´¥"
      ],
      [
        "Ġ1",
        "6"
      ],
      [
        "Ġà´°",
        "à´®"
      ],
      [
        "à´ľ",
        "à´¸"
      ],
      [
        "Ġà´¤",
        "à´ķ"
      ],
      [
        "àµĨ",
        "?"
      ],
      [
        "Ġà´®",
        "à´¦"
      ],
      [
        "Ġà´µ",
        "à´§"
      ],
      [
        "à´£",
        "à´¨"
      ],
      [
        "à´¸",
        "à´²"
      ],
      [
        "Ġà´¡",
        "à´²"
      ],
      [
        "Ġ5",
        "0"
      ],
      [
        "Ġà´Ĩ",
        "à´µ"
      ],
      [
        "Ġà´",
        "£"
      ],
      [
        "à´¤",
        "à´¨à´Ļ"
      ],
      [
        "à´",
        "¢"
      ],
      [
        "à´µ",
        "àµ»"
      ],
      [
        "Ġà´Ĩ",
        "à´²"
      ],
      [
        "à´·",
        "à´µ"
      ],
      [
        "Ġà´Ķ",
        "à´¦"
      ],
      [
        "Ġà´ľ",
        "à´®"
      ],
      [
        "âĢĭ",
        "âĢĭ"
      ],
      [
        "Ġà´ħà´ªà´ķ",
        "à´Łà´¤"
      ],
      [
        "Ġà´ķ",
        "à´¨"
      ],
      [
        "Ġà´¬",
        "à´²"
      ],
      [
        "à´Ĺ",
        "à´µ"
      ],
      [
        "Ġà´¸à´®",
        "à´¯à´¤"
      ],
      [
        "à´ĸ",
        "à´°"
      ],
      [
        "à´ķ",
        "à´°à´®"
      ],
      [
        "à´°à´£",
        "à´¤"
      ],
      [
        "à´¤",
        "à´µà´°"
      ],
      [
        "à´¸",
        "à´°à´¤"
      ],
      [
        "Ġà´¸",
        "à´ľ"
      ],
      [
        "à´¦",
        "à´¯"
      ],
      [
        "Ġà´¸",
        "à´Ļ"
      ],
      [
        "ĠâĢĶ",
        "âģł"
      ],
      [
        "Ġà´¨",
        "à´µ"
      ],
      [
        "à´·",
        "à´ķà´³"
      ],
      [
        "à´·à´£",
        "à´Ļ"
      ],
      [
        "à´¯à´®",
        "à´²"
      ],
      [
        "Ġ1",
        "7"
      ],
      [
        "Ġà´¸",
        "àµ¼à´µ"
      ],
      [
        "Ġà´Ĺ",
        "à´¤"
      ],
      [
        "à´µ",
        "à´¹"
      ],
      [
        "à´¶",
        "à´µ"
      ],
      [
        "Ġà´İ",
        "àµ»"
      ],
      [
        "à´ª",
        "à´°à´®"
      ],
      [
        "à´Ł",
        "à´µà´°"
      ],
      [
        "à´¿",
        ")"
      ],
      [
        "Ġà´ĵ",
        "à´ª"
      ],
      [
        "à´Ĩ",
        "à´°"
      ],
      [
        "à´²",
        "à´±"
      ],
      [
        "Ġà´İ",
        "à´ª"
      ],
      [
        "Ġà´ħà´µ",
        "àµ¼à´ķ"
      ],
      [
        "à´Ł",
        "àµ»"
      ],
      [
        "Ġà´ħ",
        "à´¶"
      ],
      [
        "à´²",
        "à´²"
      ],
      [
        "à´³",
        "à´®"
      ],
      [
        "à´®",
        "à´¹à´¤"
      ],
      [
        "Ġà´ħà´µ",
        "àµ¾"
      ],
      [
        "à´¸",
        "à´°à´Ļ"
      ],
      [
        "Ġà´Ń",
        "à´°"
      ],
      [
        "Ġà´ķ",
        "à´¨à´¤"
      ],
      [
        "à´¹",
        "à´¸"
      ],
      [
        "Ġà´ĩ",
        "à´Łà´¯"
      ],
      [
        "à´ķ",
        "àµ¼"
      ],
      [
        "à´£",
        "à´²"
      ],
      [
        "Ġà´ĺ",
        "à´Ł"
      ],
      [
        "Ġà´¸",
        "à´ĸ"
      ],
      [
        "à´¾",
        ","
      ],
      [
        "à´µ",
        "à´§"
      ],
      [
        "à´µ",
        "à´´"
      ],
      [
        "Ġà´ľà´¨",
        "à´±à´²"
      ],
      [
        "à´¹",
        "à´¨à´Ļ"
      ],
      [
        "Ġà´®",
        "à´ŀ"
      ],
      [
        "à´Ł",
        "à´£"
      ],
      [
        "à´°",
        "àµ»"
      ],
      [
        "àµįâĢĭ",
        "."
      ],
      [
        "Ġ",
        "àµ½"
      ],
      [
        "à´±",
        "àµ½"
      ],
      [
        "à´Ĺ",
        "à´³"
      ],
      [
        "à´¸",
        "à´Ļ"
      ],
      [
        "à´®",
        "à´ķà´³"
      ],
      [
        "à´",
        "ĥ"
      ],
      [
        "à´ħ",
        "à´¤"
      ],
      [
        "Ġà´®",
        "à´ķà´³"
      ],
      [
        "à´ĺà´Łà´¨",
        "à´¯"
      ],
      [
        "Ġ3",
        "0"
      ],
      [
        "à´¤",
        "à´ķà´³"
      ],
      [
        "Ġà´Ĩ",
        "à´ª"
      ],
      [
        "à´¦",
        "à´°à´¨"
      ],
      [
        "Ġà´İ",
        "à´³"
      ],
      [
        "à´Ńà´µ",
        "à´Ļ"
      ],
      [
        "à´§",
        "à´¯"
      ],
      [
        "Ġà´¨",
        "à´¶"
      ],
      [
        "Ġà´ļ",
        "àµ¼à´ļ"
      ],
      [
        "à´²",
        "à´£"
      ],
      [
        "àµģ",
        "àµį"
      ],
      [
        "Ġà´ª",
        "à´´"
      ],
      [
        "Ġà´«",
        "à´²"
      ],
      [
        "àµ¼",
        "à´Ĺ"
      ],
      [
        "àµįâĢį",
        ")"
      ],
      [
        "àµįâĢį",
        ":"
      ],
      [
        "Ġà´īà´ª",
        "à´¦"
      ],
      [
        "à´¤",
        "à´°à´¤"
      ],
      [
        "à´·",
        "à´ķà´°"
      ],
      [
        "à´§",
        "à´Ļ"
      ],
      [
        "Ġà´Ĩ",
        "à´ĺ"
      ],
      [
        "a",
        "l"
      ],
      [
        "à´³",
        "à´ª"
      ],
      [
        "o",
        "r"
      ],
      [
        "à´µà´¸",
        "à´Ļ"
      ],
      [
        "Ġà´ħ",
        "à´Ĺ"
      ],
      [
        "à´Ľ",
        "à´¨"
      ],
      [
        "i",
        "n"
      ],
      [
        "Ġà´±",
        "à´¦"
      ],
      [
        "à´°à´£",
        "à´¯"
      ],
      [
        "Ġà´°",
        "à´µ"
      ],
      [
        "à´·",
        "à´¯à´¤"
      ],
      [
        "Ġà´®",
        "à´Łà´Ļ"
      ],
      [
        "à´°à´®",
        "à´¤"
      ],
      [
        "à´ª",
        "à´³"
      ],
      [
        "à´¹",
        "à´Ļ"
      ],
      [
        "Ġà´Ĺ",
        "à´µ"
      ],
      [
        "à´§",
        "à´¨à´¯"
      ],
      [
        "àµ½",
        "à´µ"
      ],
      [
        "e",
        "r"
      ],
      [
        "à´ĸ",
        "à´¤"
      ],
      [
        "à´¦",
        "à´Ĺà´¤"
      ],
      [
        "à´ļ",
        "à´Ł"
      ],
      [
        "àµº",
        "à´ķ"
      ],
      [
        "a",
        "n"
      ],
      [
        "Ġà´¡",
        "à´¯"
      ],
      [
        "Ġà´¸",
        "à´²"
      ],
      [
        "Ġà´Ĵ",
        "à´³"
      ],
      [
        "à´ķ",
        "à´ķ"
      ],
      [
        "à´µà´¨",
        "à´ķ"
      ],
      [
        "à´°à´ķ",
        "à´Ł"
      ],
      [
        "o",
        "n"
      ],
      [
        "Ġ1",
        "00"
      ],
      [
        "Ġà´Ĩ",
        "à´§"
      ],
      [
        "à´«",
        "à´²"
      ],
      [
        "à´ª",
        "à´¨à´Ļ"
      ],
      [
        "à´ķà´³",
        "à´¯"
      ],
      [
        "Ġà´¤",
        "à´Łà´¯"
      ],
      [
        "à´¸",
        "à´£"
      ],
      [
        "Ġà´§",
        "à´°"
      ],
      [
        "à´²",
        "à´ļ"
      ],
      [
        "Ġà´ħà´¯",
        "à´ļ"
      ],
      [
        "à´µ",
        "àµ¼à´ķ"
      ],
      [
        "Ġà´ħ",
        "à´ľ"
      ],
      [
        "Ġà´ĩ",
        "à´¦"
      ],
      [
        "à´µ",
        "à´³"
      ],
      [
        "Ġà´¨",
        "à´¦"
      ],
      [
        "à´¸",
        "à´±"
      ],
      [
        "à´¯à´®",
        "à´¤"
      ],
      [
        "à´²",
        "à´§"
      ],
      [
        "à´ķà´£",
        "à´ķ"
      ],
      [
        "9",
        "9"
      ],
      [
        "Ġà´¦",
        "à´ķ"
      ],
      [
        "Ġ2",
        "4"
      ],
      [
        "à´°",
        "à´ªà´¤"
      ],
      [
        "Ġà´ħ",
        "à´´"
      ],
      [
        "àµį",
        "!"
      ],
      [
        "Ġà´īà´¯",
        "àµ¼à´¨"
      ],
      [
        "Ġà´ī",
        "à´ļ"
      ],
      [
        "à´§",
        "à´ķ"
      ],
      [
        "à´ľ",
        "à´¯à´¨"
      ],
      [
        "Ġà´Ĩ",
        "à´´"
      ],
      [
        "Ġà´",
        "Ľ"
      ],
      [
        "à´°à´®",
        "à´Ļ"
      ],
      [
        "Ġà´ĩ",
        "à´µà´¯"
      ],
      [
        "Ġà´®à´°à´£",
        "à´¤"
      ],
      [
        "à´ķà´°à´£",
        "à´Ļ"
      ],
      [
        "Ġà´ħ",
        "à´¡"
      ],
      [
        "à´¨",
        "à´Ł"
      ],
      [
        "Ġ",
        "!"
      ],
      [
        "Ġà´",
        "Ļ"
      ],
      [
        "Ġà´ªà´²",
        "à´°"
      ],
      [
        "à´µ",
        "à´µ"
      ],
      [
        "à´¤",
        "à´°à´£"
      ],
      [
        "à´¦",
        "à´Ĺ"
      ],
      [
        "Ġà´¡à´¯",
        "à´±à´ķ"
      ],
      [
        "à´¤",
        "à´µà´£"
      ],
      [
        "à´ª",
        "à´²"
      ],
      [
        "à´£",
        "à´°"
      ],
      [
        "à´¿",
        "âĢĭ"
      ],
      [
        "à´²",
        "à´¸"
      ],
      [
        "à´ª",
        "à´¦"
      ],
      [
        "Ġà´ħà´Ł",
        "à´ķ"
      ],
      [
        "Ġà´ħ",
        "à´Łà´Ļ"
      ],
      [
        "à´³",
        "à´¨"
      ],
      [
        "à´°",
        "à´ľ"
      ],
      [
        "Ġà´µ",
        "à´Łà´ķ"
      ],
      [
        "à´İ",
        "à´®"
      ],
      [
        "à´¶",
        "à´ª"
      ],
      [
        "àµģà´Ĥ",
        ":"
      ],
      [
        "à´¦",
        "à´Ļ"
      ],
      [
        "Ġà´ī",
        "à´²"
      ],
      [
        "Ġà´±",
        "à´·"
      ],
      [
        "à´¤",
        "à´ķà´¤"
      ],
      [
        "à´Ĺ",
        "à´°"
      ],
      [
        "Ġ2",
        "1"
      ],
      [
        "à´",
        "ĵ"
      ],
      [
        "à´§",
        "à´ķà´°"
      ],
      [
        "à´µ",
        "à´Ł"
      ],
      [
        "à´£",
        "à´µ"
      ],
      [
        "à´µà´¸",
        "à´¤"
      ],
      [
        "à´ķà´°",
        "à´£à´¤"
      ],
      [
        "à´£",
        "à´ķ"
      ],
      [
        "à´®",
        "àµ¾"
      ],
      [
        "à´®",
        "àµ¼à´¶"
      ],
      [
        "à´¸",
        "à´µ"
      ],
      [
        "Ġà´ķ",
        "à´¯"
      ],
      [
        "àµį",
        ")"
      ],
      [
        "Ġà´Ĵ",
        "à´ķ"
      ],
      [
        "Ġà´Ĩ",
        "àµ¼"
      ],
      [
        "Ġà´ħà´ª",
        "à´ķà´Ł"
      ],
      [
        "à´ľ",
        "à´¯à´ª"
      ],
      [
        "Ġà´ª",
        "à´ļ"
      ],
      [
        "ĠâĢ",
        "ĵ"
      ],
      [
        "Ġà´®à´´",
        "à´¯"
      ],
      [
        "à´°",
        "à´²"
      ],
      [
        "Ġà´¸",
        "à´µ"
      ],
      [
        "Ġà´µ",
        "à´¯"
      ],
      [
        "Ġà´ķ",
        "à´µ"
      ],
      [
        "Ġà´ľ",
        "à´¡"
      ],
      [
        "à´",
        "ī"
      ],
      [
        "à´ĺ",
        "à´¤"
      ],
      [
        "à´¯à´®",
        "à´ª"
      ],
      [
        "Ġ2",
        "2"
      ],
      [
        "à´®",
        "à´£"
      ],
      [
        "à´°",
        "à´ļà´°"
      ],
      [
        "à´´",
        "à´ª"
      ],
      [
        "à´ļ",
        "à´ķà´³"
      ],
      [
        "à´ķ",
        "à´ķà´ª"
      ],
      [
        "à´ª",
        "àµ¼"
      ],
      [
        "Ġà´¸",
        "à´¸"
      ],
      [
        "Ġà´¡",
        "àµ½à´¹"
      ],
      [
        "à´ķ",
        "à´¸à´¨"
      ],
      [
        "Ġ4",
        "0"
      ],
      [
        "à´®",
        "à´®"
      ],
      [
        "à´¿",
        "-"
      ],
      [
        "àµįâĢĮ",
        ")"
      ],
      [
        "à´£",
        "à´Ļ"
      ],
      [
        "à´ħ",
        "à´µà´°"
      ],
      [
        "Ġà´İ",
        "à´ŀ"
      ],
      [
        "Ġ",
        "N"
      ],
      [
        "à´ªà´±",
        "à´¯"
      ],
      [
        "à´®",
        "à´Ļ"
      ],
      [
        "Ġà´Ĩ",
        "à´¹"
      ],
      [
        "..",
        "."
      ],
      [
        "à´¬",
        "à´²"
      ],
      [
        "Ġà´¶",
        "à´¬"
      ],
      [
        "Ġà´Ĳ",
        "à´ķ"
      ],
      [
        "Ġà´ĩ",
        "à´±à´ķ"
      ],
      [
        "à´Ł",
        "à´µ"
      ],
      [
        "à´³",
        "à´¨à´¤"
      ],
      [
        "Ġà´ı",
        "à´°"
      ],
      [
        "à´ħ",
        "à´²"
      ],
      [
        "Ġà´Ĩà´¶",
        "à´Ļ"
      ],
      [
        "Ġ",
        "/"
      ],
      [
        "Ġ",
        "t"
      ],
      [
        "Ġà´ĩ",
        "à´±à´Ļ"
      ],
      [
        "à´ŀ",
        "à´Ļ"
      ],
      [
        "Ġà´¨à´Ĺ",
        "à´°à´¤"
      ],
      [
        "Ġà´ķ",
        "à´±"
      ],
      [
        "à´ĩ",
        "à´¤"
      ],
      [
        "ĠâĢ",
        "¦"
      ],
      [
        "à´Ĥ",
        ")"
      ],
      [
        "à´Ĥ",
        "!"
      ],
      [
        "1",
        "9"
      ],
      [
        "Ġ",
        "R"
      ],
      [
        "àµģ.",
        "\""
      ],
      [
        "à´ķ",
        "à´Ļ"
      ],
      [
        "à´ľ",
        "à´®"
      ],
      [
        "à´¬",
        "àµ¼"
      ],
      [
        "5",
        "0"
      ],
      [
        "a",
        "t"
      ],
      [
        "à´¶",
        "à´¦à´®"
      ],
      [
        "Ġà´İ",
        "à´¯à´°"
      ],
      [
        "Ġà´ī",
        "à´Łàµ»"
      ],
      [
        "à´ĸ",
        "à´²à´ķà´³"
      ],
      [
        "Ġà´Ĳ",
        "à´¸"
      ],
      [
        "àµ»",
        "à´ª"
      ],
      [
        "à´¸à´Ń",
        "à´¯"
      ],
      [
        "Ġ",
        "A"
      ],
      [
        "à´¥",
        "à´²"
      ],
      [
        "âĢĿ",
        "\""
      ],
      [
        "à´¥",
        "à´¤"
      ],
      [
        "Ġà´ĩ",
        "à´Łà´¤"
      ],
      [
        "àµĨ",
        "à´Ĥ"
      ],
      [
        "Ġà´ī",
        "à´®"
      ],
      [
        "Ġ",
        "M"
      ],
      [
        "Ġà´ļ",
        "à´¤"
      ],
      [
        "Ġ",
        "â"
      ],
      [
        ".",
        "\""
      ],
      [
        "à´ļ",
        "à´²"
      ],
      [
        "à´ĸ",
        "à´²"
      ],
      [
        "à´ĩ",
        "à´¨"
      ],
      [
        "à´²",
        "àµ¼"
      ],
      [
        "àµ»",
        "à´ķ"
      ],
      [
        "Ġà´ĩ",
        "à´²à´ķ"
      ],
      [
        "à´ª",
        "à´°à´¯"
      ],
      [
        "Ġà´ħ",
        "à´«"
      ],
      [
        "à´Ĺ",
        "à´¨"
      ],
      [
        "Ġà´Ĵ",
        "à´¤"
      ],
      [
        "à´¾à´Ĥ",
        ","
      ],
      [
        "à´°à´¶",
        "à´¸"
      ],
      [
        "àµĢ",
        "."
      ],
      [
        "à´®",
        "à´µ"
      ],
      [
        "àµį.",
        "\""
      ],
      [
        "Ġà´¤à´Ł",
        "à´¸"
      ],
      [
        "à´¬",
        "à´±"
      ],
      [
        "Ġà´¤",
        "à´°à´¤"
      ],
      [
        "à´¸",
        "à´¸"
      ],
      [
        "Ġà´ķ",
        "à´Łà´²"
      ],
      [
        "Ġà´¸",
        "à´ķà´²"
      ],
      [
        "à´ª",
        "à´Ļ"
      ],
      [
        "à´¿",
        "?"
      ],
      [
        "Ġà´¸",
        "à´¦"
      ],
      [
        "à´µàµ¼",
        "à´£"
      ],
      [
        "Ġ2",
        "3"
      ],
      [
        "Ġà´Ń",
        "à´¯à´ª"
      ],
      [
        "à´ķ",
        "à´¥"
      ],
      [
        "à´İ",
        "àµ½"
      ],
      [
        "à´µ",
        "à´Ļ"
      ],
      [
        "à´¤à´®",
        "à´²"
      ],
      [
        "Ġà´İ",
        "à´ļ"
      ],
      [
        "à´¤",
        "àµ¼"
      ],
      [
        "Ġà´¸",
        "à´Ńà´¯"
      ],
      [
        "Ġà´¨",
        "à´°à´ķ"
      ],
      [
        "Ġà´²",
        "à´³"
      ],
      [
        "Ġ3",
        "7"
      ],
      [
        "Ġà´ķ",
        "à´ķ"
      ],
      [
        "a",
        "r"
      ],
      [
        "à´Ĺ",
        "à´ª"
      ],
      [
        "Ġà´°",
        "à´¹à´¸"
      ],
      [
        "à´£",
        "à´ª"
      ],
      [
        "Ġà´ī",
        "à´Łà´®"
      ],
      [
        "Ġ20",
        "20"
      ],
      [
        "Ġà´ªà´¦",
        "à´µ"
      ],
      [
        "à´¥",
        "à´µ"
      ],
      [
        "Ġà´ļ",
        "à´²à´ļ"
      ],
      [
        "Ġ",
        "S"
      ],
      [
        "à´¤",
        "à´±"
      ],
      [
        "à´¸",
        "à´«"
      ],
      [
        "à´¦",
        "àµ¼à´¶"
      ],
      [
        "àµĪ",
        ":"
      ],
      [
        "e",
        "n"
      ],
      [
        "Ġà´ĩà´µ",
        "àµ¼"
      ],
      [
        "à´¤",
        "à´¸"
      ],
      [
        "Ġà´Ĭ",
        "à´°"
      ],
      [
        "à´µ",
        "à´¤à´¨"
      ],
      [
        "Ġà´ĺ",
        "à´Łà´ķ"
      ],
      [
        "à´°à´®",
        "à´¨"
      ],
      [
        "à´ľ",
        "à´ķ"
      ],
      [
        "à´³",
        "à´µà´¨"
      ],
      [
        "Ġà´¤",
        "à´¤"
      ],
      [
        "à´´",
        "à´¯"
      ],
      [
        "Ġà´ħà´Ł",
        "à´ļ"
      ],
      [
        "à´µà´¸",
        "à´µ"
      ],
      [
        "Ġà´µàµ¼",
        "à´§"
      ],
      [
        "\"\"",
        "\""
      ],
      [
        "àµ¾",
        "à´¡"
      ],
      [
        "Ġ",
        "["
      ],
      [
        "àµĨ",
        ")"
      ],
      [
        "à´µ",
        "à´Ń"
      ],
      [
        "à´¶",
        "à´°"
      ],
      [
        "Ġà´Ĩ",
        "àµ¼à´ķ"
      ],
      [
        "à´¥",
        "à´²à´Ļ"
      ],
      [
        "Ġà´®",
        "à´¸"
      ],
      [
        "àµ¼",
        "à´Ń"
      ],
      [
        "Ġ2",
        "8"
      ],
      [
        "à´ľ",
        "à´¨à´Ļ"
      ],
      [
        "Ġà´ľà´¨",
        "à´±àµ½"
      ],
      [
        "Ġà´ĩ",
        "à´®"
      ],
      [
        "à´±",
        "à´µà´°"
      ],
      [
        "à´·",
        "à´ķà´¨"
      ],
      [
        "Ġà´Ńà´°à´£",
        "à´ĺà´Łà´¨"
      ],
      [
        "e",
        "s"
      ],
      [
        "à´µ",
        "à´ķà´²"
      ],
      [
        "Ġà´®",
        "à´¹à´¤"
      ],
      [
        "Ġà´ľ",
        "à´²"
      ],
      [
        "Ġà´ī",
        "à´°"
      ],
      [
        "Ġà´Ĺ",
        "à´µà´£"
      ],
      [
        "à´¨",
        "à´¦"
      ],
      [
        "à´ª",
        "à´ķà´°"
      ],
      [
        "à´¨à´¤",
        "à´²"
      ],
      [
        "Ġà´ķ",
        "à´Łà´ķ"
      ],
      [
        "à´¯",
        "à´Ł"
      ],
      [
        "Ġà´¤",
        "à´²à´¯"
      ],
      [
        "à´¯à´ķ",
        "à´°à´®"
      ],
      [
        "à´ĸ",
        "à´£"
      ],
      [
        "à´¹",
        "à´µ"
      ],
      [
        "à´ªà´±",
        "à´ŀ"
      ],
      [
        "Ġà´Ń",
        "àµ¼à´¤"
      ],
      [
        "Ġà´ªà´ł",
        "à´¨"
      ],
      [
        "à´·à´£",
        "à´²"
      ],
      [
        "Ġà´¶",
        "à´¤"
      ],
      [
        "Ġà´ħà´Ł",
        "à´¯"
      ],
      [
        "a",
        "m"
      ],
      [
        "à´Ł",
        "à´ķà´¯"
      ],
      [
        "à´¾à´Ĥ",
        "?"
      ],
      [
        "à´¤",
        "à´ķà´¨"
      ],
      [
        "Ġà´İ",
        "à´¯"
      ],
      [
        "à´¯",
        "à´§"
      ],
      [
        "Ġà´ª",
        "à´²à´¤"
      ],
      [
        "Ġà´ª",
        "à´³"
      ],
      [
        "Ġà´İ",
        "à´¡"
      ],
      [
        "à´²à´µ",
        "à´´"
      ],
      [
        "Ġà´ķ",
        "à´ł"
      ],
      [
        "à´°à´ķ",
        "à´Łà´¨"
      ],
      [
        "Ġà´İ",
        "àµ½"
      ],
      [
        "à´ķà´³",
        "à´ŀ"
      ],
      [
        "à´¸",
        "àµ¼"
      ],
      [
        "Ġà´ķ",
        "àµ¼à´£"
      ],
      [
        "Ġà´ĩà´°",
        "à´Ł"
      ],
      [
        "Ġà´İ",
        "à´±à´£"
      ],
      [
        "à´ļ",
        "à´®"
      ],
      [
        "Ġà´Ĵ",
        "à´®"
      ],
      [
        "Ġà´ħ",
        "à´¹à´®"
      ],
      [
        "Ġà´Ĳ",
        "à´ª"
      ],
      [
        "Ġà´ķ",
        "à´·"
      ],
      [
        "Ġà´¸à´®",
        "àµ¼à´ª"
      ],
      [
        "à´ª",
        "à´ķà´®"
      ],
      [
        "Ġà´ħà´µ",
        "à´§"
      ],
      [
        "Ġ",
        "I"
      ],
      [
        "Ġà´ı",
        "à´·"
      ],
      [
        "Ġà´ĵ",
        "à´³"
      ],
      [
        "à´¯",
        "à´¦"
      ],
      [
        "Ġà´±",
        "àµºà´¸"
      ],
      [
        "Ġà´ĩ",
        "àµ»"
      ],
      [
        "Ġà´¸",
        "à´Ń"
      ],
      [
        "Ġà´īà´ª",
        "à´Ń"
      ],
      [
        "Ġà´µàµ¼",
        "à´·"
      ],
      [
        "à´ĺ",
        "à´°"
      ],
      [
        "à´±",
        "àµ»"
      ],
      [
        "à´³",
        "à´°"
      ],
      [
        "Ġà´ĵ",
        "à´¹à´°"
      ],
      [
        "Ġ",
        "C"
      ],
      [
        "à´¡",
        "àµ½à´¹"
      ],
      [
        "Ġà´¬",
        "à´ľà´±"
      ],
      [
        "Ġà´¸",
        "à´ļ"
      ],
      [
        "à´¯à´ķ",
        "àµ»"
      ],
      [
        "à´·à´£",
        "à´®"
      ],
      [
        "Ġà´ħ",
        "à´ķà´²"
      ],
      [
        "Ġ.",
        "."
      ],
      [
        "à´ķà´°",
        "à´£à´®"
      ],
      [
        "à´·à´£",
        "à´µ"
      ],
      [
        "à´ª",
        "à´µ"
      ],
      [
        "àµ¼",
        "à´¬"
      ],
      [
        "à´³",
        "à´Ļ"
      ],
      [
        "Ġ",
        "b"
      ],
      [
        ")",
        "."
      ],
      [
        "à´¡",
        "à´²à´¤"
      ],
      [
        "Ġ6",
        "0"
      ],
      [
        "Ġà´Ĩ",
        "àµ»à´¡"
      ],
      [
        "à´ļ",
        "à´¸"
      ],
      [
        "Ġà´¸à´®",
        "à´¯à´®"
      ],
      [
        "à´¤",
        "à´£"
      ],
      [
        "Ġà´µ",
        "àµ»"
      ],
      [
        "à´®",
        "àµ»"
      ],
      [
        "à´",
        "Ī"
      ],
      [
        "à´¹",
        "à´¨à´¤"
      ],
      [
        "Ġà´°",
        "à´ŀ"
      ],
      [
        "à´¤",
        "à´²à´¤"
      ],
      [
        "à´¯",
        "à´¶"
      ],
      [
        "à´µ",
        "àµ½"
      ],
      [
        "à´¡",
        "à´²à´Ļ"
      ],
      [
        "Ġà´ħ",
        "à´°à´Ļ"
      ],
      [
        "à´¯à´®à´¸à´Ń",
        "à´¯"
      ],
      [
        "Ġà´Ĺ",
        "à´µà´°"
      ],
      [
        "àµį",
        "'"
      ],
      [
        "à´ļ",
        "à´µ"
      ],
      [
        "àµ¼",
        "à´£à´®"
      ],
      [
        "à´ªà´£",
        "à´Ļ"
      ],
      [
        "Ġà´¤à´Ł",
        "à´µ"
      ],
      [
        "Ġà´ħ",
        "à´¥à´µ"
      ],
      [
        "Ġà´ĩ",
        "à´ŀ"
      ],
      [
        "Ġà´ľà´¨à´¤",
        "à´¯"
      ],
      [
        "à´Ĵ",
        "à´°"
      ],
      [
        "Ġà´ħ",
        "à´³à´µ"
      ],
      [
        "à´ķà´¯",
        "à´±"
      ],
      [
        "Ġà´®",
        "à´®"
      ],
      [
        "àµģ",
        "!"
      ],
      [
        "Ġà´ĩ",
        "àµ»à´¸"
      ],
      [
        "Ġ2",
        "6"
      ],
      [
        "Ġ2",
        "7"
      ],
      [
        "Ġ5",
        "00"
      ],
      [
        "à´¬",
        "à´Ļ"
      ],
      [
        "Ġà´ħà´µ",
        "à´¸à´°"
      ],
      [
        "Ġà´¤",
        "à´£"
      ],
      [
        "Ġà´İ",
        "à´®"
      ],
      [
        "à´³",
        "à´±"
      ],
      [
        "Ġà´¶",
        "à´®"
      ],
      [
        "à´Ńà´µ",
        "à´®"
      ],
      [
        "à´°à´¤",
        "à´¯"
      ],
      [
        "àµ¼",
        "à´¶à´¨"
      ],
      [
        "Ġ3",
        "2"
      ],
      [
        "à´ļ",
        "à´¨à´¯"
      ],
      [
        "Ġ3",
        "5"
      ],
      [
        "Ġà´ĵ",
        "à´£"
      ],
      [
        "Ġà´Ĩ",
        "à´²à´ª"
      ],
      [
        "à´·",
        "à´¯à´Ļ"
      ],
      [
        "àµįâĢį",
        "?"
      ],
      [
        "Ġà´µàµ¼",
        "à´¦"
      ],
      [
        "àµģ",
        "à´ĥ"
      ],
      [
        "à´Ĺ",
        "à´±"
      ],
      [
        "Ġà´§",
        "à´¨"
      ],
      [
        "Ġà´¤à´Ł",
        "à´ŀ"
      ],
      [
        "à´¾",
        "âĢĭ"
      ],
      [
        "Ġ3",
        "1"
      ],
      [
        "à´·à´£",
        "àµ½"
      ],
      [
        "à´²",
        "à´¯à´¤"
      ],
      [
        "Ġ201",
        "9"
      ],
      [
        "Ġà´µà´§",
        "à´¶"
      ],
      [
        "Ġà´ħà´¨",
        "à´¨"
      ],
      [
        "Ġà´µ",
        "à´Ł"
      ],
      [
        "à´¾",
        "âĢį"
      ],
      [
        "a",
        "d"
      ],
      [
        "à´¶",
        "à´¨à´¤"
      ],
      [
        "à´µà´¨",
        "à´¯"
      ],
      [
        "Ġà´¶",
        "à´¶"
      ],
      [
        "àµįâĢį",
        "-"
      ],
      [
        "à´¸",
        "à´ª"
      ],
      [
        "à´µ",
        "à´³à´¤"
      ],
      [
        "Ġà´īà´ª",
        "à´°"
      ],
      [
        "Ġà´¶",
        "à´¬à´°"
      ],
      [
        "à´µà´¸",
        "à´®"
      ],
      [
        "Ġà´ª",
        "à´²à´ª"
      ],
      [
        "àµ¼",
        "à´¸"
      ],
      [
        "à´¯",
        "à´£à´®"
      ],
      [
        "Ġà´«",
        "à´²à´®"
      ],
      [
        "à´ķà´°",
        "à´µ"
      ],
      [
        "à´¹",
        "àµ»"
      ],
      [
        "âĢ¦",
        "."
      ],
      [
        "à´¨",
        "à´¡"
      ],
      [
        "à´ľ",
        "à´¯à´®"
      ],
      [
        "à´°",
        "à´°"
      ],
      [
        "à´ķà´°",
        "à´°"
      ],
      [
        "3",
        "0"
      ],
      [
        "à´İ",
        "àµ»"
      ],
      [
        "à´Ĳ",
        "à´¯"
      ],
      [
        "Ġà´µ",
        "à´ķà´¯"
      ],
      [
        "Ġà´ħà´¤",
        "à´²"
      ],
      [
        "Ġà´®",
        "à´®à´¤"
      ],
      [
        "Ġà´ħ",
        "à´°à´µ"
      ],
      [
        "Ġà´ı",
        "àµ¼à´ª"
      ],
      [
        "Ġà´ħ",
        "à´ķà´¤"
      ],
      [
        "àµ½",
        "à´¸"
      ],
      [
        "Ġà´¸à´¹",
        "à´ķà´°à´£"
      ],
      [
        "Ġà´§",
        "à´¨à´®à´¨"
      ],
      [
        "à´¿",
        "âĢĮ"
      ],
      [
        "à´¯à´ķ",
        "à´®"
      ],
      [
        "Ġà´Ĺ",
        "à´£"
      ],
      [
        "à´´",
        "à´¤"
      ],
      [
        "à´ĸ",
        "à´ķà´³"
      ],
      [
        "à´ľ",
        "à´¯à´¤"
      ],
      [
        "àµįâĢį",
        "!"
      ],
      [
        "àµįâĢ",
        "¦"
      ],
      [
        "Ġ19",
        "9"
      ],
      [
        "à´¡",
        "à´±"
      ],
      [
        "à´°à´£",
        "à´µ"
      ],
      [
        "à´°à´¦",
        "à´®"
      ],
      [
        "Ġà´µ",
        "à´£"
      ],
      [
        "Ġà´ķ",
        "à´¥à´¯"
      ],
      [
        "Ġà´ħà´µ",
        "à´¶"
      ],
      [
        "Ġà´Ńà´°à´£",
        "à´ķ"
      ],
      [
        "à´§",
        "à´¨à´µ"
      ],
      [
        "Ġà´µàµ¼",
        "à´·à´¤"
      ],
      [
        "à´Ńà´µ",
        "à´µ"
      ],
      [
        "Ġà´¦",
        "à´°"
      ],
      [
        "à´¤à´ķ",
        "à´Ļ"
      ],
      [
        "Ġà´¸",
        "à´¬"
      ],
      [
        "Ġà´¹",
        "àµ¼à´ľ"
      ],
      [
        "Ġà´®",
        "à´²à´ª"
      ],
      [
        "àµĤ",
        ","
      ],
      [
        "Ġà´«",
        "à´¯à´²"
      ],
      [
        "Ġà´°",
        "à´¸"
      ],
      [
        "Ġ7",
        "0"
      ],
      [
        "à´¸",
        "àµ½"
      ],
      [
        "à´¤",
        "à´¨à´¤"
      ],
      [
        "à´ª",
        "à´¨à´¤"
      ],
      [
        "Ġà´¨à´Ĺ",
        "à´°"
      ],
      [
        "Ġà´ľà´¨",
        "à´¸"
      ],
      [
        "Ġà´Ĺ",
        "à´°"
      ],
      [
        "-",
        "à´¾à´Ĥ"
      ],
      [
        "Ġ",
        "0"
      ],
      [
        "Ġà´µ",
        "à´¯à´¨"
      ],
      [
        "à´®",
        "à´ª"
      ],
      [
        "Ġà´İ",
        "à´¬"
      ],
      [
        "Ġ",
        "|"
      ],
      [
        "à´¯",
        "à´ľ"
      ],
      [
        "Ġà´Ĩ",
        "à´¨à´¨"
      ],
      [
        "à´¹",
        "à´°à´®"
      ],
      [
        "à´İ",
        "à´¯"
      ],
      [
        "à´Ĺ",
        "à´²"
      ],
      [
        "à´µà´¨",
        "à´Ļ"
      ],
      [
        "Ġà´Ĩ",
        "à´Ł"
      ],
      [
        "Ġ2",
        "9"
      ],
      [
        "Ġ8",
        "0"
      ],
      [
        "Ġà´īà´¯",
        "àµ¼à´¤"
      ],
      [
        "à´®",
        "à´±à´¯"
      ],
      [
        "à´ĸ",
        "à´®"
      ],
      [
        "Ġ",
        "P"
      ],
      [
        "à´ļ",
        "à´ķà´¨"
      ],
      [
        "Ġà´®",
        "à´Ł"
      ],
      [
        "Ġà´ľ",
        "à´µ"
      ],
      [
        "à´¡",
        "à´°"
      ],
      [
        "Ġà´ı",
        "à´ľà´¨"
      ],
      [
        "Ġà´²",
        "à´£"
      ],
      [
        "Ī",
        "Ļ"
      ],
      [
        "i",
        "c"
      ],
      [
        "à´ª",
        "à´ķà´¨"
      ],
      [
        "à´°à´¹",
        "à´Ļ"
      ],
      [
        "Ġà´ī",
        "à´±à´Ļ"
      ],
      [
        "Ġà´ª",
        "à´µ"
      ],
      [
        "à´Ń",
        "à´ķ"
      ],
      [
        "i",
        "on"
      ],
      [
        "à´®à´¤",
        "à´²à´¯"
      ],
      [
        "i",
        "t"
      ],
      [
        "à´¦",
        "à´¯à´¤"
      ],
      [
        "à´¸",
        "à´ķ"
      ],
      [
        "àµĩà´¾",
        "?"
      ],
      [
        "Ġà´ļ",
        "à´Ł"
      ],
      [
        "à´°",
        "à´ķà´³"
      ],
      [
        "Ġà´«",
        "à´£"
      ],
      [
        "Ġà´ī",
        "à´±à´ķ"
      ],
      [
        "Ġ15",
        "0"
      ],
      [
        "à´¶",
        "à´¯à´®"
      ],
      [
        "à´²",
        "à´Ń"
      ],
      [
        "Ġà´Ńà´°à´£",
        "à´ĺà´Łà´¨à´¯"
      ],
      [
        "Ġà´Ĩ",
        "à´µà´°"
      ],
      [
        "Ġ:",
        "âģł"
      ],
      [
        "à´¤",
        "à´£à´®"
      ],
      [
        "à´«",
        "à´²à´®"
      ],
      [
        "à´ľ",
        "à´²"
      ],
      [
        "à´¨",
        "àµ½"
      ],
      [
        "Ġà´¦",
        "à´®"
      ],
      [
        "àµº",
        "à´²"
      ],
      [
        "à´°à´£",
        "à´ķ"
      ],
      [
        "à´Ł",
        "àµ½"
      ],
      [
        "Ġà´¦",
        "à´¶"
      ],
      [
        "Ġà´ı",
        "à´²"
      ],
      [
        "à´°à´ķ",
        "à´Łà´®"
      ],
      [
        "s",
        "t"
      ],
      [
        "à´µà´°",
        "à´®à´±"
      ],
      [
        "àµį.",
        "."
      ],
      [
        "Ġ",
        "Â"
      ],
      [
        "Ġ-",
        "âĢį"
      ],
      [
        "à´²",
        "à´¬"
      ],
      [
        "à´İ",
        "à´ļ"
      ],
      [
        "àµįâĢ",
        "Ļ"
      ],
      [
        "Ġà´¤à´µà´£",
        "à´¯"
      ],
      [
        "Ġ3",
        "00"
      ],
      [
        "à´Ł",
        "à´£à´®"
      ],
      [
        "àµį.",
        ".."
      ],
      [
        "Ġà´±",
        "à´¹"
      ],
      [
        "Ġà´¸à´®",
        "à´¨"
      ],
      [
        "Ġà´®à´°à´£",
        "à´ª"
      ],
      [
        "à´Ńà´µ",
        "à´ª"
      ],
      [
        "àµģ",
        "âĢĭ"
      ],
      [
        "Ġà´īà´ª",
        "à´®"
      ],
      [
        "à´ŀ",
        "à´¨"
      ],
      [
        "à´ķ",
        "à´ķà´³"
      ],
      [
        "Ġà´ľ",
        "à´ª"
      ],
      [
        "Ġà´¶",
        "à´Ļ"
      ],
      [
        "à´°",
        "à´¬"
      ],
      [
        "à´Ĩ",
        "àµ¼"
      ],
      [
        "Ġà´®à´±",
        "à´ķ"
      ],
      [
        "Ġà´ĩà´µ",
        "àµ¼à´ķ"
      ],
      [
        "à´°à´¦",
        "à´°"
      ],
      [
        "Ġà´Ĩà´¦",
        "à´°"
      ],
      [
        "Ġà´ªà´´",
        "à´¯"
      ],
      [
        "àµĩ",
        "à´Ĥ"
      ],
      [
        "à´¦",
        "à´¨à´¯"
      ],
      [
        "Ġà´¨à´Ł",
        "àµ»"
      ],
      [
        "à´·à´¤",
        "à´¯"
      ],
      [
        "à´¤",
        "à´³"
      ],
      [
        "Ġà´ī",
        "à´ªà´¤"
      ],
      [
        "à´¤à´°à´®",
        "à´¨"
      ],
      [
        "Ġà´¤à´ķ",
        "àµ¼à´¨"
      ],
      [
        "à´ķà´¤",
        "à´¯"
      ],
      [
        "àµ½",
        "à´¤"
      ],
      [
        "à´¾âĢį",
        "à´Ĥ"
      ],
      [
        "à´´",
        "à´²"
      ],
      [
        "Ġà´Ī",
        "à´¸"
      ],
      [
        "Ġà´¨à´Ĺ",
        "à´°à´Ļ"
      ],
      [
        "à´ķà´¸",
        "à´¨à´¤"
      ],
      [
        "à´Ń",
        "à´µà´¸"
      ],
      [
        "Ġà´ĩ",
        "à´³à´ķ"
      ],
      [
        "à´Ł",
        "à´¨à´¤"
      ],
      [
        "à´§",
        "à´°à´¨"
      ],
      [
        "à´³",
        "à´µàµ¼"
      ],
      [
        "à´ª",
        "à´¨à´¯"
      ],
      [
        "Ġà´ħ",
        "àµ¼à´¥"
      ],
      [
        "Ġà´ĵ",
        "à´ķ"
      ],
      [
        "Ġ-âĢį",
        "à´¾âĢįà´Ĥ"
      ],
      [
        "à´Ł",
        "à´µà´¨"
      ],
      [
        "Ġà´µ",
        "à´ŀ"
      ],
      [
        "àµ»",
        "à´®"
      ],
      [
        "Ġà´ĵ",
        "à´µà´±"
      ],
      [
        "à´®",
        "à´ļà´¨"
      ],
      [
        "à´¤",
        "à´Ł"
      ],
      [
        "àµ¼",
        "à´²à´®"
      ],
      [
        "Ġà´ķà´³",
        "à´ķ"
      ],
      [
        "à´ĺà´Łà´¨",
        "à´ķà´³"
      ],
      [
        "à´¯",
        "à´µà´¯"
      ],
      [
        "à´ª",
        "à´¨à´®"
      ],
      [
        "à´¶",
        "à´²"
      ],
      [
        "Ġà´ĩ",
        "à´¬"
      ],
      [
        "u",
        "e"
      ],
      [
        "à´¸",
        "à´¹"
      ],
      [
        "Ġà´®",
        "à´Łà´ķ"
      ],
      [
        "Ġ201",
        "8"
      ],
      [
        "à´ħ",
        "à´¨"
      ],
      [
        "Ġ",
        "T"
      ],
      [
        "Ġà´ħà´ª",
        "à´®"
      ],
      [
        "à´¨à´µ",
        "àµ¼à´ķ"
      ],
      [
        "àµ¼",
        "à´ĺ"
      ],
      [
        "à´Ĺ",
        "à´¬"
      ],
      [
        "Ġà´ķà´®",
        "à´²"
      ],
      [
        "Ġà´ħà´µà´°",
        "à´¤"
      ],
      [
        "à´Ń",
        "à´¤"
      ],
      [
        "à´Ń",
        "à´°à´£"
      ],
      [
        "Ġà´ħ",
        "à´ĸ"
      ],
      [
        "à´Ĩ",
        "à´¨"
      ],
      [
        "Ġà´İ",
        "à´¯àµ¼"
      ],
      [
        "Ġà´ī",
        "à´±"
      ],
      [
        "à´§",
        "à´ķà´®"
      ],
      [
        "Ġ",
        "%"
      ],
      [
        "o",
        "m"
      ],
      [
        "à´¿",
        "!"
      ],
      [
        "à´§",
        "à´¨à´Ļ"
      ],
      [
        "Ġ20",
        "2"
      ],
      [
        "Ġà´¨à´®",
        "à´¸"
      ],
      [
        "1",
        "0"
      ],
      [
        "à´ĸ",
        "à´¨"
      ],
      [
        "à´ķà´°à´£",
        "à´µ"
      ],
      [
        "à´±",
        "àµ¼à´¨"
      ],
      [
        "à´Ł",
        "àµ¼à´®"
      ],
      [
        "Ġà´¤",
        "à´²à´®"
      ],
      [
        "à´¯",
        "à´Ń"
      ],
      [
        "Ġà´īà´ª",
        "à´ķà´°à´£à´Ļ"
      ],
      [
        "à´²",
        "à´ĺà´Ł"
      ],
      [
        "à´¯",
        "à´ķà´³"
      ],
      [
        "àµ¾",
        "à´Ł"
      ],
      [
        "àµĤ",
        "à´Ĥ"
      ],
      [
        "Ġà´ħ",
        "à´¯à´ķ"
      ],
      [
        "à´µà´°",
        "à´µ"
      ],
      [
        "Ġà´®",
        "à´ľ"
      ],
      [
        "Ġà´¤",
        "à´¦"
      ],
      [
        "âĢĮ",
        "àµį"
      ],
      [
        "à´ĸ",
        "à´Ļ"
      ],
      [
        "à´¤",
        "à´ķàµ¾"
      ],
      [
        "à´±",
        "àµ»à´¸"
      ],
      [
        "Ġ",
        "G"
      ],
      [
        "à´°à´¤",
        "à´®"
      ],
      [
        "Ġà´ļ",
        "à´ķ"
      ],
      [
        "à´ª",
        "à´ª"
      ],
      [
        "à´ķà´°",
        "à´¨"
      ],
      [
        "à´¤",
        "à´¶"
      ],
      [
        "à´¨",
        "à´¬"
      ],
      [
        "à´Ĺ",
        "à´¡"
      ],
      [
        "à´®à´¤",
        "à´²"
      ],
      [
        "àµ½",
        "à´®"
      ],
      [
        "à´ķ",
        "à´¥à´¯"
      ],
      [
        "à´Ĳ",
        "à´İ"
      ],
      [
        "Ġ4",
        "5"
      ],
      [
        "à´ķ",
        "à´¶"
      ],
      [
        "Ġà´ĩ",
        "à´µà´¨"
      ],
      [
        "h",
        "p"
      ],
      [
        "à´¦",
        "à´ª"
      ],
      [
        "à´¾",
        "?"
      ],
      [
        "à´¤",
        "à´°à´ķ"
      ],
      [
        "à´¯à´®",
        "à´µ"
      ],
      [
        "Ġà´¤à´²",
        "à´¸"
      ],
      [
        "Ġ",
        "m"
      ],
      [
        "à´³",
        "à´²"
      ],
      [
        "à´ª",
        "à´¸"
      ],
      [
        "ĠR",
        "e"
      ],
      [
        "à´ħ",
        "à´¦"
      ],
      [
        "à´²à´¯",
        "à´³à´µ"
      ],
      [
        "Ġà´¸àµ¼à´µ",
        "à´ķà´²"
      ],
      [
        "Ġb",
        "hp"
      ],
      [
        "à´ĸ",
        "à´¯"
      ],
      [
        "Ġà´ī",
        "à´±à´ļ"
      ],
      [
        "àµ¾",
        "à´¸"
      ],
      [
        "Ġà´Ĩà´µ",
        "àµ¼à´¤"
      ],
      [
        "Ġ3",
        "3"
      ],
      [
        "Ġà´¤",
        "à´²à´¤"
      ],
      [
        "Ġà´§",
        "à´¨à´ķ"
      ],
      [
        "à´°",
        "à´·"
      ],
      [
        "Ġà´¸à´¹",
        "à´ķà´°"
      ],
      [
        "à´ķ",
        "à´Łà´¤"
      ],
      [
        "Ġà´ľà´¨",
        "à´ª"
      ],
      [
        "Ġ3",
        "6"
      ],
      [
        "Ġà´¨",
        "à´ķ"
      ],
      [
        "Ġ4",
        "8"
      ],
      [
        "à´®",
        "à´§"
      ],
      [
        "Ġà´®à´±",
        "à´¨"
      ],
      [
        "à´£",
        "à´ļ"
      ],
      [
        "Ġà´®",
        "à´ķàµ»"
      ],
      [
        "à´¨",
        "à´µà´¯"
      ],
      [
        "à´µà´¶",
        "à´¤"
      ],
      [
        "r",
        "e"
      ],
      [
        "à´¹",
        "à´°à´£à´¤"
      ],
      [
        "à´¸",
        "à´ķà´³"
      ],
      [
        "Ġà´«",
        "à´²à´ª"
      ],
      [
        "à´ķ",
        "à´ľ"
      ],
      [
        "à´Ĺà´£",
        "à´¨"
      ],
      [
        "à´°",
        "à´±"
      ],
      [
        "à´Ĥ",
        "-"
      ],
      [
        "à´±",
        "à´ªà´¤"
      ],
      [
        "à´ª",
        "à´¬"
      ],
      [
        "à´®",
        "àµ¼"
      ],
      [
        "à´¨",
        "à´¶"
      ],
      [
        "à´¯à´¸",
        "à´Ń"
      ],
      [
        "à´µ",
        "à´¨à´¤"
      ],
      [
        "à´ľ",
        "àµ»"
      ],
      [
        "à´¸",
        "à´ŀ"
      ],
      [
        "à´µ",
        "à´ľ"
      ],
      [
        "Ġà´İ",
        "à´±"
      ],
      [
        "à´ŀ",
        "à´ª"
      ],
      [
        "Ġà´ĵ",
        "àµ¼à´®"
      ],
      [
        "Ġ37",
        "0"
      ],
      [
        "à´¶",
        "à´¨à´®"
      ],
      [
        "Ġà´µ",
        "à´²à´¤"
      ],
      [
        "Ġ9",
        "0"
      ],
      [
        "Ġà´ĩ",
        "à´°à´¯"
      ],
      [
        "q",
        "ue"
      ],
      [
        "à´¯à´¸",
        "à´¨"
      ],
      [
        "Ġà´®à´°à´£",
        "à´®"
      ],
      [
        "Ġà´¦",
        "à´¯"
      ],
      [
        "àµģà´Ĥ",
        "!"
      ],
      [
        "Ġ",
        ")"
      ],
      [
        "Ġ",
        "X"
      ],
      [
        "Ġà´¬",
        "à´ļ"
      ],
      [
        "Ġà´¨à´°à´ķ",
        "à´¤"
      ],
      [
        "Ġà´ª",
        "à´²à´¯"
      ],
      [
        "Ġà´ī",
        "àµ¾à´ķ"
      ],
      [
        "àµ¼à´µ",
        "à´¹"
      ],
      [
        "à´Łà´ķ",
        "à´¤"
      ],
      [
        "à´¦",
        "à´²"
      ],
      [
        "âĢĭâĢĭ",
        "âĢĭ"
      ],
      [
        "à´Ł",
        "à´Ł"
      ],
      [
        "à´ķ",
        "à´Łà´ķ"
      ],
      [
        "à´¨",
        "à´£"
      ],
      [
        "à´µàµ¼",
        "à´Ĺ"
      ],
      [
        "à´¶à´¨",
        "à´·"
      ],
      [
        "à´¨à´µ",
        "àµ¼"
      ],
      [
        "àµ¼",
        "à´¬à´¨"
      ],
      [
        "à´°à´¹",
        "à´®"
      ],
      [
        "àµĭ",
        ":"
      ],
      [
        "Ġà´¦à´¶",
        "à´²à´ķ"
      ],
      [
        "à´¯à´µ",
        "àµ¼"
      ],
      [
        "à´",
        "ı"
      ],
      [
        "Ġ19",
        "8"
      ],
      [
        "à´ļ",
        "à´¯à´®"
      ],
      [
        "à´Ł",
        "à´ļ"
      ],
      [
        "ĠN",
        "m"
      ],
      [
        "à´¯à´¸",
        "à´Ńà´¯"
      ],
      [
        "Ġà´Ĵ",
        "à´¬"
      ],
      [
        "Ġ3",
        "4"
      ],
      [
        "Ġà´ĺà´Łà´ķ",
        "à´Ļ"
      ],
      [
        "à´ħ",
        "à´µà´¨"
      ],
      [
        "l",
        "e"
      ],
      [
        "à´µà´°",
        "à´£"
      ],
      [
        "h",
        "e"
      ],
      [
        "Ġà´µà´ļ",
        "à´¨à´Ļ"
      ],
      [
        "Ġà´ķ",
        "à´°à´¯"
      ],
      [
        "Ġt",
        "or"
      ],
      [
        "Ġà´Ĩ",
        "à´«"
      ],
      [
        "à´ľà´¯",
        "àµ»"
      ],
      [
        "à´¤",
        "àµ»"
      ],
      [
        "à´¡",
        "à´ķ"
      ],
      [
        "Ġà´ķ",
        "àµº"
      ],
      [
        "à´¤",
        "à´µà´¨"
      ],
      [
        "à´°à´¸",
        "à´°"
      ],
      [
        "Ġà´ħ",
        "àµ¼"
      ],
      [
        "Ġà´Ĩ",
        "à´®"
      ],
      [
        "Ġà´Ĭ",
        "àµ¼à´ľ"
      ],
      [
        "à´®",
        "àµ¼à´¦"
      ],
      [
        "Ġtor",
        "que"
      ],
      [
        "Ġâ",
        "ĪĻ"
      ],
      [
        "Ġà´¦",
        "à´²"
      ],
      [
        "à´¤",
        "àµ¼à´ª"
      ],
      [
        "Ġà´°",
        "à´ľà´¨"
      ],
      [
        "Ġà´ª",
        "à´Łà´°"
      ],
      [
        "Ġ",
        "c"
      ],
      [
        "àµģ",
        "-"
      ],
      [
        "à´¯à´ķ",
        "à´ķ"
      ],
      [
        "Ġà´Ľ",
        "à´¤"
      ],
      [
        "Ġà´ª",
        "à´£à´®"
      ],
      [
        "Ġà´ħà´µà´¸",
        "à´°à´Ļ"
      ],
      [
        "Ġà´·",
        "à´®"
      ],
      [
        "Ġà´µ",
        "à´°à´µ"
      ],
      [
        "Ġà´®",
        "à´¤à´¤"
      ],
      [
        "Ġà´ľà´¨",
        "à´µ"
      ],
      [
        "à´¹",
        "à´²"
      ],
      [
        "à´¯",
        "àµ¼à´®"
      ],
      [
        "à´Ľ",
        "àµ»"
      ],
      [
        "Ġà´ķ",
        "à´°à´¸"
      ],
      [
        "Ġ201",
        "4"
      ],
      [
        "à´·",
        "à´¯à´®"
      ],
      [
        "Ġ201",
        "7"
      ],
      [
        "Ġ",
        "B"
      ],
      [
        "Ġ",
        "s"
      ],
      [
        "Ġà´ķà´³",
        "à´¯"
      ],
      [
        "à´°à´µ",
        "à´ļ"
      ],
      [
        "Ġà´Ń",
        "à´¯"
      ],
      [
        "à´°à´®",
        "à´®"
      ],
      [
        "Ġà´Ń",
        "à´µà´¨"
      ],
      [
        "Ġà´ħà´µ",
        "à´Ĺà´£"
      ],
      [
        "à´¦",
        "à´°à´Ļ"
      ],
      [
        "Ġ.",
        ".."
      ],
      [
        "Ġà´µà´³",
        "àµ¼à´ļ"
      ],
      [
        "i",
        "s"
      ],
      [
        "Ġà´¶",
        "àµ¼à´®"
      ],
      [
        "à´Ĺ",
        "à´ķ"
      ],
      [
        "àµį",
        "àµį"
      ],
      [
        "à´¤",
        "à´ķà´®"
      ],
      [
        "à´µ",
        "àµ¼à´¤"
      ],
      [
        "Ġ6",
        "4"
      ],
      [
        "Ġà´µàµ¼",
        "à´·à´Ļ"
      ],
      [
        "Ġà´ī",
        "àµ½à´ª"
      ],
      [
        "à´®",
        "à´²à´¯"
      ],
      [
        "à´¹",
        "à´¯"
      ],
      [
        "Ġà´ķ",
        "à´Łà´¤"
      ],
      [
        "à´ŀ",
        "à´¯"
      ],
      [
        "Ġà´Ī",
        "à´Ł"
      ],
      [
        "Ġà´ı",
        "à´ª"
      ],
      [
        "à´¥",
        "à´Ļ"
      ],
      [
        "Ġà´¹",
        "à´¸"
      ],
      [
        "Ġà´±",
        "à´¸"
      ],
      [
        "à´¨",
        "à´ªà´ķ"
      ],
      [
        "Ġ19",
        "7"
      ],
      [
        "Ġà´µà´³",
        "àµ¼à´¤"
      ],
      [
        "à´¡",
        "à´¯"
      ],
      [
        "âĢ",
        "ĺ"
      ],
      [
        "à´²",
        "à´µà´°"
      ],
      [
        "'",
        "."
      ],
      [
        "Ġà´ķ",
        "à´Łà´ª"
      ],
      [
        "à´Ł",
        "àµ¼à´ļ"
      ],
      [
        "àµĨ",
        "!"
      ],
      [
        "à´²",
        "àµ»à´¡"
      ],
      [
        "Ġà´ľ",
        "à´¯à´°"
      ],
      [
        "à´ľ",
        "àµ»à´¸"
      ],
      [
        "à´¸",
        "àµº"
      ],
      [
        "Ġ7",
        "5"
      ],
      [
        "àµ½",
        "à´¡"
      ],
      [
        "Ġà´«",
        "à´¸"
      ],
      [
        "à´¶",
        "à´®à´¨"
      ],
      [
        "Ġà´¶",
        "à´¸"
      ],
      [
        "à´²à´¯",
        "à´Ļ"
      ],
      [
        "Ġà´°",
        "à´¹"
      ],
      [
        "Ġà´Ķ",
        "à´Ł"
      ],
      [
        "Ġà´ħà´Ń",
        "à´¯"
      ],
      [
        "à´Ĳ",
        "à´¸"
      ],
      [
        "à´´",
        "à´ļ"
      ],
      [
        "Ġà´¸",
        "àµ¼"
      ],
      [
        "à´ķ",
        "à´Łà´¨"
      ],
      [
        "Ġà´¹à´°",
        "à´ľ"
      ],
      [
        "Ġà´ķ",
        "à´ļ"
      ],
      [
        "à´¶",
        "à´Ń"
      ],
      [
        "Ġà´ªà´°",
        "à´²"
      ],
      [
        "Ġ25",
        "0"
      ],
      [
        "à´¤",
        "à´ļ"
      ],
      [
        "Ġ4",
        "00"
      ],
      [
        "à´¥",
        "à´²à´®"
      ],
      [
        "à´¨à´®",
        "à´²"
      ],
      [
        "âĢ",
        "ľ"
      ],
      [
        "Ġà´Ĩ",
        "àµ¼à´Ł"
      ],
      [
        "à´°",
        "à´¹à´¤"
      ],
      [
        "à´¯",
        "à´µà´¨"
      ],
      [
        "âĢ",
        "ĵ"
      ],
      [
        "Ġà´ľ",
        "à´²à´¨"
      ],
      [
        "Ġà´¤",
        "àµ¼à´ķ"
      ],
      [
        "àµ»",
        "à´µà´²"
      ],
      [
        "Ġà´Ĳ",
        "à´«"
      ],
      [
        "àµģ",
        ")"
      ],
      [
        "Ġà´®",
        "à´²à´ķ"
      ],
      [
        "à´´",
        "à´Łà´Ļ"
      ],
      [
        "à´°à´ª",
        "à´°à´®"
      ],
      [
        "à´Ń",
        "à´ľ"
      ],
      [
        "Ġ",
        "F"
      ],
      [
        "Ġà´ħ",
        "à´ľà´¯"
      ],
      [
        "Ġ",
        "n"
      ],
      [
        "Ġà´Ĩ",
        "à´ŀ"
      ],
      [
        "1",
        "8"
      ],
      [
        "Ġà´Ĵ",
        "à´¡"
      ],
      [
        "à´³",
        "à´³à´¤"
      ],
      [
        "Ġà´ªà´ł",
        "à´¨à´¤"
      ],
      [
        "Ġà´µ",
        "à´¯à´±"
      ],
      [
        "Ġà´ħà´µ",
        "àµ¾à´ķ"
      ],
      [
        "àµĩ,",
        ")"
      ],
      [
        "Ġà´ħà´µ",
        "à´²"
      ],
      [
        "Ġà´µà´´",
        "à´Ļ"
      ],
      [
        "à´Ł",
        "à´£à´¤"
      ],
      [
        "à´¯à´ª",
        "à´°"
      ],
      [
        "Ġà´«",
        "à´²à´Ļ"
      ],
      [
        "Ġà´®",
        "à´¯à´ķ"
      ],
      [
        "Ġà´°",
        "à´¤"
      ],
      [
        "Ġà´¶",
        "à´²"
      ],
      [
        "Ġà´¸à´®",
        "à´°à´¤"
      ],
      [
        "Ġ",
        "V"
      ],
      [
        "à´ķ",
        "à´¬"
      ],
      [
        "à´¯àµ»",
        "à´¸"
      ],
      [
        "Ġà´İàµ»",
        "à´ľ"
      ],
      [
        "Ġà´ī",
        "à´±à´µ"
      ],
      [
        "à´°à´µ",
        "à´®"
      ],
      [
        "Ġà´ļ",
        "à´²"
      ],
      [
        "Ġà´¡",
        "à´¬"
      ],
      [
        "Ġà´Ĩ",
        "à´ļ"
      ],
      [
        "Ġà´¨",
        "à´¯à´¤"
      ],
      [
        "à´Ĺà´®",
        "à´¨"
      ],
      [
        "Ġà´ĩ",
        "àµ»à´¡"
      ],
      [
        "à´¶",
        "à´¨à´µ"
      ],
      [
        "àµĩ",
        "!"
      ],
      [
        "à´²",
        "à´ķà´¨"
      ],
      [
        "à´¿",
        "âĢĻ"
      ],
      [
        "ĠRe",
        "ad"
      ],
      [
        "à´¤",
        "à´µà´¤"
      ],
      [
        "à´ļ",
        "àµ¼"
      ],
      [
        "Ġà´ª",
        "à´ķà´²"
      ],
      [
        "à´´",
        "à´ŀ"
      ],
      [
        "Ġà´ħà´ªà´ķ",
        "à´Łà´ķ"
      ],
      [
        "al",
        "a"
      ],
      [
        "Ġà´¹",
        "à´¨"
      ],
      [
        "Ġà´Ĺ",
        "à´µàµ¼à´£"
      ],
      [
        "1",
        "5"
      ],
      [
        "Ġ",
        "p"
      ],
      [
        "à´£",
        "àµ»"
      ],
      [
        "à´±",
        "à´Ĺ"
      ],
      [
        "1",
        "2"
      ],
      [
        "à´³",
        "à´µà´¯"
      ],
      [
        "Ġà´ħ",
        "à´¹"
      ],
      [
        "à´Ļ",
        "à´²"
      ],
      [
        "Ġà´°",
        "à´ļ"
      ],
      [
        "Ġ4",
        "2"
      ],
      [
        "à´²",
        "à´µà´¨"
      ],
      [
        "à´¦",
        "àµ¼"
      ],
      [
        "à´¤",
        "à´²à´¯"
      ],
      [
        "à´ļ",
        "à´µà´¨"
      ],
      [
        "a",
        "c"
      ],
      [
        "Ġà´µàµ¼",
        "à´Ĺ"
      ],
      [
        "à´¦",
        "à´¯à´Ļ"
      ],
      [
        "à´¥",
        "à´ķà´³"
      ],
      [
        "Ġà´Ńà´°à´£",
        "à´¤"
      ],
      [
        "à´¥",
        "à´¤à´¯"
      ],
      [
        "àµį",
        "\"\""
      ],
      [
        "Ġà´¤à´²",
        "à´µà´¨"
      ],
      [
        "Ġ201",
        "6"
      ],
      [
        "à´İ",
        "à´ĩ"
      ],
      [
        "Ġà´°à´¸",
        "à´ķà´°à´®"
      ],
      [
        "à´¬",
        "à´¯"
      ],
      [
        "Ġà´ħà´±",
        "à´¬"
      ],
      [
        "à´ª",
        "àµ»"
      ],
      [
        "Ġà´īà´£",
        "à´°"
      ],
      [
        "Ġ4",
        "4"
      ],
      [
        "Ġà´ĩ",
        "à´³à´µ"
      ],
      [
        "Ġà´¸",
        "à´£"
      ],
      [
        "Ġ",
        "D"
      ],
      [
        "Ġ",
        "in"
      ],
      [
        "Ġà´¸",
        "à´¯à´¨"
      ],
      [
        "à´´",
        "à´µ"
      ],
      [
        "99",
        "9"
      ],
      [
        "Ġà´ĵ",
        "àµ¼à´ķ"
      ],
      [
        "Ġ",
        "H"
      ],
      [
        "Ġà´ħ",
        "àµ½"
      ],
      [
        "à´ĺ",
        "à´Ļ"
      ],
      [
        "Ġà´Ĳ",
        "à´¶"
      ],
      [
        "à´¥",
        "àµ¼"
      ],
      [
        "i",
        "a"
      ],
      [
        "Ġ3",
        "8"
      ],
      [
        "à´¦",
        "à´ķ"
      ],
      [
        "à´¹",
        "à´¬"
      ],
      [
        "à´³",
        "à´ļ"
      ],
      [
        "à´¦",
        "à´¨à´¤"
      ],
      [
        "à´Ĺà´£",
        "à´¨à´¯"
      ],
      [
        "à´Ĺ",
        "à´¯"
      ],
      [
        "Ġà´ľ",
        "àµ¼à´®"
      ],
      [
        "Ġà´§",
        "à´µ"
      ],
      [
        "Ġà´Ĵ",
        "à´²"
      ],
      [
        "à´³à´µ",
        "àµ¼à´ķ"
      ],
      [
        "i",
        "l"
      ],
      [
        "Ġà´µ",
        "à´®"
      ],
      [
        "e",
        "w"
      ],
      [
        "an",
        "d"
      ],
      [
        "à´ĺ",
        "à´®"
      ],
      [
        "e",
        "d"
      ],
      [
        "àµĪ",
        ","
      ],
      [
        "à´ŀ",
        "à´Ł"
      ],
      [
        "Ġ",
        "o"
      ],
      [
        "à´¨",
        "à´Ĺà´°"
      ],
      [
        "Ġà´¸à´®",
        "à´Ĺ"
      ],
      [
        "Ġà´Ĺ",
        "àµ¼à´Ń"
      ],
      [
        "Ġà´®à´´",
        "à´ķ"
      ],
      [
        "à´·",
        "à´°"
      ],
      [
        "Ġ",
        "L"
      ],
      [
        "Ġà´®",
        "àµ¼à´¦"
      ],
      [
        "à´¨",
        "àµ½à´ķ"
      ],
      [
        "Ġà´ħ",
        "à´¯à´²"
      ],
      [
        "à´¶",
        "à´¬"
      ],
      [
        "à´¯",
        "àµ¼à´¤"
      ],
      [
        "àµįâĢĮ",
        "!"
      ],
      [
        "Ġ3",
        "9"
      ],
      [
        "Ġà´ª",
        "à´¬"
      ],
      [
        "Ġà´ħà´®",
        "à´°"
      ],
      [
        "Ġà´ĵ",
        "àµºà´²"
      ],
      [
        "à´¹àµ»",
        "à´²"
      ],
      [
        "Ġà´Ĩà´¶",
        "à´¯à´µ"
      ],
      [
        "à´³",
        "à´¸"
      ],
      [
        "Ġà´Ĩ",
        "à´ķà´¯"
      ],
      [
        "Ġ",
        "E"
      ],
      [
        "à´¯à´¤",
        "à´ķà´³"
      ],
      [
        "Ġà´¨",
        "à´¸"
      ],
      [
        "à´ħ",
        "à´®"
      ],
      [
        "à´Ĺ",
        "àµ¼"
      ],
      [
        "Ġà´µ",
        "à´·"
      ],
      [
        "à´ľ",
        "à´¯à´ķà´°à´®"
      ],
      [
        "Ġ19",
        "6"
      ],
      [
        "à´·",
        "à´®à´¤"
      ],
      [
        "a",
        "s"
      ],
      [
        "Ġ19",
        "4"
      ],
      [
        "à´¿",
        "'"
      ],
      [
        "à´ł",
        "à´®"
      ],
      [
        "à´Ĺà´¤",
        "à´¯"
      ],
      [
        "à´¤à´¤",
        "à´¯"
      ],
      [
        "Ġà´®à´°à´£",
        "à´ķ"
      ],
      [
        "àµĨ",
        ":"
      ],
      [
        ".",
        ")"
      ],
      [
        "àµ¼",
        "à´·à´ķ"
      ],
      [
        "Ġà´ļ",
        "à´Ļ"
      ],
      [
        "u",
        "s"
      ],
      [
        "à´¨",
        "à´¯à´¤"
      ],
      [
        "Ġ",
        "f"
      ],
      [
        "à´¬",
        "à´¸"
      ],
      [
        "Ġà´±",
        "à´«"
      ],
      [
        "à´°",
        "à´ªà´°"
      ],
      [
        "Ġà´®à´°à´£",
        "à´µ"
      ],
      [
        "Ġà´¬",
        "à´¯"
      ],
      [
        "à´¬",
        "à´¦"
      ],
      [
        "à´ª",
        "à´£à´¤"
      ],
      [
        "Ġà´µ",
        "à´±"
      ],
      [
        "Ġà´¸",
        "à´ķ"
      ],
      [
        "à´¯",
        "à´¹"
      ],
      [
        "Ġà´īà´Łà´®",
        "à´¸"
      ],
      [
        "Ġà´ķ",
        "à´²à´ķ"
      ],
      [
        ",",
        ","
      ],
      [
        "Ġà´ī",
        "à´Ł"
      ],
      [
        "Ġà´ħ",
        "à´¹à´Ļ"
      ],
      [
        "Ġà´ħà´¨",
        "à´§"
      ],
      [
        "à´°à´¸",
        "à´ķ"
      ],
      [
        "Ġà´®à´¤",
        "à´µ"
      ],
      [
        "àµ¼",
        "à´²"
      ],
      [
        "à´Ń",
        "à´Ļ"
      ],
      [
        "1",
        "6"
      ],
      [
        "Ġà´ªà´´",
        "à´Ļ"
      ],
      [
        "à´·à´£",
        "à´°"
      ],
      [
        "à´¨",
        "à´ķà´¤"
      ],
      [
        "à´¡",
        "àµ½"
      ],
      [
        "à´¾",
        "!"
      ],
      [
        "à´°",
        "àµ½"
      ],
      [
        "Ġà´Ĳ",
        "à´İà´¸"
      ],
      [
        "ĠâĢĺ",
        "âĢĺ"
      ],
      [
        "à´²",
        "àµ¼à´¤"
      ],
      [
        "à´±",
        "à´¬"
      ],
      [
        "àµĭ",
        "!"
      ],
      [
        "à´¦",
        "à´¨à´®"
      ],
      [
        "à´£",
        "à´µà´°"
      ],
      [
        "5",
        "00"
      ],
      [
        "Ġ",
        "K"
      ],
      [
        "à´ħ",
        "à´ª"
      ],
      [
        "Ġà´¬",
        "à´Ł"
      ],
      [
        "à´°à´¤",
        "à´¤"
      ],
      [
        "Ġà´ĺ",
        "à´Łà´¨"
      ],
      [
        "Ġà´µà´·",
        "à´³"
      ],
      [
        "à´ķ",
        "à´µà´°"
      ],
      [
        "à´ķ",
        "à´Łà´²"
      ],
      [
        "Ġà´®à´°à´£",
        "à´¸"
      ],
      [
        "à´´",
        "à´Ļ"
      ],
      [
        "à´¬",
        "à´ķ"
      ],
      [
        "Ġà´ľ",
        "à´¯à´²"
      ],
      [
        "àµį",
        "),"
      ],
      [
        "Ġà´®",
        "à´°à´Ļ"
      ],
      [
        "à´¤à´ķ",
        "àµ¼"
      ],
      [
        "à´°à´£",
        "à´¯à´¤"
      ],
      [
        "à´ª",
        "àµ½"
      ],
      [
        "àµįâĢį",
        "),"
      ],
      [
        "Ġà´¨",
        "à´¬"
      ],
      [
        "Ġà´®",
        "à´ķàµ¾"
      ],
      [
        "à´Ł",
        "àµº"
      ],
      [
        "Ġà´ħà´£",
        "à´ķ"
      ],
      [
        "s",
        "o"
      ],
      [
        "Ġà´¤",
        "à´²à´ķ"
      ],
      [
        "Ġà´¸à´¹",
        "à´®à´¨"
      ],
      [
        "à´¨à´ª",
        "à´°à´®"
      ],
      [
        "2",
        "5"
      ],
      [
        "à´°à´®",
        "à´ķ"
      ],
      [
        "Ġà´Ĩ",
        "à´ķà´°"
      ],
      [
        "àµĨ",
        "âĢ¦"
      ],
      [
        "am",
        "e"
      ],
      [
        "Ġ19",
        "5"
      ],
      [
        "à´°à´¦",
        "àµ¼à´¶"
      ],
      [
        "Ġ6",
        "5"
      ],
      [
        "u",
        "n"
      ],
      [
        "Ġà´ħà´ªà´ķ",
        "à´Łà´®"
      ],
      [
        "à´¬",
        "à´µ"
      ],
      [
        "Ġà´ľà´¯à´²",
        "à´³"
      ],
      [
        "à´µà´°",
        "à´¯"
      ],
      [
        "Ġà´ı",
        "à´ľàµ»à´¸"
      ],
      [
        "Ġà´ļ",
        "à´°à´ķ"
      ],
      [
        "r",
        "o"
      ],
      [
        "à´¸à´®",
        "à´¯à´¤"
      ],
      [
        "Ġà´ĩ",
        "à´ļ"
      ],
      [
        "à´Ĺ",
        "à´¢"
      ],
      [
        "à´Ń",
        "à´°"
      ],
      [
        "Ġà´īà´ª",
        "à´ľ"
      ],
      [
        "à´ªà´£",
        "à´µ"
      ],
      [
        "à´ĵ",
        "à´³"
      ],
      [
        "Ġà´«",
        "à´¯à´°"
      ],
      [
        "àµº",
        "à´®"
      ],
      [
        "à´«",
        "à´°"
      ],
      [
        "à´Ł",
        "à´ŀ"
      ],
      [
        "Ġ4",
        "3"
      ],
      [
        "Ġà´ħà´ª",
        "à´²à´ª"
      ],
      [
        "âĢĻ",
        "."
      ],
      [
        "ĠâĢ",
        "į"
      ],
      [
        "Ġà´Ĩà´¶",
        "à´¯à´Ļ"
      ],
      [
        "Ġà´",
        "¾"
      ],
      [
        "Ġà´ħà´ªà´ķ",
        "à´Łà´Ļ"
      ],
      [
        "à´§à´¨",
        "à´ķà´³"
      ],
      [
        "Ġà´µ",
        "à´¸à´¤"
      ],
      [
        "Ġà´¦",
        "à´¯à´µ"
      ],
      [
        "Ġà´µ",
        "à´°à´£"
      ],
      [
        "Ġ4",
        "9"
      ],
      [
        "Ġà´",
        "´"
      ],
      [
        "Ġà´ķà´³",
        "à´ŀ"
      ],
      [
        "à´ļ",
        "à´ķàµ¾"
      ],
      [
        "Ġà´ľà´¨",
        "à´ķ"
      ],
      [
        "à´®",
        "à´¶"
      ],
      [
        "à´Ł",
        "à´ªà´°"
      ],
      [
        "àµįâĢ",
        "Ŀ"
      ],
      [
        "Ġà´ħà´µ",
        "à´¤"
      ],
      [
        "à´ľà´¨",
        "à´ª"
      ],
      [
        "Ġà´¸",
        "à´¯"
      ],
      [
        "Ġà´ĩ",
        "à´Łà´ķ"
      ],
      [
        "à´¡",
        "à´¨à´¤"
      ],
      [
        "à´¨à´¤",
        "à´¯"
      ],
      [
        "à´ħ",
        "à´Ļ"
      ],
      [
        "Ġà´ĩà´Ł",
        "à´µ"
      ],
      [
        "Ġà´ħ",
        "àµ¼à´¤"
      ],
      [
        "Ġà´Ĩ",
        "à´¯à´¤"
      ],
      [
        "1",
        "1"
      ],
      [
        "à´²",
        "à´®à´¤"
      ],
      [
        "Ġà´µ",
        "àµ¼à´ķ"
      ],
      [
        "Ġà´¤",
        "à´²à´µ"
      ],
      [
        "à´ŀ",
        "à´µà´°"
      ],
      [
        "à´¹",
        "à´¨à´®"
      ],
      [
        "à´¡",
        "à´£"
      ],
      [
        "Ġà´µà´´",
        "à´ķ"
      ],
      [
        "Ġà´¶",
        "à´°à´¤"
      ],
      [
        "Ġà´µà´§",
        "à´ķ"
      ],
      [
        "à´Łà´¯",
        "à´ļ"
      ],
      [
        "à´¹",
        "à´°à´£"
      ],
      [
        "en",
        "t"
      ],
      [
        "Ġà´¦",
        "à´¤"
      ],
      [
        "Ġà´ķà´Ł",
        "à´ķà´³"
      ],
      [
        "à´Ĩ",
        "à´ª"
      ],
      [
        "Ġà´¤à´ķ",
        "àµ¼à´¤"
      ],
      [
        "e",
        "l"
      ],
      [
        "à",
        "¤"
      ],
      [
        "à´",
        "Ķ"
      ],
      [
        "à´Ĥ",
        "âĢĮ"
      ],
      [
        "àµĤ",
        "!"
      ],
      [
        "Ġà´Ĩà´ķ",
        "àµ¼à´·"
      ],
      [
        "Ġ",
        "d"
      ],
      [
        "à´ļ",
        "à´°à´£"
      ],
      [
        "àµ»",
        "à´µ"
      ],
      [
        "à´£",
        "àµ½"
      ],
      [
        "Ġà´Ĭ",
        "à´¨"
      ],
      [
        "à´¶",
        "à´¯à´¤"
      ],
      [
        "à´³",
        "à´ķà´³"
      ],
      [
        "à´¾à´Ĥ",
        ":"
      ],
      [
        "Ġà´«",
        "à´¯àµ¼"
      ],
      [
        "à´§",
        "à´®à´¨"
      ],
      [
        "à´ľ",
        "à´µ"
      ],
      [
        "à´·à´®",
        "à´®"
      ],
      [
        "ĠÂ",
        "·"
      ],
      [
        "Ġà´¨",
        "à´´"
      ],
      [
        "Ġà´ĵ",
        "à´±à´ŀ"
      ],
      [
        "Ġà´®à´±",
        "à´ļ"
      ],
      [
        "à´Ł",
        "à´ķà´³"
      ],
      [
        "Ġà´ĵ",
        "à´¡"
      ],
      [
        "à´¸",
        "àµ»"
      ],
      [
        "à´¨à´¦",
        "à´£"
      ],
      [
        "à´²",
        "àµ»à´¸"
      ],
      [
        "1",
        "7"
      ],
      [
        "à´¬",
        "à´°à´¤"
      ],
      [
        "Ġà´²",
        "à´¹à´°"
      ],
      [
        "Ġà´²",
        "à´ĺ"
      ],
      [
        "Ġà´ķ",
        "àµ¼à´·à´ķ"
      ],
      [
        "Ġà´¨à´Ĺ",
        "à´°à´®"
      ],
      [
        "à´¶",
        "à´¯à´Ļ"
      ],
      [
        "à´±",
        "à´ķà´³"
      ],
      [
        "àµĭ",
        "âĢĭ"
      ],
      [
        "Ġâ",
        "ĸ"
      ],
      [
        "Ġ5",
        "5"
      ],
      [
        "Ġà´±",
        "à´µà´¨"
      ],
      [
        "Ġà´µà´³",
        "àµ¼à´¨"
      ],
      [
        "àµĭ",
        "-"
      ],
      [
        "in",
        "g"
      ],
      [
        "à´§",
        "à´¸"
      ],
      [
        "à´°",
        "à´Ĺ"
      ],
      [
        "à´¯à´®",
        "à´ªà´°à´®"
      ],
      [
        "at",
        "ion"
      ],
      [
        "Ġà´ĵ",
        "à´¯"
      ],
      [
        "à´°à´®à´£",
        "à´Ļ"
      ],
      [
        "ĠA",
        "l"
      ],
      [
        "ew",
        "s"
      ],
      [
        "àµģ.",
        ".."
      ],
      [
        "à´·à´¤",
        "à´ķà´³"
      ],
      [
        "Ġà´¸",
        "à´ª"
      ],
      [
        "à´¯à´£",
        "à´¨"
      ],
      [
        "à´ª",
        "à´¦à´®"
      ],
      [
        "Ġ12",
        "5"
      ],
      [
        "à´³à´¤",
        "à´²"
      ],
      [
        "à´°à´¸",
        "à´µ"
      ],
      [
        "à´ĺ",
        "à´µ"
      ],
      [
        "Ġà´¶",
        "à´ª"
      ],
      [
        "Ġ4",
        "7"
      ],
      [
        "Ġà´²",
        "à´¯"
      ],
      [
        "à´§",
        "à´¨à´¤"
      ],
      [
        "Ġà´®à´°à´£",
        "à´Ļ"
      ],
      [
        "Ġ5",
        "2"
      ],
      [
        "à´«",
        "à´²à´Ļ"
      ],
      [
        "à´ĸ",
        "à´°à´¨"
      ],
      [
        "u",
        "r"
      ],
      [
        "Ġà´ªà´±",
        "à´¯à´ª"
      ],
      [
        "1",
        "4"
      ],
      [
        "à´±",
        "à´«"
      ],
      [
        "à´µà´°",
        "à´®"
      ],
      [
        "à´ļà´¨",
        "à´ķà´³"
      ],
      [
        "Ġà´¸à´¹",
        "à´ª"
      ],
      [
        "à´ķ",
        "à´ŀ"
      ],
      [
        "à´®",
        "à´¬"
      ],
      [
        "Ġ201",
        "5"
      ],
      [
        "à´¤à´²",
        "à´¨"
      ],
      [
        "à´°",
        "à´¥à´®"
      ],
      [
        "Ġà´ħà´ª",
        "à´°"
      ],
      [
        "'",
        "'"
      ],
      [
        "Ġà´ħ",
        "à´¯à´¯"
      ],
      [
        "à´Ļà´³",
        "à´¤"
      ],
      [
        "à´ķà´°",
        "à´¯"
      ],
      [
        "e",
        "t"
      ],
      [
        "à´ªà´®",
        "à´²"
      ],
      [
        "àµģ",
        "àµį."
      ],
      [
        "à´¹",
        "à´°à´£à´Ļ"
      ],
      [
        "à´Ł",
        "à´ªà´Ł"
      ],
      [
        "à´ļ",
        "à´¯à´ª"
      ],
      [
        "Ġà´ħà´²",
        "à´Ļ"
      ],
      [
        "Ġà´ª",
        "à´®"
      ],
      [
        "Ġ",
        "k"
      ],
      [
        "Ġà´Ń",
        "à´¯à´Ļ"
      ],
      [
        "Ġà´Ĩà´¶",
        "à´¯"
      ],
      [
        "à´±",
        "à´Ł"
      ],
      [
        "à´ĸ",
        "à´¨à´¤"
      ],
      [
        "Ġà´¦",
        "à´³"
      ],
      [
        "Ġà´¬",
        "à´¦"
      ],
      [
        "o",
        "l"
      ],
      [
        "à´¬",
        "à´®"
      ],
      [
        "à´°à´¸",
        "à´®"
      ],
      [
        "àµĥ",
        "à´Ĥ"
      ],
      [
        "à´µà´¨",
        "à´ķà´³"
      ],
      [
        "à´°à´³",
        "à´¯"
      ],
      [
        "Ġà´ĸ",
        "à´¨"
      ],
      [
        "Ġ5",
        "4"
      ],
      [
        "à´ªà´ķ",
        "à´Łà´¤"
      ],
      [
        "ĠâĢİ",
        "\""
      ],
      [
        "àµ½",
        "à´«"
      ],
      [
        "à´°à´¹",
        "à´£"
      ],
      [
        "Ġà´Ĺ",
        "à´¡"
      ],
      [
        "à´¯",
        "à´ķà´°"
      ],
      [
        "à´İ",
        "à´ķ"
      ],
      [
        "à´¯",
        "à´ļ"
      ],
      [
        "Ġà´ķà´¥",
        "à´ķà´³"
      ],
      [
        "à´°à´ķ",
        "à´®"
      ],
      [
        "à´¦à´°",
        "àµ»"
      ],
      [
        "Ġà´ª",
        "à´´à´ķ"
      ],
      [
        "Ġà´ĸ",
        "à´¤"
      ],
      [
        "Ġà´Ī",
        "à´ľ"
      ],
      [
        "àµģà´Ĥ",
        ")"
      ],
      [
        "à´İ",
        "à´ª"
      ],
      [
        "Ġà´µ",
        "à´¯à´²"
      ],
      [
        "Ġà´Ń",
        "à´Ł"
      ],
      [
        "Ġ",
        "W"
      ],
      [
        "i",
        "d"
      ],
      [
        "Ġà´Ĺà´µàµ¼à´£",
        "àµ¼"
      ],
      [
        "Ġ",
        "&"
      ],
      [
        "Ġà´ķ",
        "à´µà´°"
      ],
      [
        "Ġà´ħà´µà´¸",
        "à´°à´®"
      ],
      [
        "àµį",
        "/"
      ],
      [
        "à´Ń",
        "à´®"
      ],
      [
        "Ġà´µ",
        "à´ļà´¨"
      ],
      [
        "Ġà´Ĩà´´",
        "à´¤"
      ],
      [
        "Ġo",
        "f"
      ],
      [
        "à´¤à´®",
        "à´¨"
      ],
      [
        "6",
        "0"
      ],
      [
        "à´°à´¸",
        "àµ¼à´ķ"
      ],
      [
        "à´·",
        "à´ķàµ¾"
      ],
      [
        "Ġà´ħà´¤",
        "à´¤"
      ],
      [
        "à´®",
        "à´Łà´ķ"
      ],
      [
        "à´Ł",
        "à´¸"
      ],
      [
        "à´İàµ½",
        "à´İà´®"
      ],
      [
        "Ġ12",
        "0"
      ],
      [
        "à´¯à´®",
        "à´®"
      ],
      [
        "Ġà´ªà´±à´¯",
        "à´£"
      ],
      [
        "Ġ",
        "U"
      ],
      [
        "Ġà´",
        "ĭ"
      ],
      [
        "à´ĺ",
        "à´¨"
      ],
      [
        "à´¡",
        "à´Ļ"
      ],
      [
        "à´®",
        "à´°à´£"
      ],
      [
        "à´Ĳ",
        "à´ķ"
      ],
      [
        "àµįâĢį",
        "âĢĮ"
      ],
      [
        "Ġà´§",
        "à´¨à´¸"
      ],
      [
        "Ġà´ħà´ªà´ķà´Łà´ķ",
        "à´°à´®"
      ],
      [
        "Ġà´Ĩ",
        "à´·"
      ],
      [
        "à´°à´®",
        "à´µ"
      ],
      [
        "Ġà´¨à´Ĺ",
        "à´°à´¸"
      ],
      [
        "Ġà´¸à´¹",
        "à´ķà´°à´£à´¤"
      ],
      [
        "à´ķà´³",
        "à´²"
      ],
      [
        "Ġà´ħà´²",
        "à´ķ"
      ],
      [
        "à´¯",
        "àµº"
      ],
      [
        "Ġà´¨à´¯à´¤",
        "à´¨"
      ],
      [
        "Ġà´ľ",
        "à´°"
      ],
      [
        "à´¯à´µ",
        "à´ķ"
      ],
      [
        "Ġà´Ĺà´µ",
        "àµºà´®"
      ],
      [
        "à´µ",
        "à´ªà´°"
      ],
      [
        "à´¸",
        "àµ¼à´µ"
      ],
      [
        "à´¯",
        "àµ¼à´ķ"
      ],
      [
        "Ġà´Ĩà´³",
        "à´ª"
      ],
      [
        "Ġà´¶",
        "à´¨"
      ],
      [
        "e",
        "c"
      ],
      [
        "à´¨",
        "àµ¼"
      ],
      [
        "àµ»à´¸",
        "àµ¼"
      ],
      [
        "à´¥",
        "àµ»"
      ],
      [
        "Ġà´ķ",
        "àµ¾"
      ],
      [
        "à´²",
        "àµ»"
      ],
      [
        "àµĪ",
        "."
      ],
      [
        "Ġà´īà´¯",
        "à´°à´¤"
      ],
      [
        "àµģ.",
        "."
      ],
      [
        "àµģà´Ĥ.",
        ".."
      ],
      [
        "Ġ",
        "w"
      ],
      [
        "à´³",
        "àµ¼"
      ],
      [
        "àµģ.",
        ")"
      ],
      [
        "Ġà´ķ",
        "à´¬"
      ],
      [
        "Ġà´ĸ",
        "à´£"
      ],
      [
        "Ġà´ļ",
        "à´µ"
      ],
      [
        "àµ»",
        "à´·àµ»"
      ],
      [
        "Ġà´¤",
        "à´¸"
      ],
      [
        "à´¨à´¤",
        "à´¨"
      ],
      [
        "à´¯",
        "à´Ĺ"
      ],
      [
        "Ġà´ħ",
        "àµ½à´ª"
      ],
      [
        "à´ª",
        "à´ļ"
      ],
      [
        "Ġà´ķà´®",
        "à´¨"
      ],
      [
        "Ġ",
        "O"
      ],
      [
        "à´·à´¤",
        "à´ķàµ¾"
      ],
      [
        "Ġ",
        "i"
      ],
      [
        "à´ĺ",
        "àµ¼"
      ],
      [
        "Ġà´ķ",
        "àµ¼à´¤"
      ],
      [
        "Ġà´ĩàµ»",
        "à´«"
      ],
      [
        "Ġà´Ĩ",
        "à´¡"
      ],
      [
        "Ġ",
        "r"
      ],
      [
        "à´£",
        "à´¸"
      ],
      [
        "à´®",
        "à´¹"
      ],
      [
        "à´¤à´ķ",
        "à´µ"
      ],
      [
        "ĠAl",
        "so"
      ],
      [
        "à´¿",
        "âĢ¦"
      ],
      [
        "à´¯",
        "à´ĺà´Ł"
      ],
      [
        "àµįâĢį.",
        ".."
      ],
      [
        "à´ł",
        "à´¤"
      ],
      [
        "Ġ2",
        "000"
      ],
      [
        "à´¤à´¯",
        "à´ļ"
      ],
      [
        "Ġ4",
        "6"
      ],
      [
        "à´ķà´¯",
        "à´²"
      ],
      [
        "Ġà´ķ",
        "àµ¼à´·"
      ],
      [
        "à´ª",
        "à´£à´®"
      ],
      [
        "Ġà´§à´¨à´¸",
        "à´¹"
      ],
      [
        "àµ»",
        "à´Ł"
      ],
      [
        "à´·à´£",
        "à´ķ"
      ],
      [
        "Ġà´Ĳ",
        "à´¡"
      ],
      [
        "àµĨ",
        "âĢĭ"
      ],
      [
        "à´¨",
        "à´Ĺà´±"
      ],
      [
        "à´ª",
        "à´´"
      ],
      [
        "Ġà´²",
        "à´§"
      ],
      [
        "à´Ļ",
        "à´¯"
      ],
      [
        "Ġà´¬",
        "à´ľ"
      ],
      [
        "à´Ĥ",
        "'"
      ],
      [
        "à´ļ",
        "à´¶"
      ],
      [
        "8",
        "0"
      ],
      [
        "Ġà´ħ",
        "àµ¼à´ª"
      ],
      [
        "à´¹",
        "à´¦"
      ],
      [
        "àµĢ",
        ","
      ],
      [
        "à´ĸ",
        "àµ¼"
      ],
      [
        "Ġà´¬",
        "à´°"
      ],
      [
        "à´°",
        "à´¯à´¤"
      ],
      [
        "Ġà´ĩà´¤",
        "à´°"
      ],
      [
        "2",
        "00"
      ],
      [
        "o",
        "v"
      ],
      [
        "Ġà´ħà´¸",
        "à´®"
      ],
      [
        "à´¤",
        "àµ¼à´ķ"
      ],
      [
        "Ġ5",
        "6"
      ],
      [
        "à´«",
        "à´±à´¨"
      ],
      [
        "Ġà´ķ",
        "àµ½à´ª"
      ],
      [
        "àµįâĢĮ",
        ":"
      ],
      [
        "Ġà´Ĳ",
        "à´Ł"
      ],
      [
        "4",
        "0"
      ],
      [
        "àµ¼à´Ĺ",
        "à´¨"
      ],
      [
        "à´°à´ķà´Ł",
        "à´¨à´®"
      ],
      [
        "à´ľ",
        "à´¶"
      ],
      [
        "Ġ4",
        "1"
      ],
      [
        "à´¯à´¸",
        "à´®"
      ],
      [
        "àµį",
        "("
      ],
      [
        "Ġà´ĩ",
        "à´³"
      ],
      [
        "à´¹",
        "à´±"
      ],
      [
        "Ġà´¸",
        "àµ½à´®"
      ],
      [
        "Ġà´¯",
        "à´¨"
      ],
      [
        "àµĬ",
        "."
      ],
      [
        "à´¹",
        "à´°à´£à´®"
      ],
      [
        "Ġà´Ĩ",
        "à´®à´¸"
      ],
      [
        "à´£",
        "à´£"
      ],
      [
        "à´µà´³",
        "à´Ļ"
      ],
      [
        "à´²",
        "à´ľ"
      ],
      [
        "Ġà´ħà´Ł",
        "à´ŀ"
      ],
      [
        "à´¤",
        "à´¨à´®"
      ],
      [
        "Ġà´µ",
        "à´²à´¯"
      ],
      [
        "à´µàµ¼",
        "à´·"
      ],
      [
        "à´§",
        "à´¨à´ķ"
      ],
      [
        "à´ł",
        "à´¯"
      ],
      [
        "Ġà´ī",
        "à´¸"
      ],
      [
        "à´°à´ķà´Ł",
        "à´¨à´¤"
      ],
      [
        "o",
        "t"
      ],
      [
        "à´¤à´®",
        "à´®"
      ],
      [
        "à´¤à´²",
        "à´®"
      ],
      [
[...]
