{
  "version": "1.0",
  "truncation": null,
  "padding": null,
  "added_tokens": [
    {
      "id": 0,
      "content": "<bos>",
      "single_word": false,
      "lstrip": false,
      "rstrip": false,
      "normalized": false,
      "special": true
    },
    {
      "id": 1,
      "content": "<eos>",
      "single_word": false,
      "lstrip": false,
      "rstrip": false,
      "normalized": false,
      "special": true
    },
    {
      "id": 2,
      "content": "<pad>",
      "single_word": false,
      "lstrip": false,
      "rstrip": false,
      "normalized": false,
      "special": true
    },
    {
      "id": 3,
      "content": "<unk>",
      "single_word": false,
      "lstrip": false,
      "rstrip": false,
      "normalized": false,
      "special": true
    }
  ],
  "normalizer": null,
  "pre_tokenizer": {
    "type": "ByteLevel",
    "add_prefix_space": true,
    "trim_offsets": true,
    "use_regex": true
  },
  "post_processor": {
    "type": "TemplateProcessing",
    "single": [
      {
        "SpecialToken": {
          "id": "<bos>",
          "type_id": 0
        }
      },
      {
        "Sequence": {
          "id": "A",
          "type_id": 0
        }
      },
      {
        "SpecialToken": {
          "id": "<eos>",
          "type_id": 0
        }
      }
    ],
    "pair": [
      {
        "Sequence": {
          "id": "A",
          "type_id": 0
        }
      },
      {
        "Sequence": {
          "id": "B",
          "type_id": 1
        }
      }
    ],
    "special_tokens": {
      "<bos>": {
        "id": "<bos>",
        "ids": [
          0
        ],
        "tokens": [
          "<bos>"
        ]
      },
      "<eos>": {
        "id": "<eos>",
        "ids": [
          1
        ],
        "tokens": [
          "<eos>"
        ]
      }
    }
  },
  "decoder": {
    "type": "ByteLevel",
    "add_prefix_space": true,
    "trim_offsets": true,
    "use_regex": true
  },
  "model": {
    "type": "BPE",
    "dropout": null,
    "unk_token": "<unk>",
    "continuing_subword_prefix": null,
    "end_of_word_suffix": null,
    "fuse_unk": false,
    "byte_fallback": false,
    "ignore_merges": false,
    "vocab": {
      "<bos>": 0,
      "<eos>": 1,
      "<pad>": 2,
      "<unk>": 3,
      "!": 4,
      "\"": 5,
      "#": 6,
      "$": 7,
      "%": 8,
      "&": 9,
      "'": 10,
      "(": 11,
      ")": 12,
      "*": 13,
      "+": 14,
      ",": 15,
      "-": 16,
      ".": 17,
      "/": 18,
      "0": 19,
      "1": 20,
      "2": 21,
      "3": 22,
      "4": 23,
      "5": 24,
      "6": 25,
      "7": 26,
      "8": 27,
      "9": 28,
      ":": 29,
      "<": 30,
      "=": 31,
      ">": 32,
      "?": 33,
      "@": 34,
      "A": 35,
      "B": 36,
      "C": 37,
      "D": 38,
      "E": 39,
      "F": 40,
      "G": 41,
      "H": 42,
      "I": 43,
      "J": 44,
      "K": 45,
      "L": 46,
      "M": 47,
      "N": 48,
      "O": 49,
      "P": 50,
      "Q": 51,
      "R": 52,
      "S": 53,
      "T": 54,
      "U": 55,
      "V": 56,
      "W": 57,
      "X": 58,
      "Y": 59,
      "Z": 60,
      "[": 61,
      "\\": 62,
      "]": 63,
      "^": 64,
      "_": 65,
      "`": 66,
      "a": 67,
      "b": 68,
      "c": 69,
      "d": 70,
      "e": 71,
      "f": 72,
      "g": 73,
      "h": 74,
      "i": 75,
      "j": 76,
      "k": 77,
      "l": 78,
      "m": 79,
      "n": 80,
      "o": 81,
      "p": 82,
      "q": 83,
      "r": 84,
      "s": 85,
      "t": 86,
      "u": 87,
      "v": 88,
      "w": 89,
      "x": 90,
      "y": 91,
      "z": 92,
      "{": 93,
      "|": 94,
      "}": 95,
      "~": 96,
      "¡": 97,
      "¢": 98,
      "£": 99,
      "¤": 100,
      "¥": 101,
      "¦": 102,
      "§": 103,
      "¨": 104,
      "©": 105,
      "ª": 106,
      "«": 107,
      "¬": 108,
      "®": 109,
      "¯": 110,
      "°": 111,
      "±": 112,
      "²": 113,
      "³": 114,
      "´": 115,
      "µ": 116,
      "¶": 117,
      "·": 118,
      "¸": 119,
      "¹": 120,
      "º": 121,
      "»": 122,
      "¼": 123,
      "½": 124,
      "¾": 125,
      "¿": 126,
      "Â": 127,
      "Ã": 128,
      "Ä": 129,
      "Å": 130,
      "Æ": 131,
      "Ç": 132,
      "È": 133,
      "É": 134,
      "Ê": 135,
      "Ë": 136,
      "Ì": 137,
      "Í": 138,
      "Î": 139,
      "Ï": 140,
      "Ð": 141,
      "Ñ": 142,
      "Ò": 143,
      "Ó": 144,
      "Ô": 145,
      "Õ": 146,
      "Ö": 147,
      "×": 148,
      "Ø": 149,
      "Ù": 150,
      "Ú": 151,
      "Û": 152,
      "Ü": 153,
      "Þ": 154,
      "à": 155,
      "á": 156,
      "â": 157,
      "ã": 158,
      "ä": 159,
      "å": 160,
      "æ": 161,
      "ç": 162,
      "è": 163,
      "é": 164,
      "ê": 165,
      "ë": 166,
      "ì": 167,
      "í": 168,
      "î": 169,
      "ï": 170,
      "ð": 171,
      "Ċ": 172,
      "Ġ": 173,
      "Ģ": 174,
      "ģ": 175,
      "Ĥ": 176,
      "ĥ": 177,
      "Ħ": 178,
      "ħ": 179,
      "Ĩ": 180,
      "ĩ": 181,
      "Ī": 182,
      "ī": 183,
      "Ĭ": 184,
      "ĭ": 185,
      "Į": 186,
      "į": 187,
      "İ": 188,
      "ı": 189,
      "Ĳ": 190,
      "ĳ": 191,
      "Ĵ": 192,
      "ĵ": 193,
      "Ķ": 194,
      "ķ": 195,
      "ĸ": 196,
      "Ĺ": 197,
      "ĺ": 198,
      "Ļ": 199,
      "ļ": 200,
      "Ľ": 201,
      "ľ": 202,
      "Ŀ": 203,
      "ŀ": 204,
      "Ł": 205,
      "ł": 206,
      "Ń": 207,
      "à´": 208,
      "àµ": 209,
      "àµį": 210,
      "Ġà´": 211,
      "à´¿": 212,
      "à´¨": 213,
      "àµģ": 214,
      "à´ķ": 215,
      "à´¾": 216,
      "à´¤": 217,
      "à´°": 218,
      "à´¯": 219,
      "à´Ł": 220,
      "à´²": 221,
      "âĢ": 222,
      "àµĨ": 223,
      "à´Ĥ": 224,
      "àµįâĢ": 225,
      "àµįâĢį": 226,
      "à´±": 227,
      "à´µ": 228,
      "à´®": 229,
      "à´ª": 230,
      "à´£": 231,
      "à´³": 232,
      "Ġà´ª": 233,
      "à´ļ": 234,
      "à´Ļ": 235,
      "àµĩ": 236,
      "à´¸": 237,
      "àµĭ": 238,
      "Ġà´ķ": 239,
      "Ġà´ħ": 240,
      "àµģà´Ĥ": 241,
      "Ġà´¸": 242,
      "Ġà´¨": 243,
      "Ġà´µ": 244,
      "Ġà´®": 245,
      "àµĢ": 246,
      "à´¦": 247,
      "à´·": 248,
      "Ġà´İ": 249,
      "Ġà´¤": 250,
      "Ġà´ĩ": 251,
      "à´§": 252,
      "àµį.": 253,
      "àµĤ": 254,
      "àµ¼": 255,
      "àµ½": 256,
      "à´¶": 257,
      "àµģ.": 258,
      "Ġà´ļ": 259,
      "à´ŀ": 260,
      "Ġà´Ĩ": 261,
      "à´¹": 262,
      "à´Ĺ": 263,
      "àµĬ": 264,
      "à´Ļà´³": 265,
      "à´ķà´³": 266,
      "àµįâĢĮ": 267,
      "Ġà´İà´¨": 268,
      "à´¨à´¤": 269,
      "à´µà´°": 270,
      "à´ľ": 271,
      "Ġà´°": 272,
      "àµ»": 273,
      "à´´": 274,
      "ĠâĢ": 275,
      "àµ¾": 276,
      "Ġà´¬": 277,
      "à´Ń": 278,
      "à´¥": 279,
      "Ġà´ī": 280,
      "à´¡": 281,
      "Ġà´Ĵ": 282,
      "Ġà´ľ": 283,
      "à´¬": 284,
      "àµĪ": 285,
      "à´°à´¤": 286,
      "Ġà´ħà´¤": 287,
      "à´¯à´¤": 288,
      "à´¿.": 289,
      "Ġà´¶": 290,
      "à´ķà´¯": 291,
      "Ġà´ĩà´¤": 292,
      "à´°à´®": 293,
      "Ġà´ħà´µ": 294,
      "à´¯à´®": 295,
      "Ġà´²": 296,
      "ĠâĢĭ": 297,
      "Ġà´Ĵà´°": 298,
      "Ġà´¯": 299,
      "Ġà´¦": 300,
      "à´Łà´¤": 301,
      "à´ķà´°": 302,
      "à´¾à´Ĥ": 303,
      "Ġà´ªà´±": 304,
      "Ġà´ĩà´¨": 305,
      "Ġà´Ń": 306,
      "Ġà´Ĺ": 307,
      "à´ĸ": 308,
      "Ġà´ªà´°": 309,
      "Ġà´±": 310,
      "àµģà´Ĥ.": 311,
      "àµĥ": 312,
      "Ġà´ħà´¨": 313,
      "àµĩà´¾": 314,
      "à´Ĥ.": 315,
      "Ġà´ŀ": 316,
      "à´«": 317,
      "à´Ļàµ¾": 318,
      "Ġà´Ł": 319,
      "à´°à´£": 320,
      "à´ķàµ¾": 321,
      "Ġà´ħà´µà´°": 322,
      "Ġ1": 323,
      "Ġà´Ī": 324,
      "à´¯à´ķ": 325,
      "à´µà´¨": 326,
      "Ġà´¹": 327,
      "Ġà´ı": 328,
      "à´°à´µ": 329,
      "à´°à´ķ": 330,
      "Ġà´«": 331,
      "à´°à´¸": 332,
      "Ġà´¸à´®": 333,
      "à´İ": 334,
      "à´¤à´®": 335,
      "Ġà´Ĩà´°": 336,
      "Ġà´¤à´¨": 337,
      "Ġà´¡": 338,
      "à´¯à´¨": 339,
      "Ġà´¨à´Ł": 340,
      "àµį,": 341,
      "Ġà´ĵ": 342,
      "Ġà´ħà´±": 343,
      "Ġà´ªà´±à´ŀ": 344,
      "à´¨à´®": 345,
      "Ġà´µà´°": 346,
      "à´ļà´¤": 347,
      "à´ªà´¤": 348,
      "à´¯à´¯": 349,
      "Ġ2": 350,
      "à´¤à´°": 351,
      "à´·à´£": 352,
      "Ġà´®à´¨": 353,
      "à´²à´¯": 354,
      "à´¨à´Ļ": 355,
      "à´µà´¸": 356,
      "àµ¼à´ķ": 357,
      "Ġà´ħà´²": 358,
      "àµ¼à´¤": 359,
      "à´Łà´Ļ": 360,
      "Ġà´¨à´²": 361,
      "Ġà´ħà´¦": 362,
      "à´Ńà´µ": 363,
      "à´¯à´Ļ": 364,
      "Ġà´°à´£": 365,
      "àµĹ": 366,
      "Ġà´®à´±": 367,
      "Ġà´ķà´´": 368,
      "à´³à´¤": 369,
      "Ġà´ķà´£": 370,
      "Ġ.": 371,
      "à´Ĺà´¤": 372,
      "à´¯à´ª": 373,
      "à´ĺ": 374,
      "Ġà´ħà´Ł": 375,
      "à´Ļà´¨": 376,
      "à´¤à´¨": 377,
      "à´Łà´°": 378,
      "Ġ(": 379,
      "à´¤à´¤": 380,
      "Ġà´īà´£": 381,
      "àµįâĢį,": 382,
      "àµº": 383,
      "Ġà´ħà´µà´¨": 384,
      "à´°à´§": 385,
      "à´Łà´¨": 386,
      "Ġà´¨à´®": 387,
      "Ġà´ªà´±à´¯": 388,
      "Ġà´İà´²": 389,
      "à´ķà´²": 390,
      "00": 391,
      "\"\"": 392,
      "à´£à´®": 393,
      "àµįâĢį.": 394,
      "Ġà´ħà´ª": 395,
      "à´°à´Ļ": 396,
      "à´Łà´ķ": 397,
      "à´®à´¤": 398,
      "àµįâĢĮ.": 399,
      "à´²à´¤": 400,
      "à´°à´¨": 401,
      "Ġà´īà´ª": 402,
      "à´·à´¨": 403,
      "Ġà´ıà´±": 404,
      "à´°à´¦": 405,
      "à´°à´¯": 406,
      "à´¯à´°": 407,
      "à´µà´¯": 408,
      "Ġà´¨à´Łà´¤": 409,
      "à´¿à´Ĥ": 410,
      "Ġà´İà´¤": 411,
      "à´µà´¶": 412,
      "Ġà´¸à´¹": 413,
      "à´¿,": 414,
      "à´®à´¯": 415,
      "à´¨à´¯": 416,
      "àµĨ.": 417,
      "à´²à´ª": 418,
      "Ġà´ħà´§": 419,
      "àµ½à´ķ": 420,
      "Ġà´Ĩà´¶": 421,
      "Ġà´ħà´®": 422,
      "à´¤à´²": 423,
      "Ġà´Ĩà´¦": 424,
      "à´¹à´¤": 425,
      "Ġà´ªà´ķ": 426,
      "à´ķà´¤": 427,
      "à´±à´¤": 428,
      "à´±à´µ": 429,
      "à´ķà´¨": 430,
      "à´Ĥ,": 431,
      "à´µà´¤": 432,
      "Ġà´ķà´°": 433,
      "Ġà´ŀà´Ļ": 434,
      "à´ķà´ª": 435,
      "Ġà´µà´¨": 436,
      "Ġà´Ĩà´ķ": 437,
      "Ġà´²à´Ń": 438,
      "à´ªà´Ł": 439,
      "à´ķà´±": 440,
      "Ġà´¸à´°": 441,
      "à´ķà´®": 442,
      "àµ¼à´¨": 443,
      "Ġà´µà´²": 444,
      "Ġà´·": 445,
      "àµįâĢĭ": 446,
      "à´ļà´¯": 447,
      "Ġà´ħà´Ń": 448,
      "à´¯à´µ": 449,
      "Ġà´Ĵà´¨": 450,
      "Ġà´®à´°": 451,
      "Ġà´®à´¤": 452,
      "Ġà´§": 453,
      "ĠâĢľ": 454,
      "Ġà´¸à´¨": 455,
      "à´ķà´£": 456,
      "Ġà´µà´³": 457,
      "à´°à´ŀ": 458,
      "Ġ3": 459,
      "Ġà´Ĩà´µà´¶": 460,
      "à´¯à´®à´¨": 461,
      "à´ªà´¨": 462,
      "Ġà´īà´¤": 463,
      "à´Łà´¯": 464,
      "âĢĭ": 465,
      "à´ªà´°": 466,
      "Ġà´¬à´¨": 467,
      "à´²à´µ": 468,
      "àµģà´Ĥ,": 469,
      "à´ł": 470,
      "Ġà´ĩà´µ": 471,
      "à´¨à´®à´¨": 472,
      "à´¾à´Ĥ.": 473,
      "Ġà´Ĳ": 474,
      "Ġà´Ĩà´¯": 475,
      "à´¸à´°": 476,
      "Ġà´ľà´¨": 477,
      "àµĭ?": 478,
      "à´²à´ķ": 479,
      "à´ħ": 480,
      "Ġà´ķà´®": 481,
      "Ġà´īà´¦": 482,
      "Ġà´ĩà´°": 483,
      "Ġà´ªà´Ļ": 484,
      "à´±à´ķ": 485,
      "à´¬à´¨": 486,
      "Ġà´¨àµ½à´ķ": 487,
      "Ġ-": 488,
      "ĠâĢĿ": 489,
      "Ġà´ħà´Ļ": 490,
      "Ġà´Ĩà´£": 491,
      "à´¯à´¸": 492,
      "Ġà´µà´³à´°": 493,
      "à´¯à´²": 494,
      "Ġà´İà´¸": 495,
      "à´£à´¤": 496,
      "Ġà´İà´Ļ": 497,
      "àµį?": 498,
      "àµĨà´¾": 499,
      "àµ¼à´Ł": 500,
      "Ġà´°à´ķ": 501,
      "à´°à´¶": 502,
      "Ġà´¸à´¤": 503,
      "à´ªà´ķ": 504,
      "à´İà´¸": 505,
      "Ġà´¤à´®": 506,
      "àµ¼à´®": 507,
      "Ġ'": 508,
      "à´§à´¤": 509,
      "à´°à´µà´°": 510,
      "à´ľà´¯": 511,
      "à´Łà´±": 512,
      "Ġà´¨à´Łà´¨": 513,
      "Ġà´²à´ķ": 514,
      "à´·à´¤": 515,
      "Ġ\"\"": 516,
      "Ġà´ĩà´µà´°": 517,
      "Ġ20": 518,
      "Ġ5": 519,
      "à´Ļàµ¾à´ķ": 520,
      "Ġà´ķà´³": 521,
      "à´·à´®": 522,
      "à´ªà´±": 523,
      "à´²à´®": 524,
      "à´¨à´µ": 525,
      "Ġà´ªà´¤": 526,
      "Ġà´īà´³": 527,
      "ĠâĢİ": 528,
      "à´±à´ª": 529,
      "à´¯àµ»": 530,
      "Ġà´¶à´°": 531,
      "Ġ4": 532,
      "à´Łà´®": 533,
      "à´¨à´µà´°": 534,
      "Ġà´ħà´ķ": 535,
      "à´Ĺà´Ļ": 536,
      "Ġà´ħà´±à´¸": 537,
      "ĠâĢĺ": 538,
      "à´¤à´ª": 539,
      "Ġà´īà´ªà´¯": 540,
      "à´¨à´ķ": 541,
      "à´Ĳ": 542,
      "à´Łà´ª": 543,
      "Ġà´µà´´": 544,
      "à´°à´¹": 545,
      "Ġà´ħà´¯": 546,
      "à´¦à´°": 547,
      "à´ķàµ¾à´ķ": 548,
      "Ġà´ħà´µà´¸": 549,
      "à´Ĺà´®": 550,
      "Ġà´¨à´Łà´ªà´Ł": 551,
      "à´·à´¯": 552,
      "Ġà´¯à´¹": 553,
      "Ġà´®à´°à´£": 554,
      "à´±à´Ļ": 555,
      "Ġà´ĩà´ª": 556,
      "à´ªà´¯": 557,
      "àµ»à´¸": 558,
      "à´¯à´±": 559,
      "à´²à´¨": 560,
      "à´ķà´°à´£": 561,
      "Ġà´ĩà´ķ": 562,
      "à´¸à´Ń": 563,
      "àµĩ,": 564,
      "à´¤àµ½": 565,
      "à´ļà´°": 566,
      "à´®à´¨": 567,
      "Ġà´ªà´¦": 568,
      "Ġà´İà´Ł": 569,
      "à´§à´¨": 570,
      "à´ªà´£": 571,
      "àµĢà´Ĥ": 572,
      "à´µà´¦": 573,
      "à´ľà´¨": 574,
      "à´±à´¨": 575,
      "Ġà´ĩà´²": 576,
      "à´Ńà´µà´¤": 577,
      "Ġà´ªà´²": 578,
      "Ġà´®à´¹": 579,
      "..": 580,
      "àµĨ,": 581,
      "Ġà´®à´¨à´¸": 582,
      "Ġà´ªà´Ł": 583,
      "Ġà´ıà´¤": 584,
      "à´¤à´ķ": 585,
      "àµģ:": 586,
      "Ġà´ħà´¸": 587,
      "Ġà´¶à´ķ": 588,
      "Ġà´ĸ": 589,
      "à´ļà´¨": 590,
      "Ġà´¨à´¨": 591,
      "àµģ,": 592,
      "à´µàµ¼": 593,
      "Ġà´ĵà´«": 594,
      "à´µà´£": 595,
      "Ġà´ķà´²": 596,
      "à´¡à´¨": 597,
      "à´ķà´ļ": 598,
      "à´µà´ķ": 599,
      "Ġà´Ĩà´³": 600,
      "à´ĩ": 601,
      "à´ŀà´¤": 602,
      "Ġà´¨à´Łà´ķ": 603,
      "Ġà´ħà´µàµ¼": 604,
      "Ġà´ļà´°": 605,
      "à´±à´±": 606,
      "à´¤à´¯": 607,
      "à´°à´µàµ¼à´¤": 608,
      "à´±à´°": 609,
      "Ġà´ªà´ł": 610,
      "à´¸à´¨": 611,
      "à´Ĩ": 612,
      "àµ¼à´µ": 613,
      "à´¸à´®": 614,
      "à´µà´²": 615,
      "Ġà´¨à´°": 616,
      "Ġà´ħà´°": 617,
      "à´·àµ»": 618,
      "Ġà´ĵà´°": 619,
      "à´°à´µà´§": 620,
      "à´¶à´Ļ": 621,
      "Ġà´®à´£": 622,
      "Ġà´¸àµ¼à´ķ": 623,
      "à´¶à´¤": 624,
      "à´°à´Ł": 625,
      "Ġ6": 626,
      "Ġà´¤à´Ł": 627,
      "à´®à´°": 628,
      "à´±à´¯": 629,
      "à´ķà´£à´®": 630,
      "à´¹à´®": 631,
      "à´°à´³": 632,
      "à´±à´²": 633,
      "à´Łà´²": 634,
      "à´²à´Ļ": 635,
      "Ġà´ĩà´¯": 636,
      "à´®à´¸": 637,
      "Ġ19": 638,
      "à´Ĥ:": 639,
      "àµ¼à´ļ": 640,
      "Ġà´ľà´¯": 641,
      "à´¨à´²": 642,
      "à´§à´®": 643,
      "Ġà´µàµ¼": 644,
      "Ġà´ħà´ŀ": 645,
      "à´¿:": 646,
      "Ġà´¤à´Ļ": 647,
      "âĢĮ": 648,
      "à´§à´ª": 649,
      "à´³à´µà´°": 650,
      "à´ķà´Ł": 651,
      "Ġà´Ĩà´¤": 652,
      "à´Łàµ¼à´¨": 653,
      "à´¨à´¨": 654,
      "Ġà´Ĵà´´": 655,
      "àµ¼à´ª": 656,
      "à´°à´ĸ": 657,
      "Ġà´µà´ķ": 658,
      "àµĤ.": 659,
      "Ġà´ªà´£": 660,
      "à´±à´®": 661,
      "Ġà´ħà´µà´³": 662,
      "à´µà´¨à´¨": 663,
      "àµ»à´¡": 664,
      "à´ªà´®": 665,
      "Ġà´Ńà´°à´£": 666,
      "à´¹à´¨": 667,
      "Ġà´Ĩà´Ĺ": 668,
      "à´İà´¨": 669,
      "à´¶à´¨": 670,
      "Ġ7": 671,
      "Ġà´¤à´³": 672,
      "Ġà´¶à´¤à´®": 673,
      "à´¤à´°à´®": 674,
      "Ġà´ľà´¨à´Ļ": 675,
      "000": 676,
      "à´¤à´°à´µ": 677,
      "Ġà´ĩà´Ł": 678,
      "à´®à´±": 679,
      "Ġà´İà´£": 680,
      "àµĭ.": 681,
      "à´Ľ": 682,
      "à´ĺà´Łà´¨": 683,
      "à´±à´ļ": 684,
      "Ġ10": 685,
      "Ġà´ĩà´Ļ": 686,
      "à´¥à´¯": 687,
      "à´Ĺà´¸": 688,
      "à´¯àµ¼": 689,
      "à´¨à´±": 690,
      "Ġà´Ĩà´¨": 691,
      "à´±àµ¼": 692,
      "Ġà´İà´´": 693,
      "Ġà´ķà´Ł": 694,
      "Ġ\"\"\"": 695,
      "à´ķà´µ": 696,
      "àµºà´Ĺ": 697,
      "Ġ8": 698,
      "Ġà´Ńà´ķ": 699,
      "àµ½à´¨": 700,
      "à´¹à´°": 701,
      "Ġ\"": 702,
      "à´³à´µ": 703,
      "àµ½à´ª": 704,
      "à´°à´³à´¤": 705,
      "à´®à´²": 706,
      "Ġà´ªà´°à´®": 707,
      "àµį:": 708,
      "àµ¼à´£": 709,
      "à´¦à´®": 710,
      "Ġà´Ĩà´¸": 711,
      "Ġà´¹à´°": 712,
      "àµ¼à´¥": 713,
      "Ġà´ĺ": 714,
      "ĠâĢĶ": 715,
      "àµ¼à´¦": 716,
      "Ġ201": 717,
      "à´°à´£à´®": 718,
      "Ġ?": 719,
      "Ġà´¨à´·": 720,
      "Ġà´¤à´¯": 721,
      "âĢĿ": 722,
      "Ġà´¨à´Ĺ": 723,
      "Ġà´ıà´ķ": 724,
      "Ġ12": 725,
      "à´²à´ķà´³": 726,
      "à´ķàµ½": 727,
      "Ġà´¤à´°": 728,
      "à´¸à´¤": 729,
      "à´²à´°": 730,
      "à´¡à´²": 731,
      "à´±à´¡": 732,
      "à´°à´ª": 733,
      "à´±à´ŀ": 734,
      "à´®à´¦": 735,
      "Ġ15": 736,
      "à´¨à´ª": 737,
      "à´¨à´µà´¨": 738,
      "àµ¾à´ª": 739,
      "àµ¼à´¶": 740,
      "Ġà´īà´¯à´°": 741,
      "à´Ĺà´£": 742,
      "Ġà´ĵà´Ł": 743,
      "à´¥à´²à´¤": 744,
      "à´¯à´®à´Ļ": 745,
      "à´µà´®": 746,
      "Ġà´īà´±à´ª": 747,
      "à´ķàµ»": 748,
      "Ġà´®à´´": 749,
      "à´°à´ļ": 750,
      "âĢ¦": 751,
      "àµ¼à´¡": 752,
      "àµ¼à´ľ": 753,
      "Ġà´ķà´£à´ķ": 754,
      "à´¦à´¨": 755,
      "Ġà´Ĩà´±": 756,
      "à´³à´ķ": 757,
      "à´¥à´¨": 758,
      "à´¯à´ķà´¨": 759,
      "à´·à´£à´¤": 760,
      "Ġà´īà´¯": 761,
      "Ġà´ħà´ªà´ķ": 762,
      "à´£à´¯": 763,
      "à´µà´ļ": 764,
      "Ġà´Ķ": 765,
      "Ġà´ķà´¥": 766,
      "Ġà´Ĵà´Ł": 767,
      "Ġà´ħà´µàµ»": 768,
      "âĢį": 769,
      "Ġà´µà´¸": 770,
      "à´¸à´¯": 771,
      "à´¯à´µà´°": 772,
      "Ġà´ħà´µà´¤à´°": 773,
      "à´¤à´µ": 774,
      "Ġ9": 775,
      "ĠâĢĻ": 776,
      "à´¯à´µà´¸": 777,
      "Ġà´ķà´¤": 778,
      "àµ¾à´ķ": 779,
      "à´ļà´±": 780,
      "âĢĻ": 781,
      "à´µà´°à´Ļ": 782,
      "Ġà´ĩà´·": 783,
      "Ġà´İà´ķ": 784,
      "Ġ,": 785,
      "à´·à´ª": 786,
      "Ġà´ķà´¸": 787,
      "Ġ:": 788,
      "à´¶à´¯": 789,
      "Ġà´®à´²à´¯": 790,
      "à´¨à´¸": 791,
      "Ġà´ªà´ŀ": 792,
      "à´¸à´®à´¯": 793,
      "à´¤à´¦": 794,
      "à´¹à´ļà´°": 795,
      "àµĭ,": 796,
      "à´¤à´ķà´°": 797,
      "Ġà´īàµ¾à´ª": 798,
      "Ġà´īà´¨": 799,
      "à´ļà´ª": 800,
      "Ġà´¬à´¹": 801,
      "Ġà´¸à´®à´¯": 802,
      "à´ĸà´²à´¯": 803,
      "à´ľà´±": 804,
      "Ġà´ľà´¸": 805,
      "Ġà´Ĭ": 806,
      "àµĩ?": 807,
      "àµĭà´Ĥ": 808,
      "Ġà´ªà´¨": 809,
      "20": 810,
      "Ġà´¤à´ķà´°": 811,
      "à´¬à´°": 812,
      "Ġà´ķà´ª": 813,
      "Ġà´°à´ľ": 814,
      "Ġà´ħà´ļ": 815,
      "à´¶à´®": 816,
      "Ġà´¨à´Łà´ª": 817,
      "Ġà´®à´²": 818,
      "Ġà´®à´ķ": 819,
      "à´£à´±": 820,
      "à´¯à´¤à´¯": 821,
      "Ġ11": 822,
      "Ġà´±à´£": 823,
      "à´ĺà´Ł": 824,
      "Ġà´®à´ķà´¨": 825,
      "à´¶à´ķ": 826,
      "à´¨à´°": 827,
      "à´İà´²": 828,
      "à´¯à´®à´¸à´Ń": 829,
      "à´¯à´£": 830,
      "à´·à´Ļ": 831,
      "à´ļà´µà´°": 832,
      "à´µà´±": 833,
      "à´ļà´ķ": 834,
      "Ġà´īà´Łà´¨": 835,
      "Ġà´ªà´¶": 836,
      "à´¦à´µ": 837,
      "à´®à´³": 838,
      "à´±à´¸": 839,
      "âģ": 840,
      "à´Ĥ?": 841,
      "âģł": 842,
      "àµ»à´±": 843,
      "à´·à´ķ": 844,
      "Ġà´ķà´¶": 845,
      "Ġà´İà´µ": 846,
      "Ġà´ĩà´¸": 847,
      "Ġà´µà´ļ": 848,
      "Ġà´ħà´¬": 849,
      "à´ķà´¸": 850,
      "àµģ?": 851,
      "Ġ14": 852,
      "Ġà´Ĩà´Ń": 853,
      "Ġ200": 854,
      "à´³à´³": 855,
      "àµį-": 856,
      "Ġ25": 857,
      "Ġà´¤à´²": 858,
      "à´¤à´Ļ": 859,
      "à´¯àµ½": 860,
      "àµģà´Ĥ?": 861,
      "Ġà´ħà´µà´ķ": 862,
      "Ġà´¸à´ŀ": 863,
      "à´¬à´¤": 864,
      "à´°à´®à´£à´¤": 865,
      "àµĩ.": 866,
      "àµĮ": 867,
      "Ġ18": 868,
      "àµ½à´¹": 869,
      "à´°à´£à´Ļ": 870,
      "à´´à´ķ": 871,
      "à´¶à´¦": 872,
      "Ġà´Ĵà´ª": 873,
      "àµĪà´Ĥ": 874,
      "Ġà´ĵà´¸": 875,
      "à´°à´®à´²": 876,
      "Ġà´ªà´ķà´°": 877,
      "Ġà´¬à´¸": 878,
      "Ġà´ħà´µà´¯": 879,
      "Ġà´®à´§": 880,
      "à´³à´ľ": 881,
      "à´§à´°": 882,
      "Ġà´ıà´´": 883,
      "Ġà´İà´«": 884,
      "Ġà´¸à´®à´°": 885,
      "à´³à´¯": 886,
      "à´Ĵ": 887,
      "à´µà´ª": 888,
      "à´¾.": 889,
      "Ġà´ħà´£": 890,
      "Ġà´ĩà´±": 891,
      "Ġà´ķà´Łà´¨": 892,
      "à´ķà´´": 893,
      "à´İà´«": 894,
      "àµįâĢĮ?": 895,
      "à´±à´£": 896,
      "Ġà´ķà´¯à´±": 897,
      "Ġ13": 898,
      "à´®à´ķ": 899,
      "à´ľà´°": 900,
      "à´¥à´°": 901,
      "Ġà´ıà´ķà´¦": 902,
      "à´°à´Ń": 903,
      "Ġà´ļà´¨": 904,
      "à´¦à´¤": 905,
      "Ġà´ªà´°à´¸": 906,
      "Ġà´ļà´Łà´Ļ": 907,
      "Ġà´ĩà´Łà´ª": 908,
      "Ġà´³": 909,
      "Âł": 910,
      "Ġà´µà´¯à´¸": 911,
      "à´°à´®à´£": 912,
      "Ġà´Ĵà´±": 913,
      "),": 914,
      "Ġà´ľà´¨à´¤": 915,
      "Ġà´¨à´¯": 916,
      "à´¥à´®": 917,
      "àµįâĢĮ,": 918,
      "à´ĸà´ª": 919,
      "àµ¼à´·": 920,
      "Ġà´µà´¹": 921,
      "Ġà´¤à´µà´£": 922,
      "Ġ''": 923,
      "à´Łàµ¼": 924,
      "àµºà´¸": 925,
      "à´Ńà´¯": 926,
      "à´§à´µ": 927,
      "Ġà´¯à´¥": 928,
      "Ġ16": 929,
      "Ġà´°à´®": 930,
      "à´ľà´¸": 931,
      "Ġà´¤à´ķ": 932,
      "àµĨ?": 933,
      "Ġà´®à´¦": 934,
      "Ġà´µà´§": 935,
      "à´£à´¨": 936,
      "à´¸à´²": 937,
      "Ġà´¡à´²": 938,
      "Ġ50": 939,
      "Ġà´Ĩà´µ": 940,
      "Ġà´£": 941,
      "à´¤à´¨à´Ļ": 942,
      "à´¢": 943,
      "à´µàµ»": 944,
      "Ġà´Ĩà´²": 945,
      "à´·à´µ": 946,
      "Ġà´Ķà´¦": 947,
      "Ġà´ľà´®": 948,
      "âĢĭâĢĭ": 949,
      "Ġà´ħà´ªà´ķà´Łà´¤": 950,
      "Ġà´ķà´¨": 951,
      "Ġà´¬à´²": 952,
      "à´Ĺà´µ": 953,
      "Ġà´¸à´®à´¯à´¤": 954,
      "à´ĸà´°": 955,
      "à´ķà´°à´®": 956,
      "à´°à´£à´¤": 957,
      "à´¤à´µà´°": 958,
      "à´¸à´°à´¤": 959,
      "Ġà´¸à´ľ": 960,
      "à´¦à´¯": 961,
      "Ġà´¸à´Ļ": 962,
      "ĠâĢĶâģł": 963,
      "Ġà´¨à´µ": 964,
      "à´·à´ķà´³": 965,
      "à´·à´£à´Ļ": 966,
      "à´¯à´®à´²": 967,
      "Ġ17": 968,
      "Ġà´¸àµ¼à´µ": 969,
      "Ġà´Ĺà´¤": 970,
      "à´µà´¹": 971,
      "à´¶à´µ": 972,
      "Ġà´İàµ»": 973,
      "à´ªà´°à´®": 974,
      "à´Łà´µà´°": 975,
      "à´¿)": 976,
      "Ġà´ĵà´ª": 977,
      "à´Ĩà´°": 978,
      "à´²à´±": 979,
      "Ġà´İà´ª": 980,
      "Ġà´ħà´µàµ¼à´ķ": 981,
      "à´Łàµ»": 982,
      "Ġà´ħà´¶": 983,
      "à´²à´²": 984,
      "à´³à´®": 985,
      "à´®à´¹à´¤": 986,
      "Ġà´ħà´µàµ¾": 987,
      "à´¸à´°à´Ļ": 988,
      "Ġà´Ńà´°": 989,
      "Ġà´ķà´¨à´¤": 990,
      "à´¹à´¸": 991,
      "Ġà´ĩà´Łà´¯": 992,
      "à´ķàµ¼": 993,
      "à´£à´²": 994,
      "Ġà´ĺà´Ł": 995,
      "Ġà´¸à´ĸ": 996,
      "à´¾,": 997,
      "à´µà´§": 998,
      "à´µà´´": 999,
      "Ġà´ľà´¨à´±à´²": 1000,
      "à´¹à´¨à´Ļ": 1001,
      "Ġà´®à´ŀ": 1002,
      "à´Łà´£": 1003,
      "à´°àµ»": 1004,
      "àµįâĢĭ.": 1005,
      "Ġàµ½": 1006,
      "à´±àµ½": 1007,
      "à´Ĺà´³": 1008,
      "à´¸à´Ļ": 1009,
      "à´®à´ķà´³": 1010,
      "à´ĥ": 1011,
      "à´ħà´¤": 1012,
      "Ġà´®à´ķà´³": 1013,
      "à´ĺà´Łà´¨à´¯": 1014,
      "Ġ30": 1015,
      "à´¤à´ķà´³": 1016,
      "Ġà´Ĩà´ª": 1017,
      "à´¦à´°à´¨": 1018,
      "Ġà´İà´³": 1019,
      "à´Ńà´µà´Ļ": 1020,
      "à´§à´¯": 1021,
      "Ġà´¨à´¶": 1022,
      "Ġà´ļàµ¼à´ļ": 1023,
      "à´²à´£": 1024,
      "àµģàµį": 1025,
      "Ġà´ªà´´": 1026,
      "Ġà´«à´²": 1027,
      "àµ¼à´Ĺ": 1028,
      "àµįâĢį)": 1029,
      "àµįâĢį:": 1030,
      "Ġà´īà´ªà´¦": 1031,
      "à´¤à´°à´¤": 1032,
      "à´·à´ķà´°": 1033,
      "à´§à´Ļ": 1034,
      "Ġà´Ĩà´ĺ": 1035,
      "al": 1036,
      "à´³à´ª": 1037,
      "or": 1038,
      "à´µà´¸à´Ļ": 1039,
      "Ġà´ħà´Ĺ": 1040,
      "à´Ľà´¨": 1041,
      "in": 1042,
      "Ġà´±à´¦": 1043,
      "à´°à´£à´¯": 1044,
      "Ġà´°à´µ": 1045,
      "à´·à´¯à´¤": 1046,
      "Ġà´®à´Łà´Ļ": 1047,
      "à´°à´®à´¤": 1048,
      "à´ªà´³": 1049,
      "à´¹à´Ļ": 1050,
      "Ġà´Ĺà´µ": 1051,
      "à´§à´¨à´¯": 1052,
      "àµ½à´µ": 1053,
      "er": 1054,
      "à´ĸà´¤": 1055,
      "à´¦à´Ĺà´¤": 1056,
      "à´ļà´Ł": 1057,
      "àµºà´ķ": 1058,
      "an": 1059,
      "Ġà´¡à´¯": 1060,
      "Ġà´¸à´²": 1061,
      "Ġà´Ĵà´³": 1062,
      "à´ķà´ķ": 1063,
      "à´µà´¨à´ķ": 1064,
      "à´°à´ķà´Ł": 1065,
      "on": 1066,
      "Ġ100": 1067,
      "Ġà´Ĩà´§": 1068,
      "à´«à´²": 1069,
      "à´ªà´¨à´Ļ": 1070,
      "à´ķà´³à´¯": 1071,
      "Ġà´¤à´Łà´¯": 1072,
      "à´¸à´£": 1073,
      "Ġà´§à´°": 1074,
      "à´²à´ļ": 1075,
      "Ġà´ħà´¯à´ļ": 1076,
      "à´µàµ¼à´ķ": 1077,
      "Ġà´ħà´ľ": 1078,
      "Ġà´ĩà´¦": 1079,
      "à´µà´³": 1080,
      "Ġà´¨à´¦": 1081,
      "à´¸à´±": 1082,
      "à´¯à´®à´¤": 1083,
      "à´²à´§": 1084,
      "à´ķà´£à´ķ": 1085,
      "99": 1086,
      "Ġà´¦à´ķ": 1087,
      "Ġ24": 1088,
      "à´°à´ªà´¤": 1089,
      "Ġà´ħà´´": 1090,
      "àµį!": 1091,
      "Ġà´īà´¯àµ¼à´¨": 1092,
      "Ġà´īà´ļ": 1093,
      "à´§à´ķ": 1094,
      "à´ľà´¯à´¨": 1095,
      "Ġà´Ĩà´´": 1096,
      "Ġà´Ľ": 1097,
      "à´°à´®à´Ļ": 1098,
      "Ġà´ĩà´µà´¯": 1099,
      "Ġà´®à´°à´£à´¤": 1100,
      "à´ķà´°à´£à´Ļ": 1101,
      "Ġà´ħà´¡": 1102,
      "à´¨à´Ł": 1103,
      "Ġ!": 1104,
      "Ġà´Ļ": 1105,
      "Ġà´ªà´²à´°": 1106,
      "à´µà´µ": 1107,
      "à´¤à´°à´£": 1108,
      "à´¦à´Ĺ": 1109,
      "Ġà´¡à´¯à´±à´ķ": 1110,
      "à´¤à´µà´£": 1111,
      "à´ªà´²": 1112,
      "à´£à´°": 1113,
      "à´¿âĢĭ": 1114,
      "à´²à´¸": 1115,
      "à´ªà´¦": 1116,
      "Ġà´ħà´Łà´ķ": 1117,
      "Ġà´ħà´Łà´Ļ": 1118,
      "à´³à´¨": 1119,
      "à´°à´ľ": 1120,
      "Ġà´µà´Łà´ķ": 1121,
      "à´İà´®": 1122,
      "à´¶à´ª": 1123,
      "àµģà´Ĥ:": 1124,
      "à´¦à´Ļ": 1125,
      "Ġà´īà´²": 1126,
      "Ġà´±à´·": 1127,
      "à´¤à´ķà´¤": 1128,
      "à´Ĺà´°": 1129,
      "Ġ21": 1130,
      "à´ĵ": 1131,
      "à´§à´ķà´°": 1132,
      "à´µà´Ł": 1133,
      "à´£à´µ": 1134,
      "à´µà´¸à´¤": 1135,
      "à´ķà´°à´£à´¤": 1136,
      "à´£à´ķ": 1137,
      "à´®àµ¾": 1138,
      "à´®àµ¼à´¶": 1139,
      "à´¸à´µ": 1140,
      "Ġà´ķà´¯": 1141,
      "àµį)": 1142,
      "Ġà´Ĵà´ķ": 1143,
      "Ġà´Ĩàµ¼": 1144,
      "Ġà´ħà´ªà´ķà´Ł": 1145,
      "à´ľà´¯à´ª": 1146,
      "Ġà´ªà´ļ": 1147,
      "ĠâĢĵ": 1148,
      "Ġà´®à´´à´¯": 1149,
      "à´°à´²": 1150,
      "Ġà´¸à´µ": 1151,
      "Ġà´µà´¯": 1152,
      "Ġà´ķà´µ": 1153,
      "Ġà´ľà´¡": 1154,
      "à´ī": 1155,
      "à´ĺà´¤": 1156,
      "à´¯à´®à´ª": 1157,
      "Ġ22": 1158,
      "à´®à´£": 1159,
      "à´°à´ļà´°": 1160,
      "à´´à´ª": 1161,
      "à´ļà´ķà´³": 1162,
      "à´ķà´ķà´ª": 1163,
      "à´ªàµ¼": 1164,
      "Ġà´¸à´¸": 1165,
      "Ġà´¡àµ½à´¹": 1166,
      "à´ķà´¸à´¨": 1167,
      "Ġ40": 1168,
      "à´®à´®": 1169,
      "à´¿-": 1170,
      "àµįâĢĮ)": 1171,
      "à´£à´Ļ": 1172,
      "à´ħà´µà´°": 1173,
      "Ġà´İà´ŀ": 1174,
      "ĠN": 1175,
      "à´ªà´±à´¯": 1176,
      "à´®à´Ļ": 1177,
      "Ġà´Ĩà´¹": 1178,
      "...": 1179,
      "à´¬à´²": 1180,
      "Ġà´¶à´¬": 1181,
      "Ġà´Ĳà´ķ": 1182,
      "Ġà´ĩà´±à´ķ": 1183,
      "à´Łà´µ": 1184,
      "à´³à´¨à´¤": 1185,
      "Ġà´ıà´°": 1186,
      "à´ħà´²": 1187,
      "Ġà´Ĩà´¶à´Ļ": 1188,
      "Ġ/": 1189,
      "Ġt": 1190,
      "Ġà´ĩà´±à´Ļ": 1191,
      "à´ŀà´Ļ": 1192,
      "Ġà´¨à´Ĺà´°à´¤": 1193,
      "Ġà´ķà´±": 1194,
      "à´ĩà´¤": 1195,
      "ĠâĢ¦": 1196,
      "à´Ĥ)": 1197,
      "à´Ĥ!": 1198,
      "19": 1199,
      "ĠR": 1200,
      "àµģ.\"": 1201,
      "à´ķà´Ļ": 1202,
      "à´ľà´®": 1203,
      "à´¬àµ¼": 1204,
      "50": 1205,
      "at": 1206,
      "à´¶à´¦à´®": 1207,
      "Ġà´İà´¯à´°": 1208,
      "Ġà´īà´Łàµ»": 1209,
      "à´ĸà´²à´ķà´³": 1210,
      "Ġà´Ĳà´¸": 1211,
      "àµ»à´ª": 1212,
      "à´¸à´Ńà´¯": 1213,
      "ĠA": 1214,
      "à´¥à´²": 1215,
      "âĢĿ\"": 1216,
      "à´¥à´¤": 1217,
      "Ġà´ĩà´Łà´¤": 1218,
      "àµĨà´Ĥ": 1219,
      "Ġà´īà´®": 1220,
      "ĠM": 1221,
      "Ġà´ļà´¤": 1222,
      "Ġâ": 1223,
      ".\"": 1224,
      "à´ļà´²": 1225,
      "à´ĸà´²": 1226,
      "à´ĩà´¨": 1227,
      "à´²àµ¼": 1228,
      "àµ»à´ķ": 1229,
      "Ġà´ĩà´²à´ķ": 1230,
      "à´ªà´°à´¯": 1231,
      "Ġà´ħà´«": 1232,
      "à´Ĺà´¨": 1233,
      "Ġà´Ĵà´¤": 1234,
      "à´¾à´Ĥ,": 1235,
      "à´°à´¶à´¸": 1236,
      "àµĢ.": 1237,
      "à´®à´µ": 1238,
      "àµį.\"": 1239,
      "Ġà´¤à´Łà´¸": 1240,
      "à´¬à´±": 1241,
      "Ġà´¤à´°à´¤": 1242,
      "à´¸à´¸": 1243,
      "Ġà´ķà´Łà´²": 1244,
      "Ġà´¸à´ķà´²": 1245,
      "à´ªà´Ļ": 1246,
      "à´¿?": 1247,
      "Ġà´¸à´¦": 1248,
      "à´µàµ¼à´£": 1249,
      "Ġ23": 1250,
      "Ġà´Ńà´¯à´ª": 1251,
      "à´ķà´¥": 1252,
      "à´İàµ½": 1253,
      "à´µà´Ļ": 1254,
      "à´¤à´®à´²": 1255,
      "Ġà´İà´ļ": 1256,
      "à´¤àµ¼": 1257,
      "Ġà´¸à´Ńà´¯": 1258,
      "Ġà´¨à´°à´ķ": 1259,
      "Ġà´²à´³": 1260,
      "Ġ37": 1261,
      "Ġà´ķà´ķ": 1262,
      "ar": 1263,
      "à´Ĺà´ª": 1264,
      "Ġà´°à´¹à´¸": 1265,
      "à´£à´ª": 1266,
      "Ġà´īà´Łà´®": 1267,
      "Ġ2020": 1268,
      "Ġà´ªà´¦à´µ": 1269,
      "à´¥à´µ": 1270,
      "Ġà´ļà´²à´ļ": 1271,
      "ĠS": 1272,
      "à´¤à´±": 1273,
      "à´¸à´«": 1274,
      "à´¦àµ¼à´¶": 1275,
      "àµĪ:": 1276,
      "en": 1277,
      "Ġà´ĩà´µàµ¼": 1278,
      "à´¤à´¸": 1279,
      "Ġà´Ĭà´°": 1280,
      "à´µà´¤à´¨": 1281,
      "Ġà´ĺà´Łà´ķ": 1282,
      "à´°à´®à´¨": 1283,
      "à´ľà´ķ": 1284,
      "à´³à´µà´¨": 1285,
      "Ġà´¤à´¤": 1286,
      "à´´à´¯": 1287,
      "Ġà´ħà´Łà´ļ": 1288,
      "à´µà´¸à´µ": 1289,
      "Ġà´µàµ¼à´§": 1290,
      "\"\"\"": 1291,
      "àµ¾à´¡": 1292,
      "Ġ[": 1293,
      "àµĨ)": 1294,
      "à´µà´Ń": 1295,
      "à´¶à´°": 1296,
      "Ġà´Ĩàµ¼à´ķ": 1297,
      "à´¥à´²à´Ļ": 1298,
      "Ġà´®à´¸": 1299,
      "àµ¼à´Ń": 1300,
      "Ġ28": 1301,
      "à´ľà´¨à´Ļ": 1302,
      "Ġà´ľà´¨à´±àµ½": 1303,
      "Ġà´ĩà´®": 1304,
      "à´±à´µà´°": 1305,
      "à´·à´ķà´¨": 1306,
      "Ġà´Ńà´°à´£à´ĺà´Łà´¨": 1307,
      "es": 1308,
      "à´µà´ķà´²": 1309,
      "Ġà´®à´¹à´¤": 1310,
      "Ġà´ľà´²": 1311,
      "Ġà´īà´°": 1312,
      "Ġà´Ĺà´µà´£": 1313,
      "à´¨à´¦": 1314,
      "à´ªà´ķà´°": 1315,
      "à´¨à´¤à´²": 1316,
      "Ġà´ķà´Łà´ķ": 1317,
      "à´¯à´Ł": 1318,
      "Ġà´¤à´²à´¯": 1319,
      "à´¯à´ķà´°à´®": 1320,
      "à´ĸà´£": 1321,
      "à´¹à´µ": 1322,
      "à´ªà´±à´ŀ": 1323,
      "Ġà´Ńàµ¼à´¤": 1324,
      "Ġà´ªà´łà´¨": 1325,
      "à´·à´£à´²": 1326,
      "Ġà´¶à´¤": 1327,
      "Ġà´ħà´Łà´¯": 1328,
      "am": 1329,
      "à´Łà´ķà´¯": 1330,
      "à´¾à´Ĥ?": 1331,
      "à´¤à´ķà´¨": 1332,
      "Ġà´İà´¯": 1333,
      "à´¯à´§": 1334,
      "Ġà´ªà´²à´¤": 1335,
      "Ġà´ªà´³": 1336,
      "Ġà´İà´¡": 1337,
      "à´²à´µà´´": 1338,
      "Ġà´ķà´ł": 1339,
      "à´°à´ķà´Łà´¨": 1340,
      "Ġà´İàµ½": 1341,
      "à´ķà´³à´ŀ": 1342,
      "à´¸àµ¼": 1343,
      "Ġà´ķàµ¼à´£": 1344,
      "Ġà´ĩà´°à´Ł": 1345,
      "Ġà´İà´±à´£": 1346,
      "à´ļà´®": 1347,
      "Ġà´Ĵà´®": 1348,
      "Ġà´ħà´¹à´®": 1349,
      "Ġà´Ĳà´ª": 1350,
      "Ġà´ķà´·": 1351,
      "Ġà´¸à´®àµ¼à´ª": 1352,
      "à´ªà´ķà´®": 1353,
      "Ġà´ħà´µà´§": 1354,
      "ĠI": 1355,
      "Ġà´ıà´·": 1356,
      "Ġà´ĵà´³": 1357,
      "à´¯à´¦": 1358,
      "Ġà´±àµºà´¸": 1359,
      "Ġà´ĩàµ»": 1360,
      "Ġà´¸à´Ń": 1361,
      "Ġà´īà´ªà´Ń": 1362,
      "Ġà´µàµ¼à´·": 1363,
      "à´ĺà´°": 1364,
      "à´±àµ»": 1365,
      "à´³à´°": 1366,
      "Ġà´ĵà´¹à´°": 1367,
      "ĠC": 1368,
      "à´¡àµ½à´¹": 1369,
      "Ġà´¬à´ľà´±": 1370,
      "Ġà´¸à´ļ": 1371,
      "à´¯à´ķàµ»": 1372,
      "à´·à´£à´®": 1373,
      "Ġà´ħà´ķà´²": 1374,
      "Ġ..": 1375,
      "à´ķà´°à´£à´®": 1376,
      "à´·à´£à´µ": 1377,
      "à´ªà´µ": 1378,
      "àµ¼à´¬": 1379,
      "à´³à´Ļ": 1380,
      "Ġb": 1381,
      ").": 1382,
      "à´¡à´²à´¤": 1383,
      "Ġ60": 1384,
      "Ġà´Ĩàµ»à´¡": 1385,
      "à´ļà´¸": 1386,
      "Ġà´¸à´®à´¯à´®": 1387,
      "à´¤à´£": 1388,
      "Ġà´µàµ»": 1389,
      "à´®àµ»": 1390,
      "à´Ī": 1391,
      "à´¹à´¨à´¤": 1392,
      "Ġà´°à´ŀ": 1393,
      "à´¤à´²à´¤": 1394,
      "à´¯à´¶": 1395,
      "à´µàµ½": 1396,
      "à´¡à´²à´Ļ": 1397,
      "Ġà´ħà´°à´Ļ": 1398,
      "à´¯à´®à´¸à´Ńà´¯": 1399,
      "Ġà´Ĺà´µà´°": 1400,
      "àµį'": 1401,
      "à´ļà´µ": 1402,
      "àµ¼à´£à´®": 1403,
      "à´ªà´£à´Ļ": 1404,
      "Ġà´¤à´Łà´µ": 1405,
      "Ġà´ħà´¥à´µ": 1406,
      "Ġà´ĩà´ŀ": 1407,
      "Ġà´ľà´¨à´¤à´¯": 1408,
      "à´Ĵà´°": 1409,
      "Ġà´ħà´³à´µ": 1410,
      "à´ķà´¯à´±": 1411,
      "Ġà´®à´®": 1412,
      "àµģ!": 1413,
      "Ġà´ĩàµ»à´¸": 1414,
      "Ġ26": 1415,
      "Ġ27": 1416,
      "Ġ500": 1417,
      "à´¬à´Ļ": 1418,
      "Ġà´ħà´µà´¸à´°": 1419,
      "Ġà´¤à´£": 1420,
      "Ġà´İà´®": 1421,
      "à´³à´±": 1422,
      "Ġà´¶à´®": 1423,
      "à´Ńà´µà´®": 1424,
      "à´°à´¤à´¯": 1425,
      "àµ¼à´¶à´¨": 1426,
      "Ġ32": 1427,
      "à´ļà´¨à´¯": 1428,
      "Ġ35": 1429,
      "Ġà´ĵà´£": 1430,
      "Ġà´Ĩà´²à´ª": 1431,
      "à´·à´¯à´Ļ": 1432,
      "àµįâĢį?": 1433,
      "Ġà´µàµ¼à´¦": 1434,
      "àµģà´ĥ": 1435,
      "à´Ĺà´±": 1436,
      "Ġà´§à´¨": 1437,
      "Ġà´¤à´Łà´ŀ": 1438,
      "à´¾âĢĭ": 1439,
      "Ġ31": 1440,
      "à´·à´£àµ½": 1441,
      "à´²à´¯à´¤": 1442,
      "Ġ2019": 1443,
      "Ġà´µà´§à´¶": 1444,
      "Ġà´ħà´¨à´¨": 1445,
      "Ġà´µà´Ł": 1446,
      "à´¾âĢį": 1447,
      "ad": 1448,
      "à´¶à´¨à´¤": 1449,
      "à´µà´¨à´¯": 1450,
      "Ġà´¶à´¶": 1451,
      "àµįâĢį-": 1452,
      "à´¸à´ª": 1453,
      "à´µà´³à´¤": 1454,
      "Ġà´īà´ªà´°": 1455,
      "Ġà´¶à´¬à´°": 1456,
      "à´µà´¸à´®": 1457,
      "Ġà´ªà´²à´ª": 1458,
      "àµ¼à´¸": 1459,
      "à´¯à´£à´®": 1460,
      "Ġà´«à´²à´®": 1461,
      "à´ķà´°à´µ": 1462,
      "à´¹àµ»": 1463,
      "âĢ¦.": 1464,
      "à´¨à´¡": 1465,
      "à´ľà´¯à´®": 1466,
      "à´°à´°": 1467,
      "à´ķà´°à´°": 1468,
      "30": 1469,
      "à´İàµ»": 1470,
      "à´Ĳà´¯": 1471,
      "Ġà´µà´ķà´¯": 1472,
      "Ġà´ħà´¤à´²": 1473,
      "Ġà´®à´®à´¤": 1474,
      "Ġà´ħà´°à´µ": 1475,
      "Ġà´ıàµ¼à´ª": 1476,
      "Ġà´ħà´ķà´¤": 1477,
      "àµ½à´¸": 1478,
      "Ġà´¸à´¹à´ķà´°à´£": 1479,
      "Ġà´§à´¨à´®à´¨": 1480,
      "à´¿âĢĮ": 1481,
      "à´¯à´ķà´®": 1482,
      "Ġà´Ĺà´£": 1483,
      "à´´à´¤": 1484,
      "à´ĸà´ķà´³": 1485,
      "à´ľà´¯à´¤": 1486,
      "àµįâĢį!": 1487,
      "àµįâĢ¦": 1488,
      "Ġ199": 1489,
      "à´¡à´±": 1490,
      "à´°à´£à´µ": 1491,
      "à´°à´¦à´®": 1492,
      "Ġà´µà´£": 1493,
      "Ġà´ķà´¥à´¯": 1494,
      "Ġà´ħà´µà´¶": 1495,
      "Ġà´Ńà´°à´£à´ķ": 1496,
      "à´§à´¨à´µ": 1497,
      "Ġà´µàµ¼à´·à´¤": 1498,
      "à´Ńà´µà´µ": 1499,
      "Ġà´¦à´°": 1500,
      "à´¤à´ķà´Ļ": 1501,
      "Ġà´¸à´¬": 1502,
      "Ġà´¹àµ¼à´ľ": 1503,
      "Ġà´®à´²à´ª": 1504,
      "àµĤ,": 1505,
      "Ġà´«à´¯à´²": 1506,
      "Ġà´°à´¸": 1507,
      "Ġ70": 1508,
      "à´¸àµ½": 1509,
      "à´¤à´¨à´¤": 1510,
      "à´ªà´¨à´¤": 1511,
      "Ġà´¨à´Ĺà´°": 1512,
      "Ġà´ľà´¨à´¸": 1513,
      "Ġà´Ĺà´°": 1514,
      "-à´¾à´Ĥ": 1515,
      "Ġ0": 1516,
      "Ġà´µà´¯à´¨": 1517,
      "à´®à´ª": 1518,
      "Ġà´İà´¬": 1519,
      "Ġ|": 1520,
      "à´¯à´ľ": 1521,
      "Ġà´Ĩà´¨à´¨": 1522,
      "à´¹à´°à´®": 1523,
      "à´İà´¯": 1524,
      "à´Ĺà´²": 1525,
      "à´µà´¨à´Ļ": 1526,
      "Ġà´Ĩà´Ł": 1527,
      "Ġ29": 1528,
      "Ġ80": 1529,
      "Ġà´īà´¯àµ¼à´¤": 1530,
      "à´®à´±à´¯": 1531,
      "à´ĸà´®": 1532,
      "ĠP": 1533,
      "à´ļà´ķà´¨": 1534,
      "Ġà´®à´Ł": 1535,
      "Ġà´ľà´µ": 1536,
      "à´¡à´°": 1537,
      "Ġà´ıà´ľà´¨": 1538,
      "Ġà´²à´£": 1539,
      "ĪĻ": 1540,
      "ic": 1541,
      "à´ªà´ķà´¨": 1542,
      "à´°à´¹à´Ļ": 1543,
      "Ġà´īà´±à´Ļ": 1544,
      "Ġà´ªà´µ": 1545,
      "à´Ńà´ķ": 1546,
      "ion": 1547,
      "à´®à´¤à´²à´¯": 1548,
      "it": 1549,
      "à´¦à´¯à´¤": 1550,
      "à´¸à´ķ": 1551,
      "àµĩà´¾?": 1552,
      "Ġà´ļà´Ł": 1553,
      "à´°à´ķà´³": 1554,
      "Ġà´«à´£": 1555,
      "Ġà´īà´±à´ķ": 1556,
      "Ġ150": 1557,
      "à´¶à´¯à´®": 1558,
      "à´²à´Ń": 1559,
      "Ġà´Ńà´°à´£à´ĺà´Łà´¨à´¯": 1560,
      "Ġà´Ĩà´µà´°": 1561,
      "Ġ:âģł": 1562,
      "à´¤à´£à´®": 1563,
      "à´«à´²à´®": 1564,
      "à´ľà´²": 1565,
      "à´¨àµ½": 1566,
      "Ġà´¦à´®": 1567,
      "àµºà´²": 1568,
      "à´°à´£à´ķ": 1569,
      "à´Łàµ½": 1570,
      "Ġà´¦à´¶": 1571,
      "Ġà´ıà´²": 1572,
      "à´°à´ķà´Łà´®": 1573,
      "st": 1574,
      "à´µà´°à´®à´±": 1575,
      "àµį..": 1576,
      "ĠÂ": 1577,
      "Ġ-âĢį": 1578,
      "à´²à´¬": 1579,
      "à´İà´ļ": 1580,
      "àµįâĢĻ": 1581,
      "Ġà´¤à´µà´£à´¯": 1582,
      "Ġ300": 1583,
      "à´Łà´£à´®": 1584,
      "àµį...": 1585,
      "Ġà´±à´¹": 1586,
      "Ġà´¸à´®à´¨": 1587,
      "Ġà´®à´°à´£à´ª": 1588,
      "à´Ńà´µà´ª": 1589,
      "àµģâĢĭ": 1590,
      "Ġà´īà´ªà´®": 1591,
      "à´ŀà´¨": 1592,
      "à´ķà´ķà´³": 1593,
      "Ġà´ľà´ª": 1594,
      "Ġà´¶à´Ļ": 1595,
      "à´°à´¬": 1596,
      "à´Ĩàµ¼": 1597,
      "Ġà´®à´±à´ķ": 1598,
      "Ġà´ĩà´µàµ¼à´ķ": 1599,
      "à´°à´¦à´°": 1600,
      "Ġà´Ĩà´¦à´°": 1601,
      "Ġà´ªà´´à´¯": 1602,
      "àµĩà´Ĥ": 1603,
      "à´¦à´¨à´¯": 1604,
      "Ġà´¨à´Łàµ»": 1605,
      "à´·à´¤à´¯": 1606,
      "à´¤à´³": 1607,
      "Ġà´īà´ªà´¤": 1608,
      "à´¤à´°à´®à´¨": 1609,
      "Ġà´¤à´ķàµ¼à´¨": 1610,
      "à´ķà´¤à´¯": 1611,
      "àµ½à´¤": 1612,
      "à´¾âĢįà´Ĥ": 1613,
      "à´´à´²": 1614,
      "Ġà´Īà´¸": 1615,
      "Ġà´¨à´Ĺà´°à´Ļ": 1616,
      "à´ķà´¸à´¨à´¤": 1617,
      "à´Ńà´µà´¸": 1618,
      "Ġà´ĩà´³à´ķ": 1619,
      "à´Łà´¨à´¤": 1620,
      "à´§à´°à´¨": 1621,
      "à´³à´µàµ¼": 1622,
      "à´ªà´¨à´¯": 1623,
      "Ġà´ħàµ¼à´¥": 1624,
      "Ġà´ĵà´ķ": 1625,
      "Ġ-âĢįà´¾âĢįà´Ĥ": 1626,
      "à´Łà´µà´¨": 1627,
      "Ġà´µà´ŀ": 1628,
      "àµ»à´®": 1629,
      "Ġà´ĵà´µà´±": 1630,
      "à´®à´ļà´¨": 1631,
      "à´¤à´Ł": 1632,
      "àµ¼à´²à´®": 1633,
      "Ġà´ķà´³à´ķ": 1634,
      "à´ĺà´Łà´¨à´ķà´³": 1635,
      "à´¯à´µà´¯": 1636,
      "à´ªà´¨à´®": 1637,
      "à´¶à´²": 1638,
      "Ġà´ĩà´¬": 1639,
      "ue": 1640,
      "à´¸à´¹": 1641,
      "Ġà´®à´Łà´ķ": 1642,
      "Ġ2018": 1643,
      "à´ħà´¨": 1644,
      "ĠT": 1645,
      "Ġà´ħà´ªà´®": 1646,
      "à´¨à´µàµ¼à´ķ": 1647,
      "àµ¼à´ĺ": 1648,
      "à´Ĺà´¬": 1649,
      "Ġà´ķà´®à´²": 1650,
      "Ġà´ħà´µà´°à´¤": 1651,
      "à´Ńà´¤": 1652,
      "à´Ńà´°à´£": 1653,
      "Ġà´ħà´ĸ": 1654,
      "à´Ĩà´¨": 1655,
      "Ġà´İà´¯àµ¼": 1656,
      "Ġà´īà´±": 1657,
      "à´§à´ķà´®": 1658,
      "Ġ%": 1659,
      "om": 1660,
      "à´¿!": 1661,
      "à´§à´¨à´Ļ": 1662,
      "Ġ202": 1663,
      "Ġà´¨à´®à´¸": 1664,
      "10": 1665,
      "à´ĸà´¨": 1666,
      "à´ķà´°à´£à´µ": 1667,
      "à´±àµ¼à´¨": 1668,
      "à´Łàµ¼à´®": 1669,
      "Ġà´¤à´²à´®": 1670,
      "à´¯à´Ń": 1671,
      "Ġà´īà´ªà´ķà´°à´£à´Ļ": 1672,
      "à´²à´ĺà´Ł": 1673,
      "à´¯à´ķà´³": 1674,
      "àµ¾à´Ł": 1675,
      "àµĤà´Ĥ": 1676,
      "Ġà´ħà´¯à´ķ": 1677,
      "à´µà´°à´µ": 1678,
      "Ġà´®à´ľ": 1679,
      "Ġà´¤à´¦": 1680,
      "âĢĮàµį": 1681,
      "à´ĸà´Ļ": 1682,
      "à´¤à´ķàµ¾": 1683,
      "à´±àµ»à´¸": 1684,
      "ĠG": 1685,
      "à´°à´¤à´®": 1686,
      "Ġà´ļà´ķ": 1687,
      "à´ªà´ª": 1688,
      "à´ķà´°à´¨": 1689,
      "à´¤à´¶": 1690,
      "à´¨à´¬": 1691,
      "à´Ĺà´¡": 1692,
      "à´®à´¤à´²": 1693,
      "àµ½à´®": 1694,
      "à´ķà´¥à´¯": 1695,
      "à´Ĳà´İ": 1696,
      "Ġ45": 1697,
      "à´ķà´¶": 1698,
      "Ġà´ĩà´µà´¨": 1699,
      "hp": 1700,
      "à´¦à´ª": 1701,
      "à´¾?": 1702,
      "à´¤à´°à´ķ": 1703,
      "à´¯à´®à´µ": 1704,
      "Ġà´¤à´²à´¸": 1705,
      "Ġm": 1706,
      "à´³à´²": 1707,
      "à´ªà´¸": 1708,
      "ĠRe": 1709,
      "à´ħà´¦": 1710,
      "à´²à´¯à´³à´µ": 1711,
      "Ġà´¸àµ¼à´µà´ķà´²": 1712,
      "Ġbhp": 1713,
      "à´ĸà´¯": 1714,
      "Ġà´īà´±à´ļ": 1715,
      "àµ¾à´¸": 1716,
      "Ġà´Ĩà´µàµ¼à´¤": 1717,
      "Ġ33": 1718,
      "Ġà´¤à´²à´¤": 1719,
      "Ġà´§à´¨à´ķ": 1720,
      "à´°à´·": 1721,
      "Ġà´¸à´¹à´ķà´°": 1722,
      "à´ķà´Łà´¤": 1723,
      "Ġà´ľà´¨à´ª": 1724,
      "Ġ36": 1725,
      "Ġà´¨à´ķ": 1726,
      "Ġ48": 1727,
      "à´®à´§": 1728,
      "Ġà´®à´±à´¨": 1729,
      "à´£à´ļ": 1730,
      "Ġà´®à´ķàµ»": 1731,
      "à´¨à´µà´¯": 1732,
      "à´µà´¶à´¤": 1733,
      "re": 1734,
      "à´¹à´°à´£à´¤": 1735,
      "à´¸à´ķà´³": 1736,
      "Ġà´«à´²à´ª": 1737,
      "à´ķà´ľ": 1738,
      "à´Ĺà´£à´¨": 1739,
      "à´°à´±": 1740,
      "à´Ĥ-": 1741,
      "à´±à´ªà´¤": 1742,
      "à´ªà´¬": 1743,
      "à´®àµ¼": 1744,
      "à´¨à´¶": 1745,
      "à´¯à´¸à´Ń": 1746,
      "à´µà´¨à´¤": 1747,
      "à´ľàµ»": 1748,
      "à´¸à´ŀ": 1749,
      "à´µà´ľ": 1750,
      "Ġà´İà´±": 1751,
      "à´ŀà´ª": 1752,
      "Ġà´ĵàµ¼à´®": 1753,
      "Ġ370": 1754,
      "à´¶à´¨à´®": 1755,
      "Ġà´µà´²à´¤": 1756,
      "Ġ90": 1757,
      "Ġà´ĩà´°à´¯": 1758,
      "que": 1759,
      "à´¯à´¸à´¨": 1760,
      "Ġà´®à´°à´£à´®": 1761,
      "Ġà´¦à´¯": 1762,
      "àµģà´Ĥ!": 1763,
      "Ġ)": 1764,
      "ĠX": 1765,
      "Ġà´¬à´ļ": 1766,
      "Ġà´¨à´°à´ķà´¤": 1767,
      "Ġà´ªà´²à´¯": 1768,
      "Ġà´īàµ¾à´ķ": 1769,
      "àµ¼à´µà´¹": 1770,
      "à´Łà´ķà´¤": 1771,
      "à´¦à´²": 1772,
      "âĢĭâĢĭâĢĭ": 1773,
      "à´Łà´Ł": 1774,
      "à´ķà´Łà´ķ": 1775,
      "à´¨à´£": 1776,
      "à´µàµ¼à´Ĺ": 1777,
      "à´¶à´¨à´·": 1778,
      "à´¨à´µàµ¼": 1779,
      "àµ¼à´¬à´¨": 1780,
      "à´°à´¹à´®": 1781,
      "àµĭ:": 1782,
      "Ġà´¦à´¶à´²à´ķ": 1783,
      "à´¯à´µàµ¼": 1784,
      "à´ı": 1785,
      "Ġ198": 1786,
      "à´ļà´¯à´®": 1787,
      "à´Łà´ļ": 1788,
      "ĠNm": 1789,
      "à´¯à´¸à´Ńà´¯": 1790,
      "Ġà´Ĵà´¬": 1791,
      "Ġ34": 1792,
      "Ġà´ĺà´Łà´ķà´Ļ": 1793,
      "à´ħà´µà´¨": 1794,
      "le": 1795,
      "à´µà´°à´£": 1796,
      "he": 1797,
      "Ġà´µà´ļà´¨à´Ļ": 1798,
      "Ġà´ķà´°à´¯": 1799,
      "Ġtor": 1800,
      "Ġà´Ĩà´«": 1801,
      "à´ľà´¯àµ»": 1802,
      "à´¤àµ»": 1803,
      "à´¡à´ķ": 1804,
      "Ġà´ķàµº": 1805,
      "à´¤à´µà´¨": 1806,
      "à´°à´¸à´°": 1807,
      "Ġà´ħàµ¼": 1808,
      "Ġà´Ĩà´®": 1809,
      "Ġà´Ĭàµ¼à´ľ": 1810,
      "à´®àµ¼à´¦": 1811,
      "Ġtorque": 1812,
      "ĠâĪĻ": 1813,
      "Ġà´¦à´²": 1814,
      "à´¤àµ¼à´ª": 1815,
      "Ġà´°à´ľà´¨": 1816,
      "Ġà´ªà´Łà´°": 1817,
      "Ġc": 1818,
      "àµģ-": 1819,
      "à´¯à´ķà´ķ": 1820,
      "Ġà´Ľà´¤": 1821,
      "Ġà´ªà´£à´®": 1822,
      "Ġà´ħà´µà´¸à´°à´Ļ": 1823,
      "Ġà´·à´®": 1824,
      "Ġà´µà´°à´µ": 1825,
      "Ġà´®à´¤à´¤": 1826,
      "Ġà´ľà´¨à´µ": 1827,
      "à´¹à´²": 1828,
      "à´¯àµ¼à´®": 1829,
      "à´Ľàµ»": 1830,
      "Ġà´ķà´°à´¸": 1831,
      "Ġ2014": 1832,
      "à´·à´¯à´®": 1833,
      "Ġ2017": 1834,
      "ĠB": 1835,
      "Ġs": 1836,
      "Ġà´ķà´³à´¯": 1837,
      "à´°à´µà´ļ": 1838,
      "Ġà´Ńà´¯": 1839,
      "à´°à´®à´®": 1840,
      "Ġà´Ńà´µà´¨": 1841,
      "Ġà´ħà´µà´Ĺà´£": 1842,
      "à´¦à´°à´Ļ": 1843,
      "Ġ...": 1844,
      "Ġà´µà´³àµ¼à´ļ": 1845,
      "is": 1846,
      "Ġà´¶àµ¼à´®": 1847,
      "à´Ĺà´ķ": 1848,
      "àµįàµį": 1849,
      "à´¤à´ķà´®": 1850,
      "à´µàµ¼à´¤": 1851,
      "Ġ64": 1852,
      "Ġà´µàµ¼à´·à´Ļ": 1853,
      "Ġà´īàµ½à´ª": 1854,
      "à´®à´²à´¯": 1855,
      "à´¹à´¯": 1856,
      "Ġà´ķà´Łà´¤": 1857,
      "à´ŀà´¯": 1858,
      "Ġà´Īà´Ł": 1859,
      "Ġà´ıà´ª": 1860,
      "à´¥à´Ļ": 1861,
      "Ġà´¹à´¸": 1862,
      "Ġà´±à´¸": 1863,
      "à´¨à´ªà´ķ": 1864,
      "Ġ197": 1865,
      "Ġà´µà´³àµ¼à´¤": 1866,
      "à´¡à´¯": 1867,
      "âĢĺ": 1868,
      "à´²à´µà´°": 1869,
      "'.": 1870,
      "Ġà´ķà´Łà´ª": 1871,
      "à´Łàµ¼à´ļ": 1872,
      "àµĨ!": 1873,
      "à´²àµ»à´¡": 1874,
      "Ġà´ľà´¯à´°": 1875,
      "à´ľàµ»à´¸": 1876,
      "à´¸àµº": 1877,
      "Ġ75": 1878,
      "àµ½à´¡": 1879,
      "Ġà´«à´¸": 1880,
      "à´¶à´®à´¨": 1881,
      "Ġà´¶à´¸": 1882,
      "à´²à´¯à´Ļ": 1883,
      "Ġà´°à´¹": 1884,
      "Ġà´Ķà´Ł": 1885,
      "Ġà´ħà´Ńà´¯": 1886,
      "à´Ĳà´¸": 1887,
      "à´´à´ļ": 1888,
      "Ġà´¸àµ¼": 1889,
      "à´ķà´Łà´¨": 1890,
      "Ġà´¹à´°à´ľ": 1891,
      "Ġà´ķà´ļ": 1892,
      "à´¶à´Ń": 1893,
      "Ġà´ªà´°à´²": 1894,
      "Ġ250": 1895,
      "à´¤à´ļ": 1896,
      "Ġ400": 1897,
      "à´¥à´²à´®": 1898,
      "à´¨à´®à´²": 1899,
      "âĢľ": 1900,
      "Ġà´Ĩàµ¼à´Ł": 1901,
      "à´°à´¹à´¤": 1902,
      "à´¯à´µà´¨": 1903,
      "âĢĵ": 1904,
      "Ġà´ľà´²à´¨": 1905,
      "Ġà´¤àµ¼à´ķ": 1906,
      "àµ»à´µà´²": 1907,
      "Ġà´Ĳà´«": 1908,
      "àµģ)": 1909,
      "Ġà´®à´²à´ķ": 1910,
      "à´´à´Łà´Ļ": 1911,
      "à´°à´ªà´°à´®": 1912,
      "à´Ńà´ľ": 1913,
      "ĠF": 1914,
      "Ġà´ħà´ľà´¯": 1915,
      "Ġn": 1916,
      "Ġà´Ĩà´ŀ": 1917,
      "18": 1918,
      "Ġà´Ĵà´¡": 1919,
      "à´³à´³à´¤": 1920,
      "Ġà´ªà´łà´¨à´¤": 1921,
      "Ġà´µà´¯à´±": 1922,
      "Ġà´ħà´µàµ¾à´ķ": 1923,
      "àµĩ,)": 1924,
      "Ġà´ħà´µà´²": 1925,
      "Ġà´µà´´à´Ļ": 1926,
      "à´Łà´£à´¤": 1927,
      "à´¯à´ªà´°": 1928,
      "Ġà´«à´²à´Ļ": 1929,
      "Ġà´®à´¯à´ķ": 1930,
      "Ġà´°à´¤": 1931,
      "Ġà´¶à´²": 1932,
      "Ġà´¸à´®à´°à´¤": 1933,
      "ĠV": 1934,
      "à´ķà´¬": 1935,
      "à´¯àµ»à´¸": 1936,
      "Ġà´İàµ»à´ľ": 1937,
      "Ġà´īà´±à´µ": 1938,
      "à´°à´µà´®": 1939,
      "Ġà´ļà´²": 1940,
      "Ġà´¡à´¬": 1941,
      "Ġà´Ĩà´ļ": 1942,
      "Ġà´¨à´¯à´¤": 1943,
      "à´Ĺà´®à´¨": 1944,
      "Ġà´ĩàµ»à´¡": 1945,
      "à´¶à´¨à´µ": 1946,
      "àµĩ!": 1947,
      "à´²à´ķà´¨": 1948,
      "à´¿âĢĻ": 1949,
      "ĠRead": 1950,
      "à´¤à´µà´¤": 1951,
      "à´ļàµ¼": 1952,
      "Ġà´ªà´ķà´²": 1953,
      "à´´à´ŀ": 1954,
      "Ġà´ħà´ªà´ķà´Łà´ķ": 1955,
      "ala": 1956,
      "Ġà´¹à´¨": 1957,
      "Ġà´Ĺà´µàµ¼à´£": 1958,
      "15": 1959,
      "Ġp": 1960,
      "à´£àµ»": 1961,
      "à´±à´Ĺ": 1962,
      "12": 1963,
      "à´³à´µà´¯": 1964,
      "Ġà´ħà´¹": 1965,
      "à´Ļà´²": 1966,
      "Ġà´°à´ļ": 1967,
      "Ġ42": 1968,
      "à´²à´µà´¨": 1969,
      "à´¦àµ¼": 1970,
      "à´¤à´²à´¯": 1971,
      "à´ļà´µà´¨": 1972,
      "ac": 1973,
      "Ġà´µàµ¼à´Ĺ": 1974,
      "à´¦à´¯à´Ļ": 1975,
      "à´¥à´ķà´³": 1976,
      "Ġà´Ńà´°à´£à´¤": 1977,
      "à´¥à´¤à´¯": 1978,
      "àµį\"\"": 1979,
      "Ġà´¤à´²à´µà´¨": 1980,
      "Ġ2016": 1981,
      "à´İà´ĩ": 1982,
      "Ġà´°à´¸à´ķà´°à´®": 1983,
      "à´¬à´¯": 1984,
      "Ġà´ħà´±à´¬": 1985,
      "à´ªàµ»": 1986,
      "Ġà´īà´£à´°": 1987,
      "Ġ44": 1988,
      "Ġà´ĩà´³à´µ": 1989,
      "Ġà´¸à´£": 1990,
      "ĠD": 1991,
      "Ġin": 1992,
      "Ġà´¸à´¯à´¨": 1993,
      "à´´à´µ": 1994,
      "999": 1995,
      "Ġà´ĵàµ¼à´ķ": 1996,
      "ĠH": 1997,
      "Ġà´ħàµ½": 1998,
      "à´ĺà´Ļ": 1999,
      "Ġà´Ĳà´¶": 2000,
      "à´¥àµ¼": 2001,
      "ia": 2002,
      "Ġ38": 2003,
      "à´¦à´ķ": 2004,
      "à´¹à´¬": 2005,
      "à´³à´ļ": 2006,
      "à´¦à´¨à´¤": 2007,
      "à´Ĺà´£à´¨à´¯": 2008,
      "à´Ĺà´¯": 2009,
      "Ġà´ľàµ¼à´®": 2010,
      "Ġà´§à´µ": 2011,
      "Ġà´Ĵà´²": 2012,
      "à´³à´µàµ¼à´ķ": 2013,
      "il": 2014,
      "Ġà´µà´®": 2015,
      "ew": 2016,
      "and": 2017,
      "à´ĺà´®": 2018,
      "ed": 2019,
      "àµĪ,": 2020,
      "à´ŀà´Ł": 2021,
      "Ġo": 2022,
      "à´¨à´Ĺà´°": 2023,
      "Ġà´¸à´®à´Ĺ": 2024,
      "Ġà´Ĺàµ¼à´Ń": 2025,
      "Ġà´®à´´à´ķ": 2026,
      "à´·à´°": 2027,
      "ĠL": 2028,
      "Ġà´®àµ¼à´¦": 2029,
      "à´¨àµ½à´ķ": 2030,
      "Ġà´ħà´¯à´²": 2031,
      "à´¶à´¬": 2032,
      "à´¯àµ¼à´¤": 2033,
      "àµįâĢĮ!": 2034,
      "Ġ39": 2035,
      "Ġà´ªà´¬": 2036,
      "Ġà´ħà´®à´°": 2037,
      "Ġà´ĵàµºà´²": 2038,
      "à´¹àµ»à´²": 2039,
      "Ġà´Ĩà´¶à´¯à´µ": 2040,
      "à´³à´¸": 2041,
      "Ġà´Ĩà´ķà´¯": 2042,
      "ĠE": 2043,
      "à´¯à´¤à´ķà´³": 2044,
      "Ġà´¨à´¸": 2045,
      "à´ħà´®": 2046,
      "à´Ĺàµ¼": 2047,
      "Ġà´µà´·": 2048,
      "à´ľà´¯à´ķà´°à´®": 2049,
      "Ġ196": 2050,
      "à´·à´®à´¤": 2051,
      "as": 2052,
      "Ġ194": 2053,
      "à´¿'": 2054,
      "à´łà´®": 2055,
      "à´Ĺà´¤à´¯": 2056,
      "à´¤à´¤à´¯": 2057,
      "Ġà´®à´°à´£à´ķ": 2058,
      "àµĨ:": 2059,
      ".)": 2060,
      "àµ¼à´·à´ķ": 2061,
      "Ġà´ļà´Ļ": 2062,
      "us": 2063,
      "à´¨à´¯à´¤": 2064,
      "Ġf": 2065,
      "à´¬à´¸": 2066,
      "Ġà´±à´«": 2067,
      "à´°à´ªà´°": 2068,
      "Ġà´®à´°à´£à´µ": 2069,
      "Ġà´¬à´¯": 2070,
      "à´¬à´¦": 2071,
      "à´ªà´£à´¤": 2072,
      "Ġà´µà´±": 2073,
      "Ġà´¸à´ķ": 2074,
      "à´¯à´¹": 2075,
      "Ġà´īà´Łà´®à´¸": 2076,
      "Ġà´ķà´²à´ķ": 2077,
      ",,": 2078,
      "Ġà´īà´Ł": 2079,
      "Ġà´ħà´¹à´Ļ": 2080,
      "Ġà´ħà´¨à´§": 2081,
      "à´°à´¸à´ķ": 2082,
      "Ġà´®à´¤à´µ": 2083,
      "àµ¼à´²": 2084,
      "à´Ńà´Ļ": 2085,
      "16": 2086,
      "Ġà´ªà´´à´Ļ": 2087,
      "à´·à´£à´°": 2088,
      "à´¨à´ķà´¤": 2089,
      "à´¡àµ½": 2090,
      "à´¾!": 2091,
      "à´°àµ½": 2092,
      "Ġà´Ĳà´İà´¸": 2093,
      "ĠâĢĺâĢĺ": 2094,
      "à´²àµ¼à´¤": 2095,
      "à´±à´¬": 2096,
      "àµĭ!": 2097,
      "à´¦à´¨à´®": 2098,
      "à´£à´µà´°": 2099,
      "500": 2100,
      "ĠK": 2101,
      "à´ħà´ª": 2102,
      "Ġà´¬à´Ł": 2103,
      "à´°à´¤à´¤": 2104,
      "Ġà´ĺà´Łà´¨": 2105,
      "Ġà´µà´·à´³": 2106,
      "à´ķà´µà´°": 2107,
      "à´ķà´Łà´²": 2108,
      "Ġà´®à´°à´£à´¸": 2109,
      "à´´à´Ļ": 2110,
      "à´¬à´ķ": 2111,
      "Ġà´ľà´¯à´²": 2112,
      "àµį),": 2113,
      "Ġà´®à´°à´Ļ": 2114,
      "à´¤à´ķàµ¼": 2115,
      "à´°à´£à´¯à´¤": 2116,
      "à´ªàµ½": 2117,
      "àµįâĢį),": 2118,
      "Ġà´¨à´¬": 2119,
      "Ġà´®à´ķàµ¾": 2120,
      "à´Łàµº": 2121,
      "Ġà´ħà´£à´ķ": 2122,
      "so": 2123,
      "Ġà´¤à´²à´ķ": 2124,
      "Ġà´¸à´¹à´®à´¨": 2125,
      "à´¨à´ªà´°à´®": 2126,
      "25": 2127,
      "à´°à´®à´ķ": 2128,
      "Ġà´Ĩà´ķà´°": 2129,
      "àµĨâĢ¦": 2130,
      "ame": 2131,
      "Ġ195": 2132,
      "à´°à´¦àµ¼à´¶": 2133,
      "Ġ65": 2134,
      "un": 2135,
      "Ġà´ħà´ªà´ķà´Łà´®": 2136,
      "à´¬à´µ": 2137,
      "Ġà´ľà´¯à´²à´³": 2138,
      "à´µà´°à´¯": 2139,
      "Ġà´ıà´ľàµ»à´¸": 2140,
      "Ġà´ļà´°à´ķ": 2141,
      "ro": 2142,
      "à´¸à´®à´¯à´¤": 2143,
      "Ġà´ĩà´ļ": 2144,
      "à´Ĺà´¢": 2145,
      "à´Ńà´°": 2146,
      "Ġà´īà´ªà´ľ": 2147,
      "à´ªà´£à´µ": 2148,
      "à´ĵà´³": 2149,
      "Ġà´«à´¯à´°": 2150,
      "àµºà´®": 2151,
      "à´«à´°": 2152,
      "à´Łà´ŀ": 2153,
      "Ġ43": 2154,
      "Ġà´ħà´ªà´²à´ª": 2155,
      "âĢĻ.": 2156,
      "ĠâĢį": 2157,
      "Ġà´Ĩà´¶à´¯à´Ļ": 2158,
      "Ġà´¾": 2159,
      "Ġà´ħà´ªà´ķà´Łà´Ļ": 2160,
      "à´§à´¨à´ķà´³": 2161,
      "Ġà´µà´¸à´¤": 2162,
      "Ġà´¦à´¯à´µ": 2163,
      "Ġà´µà´°à´£": 2164,
      "Ġ49": 2165,
      "Ġà´´": 2166,
      "Ġà´ķà´³à´ŀ": 2167,
      "à´ļà´ķàµ¾": 2168,
      "Ġà´ľà´¨à´ķ": 2169,
      "à´®à´¶": 2170,
      "à´Łà´ªà´°": 2171,
      "àµįâĢĿ": 2172,
      "Ġà´ħà´µà´¤": 2173,
      "à´ľà´¨à´ª": 2174,
      "Ġà´¸à´¯": 2175,
      "Ġà´ĩà´Łà´ķ": 2176,
      "à´¡à´¨à´¤": 2177,
      "à´¨à´¤à´¯": 2178,
      "à´ħà´Ļ": 2179,
      "Ġà´ĩà´Łà´µ": 2180,
      "Ġà´ħàµ¼à´¤": 2181,
      "Ġà´Ĩà´¯à´¤": 2182,
      "11": 2183,
      "à´²à´®à´¤": 2184,
      "Ġà´µàµ¼à´ķ": 2185,
      "Ġà´¤à´²à´µ": 2186,
      "à´ŀà´µà´°": 2187,
      "à´¹à´¨à´®": 2188,
      "à´¡à´£": 2189,
      "Ġà´µà´´à´ķ": 2190,
      "Ġà´¶à´°à´¤": 2191,
      "Ġà´µà´§à´ķ": 2192,
      "à´Łà´¯à´ļ": 2193,
      "à´¹à´°à´£": 2194,
      "ent": 2195,
      "Ġà´¦à´¤": 2196,
      "Ġà´ķà´Łà´ķà´³": 2197,
      "à´Ĩà´ª": 2198,
      "Ġà´¤à´ķàµ¼à´¤": 2199,
      "el": 2200,
      "à¤": 2201,
      "à´Ķ": 2202,
      "à´ĤâĢĮ": 2203,
      "àµĤ!": 2204,
      "Ġà´Ĩà´ķàµ¼à´·": 2205,
      "Ġd": 2206,
      "à´ļà´°à´£": 2207,
      "àµ»à´µ": 2208,
      "à´£àµ½": 2209,
      "Ġà´Ĭà´¨": 2210,
      "à´¶à´¯à´¤": 2211,
      "à´³à´ķà´³": 2212,
      "à´¾à´Ĥ:": 2213,
      "Ġà´«à´¯àµ¼": 2214,
      "à´§à´®à´¨": 2215,
      "à´ľà´µ": 2216,
      "à´·à´®à´®": 2217,
      "ĠÂ·": 2218,
      "Ġà´¨à´´": 2219,
      "Ġà´ĵà´±à´ŀ": 2220,
      "Ġà´®à´±à´ļ": 2221,
      "à´Łà´ķà´³": 2222,
      "Ġà´ĵà´¡": 2223,
      "à´¸àµ»": 2224,
      "à´¨à´¦à´£": 2225,
      "à´²àµ»à´¸": 2226,
      "17": 2227,
      "à´¬à´°à´¤": 2228,
      "Ġà´²à´¹à´°": 2229,
      "Ġà´²à´ĺ": 2230,
      "Ġà´ķàµ¼à´·à´ķ": 2231,
      "Ġà´¨à´Ĺà´°à´®": 2232,
      "à´¶à´¯à´Ļ": 2233,
      "à´±à´ķà´³": 2234,
      "àµĭâĢĭ": 2235,
      "Ġâĸ": 2236,
      "Ġ55": 2237,
      "Ġà´±à´µà´¨": 2238,
      "Ġà´µà´³àµ¼à´¨": 2239,
      "àµĭ-": 2240,
      "ing": 2241,
      "à´§à´¸": 2242,
      "à´°à´Ĺ": 2243,
      "à´¯à´®à´ªà´°à´®": 2244,
      "ation": 2245,
      "Ġà´ĵà´¯": 2246,
      "à´°à´®à´£à´Ļ": 2247,
      "ĠAl": 2248,
      "ews": 2249,
      "àµģ...": 2250,
      "à´·à´¤à´ķà´³": 2251,
      "Ġà´¸à´ª": 2252,
      "à´¯à´£à´¨": 2253,
      "à´ªà´¦à´®": 2254,
      "Ġ125": 2255,
      "à´³à´¤à´²": 2256,
      "à´°à´¸à´µ": 2257,
      "à´ĺà´µ": 2258,
      "Ġà´¶à´ª": 2259,
      "Ġ47": 2260,
      "Ġà´²à´¯": 2261,
      "à´§à´¨à´¤": 2262,
      "Ġà´®à´°à´£à´Ļ": 2263,
      "Ġ52": 2264,
      "à´«à´²à´Ļ": 2265,
      "à´ĸà´°à´¨": 2266,
      "ur": 2267,
      "Ġà´ªà´±à´¯à´ª": 2268,
      "14": 2269,
      "à´±à´«": 2270,
      "à´µà´°à´®": 2271,
      "à´ļà´¨à´ķà´³": 2272,
      "Ġà´¸à´¹à´ª": 2273,
      "à´ķà´ŀ": 2274,
      "à´®à´¬": 2275,
      "Ġ2015": 2276,
      "à´¤à´²à´¨": 2277,
      "à´°à´¥à´®": 2278,
      "Ġà´ħà´ªà´°": 2279,
      "''": 2280,
      "Ġà´ħà´¯à´¯": 2281,
      "à´Ļà´³à´¤": 2282,
      "à´ķà´°à´¯": 2283,
      "et": 2284,
      "à´ªà´®à´²": 2285,
      "àµģàµį.": 2286,
      "à´¹à´°à´£à´Ļ": 2287,
      "à´Łà´ªà´Ł": 2288,
      "à´ļà´¯à´ª": 2289,
      "Ġà´ħà´²à´Ļ": 2290,
      "Ġà´ªà´®": 2291,
      "Ġk": 2292,
      "Ġà´Ńà´¯à´Ļ": 2293,
      "Ġà´Ĩà´¶à´¯": 2294,
      "à´±à´Ł": 2295,
      "à´ĸà´¨à´¤": 2296,
      "Ġà´¦à´³": 2297,
      "Ġà´¬à´¦": 2298,
      "ol": 2299,
      "à´¬à´®": 2300,
      "à´°à´¸à´®": 2301,
      "àµĥà´Ĥ": 2302,
      "à´µà´¨à´ķà´³": 2303,
      "à´°à´³à´¯": 2304,
      "Ġà´ĸà´¨": 2305,
      "Ġ54": 2306,
      "à´ªà´ķà´Łà´¤": 2307,
      "ĠâĢİ\"": 2308,
      "àµ½à´«": 2309,
      "à´°à´¹à´£": 2310,
      "Ġà´Ĺà´¡": 2311,
      "à´¯à´ķà´°": 2312,
      "à´İà´ķ": 2313,
      "à´¯à´ļ": 2314,
      "Ġà´ķà´¥à´ķà´³": 2315,
      "à´°à´ķà´®": 2316,
      "à´¦à´°àµ»": 2317,
      "Ġà´ªà´´à´ķ": 2318,
      "Ġà´ĸà´¤": 2319,
      "Ġà´Īà´ľ": 2320,
      "àµģà´Ĥ)": 2321,
      "à´İà´ª": 2322,
      "Ġà´µà´¯à´²": 2323,
      "Ġà´Ńà´Ł": 2324,
      "ĠW": 2325,
      "id": 2326,
      "Ġà´Ĺà´µàµ¼à´£àµ¼": 2327,
      "Ġ&": 2328,
      "Ġà´ķà´µà´°": 2329,
      "Ġà´ħà´µà´¸à´°à´®": 2330,
      "àµį/": 2331,
      "à´Ńà´®": 2332,
      "Ġà´µà´ļà´¨": 2333,
      "Ġà´Ĩà´´à´¤": 2334,
      "Ġof": 2335,
      "à´¤à´®à´¨": 2336,
      "60": 2337,
      "à´°à´¸àµ¼à´ķ": 2338,
      "à´·à´ķàµ¾": 2339,
      "Ġà´ħà´¤à´¤": 2340,
      "à´®à´Łà´ķ": 2341,
      "à´Łà´¸": 2342,
      "à´İàµ½à´İà´®": 2343,
      "Ġ120": 2344,
      "à´¯à´®à´®": 2345,
      "Ġà´ªà´±à´¯à´£": 2346,
      "ĠU": 2347,
      "Ġà´ĭ": 2348,
      "à´ĺà´¨": 2349,
      "à´¡à´Ļ": 2350,
      "à´®à´°à´£": 2351,
      "à´Ĳà´ķ": 2352,
      "àµįâĢįâĢĮ": 2353,
      "Ġà´§à´¨à´¸": 2354,
      "Ġà´ħà´ªà´ķà´Łà´ķà´°à´®": 2355,
      "Ġà´Ĩà´·": 2356,
      "à´°à´®à´µ": 2357,
      "Ġà´¨à´Ĺà´°à´¸": 2358,
      "Ġà´¸à´¹à´ķà´°à´£à´¤": 2359,
      "à´ķà´³à´²": 2360,
      "Ġà´ħà´²à´ķ": 2361,
      "à´¯àµº": 2362,
      "Ġà´¨à´¯à´¤à´¨": 2363,
      "Ġà´ľà´°": 2364,
      "à´¯à´µà´ķ": 2365,
      "Ġà´Ĺà´µàµºà´®": 2366,
      "à´µà´ªà´°": 2367,
      "à´¸àµ¼à´µ": 2368,
      "à´¯àµ¼à´ķ": 2369,
      "Ġà´Ĩà´³à´ª": 2370,
      "Ġà´¶à´¨": 2371,
      "ec": 2372,
      "à´¨àµ¼": 2373,
      "àµ»à´¸àµ¼": 2374,
      "à´¥àµ»": 2375,
      "Ġà´ķàµ¾": 2376,
      "à´²àµ»": 2377,
      "àµĪ.": 2378,
      "Ġà´īà´¯à´°à´¤": 2379,
      "àµģ..": 2380,
      "àµģà´Ĥ...": 2381,
      "Ġw": 2382,
      "à´³àµ¼": 2383,
      "àµģ.)": 2384,
      "Ġà´ķà´¬": 2385,
      "Ġà´ĸà´£": 2386,
      "Ġà´ļà´µ": 2387,
      "àµ»à´·àµ»": 2388,
      "Ġà´¤à´¸": 2389,
      "à´¨à´¤à´¨": 2390,
      "à´¯à´Ĺ": 2391,
      "Ġà´ħàµ½à´ª": 2392,
      "à´ªà´ļ": 2393,
      "Ġà´ķà´®à´¨": 2394,
      "ĠO": 2395,
      "à´·à´¤à´ķàµ¾": 2396,
      "Ġi": 2397,
      "à´ĺàµ¼": 2398,
      "Ġà´ķàµ¼à´¤": 2399,
      "Ġà´ĩàµ»à´«": 2400,
      "Ġà´Ĩà´¡": 2401,
      "Ġr": 2402,
      "à´£à´¸": 2403,
      "à´®à´¹": 2404,
      "à´¤à´ķà´µ": 2405,
      "ĠAlso": 2406,
      "à´¿âĢ¦": 2407,
      "à´¯à´ĺà´Ł": 2408,
      "àµįâĢį...": 2409,
      "à´łà´¤": 2410,
      "Ġ2000": 2411,
      "à´¤à´¯à´ļ": 2412,
      "Ġ46": 2413,
      "à´ķà´¯à´²": 2414,
      "Ġà´ķàµ¼à´·": 2415,
      "à´ªà´£à´®": 2416,
      "Ġà´§à´¨à´¸à´¹": 2417,
      "àµ»à´Ł": 2418,
      "à´·à´£à´ķ": 2419,
      "Ġà´Ĳà´¡": 2420,
      "àµĨâĢĭ": 2421,
      "à´¨à´Ĺà´±": 2422,
      "à´ªà´´": 2423,
      "Ġà´²à´§": 2424,
      "à´Ļà´¯": 2425,
      "Ġà´¬à´ľ": 2426,
      "à´Ĥ'": 2427,
      "à´ļà´¶": 2428,
      "80": 2429,
      "Ġà´ħàµ¼à´ª": 2430,
      "à´¹à´¦": 2431,
      "àµĢ,": 2432,
      "à´ĸàµ¼": 2433,
      "Ġà´¬à´°": 2434,
      "à´°à´¯à´¤": 2435,
      "Ġà´ĩà´¤à´°": 2436,
      "200": 2437,
      "ov": 2438,
      "Ġà´ħà´¸à´®": 2439,
      "à´¤àµ¼à´ķ": 2440,
      "Ġ56": 2441,
      "à´«à´±à´¨": 2442,
      "Ġà´ķàµ½à´ª": 2443,
      "àµįâĢĮ:": 2444,
      "Ġà´Ĳà´Ł": 2445,
      "40": 2446,
      "àµ¼à´Ĺà´¨": 2447,
      "à´°à´ķà´Łà´¨à´®": 2448,
      "à´ľà´¶": 2449,
      "Ġ41": 2450,
      "à´¯à´¸à´®": 2451,
      "àµį(": 2452,
      "Ġà´ĩà´³": 2453,
      "à´¹à´±": 2454,
      "Ġà´¸àµ½à´®": 2455,
      "Ġà´¯à´¨": 2456,
      "àµĬ.": 2457,
      "à´¹à´°à´£à´®": 2458,
      "Ġà´Ĩà´®à´¸": 2459,
      "à´£à´£": 2460,
      "à´µà´³à´Ļ": 2461,
      "à´²à´ľ": 2462,
      "Ġà´ħà´Łà´ŀ": 2463,
      "à´¤à´¨à´®": 2464,
      "Ġà´µà´²à´¯": 2465,
      "à´µàµ¼à´·": 2466,
      "à´§à´¨à´ķ": 2467,
      "à´łà´¯": 2468,
      "Ġà´īà´¸": 2469,
      "à´°à´ķà´Łà´¨à´¤": 2470,
      "ot": 2471,
      "à´¤à´®à´®": 2472,
      "à´¤à´²à´®": 2473,
      "à´ľà´¨à´ķà´®": 2474,
      "à´·à´ķàµ¼": 2475,
      "à´¤à´¸à´®": 2476,
      "à´ĸà´µ": 2477,
      "Ġà´®àµ½": 2478,
      "Ġà´¬à´ŀ": 2479,
      "àµģâĢ¦": 2480,
      "à´µà´¸à´¨": 2481,
      "à´¨à´Łà´ªà´Ł": 2482,
      "Ġ2011": 2483,
      "um": 2484,
      "à´µà´¤à´Ļ": 2485,
      "à´¡à´¬": 2486,
      "Ġà´Ĳà´¯": 2487,
      "à´£à´¤à´¯": 2488,
      "ir": 2489,
      "à´·à´®à´¯": 2490,
      "Ġà´ķà´ŀ": 2491,
      "Ġà´¬à´±": 2492,
      "Ġà´īà´Ń": 2493,
      "Ġà´ªà´°à´®à´ķ": 2494,
      "21": 2495,
      "à´µà´°à´Łà´Ļ": 2496,
      "à´ľà´¤": 2497,
      "à´¯à´¬": 2498,
      "à´¤à´°à´Ļ": 2499,
      "Ġà´«à´±à´µ": 2500,
      "à´¨à´Ń": 2501,
      "Ġà´ªà´°à´¤": 2502,
      "à´¦à´¸à´ŀ": 2503,
      "à´¯à´ªà´°à´®": 2504,
      "Ġà´ªà´łà´¨à´Ļ": 2505,
      "à´ļà´Łà´ķ": 2506,
      "Ġ128": 2507,
      "Ġà´ħà´²à´°": 2508,
      "Ġ51": 2509,
      "à´¹à´ķ": 2510,
      "à´ķà´µà´²": 2511,
      "à´ĵà´°": 2512,
      "à´®à´ķàµ¾": 2513,
      "Ġà´İàµ»à´¸": 2514,
      "à´®à´µà´°": 2515,
      "à´ħà´µ": 2516,
      "à´¨àµ¼à´ľ": 2517,
      "ĠIn": 2518,
      "75": 2519,
      "à´µà´°à´¤": 2520,
      "Ġà´ĩàµ»à´·": 2521,
      "Ġà´ħà´¤à´µà´°": 2522,
      "Ġà´Īà´¯": 2523,
      "àµįâĢįàµĨ": 2524,
      "Ġà´Ĩà´ļà´°": 2525,
      "Ġà´¤à´µ": 2526,
      "Ġà´¤à´°à´£": 2527,
      "Ġà´ĵà´«à´±": 2528,
      "Ġà´ľà´¨à´®": 2529,
      "Ġà´¸à´®à´°à´ķ": 2530,
      "à´¿âĢĭâĢĭ": 2531,
      "Ġv": 2532,
      "à´´à´Łà´ķ": 2533,
      "à´Łà´ķà´°": 2534,
      "Ġà´ľà´²à´ª": 2535,
      "à´¯à´¬à´¨": 2536,
      "à´ļà´¨à´¤": 2537,
      "àµģà´Ĥ.\"": 2538,
      "à´°à´ªà´ŀ": 2539,
      "Ġà´²à´ĸ": 2540,
      "à´²à´Ł": 2541,
      "Ġà´²à´Ļ": 2542,
      "Ġà´Ńà´°à´®": 2543,
      "à´µà´¶à´®": 2544,
      "ĠâĢ¦.": 2545,
      "Ġ2021": 2546,
      "Ġà´µà´¶": 2547,
      "Ġ_": 2548,
      "à´·àµ»à´¸": 2549,
      "à´²à´ķàµ¾": 2550,
      "à´ĸà´ķàµ¾": 2551,
      "Ġ2013": 2552,
      "Ġà´īà´Ńà´¯à´ķà´ķ": 2553,
      "Ġà´ªà´±à´ķ": 2554,
      "à´¸àµ¼à´ķ": 2555,
      "Ġ58": 2556,
      "àµĨàµĨ": 2557,
      "Ġà´īà´·": 2558,
      "Ġà´Ŀ": 2559,
      "à´¿(": 2560,
      "à´µà´²à´ª": 2561,
      "à´®à´¨à´¸": 2562,
      "Ġà´ķàµ¼à´¶à´¨": 2563,
      "Ġà´®à´Ļ": 2564,
      "à´Łà´®à´²": 2565,
      "à´ķàµ¼à´ķ": 2566,
      "Ġà´ĵàµ¼à´¤": 2567,
      "Ġà´Ĳà´¹": 2568,
      "à´«à´¨": 2569,
      "àµĨ...": 2570,
      "Ġà´µà´¶à´¤": 2571,
      "Ġ600": 2572,
      "à´ªà´°à´¨": 2573,
      "à´°à´¹à´µ": 2574,
      "à´µà´ľà´¨à´Ļ": 2575,
      "Ġà´ľà´²à´¸": 2576,
      "Ġà´¸à´®à´¯à´µ": 2577,
      "à´Ĩà´¦": 2578,
      "àµįâĢį'": 2579,
      "à´°à´®à´£à´®": 2580,
      "Ġà´ªà´¯": 2581,
      "Ġà´²à´ľ": 2582,
      "à´ĤâĢ¦": 2583,
      "à´±à´£à´®": 2584,
      "à´°à´ķà´¨": 2585,
      "Ġà´ķà´°à´ŀ": 2586,
      "à´¹à´ª": 2587,
      "à´¡à´¤": 2588,
      "Ġà´Ķà´°": 2589,
      "Ġà´ľà´¯à´¨": 2590,
      "à´¿),": 2591,
      "Ġà´¤à´³à´°": 2592,
      "àµ¼à´ĺà´ķ": 2593,
      "Ġ53": 2594,
      "à´ĤâĢĭ": 2595,
      "à´ķà´ķàµ¾": 2596,
      "Ġà´¥": 2597,
      "àµºà´«": 2598,
      "à´Łà´ķà´Ļ": 2599,
      "à´²à´µà´¸": 2600,
      "à´ªà´ķà´²": 2601,
      "Ġà´ĩà´Łà´¨": 2602,
      "Ġ85": 2603,
      "Ġà´«à´¯àµ¼à´«": 2604,
      "à´¸à´°à´®": 2605,
      "Ġà´ĩà´¨à´Ļ": 2606,
      "ĠàµĨ": 2607,
      "àµ½à´ªà´°": 2608,
      "ay": 2609,
      "àµ»à´Ĺ": 2610,
      "Ġà´²à´¡": 2611,
      "à´·à´ķà´°à´®": 2612,
      "à´¶à´¸": 2613,
      "ch": 2614,
      "Ġà´İà´°": 2615,
      "Ġà´®à´°à´£à´®à´Łà´ŀ": 2616,
      "Ġà´ķà´Łà´®": 2617,
      "à´ķà´¤à´¨": 2618,
      "à´łà´¨": 2619,
      "Ġà´ľà´¨à´¨": 2620,
      "90": 2621,
      "à´²à´¨à´¤": 2622,
      "à´Ļà´°": 2623,
      "Ġà´ªàµ¼à´µ": 2624,
      "iv": 2625,
      "Ġ193": 2626,
      "à´®à´±à´ķà´³": 2627,
      "ĠIP": 2628,
      "ut": 2629,
      "à´ŀà´°": 2630,
      "àµ¼à´®à´¯": 2631,
      "à´·à´£à´±": 2632,
      "13": 2633,
      "à´¯à´Łà´ķ": 2634,
      "à´Ĥ]": 2635,
      "Ġà´ķàµºà´µ": 2636,
      "Ġà´ªà´£à´µ": 2637,
      "àµ½à´¬": 2638,
      "àµ»à´ªà´¤": 2639,
      "Ġà´ĵà´Ĺà´¸": 2640,
      "ul": 2641,
      "à´°à´µà´¤": 2642,
      "à´¶à´¨à´Ļ": 2643,
      "à´¤à´µà´£à´¯": 2644,
      "à´°à´µà´ļà´¨": 2645,
      "ÂŃ": 2646,
      "àµ¼à´¥à´¤": 2647,
      "Ġà´ľà´Ĺ": 2648,
      "45": 2649,
      "Ġ350": 2650,
      "à´ļà´®à´ļ": 2651,
      "à´ªàµ¼à´ķ": 2652,
      "à´ľàµ¼": 2653,
      "à´£à´ķà´³": 2654,
      "à´§à´¨à´®": 2655,
      "à´ļàµ½": 2656,
      "Ġà´ķà´Łà´¯": 2657,
      "Ġà´¤à´ķàµ¼à´ķ": 2658,
      "Ġà´²à´¤": 2659,
      "Ġà´«à´¡": 2660,
      "à´¦àµ¼à´Ń": 2661,
      "Ġà´ľà´²à´µ": 2662,
      "à´³à´£": 2663,
      "Ġà´Ĩà´¦à´°à´µ": 2664,
      "Ġà´¹à´µ": 2665,
      "Ġà´īà´£à´Ļ": 2666,
      "à´ĸà´¨à´Ļ": 2667,
      "Ġà´ĩà´Łà´Ļ": 2668,
      "Ġ63": 2669,
      "à´ľà´¨à´¤": 2670,
      "àµ¼à´¥à´¨": 2671,
      "Ġà´Ńà´¯à´®": 2672,
      "Ġà´ħà´µà´¨à´¤": 2673,
      "à´ĺàµ¼à´·": 2674,
      "Ġà´īà´Łà´®à´¯": 2675,
      "Ġà´Ĩà´¶à´¯à´ķ": 2676,
      "Ġà´±à´¬": 2677,
      "à´¹à´¤à´¯": 2678,
      "à´°à´«": 2679,
      "à´Ĺà´®à´®": 2680,
      "Ġà´°à´ļà´¨": 2681,
      "Ġ62": 2682,
      "Ġà´¯à´ľà´®": 2683,
      "Ġà´īà´ªà´ķ": 2684,
      "à´¤à´ķà´°à´®": 2685,
      "àµģà´Ĥ..": 2686,
      "Ġg": 2687,
      "àµĩâĢĭ": 2688,
      "Ġà´Ĩà´£à´µ": 2689,
      "Ġ72": 2690,
      "Ġà´īà´ªà´Ĺ": 2691,
      "àµ»à´¨": 2692,
      "Ġ1000": 2693,
      "Ġà´¤à´ª": 2694,
      "Ġâĸª": 2695,
      "ig": 2696,
      "à´ĤâĢĻ": 2697,
      "à´¤à´¨à´ķ": 2698,
      "àµģâĢĿ": 2699,
      "à´Ĺà´²à´ķ": 2700,
      "à´·à´£à´¸": 2701,
      "à´¹à´¨à´µ": 2702,
      "Ġ73": 2703,
      "àµģà´ĤâĢ¦": 2704,
      "Ġ59": 2705,
      "à´ļà´µà´Ł": 2706,
      "à´¿.\"": 2707,
      "Ġà´¤à´Łà´¸à´ª": 2708,
      "à´§à´¤à´¯": 2709,
      "Ġà´Ķà´·": 2710,
      "Ġà´ħàµ¼à´¥à´®": 2711,
      "àµ½à´±": 2712,
      "ĠÂ»": 2713,
      "Ġà´Ĩà´ľ": 2714,
      "Ġà´Ńà´µ": 2715,
      "à´¡àµ»à´±": 2716,
      "Ġà´Ĺà´²": 2717,
      "\"\".\"": 2718,
      "à´µà´¶à´Ļ": 2719,
      "Ġà´ªà´²à´µ": 2720,
      "àµ¾à´µ": 2721,
      "Ġ99": 2722,
      "àµįâĢįâĢį": 2723,
      "ab": 2724,
      "à´«à´±": 2725,
      "à´ªà´µà´¤": 2726,
      "Ġà´ªà´ª": 2727,
      "à´¨à´¡à´¯": 2728,
      "Ġàµį": 2729,
      "à´µà´¦à´¨": 2730,
      "her": 2731,
      "à´¿âĢĭàµĨ": 2732,
      "Ġà´ªà´±à´¨": 2733,
      "à´Ķà´¨": 2734,
      "Ġà´ħà´ķà´±": 2735,
      "Ġà´ľà´¯à´¤": 2736,
      "à´³à´Łà´ķ": 2737,
      "à´§à´°àµ»": 2738,
      "Ġà´ħà´ķà´¨": 2739,
      "Ġà´¯à´¤": 2740,
      "Ġ67": 2741,
      "à´ķà´µà´£": 2742,
      "Ġà´¸à´¯àµ»à´¸": 2743,
      "Ġ57": 2744,
      "Ġ105": 2745,
      "Ġà´ªà´±à´¯à´Ł": 2746,
      "Ġà´Ĳà´¸à´ķ": 2747,
      "à´²à´¯à´¨": 2748,
      "à´¥à´ķ": 2749,
      "àµ¼à´«": 2750,
      "ap": 2751,
      "à´£à´µà´¨": 2752,
      "à´łà´Ļ": 2753,
      "à´¯à´µà´¶": 2754,
      "à´§à´ķàµ¼": 2755,
      "à´¶à´ķà´²": 2756,
      "à´ľà´ª": 2757,
      "àµºà´µ": 2758,
      "Ġà´ł": 2759,
      "Ġà´ķàµ¼à´·à´ķà´°": 2760,
      "à´ŀà´¦": 2761,
      "à´Ļà´³à´²": 2762,
      "à´¨à´Łà´¨": 2763,
      "à´ħà´¯": 2764,
      "Ġ130": 2765,
      "Ġl": 2766,
      "300": 2767,
      "àµ½à´¦": 2768,
      "à´µà´Ĺ": 2769,
      "Ġà´¨à´¯à´Ļ": 2770,
      "à´Ĺà´¦à´°": 2771,
      "à´¯à´µà´¤": 2772,
      "à´¥à´¨à´¯": 2773,
      "à´ĺà´¨à´®": 2774,
      "Ġà´ħà´Ĺà´°": 2775,
      "Ġà´®à´¯": 2776,
      "op": 2777,
      "à´ĺà´ķ": 2778,
      "à´Ĩà´±": 2779,
      "Ġà´ķà´°à´Ł": 2780,
      "Ġ2012": 2781,
      "à´ļà´ļ": 2782,
      "Ġà´µà´¶à´Ļ": 2783,
      "Ġà´Ńà´¯à´¨": 2784,
      "à´ħà´Ł": 2785,
      "à´¯àµ¼à´¬": 2786,
      "à´µà´ķà´³": 2787,
      "ag": 2788,
      "Ġà´¤à´Łà´Ļ": 2789,
      "àµģâĢĻ": 2790,
      "à´³à´Ł": 2791,
      "ĠNW": 2792,
      "à´¸à´ķàµ¾": 2793,
      "Ġ180": 2794,
      "à´°à´Ńà´°à´£": 2795,
      "Ġà´Ĩà´²à´¯à´¤": 2796,
      "àµ¾à´«": 2797,
      "à´ľà´¯à´µ": 2798,
      "àµģ'": 2799,
      "Ġà´İàµ»à´¡": 2800,
      "Ġà´īà´Łà´²": 2801,
      "Ġ2009": 2802,
      "Ġ66": 2803,
      "ore": 2804,
      "Ġà´Ńà´¦": 2805,
      "ĠJ": 2806,
      "à´¸à´°à´µ": 2807,
      "Ġà´Ĩàµ¾à´ķ": 2808,
      "Ġà´ħà´·": 2809,
      "à´¦à´±": 2810,
      "à´®à´Ł": 2811,
      "à´ļàµ»": 2812,
      "à´ĩà´Ĵ": 2813,
      "Ġà´ķà´Ļ": 2814,
      "àµį,âĢĿ": 2815,
      "Ġà´ĭà´·": 2816,
      "22": 2817,
      "àµ»à´·à´¨": 2818,
      "à´Ĺà´µà´¤": 2819,
      "Ġà´±à´ľ": 2820,
      "à´°à´³à´¯à´¤": 2821,
      "à´Łà´£à´Ļ": 2822,
      "Ġà´ªà´£à´¤": 2823,
      "Ġà´ĸà´²": 2824,
      "à´±àµº": 2825,
      "Ġà´ħà´µà´¨à´²": 2826,
      "Ġ800": 2827,
      "à´£à´ķà´°à´®": 2828,
      "à´ļà´Łà´Ļ": 2829,
      "Ġà´¸àµ¼à´Ł": 2830,
      "Ġà´ĺà´Łà´ķà´®": 2831,
      "à´¿/": 2832,
      "à´ķàµ½à´ª": 2833,
      "àµįâĢį..": 2834,
      "à´İàµ½à´İ": 2835,
      "ĠâĢĮ": 2836,
      "Name": 2837,
      "âĪĻ": 2838,
      "Ġthe": 2839,
      "Ġà´¨à´Ĺà´°à´¸à´Ń": 2840,
      "à´±à´´": 2841,
      "à´Ńà´¨": 2842,
      "Ġà´īà´³à´µ": 2843,
      "Ġï": 2844,
      "Ġà´¨à´¯à´¨": 2845,
      "ter": 2846,
      "Ġà´µà´ķà´Ń": 2847,
      "Ġà´ļà´®": 2848,
      "Ġà´®à´±à´¯": 2849,
      "Ġà´īà´ªà´ķà´°à´£": 2850,
      "Ġ2008": 2851,
      "Ġà´ıà´µà´°": 2852,
      "à´²à´¦": 2853,
      "od": 2854,
      "Ġà´İà´Ĳà´¸": 2855,
      "à´·à´ķàµ»": 2856,
      "à´¾-": 2857,
      "Ġà´¬à´·": 2858,
      "à´¢à´®": 2859,
      "à´µà´³à´°": 2860,
      "à´¦à´³": 2861,
      "à´Ĵà´¨": 2862,
      "Ġà´ħàµ¼à´ľ": 2863,
      "»¿": 2864,
      "à´Ĥ...": 2865,
      "à´®à´¸à´®": 2866,
      "Ġà´®à´°à´µ": 2867,
      "im": 2868,
      "à´¦àµ¼à´¶à´¨": 2869,
      "Ġà´¬à´¹à´³": 2870,
      "àµĨ..": 2871,
      "àµį?\"": 2872,
      "Ġà´ħà´µà´Ļ": 2873,
      "à´¤à´ľ": 2874,
      "à´ªà´±à´®": 2875,
      "à´ĩà´ª": 2876,
      "Ġà´Ĭà´¹": 2877,
      "à´¿...": 2878,
      "Ġà´ªà´²à´¤à´µà´£": 2879,
      "Ġà´¡à´¯à´±": 2880,
      "alay": 2881,
      "Ġà´¿": 2882,
      "alam": 2883,
      "Ġà´ķà´ªà´Ł": 2884,
      "à´ħà´±": 2885,
      "70": 2886,
      "Ġà´¸à´®à´¯à´Ļ": 2887,
      "Ġà´µà´´à´±": 2888,
      "à´¨à´Łà´ķ": 2889,
      "Ġà´ħà´®à´²": 2890,
      "à´¯à´¸à´¹": 2891,
      "à´µà´¯à´¸": 2892,
      "ĠIPL": 2893,
      "35": 2894,
      "Ġà´°à´ĺ": 2895,
      "Ġà´¶à´°à´¦": 2896,
      "à´²àµ¼à´ķ": 2897,
      "à´¡à´®": 2898,
      "Ġà´ªà´¯à´¨": 2899,
      "à´®à´Ĺ": 2900,
      "à´¹àµ¼": 2901,
      "à´±à´µà´¨": 2902,
      "à´¨à´ķà´°à´®": 2903,
      "Ġà´Īà´¶": 2904,
      "àµį.âĢĿ\"": 2905,
      "Ġà´ĵà´¤": 2906,
      "à´ķà´³à´Ļ": 2907,
      "àµ»à´¡à´±": 2908,
      "à´µà´°à´¨": 2909,
      "à´Ńà´µà´¨": 2910,
      "àµ¼à´¹": 2911,
      "Ġà´Łà´£": 2912,
      "à´®à´Łà´Ļ": 2913,
      "Ġà´«à´¹à´¦": 2914,
      "Ġà´Ĩàµºà´ķ": 2915,
      "àµ»à´·": 2916,
      "à´¿..": 2917,
      "Ġà´Ĳà´İ": 2918,
      "à´²à´µà´¸à´°à´Ļ": 2919,
      "65": 2920,
      "à´°à´£à´¬": 2921,
      "Ġà´¹à´®": 2922,
      "à´¯à´Łà´¨à´¤": 2923,
      "à´°à´ķàµ¾": 2924,
      "à´¶à´ķà´°": 2925,
      "à´ĩà´²": 2926,
      "à´®à´ķà´¨": 2927,
      "àµįâĢĭâĢĭ": 2928,
      "Ġà´®à´¤à´®": 2929,
      "Ġà´µàµ¼à´£": 2930,
      "Ġà´¤à´²à´ª": 2931,
      "à´¦à´¨à´Ļ": 2932,
      "à´¯à´¯à´¨": 2933,
      "Ġà´Ĭà´·": 2934,
      "à´Ĺàµº": 2935,
      "dia": 2936,
      "à´Ļà´£": 2937,
      "à´§àµ¼": 2938,
      "Ġ2010": 2939,
      "à´ªà´ķà´³": 2940,
      "à´¤à´¨à´µ": 2941,
      "Ġï»¿": 2942,
      "àµ»à´¸à´±": 2943,
      "Ġà´ĵàµ¼à´¡": 2944,
      "à´¦àµ¼à´¶à´¨à´¤": 2945,
      "Ġà´·à´µ": 2946,
      "Ġà´ªà´µà´¨": 2947,
      "Ġà´īà´Ĺ": 2948,
      "à´¡àµ¼": 2949,
      "Ġ74": 2950,
      "à´¾à´Ĥ!": 2951,
      "em": 2952,
      "àµįâĢį(": 2953,
      "à´ĸà´ķà´°à´®": 2954,
      "Ġà´§àµ¼à´®": 2955,
      "à´ªà´¶": 2956,
      "à´³à´¤à´²à´¤": 2957,
      "à´¨à´ŀ": 2958,
      "à´¤à´ķà´¯": 2959,
      "à´ľà´¯à´²à´ķ": 2960,
      "àµ¼à´£à´¯": 2961,
      "Ġà´ľà´¯à´±": 2962,
      "àµįâĢįâĢ¦": 2963,
      "Ġ68": 2964,
      "Ġà´Ĩà´Ĺà´¸": 2965,
      "Ġà´ķàµºà´Ł": 2966,
      "à´¨à´ªà´¤": 2967,
      "Ġà´ķà´·à´£à´Ļ": 2968,
      "àµ½à´ªà´¨": 2969,
      "Ġ700": 2970,
      "Ġ+": 2971,
      "àµ»à´µà´°": 2972,
      "Ġà´¸à´«": 2973,
      "Ġà´īà´¯à´°à´®": 2974,
      "Ġà´ħà´¬à´¦": 2975,
      "ĠâĻ": 2976,
      "à´ĺàµ¼à´·à´¤": 2977,
      "à´·à´£àµ¼": 2978,
      "Ġà´ªà´±à´¯à´°": 2979,
      "à´Ĳà´Ł": 2980,
      "Ġà´ľà´¯à´¸": 2981,
      "Ġ2022": 2982,
      "àµĩà´¾à´Ĥ": 2983,
      "à´ķà´³à´Łà´ķ": 2984,
      "à´¯à´¨à´ķ": 2985,
      "Ġ77": 2986,
      "à´§à´µà´¨": 2987,
      "Ġà´®à´¤à´Ļ": 2988,
      "à´ªà´¨à´µ": 2989,
      "à´ªà´ķàµ½à´ª": 2990,
      "à´ļà´²à´¨": 2991,
      "à´Ĺà´¤à´®": 2992,
      "Ġà´ªà´±à´¯à´£à´®": 2993,
      "à´·à´¦": 2994,
      "Ġà´İà´İà´ª": 2995,
      "ĠâĢ¢": 2996,
      "à´ľà´¨à´®": 2997,
      "à´«à´²à´µ": 2998,
      "Ġà´µàµ¼à´·à´®": 2999,
      "Ġ71": 3000,
      "Ġà´ĩà´³à´¯": 3001,
      "Ġ160": 3002,
      "à´¯à´ķàµ¾": 3003,
      "àµĩà´¾,": 3004,
      "Ġmm": 3005,
      "ak": 3006,
      "àµĪ-": 3007,
      "Ġà´Ĩàµ¾": 3008,
      "tion": 3009,
      "Ġà´¤à´²à´ļ": 3010,
      "à´µà´¨à´®": 3011,
      "Ġand": 3012,
      "Ġà´¦à´¹": 3013,
      "Ġ95": 3014,
      "Ġà´¶à´°à´£": 3015,
      "Ġà´Ĺà´µàµ¼": 3016,
      "à´£à´Ń": 3017,
      "os": 3018,
      "à´®à´ķà´®": 3019,
      "Ġà´®à´°à´¤": 3020,
      "Ġà´ªà´ķàµ¼à´¨": 3021,
      "à´¤à´ķàµ¼à´ķ": 3022,
      "Ġà´µàµ¼à´¤": 3023,
      "Ġ69": 3024,
      "à´¥à´ķàµ¾": 3025,
      "Ġà´·à´¹": 3026,
      "Ġà´Ńà´¯à´ķ": 3027,
      "àµ¼à´Ĺà´Ļ": 3028,
      "à´¯à´¤à´²": 3029,
      "à´¯à´®à´¨à´Łà´ªà´Ł": 3030,
      "àµ¼à´¶à´¨à´®": 3031,
      "Ġà´«à´²à´¤": 3032,
      "Ġà´®à´°à´£à´¨": 3033,
      "à´İà´ĩà´¯": 3034,
      "à´°à´¡": 3035,
      "àµįâĢįâĢĻ": 3036,
      "24": 3037,
      "Ġ2004": 3038,
      "à´°à´¯à´§": 3039,
      "à´¦àµ»": 3040,
      "à´ªà´°à´ª": 3041,
      "Ġà´ªà´¦à´¤": 3042,
      "Ġ2005": 3043,
      "Ġà´īà´Łà´®à´ķà´³": 3044,
      "àµģà´Ĥ.âĢĿ\"": 3045,
      "à´ĩà´µ": 3046,
      ".âĢĿ\"": 3047,
      "Ġà´¦à´¯à´¨": 3048,
      "UV": 3049,
      "àµºà´®à´ķ": 3050,
      "à´Ĳà´Ĩà´°": 3051,
      "Ġà´ĩà´¹à´²": 3052,
      "Ġà´¨à´µà´ľ": 3053,
      "Ġà´Ĺà´µàµ¼à´£à´±": 3054,
      "à´¸àµ»à´¸": 3055,
      "Ġà´¬à´²à´ª": 3056,
      "Ġà´®à´¤à´ªà´°à´®": 3057,
      "Ġà´ļà´²à´ŀ": 3058,
      "Ġà´ķà´²à´¯": 3059,
      "à¸": 3060,
      "à´¨à´¤à´¤à´²": 3061,
      "à´ļà´¤à´²": 3062,
      "Ġh": 3063,
      "Ġ190": 3064,
      "Ġnews": 3065,
      "Ġà´ªà´°à´¨": 3066,
      "ian": 3067,
      "pm": 3068,
      "à´ľà´¯à´Ļ": 3069,
      "Ġà´īà´ľ": 3070,
      "Ġà´Ĩàµ¼à´İà´¸": 3071,
      "à´¯à´²à´ķ": 3072,
      "à´Ĥ..": 3073,
      "Ġà´¸à´¹à´µ": 3074,
      "à´Ĩà´ķ": 3075,
      "à´°à´ķà´Łà´¨à´Ļ": 3076,
      "est": 3077,
      "à´®à´ľ": 3078,
      "àµįâĢĭ,": 3079,
      "23": 3080,
      "Ġà´«à´¯àµ½": 3081,
      "Ġà´īà´£à´ķ": 3082,
      "Ġ2007": 3083,
      "à´·à´²": 3084,
      "à´ĩà´¡": 3085,
      "ist": 3086,
      "à´®àµ¼à´¶à´¨à´µ": 3087,
      "Ġà´¹à´¸à´¨": 3088,
      "Ġ140": 3089,
      "Ġà´ħà´²à´¹à´¬": 3090,
      "ĠMalay": 3091,
      "Ġà´Ĵàµ»à´ªà´¤": 3092,
      "Ġà´ĵàµ¾": 3093,
      "àµºà´«à´±àµ»à´¸": 3094,
      "à´ľà´¯à´ķ": 3095,
      "à´°à´µà´£à´¤": 3096,
      "Ġà´īà´µ": 3097,
      "à´ªà´£à´°": 3098,
      "Ġà´±à´¯": 3099,
      "à´°à´³à´®": 3100,
      "à´µà´µà´ļ": 3101,
      "à´¸à´µà´¤": 3102,
      "Ġà´ħà´¨à´µà´§": 3103,
      "Ġà´Ĩà´´à´®": 3104,
      "à´¨à´ļ": 3105,
      "à´Łà´¤à´²": 3106,
      "Ġà´¨àµ½à´ķà´£": 3107,
      "à´Ńà´ķà´°": 3108,
      "à´Ĥ.\"": 3109,
      "à´µàµ¼à´Ĺà´¤": 3110,
      "Ġà´«à´°": 3111,
      "Ġà´ĵà´±": 3112,
      "Ġà´¨à´Ĺà´°à´µ": 3113,
      "Ġà´ĩà´°à´ķà´³": 3114,
      "Ġà´ħà´µà´¸à´°à´¤": 3115,
      "àµ¼à´µà´¤": 3116,
      "à´®àµ¼à´¶à´¨": 3117,
      "Ġ2006": 3118,
      "Ġà´ħà´°à´ķ": 3119,
      "Ġà´ļà´£": 3120,
      "à´ľà´Ĺ": 3121,
      "Ġà´·à´°": 3122,
      "Ġà´ħà´ķà´ª": 3123,
      "Ġà´®à´Ĺ": 3124,
      "Ġ84": 3125,
      "Ġà´ħà´ľà´£": 3126,
      "Ġà´¬à´¡": 3127,
      "Ġà´¨àµ½à´ķà´£à´®": 3128,
      "Ġà´ķàµºà´¸": 3129,
      "Ġà´Ĺà´³": 3130,
      "àµ»à´¡àµ¼": 3131,
      "à´²à´Ĺ": 3132,
      "à´¡à´¸": 3133,
      "Ġà´ķàµ¼à´¶à´¨à´®": 3134,
      "à´Ńà´ľà´¨": 3135,
      "àµ¼à´®à´²": 3136,
      "Ġrpm": 3137,
      "Ġà´īà´ªà´ķà´°": 3138,
      "àµ½à´Ĺ": 3139,
      "à´¥àµ¼à´ķ": 3140,
      "âĢİ": 3141,
      "Ġà´¨à´¹": 3142,
      "Ġà´²à´µ": 3143,
      "àµ»à´¹": 3144,
      "Ġà´ªà´°à´ķ": 3145,
      "à´ļà´¯à´¤": 3146,
      "à´¤à´ķàµ»": 3147,
      "à´ªà´°à´µ": 3148,
      "àµ¼à´¥à´®": 3149,
      "à´¡à´²à´®": 3150,
      "à´ªà´¨à´ķà´³": 3151,
      "Ġà´ĩà´Łà´®": 3152,
      "à´ķà´®à´²": 3153,
      "à´¨à´ķà´³": 3154,
      "ĠZ": 3155,
      "à´®à´ļ": 3156,
      "à´µà´¤à´¤": 3157,
      "Ġà´ªà´ķàµ¼à´¤": 3158,
      "Ġre": 3159,
      "à´·à´¨à´±": 3160,
      "à´¨à´Ĺ": 3161,
      "Ġà´ªà´µàµ¼": 3162,
      "26": 3163,
      "Ġà´ķà´°à´£": 3164,
      "Ġà´¬à´²à´¹": 3165,
      "à´²à´¯àµ»à´¸": 3166,
      "ĠMalayalam": 3167,
      "Ġà´ĩà´¨à´¤": 3168,
      "à´§à´ķà´¨": 3169,
      "à´Ĺà´®à´²": 3170,
      "à´®à´¤à´²à´ª": 3171,
      "àµ¼à´¥à´¨à´¯": 3172,
      "âĢĿ.": 3173,
      "à´¤à´¬": 3174,
      "àµ¾à´¤": 3175,
      "à´°à´ļà´°à´£": 3176,
      "Ġà´µà´³à´ŀ": 3177,
      "à´µà´ķàµ¾": 3178,
      "Ġà´ıàµ½à´ª": 3179,
      "Ġà´ĩà´£à´ķà´³": 3180,
      "à´¸à´¨à´¤": 3181,
      "Ġà´®à´²à´¨": 3182,
      "àµĨ-": 3183,
      "ort": 3184,
      "à´ħà´ķ": 3185,
      "à´Łà´¬à´²": 3186,
      "Ġà´ķà´«": 3187,
      "85": 3188,
      "Ġà´ªà´²àµ¼à´ķ": 3189,
      "àµĩà´¾.": 3190,
      "à´¯à´µàµ¼à´ķ": 3191,
      "à´ĩà´¯": 3192,
      "Ġ89": 3193,
      "à´¨à´ªà´°": 3194,
      "à´·à´¨à´²": 3195,
      "àµģ,âĢĿ": 3196,
      "Ġà´ħà´µà´°à´µà´°": 3197,
      "47": 3198,
      "à´µà´ľà´¨": 3199,
      "à´ªà´ķàµ»": 3200,
      "àµ¼à´ĸà´£": 3201,
      "Ġà´ĵà´µà´°": 3202,
      "à´Ļà´³à´µà´°": 3203,
      "Ġà´ľà´¯à´¶à´Ļ": 3204,
      "erala": 3205,
      "à´µà´°à´ķ": 3206,
      "à´¨à´Łà´Ļ": 3207,
      "à´¨à´Ĺàµ¼": 3208,
      "à´µà´¤à´¯": 3209,
      "Ġ78": 3210,
      "à´§à´¨à´ķàµ¾": 3211,
      "lin": 3212,
      "à´¢à´¨": 3213,
      "Ġà´¸à´Ńà´ķà´³": 3214,
      "Ġà´ķà´¨à´¯": 3215,
      "Ġa": 3216,
      "eat": 3217,
      "à´¡àµ»": 3218,
      "àµį).": 3219,
      "Ġà´Īà´¨": 3220,
      "à´£àµ¾à´¡": 3221,
      "à´®à´¡": 3222,
      "Ġà´ķà´°à´ķ": 3223,
      "à®": 3224,
      "à´£à´³": 3225,
      "Ġà´¹à´²": 3226,
      "Ġà´ıà´µ": 3227,
      "Ġà´¸à´®à´¤": 3228,
      "Ġà´ªà´ķà´°à´®": 3229,
      "à´§à´¶": 3230,
      "àµ»à´ķà´°": 3231,
      "Ġà´®à´¤à´¨": 3232,
      "Ġ110": 3233,
      "Ġà´ľà´µà´¹à´°": 3234,
      "à´²à´ŀ": 3235,
      "à´ªà´Ń": 3236,
      "Ġà´ĺà´Łà´¨à´¯": 3237,
      "à´¬àµ¼à´Ĺ": 3238,
      "Ġà´Ĳà´¤": 3239,
      "à´·à´¸": 3240,
      "ow": 3241,
      "Ġà´ħà´²à´Ł": 3242,
      "Ġ256": 3243,
      "à´µà´ŀ": 3244,
      "à´¯àµ½à´®": 3245,
      "64": 3246,
      "à´ķà´¦": 3247,
      "Ġà´ļàµ¼à´®": 3248,
      "Ġà´ħà´²àµ¼à´Ł": 3249,
      "à´İà´Ļ": 3250,
      "àµĢà´Ĥ,": 3251,
      "àµģà´Ĥ'": 3252,
      "à´¶à´ķà´²à´¨": 3253,
      "àµģâĢ¦.": 3254,
      "à´¿âĢĭâĢĭâĢĭ": 3255,
      "à´ļà´¨à´µ": 3256,
      "Ġà´ĩà´¤à´²": 3257,
      "à´Ĺà´¤à´ķ": 3258,
      "à´²à´µà´£": 3259,
      "Ġà´®à´²à´¬": 3260,
      "Ġà´¦à´¯à´¯": 3261,
      "Ġ104": 3262,
      "77": 3263,
      "Ġto": 3264,
      "à´¨àµ¼à´¨": 3265,
      "Ġà´ħà´¯àµ½à´ķ": 3266,
      "à´ķà´°à´¸": 3267,
      "à´¿à´Ĥ,": 3268,
      "28": 3269,
      "à´®à´Ń": 3270,
      "Ġà´®à´°à´£à´¶": 3271,
      "Ġà´¬à´¤": 3272,
      "àµįâĢĮ.)": 3273,
      "à´Ĥ\"\"": 3274,
      "Ġà´¸à´ķà´²à´µ": 3275,
      "à´Ĺà´®à´¨à´¤": 3276,
      "Ġvs": 3277,
      "à´ĩà´¬": 3278,
      "Ġà´ĩà´µà´³": 3279,
      "29": 3280,
      "à´µà´µà´ļà´¨": 3281,
      "àµĢâĢĭ": 3282,
      "ce": 3283,
      "Ġà´ľà´¹": 3284,
      "à´²à´ķà´Ļ": 3285,
      "à´ŀà´³": 3286,
      "à´¬àµ½": 3287,
      "Ġà´¤à´²à´¶": 3288,
      "à´¡à´¨à´ķ": 3289,
      "à´Ĥ),": 3290,
      "à´°à´®à´¸à´®": 3291,
      "ra": 3292,
      "à´Łà´µà´¯": 3293,
      "à´¶à´¤à´®": 3294,
      "Ġà´ħà´µà´¯à´µ": 3295,
      "Ġà´Ĵà´ļ": 3296,
      "à´Ĭ": 3297,
      "à´ªàµº": 3298,
      "à´¸à´¸à´±": 3299,
      "àµ»à´ªà´±": 3300,
      "à´ķà´®à´¹": 3301,
      "Ġ2003": 3302,
      "Ġà´ĩà´±à´ļ": 3303,
      "à´¯àµ»à´·": 3304,
      "à´ļà´Ļ": 3305,
      "à´ĸà´ķà´¨": 3306,
      "à´ļà´¯à´ķ": 3307,
      "ment": 3308,
      "à´¤à´µà´¯": 3309,
      "à´¨à´µàµ»": 3310,
      "39": 3311,
      "à´¾..": 3312,
      "àµģà´ĤâĢĻ": 3313,
      "à´Ļà´Ł": 3314,
      "à´¦à´¨à´µ": 3315,
      "Ġà´Ĵà´«": 3316,
      "à´İà´İà´ļ": 3317,
      "Ġà´Ķà´·à´§": 3318,
      "à´ķà´°à´¤à´¯": 3319,
      "Ġ76": 3320,
      "à´Ńà´µà´¶": 3321,
      "à´²à´§à´¨": 3322,
      "à´¨à´Łà´¤": 3323,
      "à´¾:": 3324,
      "Ġà´ªà´Łà´¯": 3325,
      "Ġà´±à´¯à´²": 3326,
      "à´¶à´¯à´µ": 3327,
      "à´¥à´²à´µ": 3328,
      "Ġà´ķàµ¾à´ķ": 3329,
      "à´¤à´Łà´Ļ": 3330,
      "à´¿\"\"": 3331,
      "à´īà´¦": 3332,
      "ww": 3333,
      "à´¹à´¬à´¨": 3334,
      "Ġà´ĩà´²à´µà´¨": 3335,
      "Ġà´ħà´¸à´¤": 3336,
      "Ġà´ħàµ¼à´¹": 3337,
      "à´²à´ķà´ª": 3338,
      "à´ĸà´±": 3339,
      "à´°à´®à´¸": 3340,
      "Ġà´ħà´µà´¤à´°à´£": 3341,
      "àµºà´ª": 3342,
      "à´ļà´µà´Łà´ķ": 3343,
      "à´¯àµ¼à´¨": 3344,
      "à´ķà´°àµ»": 3345,
      "Ġ5000": 3346,
      "Ġà´ľàµ¼à´®à´¨": 3347,
      "à´ĩà´¸": 3348,
      "Ġà´ªà´Łà´ķ": 3349,
      "à´«àµ¼": 3350,
      "à´®à´¤à´¤": 3351,
      "th": 3352,
      "Ġ91": 3353,
      "ers": 3354,
      "Ġfor": 3355,
      "à´¯à´ŀ": 3356,
      "à´¬àµ¼à´Ł": 3357,
      "à´¨à´µà´³": 3358,
      "àµįâĢį/": 3359,
      "Ġà´®à´¤à´¸": 3360,
      "à´¤à´°à´®à´²": 3361,
      "Ġà´µàµ¼à´§à´¨à´µ": 3362,
      "Ġà´ķà´ªà´Łà´µ": 3363,
      "àµĭ..": 3364,
      "Ġà´Ńà´°à´£à´¸": 3365,
      "Ġà´·à´Ł": 3366,
      "à´°à´¬à´¨": 3367,
      "à´Ĺà´¤à´¤": 3368,
      "à´ıà´¤": 3369,
      "à´ªà´·": 3370,
      ".âĢĿ": 3371,
      "48": 3372,
      "Ġon": 3373,
      "27": 3374,
      "à´¬à´£": 3375,
      "Ġ1999": 3376,
      "à´¯à´®à´Ń": 3377,
      "Ġà´ıà´Ł": 3378,
      "100": 3379,
      "Ġà´µà´¸à´¨": 3380,
      "Ġà´ĩà´£à´¯": 3381,
      "oc": 3382,
      "Ġà´Ńà´¯à´¤": 3383,
      "Ġà´ķà´±à´¨": 3384,
      "Ġà´®à´²à´®": 3385,
      "Ġà´Ĩàµ¼à´¤": 3386,
      "à´Ĺà´¶": 3387,
      "à´¦à´¯à´¸": 3388,
      "à´Īà´²": 3389,
      "Ġ86": 3390,
      "à´¶à´ķà´°à´®": 3391,
      "ess": 3392,
      "à´ªàµ¼à´¶": 3393,
      "Ġ2001": 3394,
      "àµ»à´¤": 3395,
      "à´°à´ķà´¤": 3396,
      "Ġ170": 3397,
      "Ġà´ķà´Łàµ½": 3398,
      "à´Łà´ķà´®": 3399,
      "âĢĭàµĨ": 3400,
      "à´²à´Łà´ķ": 3401,
      "Ġà´Ĵà´®à´°": 3402,
      "à´¯à´¤à´ķàµ¾": 3403,
      "Ġ83": 3404,
      "Ġà´®à´±à´ŀ": 3405,
      "Ġà´ľà´¯à´®": 3406,
      "à´°à´¤à´¨": 3407,
      "Ġ108": 3408,
      "Ġà´ħà´¤à´Ļ": 3409,
      "à´¶à´®à´¨à´¸": 3410,
      "à´¨àµ¼à´¤": 3411,
      "ĠâĻª": 3412,
      "95": 3413,
      "Ġà´ħà´¤à´±": 3414,
      "àµ»à´Ĺà´£à´¨": 3415,
      "if": 3416,
      "Ġà´¹à´ľ": 3417,
      "Ġà´®àµ½à´¸à´°": 3418,
      "Ġ61": 3419,
      "à´¯à´±à´ª": 3420,
      "Ġ2002": 3421,
      "up": 3422,
      "à´¤à´Ĺà´¤": 3423,
      "à´İà´¤": 3424,
      "Ġà´°à´®à´£": 3425,
      "àµ»à´µà´¶à´¤": 3426,
      "à´·à´°à´¤": 3427,
      "à´Ĺà´¤à´µ": 3428,
      "àµĢà´Ĥ:": 3429,
      "à´Ĩàµ¼à´Ł": 3430,
      "à´ķà´°à´ķ": 3431,
      "Ġà´¯à´¶": 3432,
      ",âĢĿ": 3433,
      "Ġà´µàµ¼à´·à´µ": 3434,
      "à´¿âĢĭâĢĭàµĨ": 3435,
      "à´ĵà´Ł": 3436,
      "Ġà´µà´°à´ļ": 3437,
      "67": 3438,
      "ri": 3439,
      "Ġ81": 3440,
      "33": 3441,
      "Ġà´ħà´ķà´®": 3442,
      "Ġà´ħà´¨à´Ļ": 3443,
      "ity": 3444,
      "à´£àµ¼": 3445,
      "Ġà´ħà´¤à´¨": 3446,
      "à´«à´·à´£à´²": 3447,
      "Ġà´ªà´Łàµ¼à´¨": 3448,
      "Ġà´ħà´ªà´ķà´Łà´¸": 3449,
      "Ġà´µà´³à´ļ": 3450,
      "à´Ĳà´¬": 3451,
      "og": 3452,
      "à´¦à´°à´®": 3453,
      "à´¯à´¨à´¯": 3454,
      "44": 3455,
      "à´¦à´¨à´ķ": 3456,
      "Ġà´Ĩà´¶à´¯à´¤": 3457,
      "à´¤à´±à´¯": 3458,
      "à´¸à´°à´£": 3459,
      "à´¹à´ļ": 3460,
      "à´µà´µà´ļà´¨à´¤": 3461,
      "à´§à´µà´¤": 3462,
      "Ġ87": 3463,
      "400": 3464,
      "àµģà´Ĥ-": 3465,
      "à´¡à´«": 3466,
      "à´µà´Ńà´ķ": 3467,
      "Ġ96": 3468,
      "à´·à´®à´¤à´¯": 3469,
      "à´°à´¥": 3470,
      "Ġà´Ĵà´¸": 3471,
      "Ġà´«à´±": 3472,
      "Ġà´ħà´³": 3473,
      "àµį.\"\"\"": 3474,
      "à´¶à´ķà´³": 3475,
      "Ġà´¶àµ¼à´®à´¯": 3476,
      "à´¬à´²à´®": 3477,
      "à´Łà´ķàµ¾": 3478,
      "Ġà´ħà´¹à´°": 3479,
      "à´§àµ»": 3480,
      "à´£à´¯à´¤": 3481,
      "à´µà´®à´²": 3482,
      "Ġà´Ĳà´±": 3483,
      "Ġà´İà´¯àµ¼à´Ł": 3484,
      "à´¯à´µàµ¼à´Ĺà´¤": 3485,
      "à´µà´¨à´®à´¨": 3486,
      "Ġ[âĢľ": 3487,
      "àµįâĢ¦.": 3488,
      "Ġà´¨à´Ĺà´±": 3489,
      "Ġà´īà´Łà´¨à´Ł": 3490,
      "à´£à´£à´®": 3491,
      "à´¹à´¨à´¨": 3492,
      "à´°à´¸à´¨": 3493,
      "à´®à´ªà´ŀ": 3494,
      "à´Łà´µàµ¼": 3495,
      "Ġà´ªà´µà´°": 3496,
      "à´¨à´¤à´ķà´³": 3497,
      "Ġà´īà´Łàµ»à´¤à´¨": 3498,
      "à´¯à´®à´®à´¨": 3499,
      "Ġà´µà´¶à´®": 3500,
      "à´Łà´¯à´ķ": 3501,
      "à´·àµº": 3502,
      "Ġà´µà´°à´¯": 3503,
      "àµ¼à´µà´®": 3504,
      "à´²à´¯à´®": 3505,
      "à´ļà´®à´°": 3506,
      "à´¯à´ķà´¤": 3507,
      "à´ªà´°à´ķà´³": 3508,
      "Ġ450": 3509,
      "Ġà´®à´¡": 3510,
      "à´¤à´°à´ª": 3511,
      "Ġà´¸à´ķà´²à´¤": 3512,
      "à´ķà´ķà´¤": 3513,
      "à´°à´¦àµ¼à´¶à´¨": 3514,
      "Ġà´¸à´¹à´¸": 3515,
      "à´·à´°à´Ļ": 3516,
      "Ġà´Ńà´°à´£à´ķà´ķ": 3517,
      "Ġà´Ĩà´Ńà´°à´£à´Ļ": 3518,
      "à´Łà´¯à´¤": 3519,
      "à´µà´£à´®": 3520,
      "Ġà´ľà´²à´¤": 3521,
      "à´µà´¨à´ķàµ¾": 3522,
      "Ġà´¨à´³": 3523,
      "à´ĺà´µà´¨": 3524,
      "Ġà´¨à´°à´¸": 3525,
      "Ġà´¤à´²à´Ļ": 3526,
      ".\"\"\"": 3527,
      "Ġà´ķà´°à´ļ": 3528,
      "Ġà´ķà´³àµ¼": 3529,
      "49": 3530,
      "Ġe": 3531,
      "à´·à´£à´¶": 3532,
      "Ġà´¸à´¹à´¤": 3533,
      "à´ħà´°": 3534,
      "Ġ82": 3535,
      "àµ¼à´£à´°": 3536,
      "Ġà´²à´¬": 3537,
      "Ġ97": 3538,
      "Ġà´İàµ»à´«": 3539,
      "VI": 3540,
      "à´ļà´µà´¯": 3541,
      "à´¤à´°à´£à´¤": 3542,
      "Ġà´µà´¤": 3543,
      "Ġ\\": 3544,
      "Ġà´ªà´ķàµ¼à´ª": 3545,
      "Ġà´ľà´¨à´²": 3546,
      "Ġà´Ĺà´¨": 3547,
      "àµģà´ĤâĢĿ": 3548,
      "ht": 3549,
      "Ġà´¬à´ķ": 3550,
      "Ġà´µà´°à´¨": 3551,
      "à´¨à´°à´¹": 3552,
      "à´°à´£à´ª": 3553,
      "Ġà´µà´°à´Ł": 3554,
      "à´²à´¯à´µ": 3555,
      "Ġ79": 3556,
      "ang": 3557,
      "à´ªà´ŀ": 3558,
      "à´³à´§": 3559,
      "à´Ļà´³à´Łà´Ļ": 3560,
      "à´ľà´¨à´µ": 3561,
      "com": 3562,
      "à´¦à´¸": 3563,
      "Ġà´®à´±à´µ": 3564,
      "\"\",": 3565,
      "Ġà´ħà´¸à´¹": 3566,
      "à´°à´ķà´¥": 3567,
      "à´²à´ķà´¤": 3568,
      "à´ĤâĢĿ": 3569,
      "à´°à´¨à´²": 3570,
      "88": 3571,
      "àµĩà´¾âĢĭ": 3572,
      "Ġà´ķà´³à´¤": 3573,
      "àµįàµį.": 3574,
      "à´¨à´°à´§": 3575,
      "à´ªà´ł": 3576,
      "Ġà´®àµ»à´®": 3577,
      "à´¬à´¹": 3578,
      "à´§à´®à´¤": 3579,
      "à´°à´¦à´µ": 3580,
      "à´ªà´ķàµ¼": 3581,
      "ĠXUV": 3582,
      "Ġà´²à´«": 3583,
      "àµĢ-": 3584,
      "Ġà´¬à´²à´®": 3585,
      "à´µà´¨à´µ": 3586,
      "à´±à´¨à´¨": 3587,
      "à´ļà´ķàµ¾à´ķ": 3588,
      "Ġà´İà´ľ": 3589,
      "à´ľà´¯à´°": 3590,
      "âĢ¦]": 3591,
      "Ġ[âĢ¦]": 3592,
      "à´£à´¦": 3593,
      "à´£à´Ł": 3594,
      "àµĨ.\"": 3595,
      "àµĭ?\"": 3596,
      "Ġà´İàµ½à´¡": 3597,
      "à´ķà´µà´¨": 3598,
      "Ġà´µàµ¼à´®": 3599,
      "Ġà´ķà´³à´®à´¶": 3600,
      "àµį'.": 3601,
      "à´īà´£": 3602,
      "àµįâĢĻ.": 3603,
      "à´ļà´¨à´®": 3604,
      "Ġ'%": 3605,
      "ĠMore": 3606,
      "à´³à´¯à´¤": 3607,
      "Ġà´ķà´¥à´ķàµ¾": 3608,
      "Ġà´Ĺà´¸": 3609,
      "à´°à´µà´¸": 3610,
      "Ġà´īà´¦à´¯": 3611,
      "32": 3612,
      "55": 3613,
      "à´¯à´®à´±": 3614,
      "Ġà´ªà´²à´¤à´°": 3615,
      "à´³à´¯à´Ł": 3616,
      "à´µà´°à´£à´®": 3617,
      "à´ķà´¥à´ķà´³": 3618,
      "à´¯à´¸à´®à´¯à´¤": 3619,
      "Ġà´ªà´±à´µ": 3620,
      "Ġà´Ĩà´ķàµ¼": 3621,
      "à´®àµº": 3622,
      "à´Ļàµ½": 3623,
      "à´¯à´®à´°": 3624,
      "Ġà´¹à´£": 3625,
      "68": 3626,
      "900": 3627,
      "Ġà´¸à´°à´¸": 3628,
      "àµģ.âĢĿ\"": 3629,
      "Ġà´ľà´Ĺà´¨": 3630,
      "Ġà´ªà´±à´¤": 3631,
      "Ġà´ķàµ¼à´·à´ķàµ¼à´ķ": 3632,
      "Ġà´Ĩà´¬": 3633,
      "à´¨àµ»": 3634,
      "à´¤à´²àµ»": 3635,
      "à´¸àµ¼à´®": 3636,
      "Ġ=": 3637,
      "à´¸àµ¼à´Ĺ": 3638,
      "à´ķà´¸à´¨à´µ": 3639,
      "hi": 3640,
      "àµĩ..": 3641,
      "Ġà´ħà´°à´ļ": 3642,
      "990": 3643,
      "Ġà´īàµ¾": 3644,
      "à´¸à´ķà´°à´®": 3645,
      "Ġà´ķà´µàµ¼": 3646,
      "à´´à´ķà´³": 3647,
      "Ġà´Łà´ļ": 3648,
      "à´ķà´²à´¯": 3649,
      "Ġà´°à´ļà´¨à´¯": 3650,
      "à´²à´¡": 3651,
      "à´ľà´¨à´¯": 3652,
      "Ġà´®à´£à´²": 3653,
      "à´³à´³à´µà´°": 3654,
      "à´ķà´²à´µ": 3655,
      "à´łà´ª": 3656,
      "av": 3657,
      "Ġà´¬à´§": 3658,
      "Ġà´īà´´": 3659,
      "à´ħà´µà´³": 3660,
      "gm": 3661,
      "à´ļà´ķà´®": 3662,
      "à´ķà´¤à´ķà´³": 3663,
      "Ġà´ªà´µà´±": 3664,
      "Ġà´ªà´ķàµ¼à´ļ": 3665,
      "à´ªà´¨à´ķ": 3666,
      "à´¯à´Łà´¨": 3667,
      "à´¤à´Ń": 3668,
      "Ġà´İà´Ĳà´İ": 3669,
      "àµ¼à´Ĺà´®": 3670,
      "Ġà´ĵàµº": 3671,
      "Ġà´ĩà´Łà´¯à´¨": 3672,
      "à´¤à´µà´£à´¤": 3673,
      "34": 3674,
      "ive": 3675,
      "Ġà´¤à´ķàµ¼à´ļ": 3676,
      "38": 3677,
      "Ġà´ĵà´«àµ¼": 3678,
      "ĠSt": 3679,
      "Ġà´Łàµ¼à´¬": 3680,
      "Ġà´Ĭà´¤": 3681,
      "Ġà´ĩàµ»à´¡à´¸": 3682,
      "à´²à´¨à´µ": 3683,
      "Ġà´ªà´²à´ķ": 3684,
      "Ġà´ªà´³à´¨": 3685,
      "à´¹à´³": 3686,
      "à´¸à´ĸ": 3687,
      "à´·à´Ń": 3688,
      "Ġà´īàµ½": 3689,
      "Ġà´Ĩà´¦à´°à´£": 3690,
      "Ġ3000": 3691,
      "à´¯à´¦à´°": 3692,
      "à´ªà´ķà´°à´£à´Ļ": 3693,
      "à´·à´±": 3694,
      "Ġà´ħà´§à´°": 3695,
      "à´ıà´±": 3696,
      "à´¿âĢį": 3697,
      "à´®à´ŀ": 3698,
      "à´µà´¶à´ķ": 3699,
      "à´īà´¤": 3700,
      "37": 3701,
      "Ġà´Ĩà´ķà´Ł": 3702,
      "à´ħà´µàµ¼": 3703,
      "Ġà´¦àµ¼à´¶": 3704,
      "Ġà´¤à´²à´µàµ»": 3705,
      "Ġà´Ĩà´¨à´¯": 3706,
      "à´¯à´®à´¸": 3707,
      "Ġ94": 3708,
      "àµ½à´ļ": 3709,
      "à´®à´¸à´ķ": 3710,
      "Ġ107": 3711,
      "Ġ1998": 3712,
      "Ġà´ħà´µà´°à´µ": 3713,
      "Ġà´¸à´®à´¸": 3714,
      "Ġà´īà´£àµ¼à´¨": 3715,
      "à´²à´¤à´¯": 3716,
      "Ġkgm": 3717,
      "à´µà´¤à´®": 3718,
      "à´®à´¯à´¤": 3719,
      "Ġà´Ĭà´Ł": 3720,
      "à´¸àµ¼à´ļ": 3721,
      "à´ķà´³à´¤": 3722,
      "Ġà´¤à´±à´¯": 3723,
      "Ġà´Ńà´Ĺà´µ": 3724,
      "Ġà´µà´°à´³": 3725,
      ".\"\"": 3726,
      "Ġà´§à´¨à´µ": 3727,
      "05": 3728,
      "àµ»à´Ń": 3729,
      "à´ķà´¤à´ķàµ¾": 3730,
      "à´¶à´ľà´°": 3731,
      "Ġà´¶à´µà´ķ": 3732,
      "36": 3733,
      "àµĭ...": 3734,
      "à´Łà´¨à´µà´§": 3735,
      "GB": 3736,
      "à´Łà´¤à´¯": 3737,
      "Ġà´®à´¨à´ª": 3738,
      "Ġà´īà´ªà´µ": 3739,
      "Ġà´ķà´°à´³": 3740,
      "Ġ88": 3741,
      "à´ħà´Ń": 3742,
      "à´İàµ»à´İ": 3743,
      "Ġà´ķà´¨à´ķ": 3744,
      "Ġà´®àµ¼à´ķ": 3745,
      "àµ½à´·": 3746,
      "à´¶àµ»": 3747,
      "àµģ.\"\"\"": 3748,
      "à´ĸàµ¼à´ľ": 3749,
      "àµĨ.âĢĿ\"": 3750,
      "ct": 3751,
      "Ġà´µàµ¼à´§à´¨": 3752,
      "à´¦àµ¼à´Ńà´Ļ": 3753,
      "Ġà´¤à´ļ": 3754,
      "Ġà´¸à´¦à´¸": 3755,
      "ĠIndia": 3756,
      "Ġà´ħàµ¼à´¬": 3757,
      "à´İà´µ": 3758,
      "à´ĵà´«": 3759,
      "à´ķà´Ń": 3760,
      "Ġà´¨à´Ļ": 3761,
      "Ġ115": 3762,
      "ĠVI": 3763,
      "Ġà´ķàµ¼à´·à´ķàµ¼": 3764,
      "àµĨ'": 3765,
      "à´İàµ½à´İà´¯": 3766,
      "Ġà´īà´®à´°": 3767,
      "à´¡à´¡": 3768,
      "Ġà´Ĵà´µ": 3769,
      "Ġà´ħà´¸à´±": 3770,
      "Ġà´µà´ļà´¨à´¤": 3771,
      "Ġà´ķàµ½à´ķ": 3772,
      "Ġà´®à´²à´ķà´³": 3773,
      "à´ĺà´¨à´Ļ": 3774,
      "Ġà´ķà´²à´°": 3775,
      "à´®à´¸à´¸": 3776,
      "àµĭà´Ĥ,": 3777,
      "à´·à´¯à´µ": 3778,
      "à´¾âĢ¦": 3779,
      "àµĢà´Ĥ.": 3780,
      "à´ļà´²à´¨à´¤": 3781,
      "Ġàµĩ": 3782,
      "à´®àµ¼à´¶à´¨à´Ļ": 3783,
      "ast": 3784,
      "à´ķàµ¼à´¤": 3785,
      "àµĤ:": 3786,
      "àµ½à´Ł": 3787,
      "Ġà´¨à´¡": 3788,
      "Ġà´ħà´ªà´µ": 3789,
      "Ġ98": 3790,
      "Ġà´¹à´¯àµ¼": 3791,
      "à´¤à´Ĺ": 3792,
      "à´·à´¯à´®à´²": 3793,
      "àµĤ..": 3794,
      "à´ĸà´ķ": 3795,
      "Ġà´¹à´¬": 3796,
      "à´Ĳà´Ĩàµ¼": 3797,
      "àµĭâĢ¦": 3798,
      "à´°à´£à´¯à´®": 3799,
      "à´İàµ»à´¯": 3800,
      "Ġà´ķà´±à´Ļ": 3801,
      "à´Ĺà´¦": 3802,
      "à´¨à´µà´°à´²": 3803,
      "Ġà´ķà´¬à´³": 3804,
      "àµģâĢĮ": 3805,
      "à´µà´ļà´¨": 3806,
      "à´ķà´°àµ¼": 3807,
      "à´ĸà´ķàµ»": 3808,
      "Ġà´¸à´®à´µ": 3809,
      "à´¦à´°à´µ": 3810,
      "à´±à´ķà´ķ": 3811,
      "umb": 3812,
      "àµ¼à´ªà´±": 3813,
      "Ġà´¬à´Ĺ": 3814,
      "à´«à´¯": 3815,
      "Ġà´Ĳà´Ĵ": 3816,
      "ain": 3817,
      "à´ªà´Łà´°": 3818,
      "à´¶à´ľà´¨": 3819,
      "Ġà´ħà´µà´¬": 3820,
      "Ġà´Ĩàµ¼à´ľ": 3821,
      "à´ĩà´°": 3822,
      "Ġà´ħà´³à´ķ": 3823,
      "à´²à´¤à´²": 3824,
      "à´ŀà´²": 3825,
      "Ġà´ıà´ķà´¨": 3826,
      "à´ķà´Łà´µ": 3827,
      "Ġ119": 3828,
      "à´ķà´°à´ª": 3829,
      "à´ªà´µà´°": 3830,
      "à´·à´¬": 3831,
      "Ġà´İà´İ": 3832,
      "Ġà´¹à´¯à´°": 3833,
      "Ġà´ıà´ķà´ª": 3834,
      "à´·à´¨àµ½": 3835,
      "Ġà´ķà´Łà´®à´¯": 3836,
      "Ġà´ªà´ķà´°à´ķ": 3837,
      "à´ķà´Łà´®": 3838,
      "Ġà´ĵà´µàµ¼": 3839,
      "à´ħà´§": 3840,
      "Ġà´ĩà´¡": 3841,
      "Ġà´ķàµ¼à´®": 3842,
      "à´ªà´ķà´Łà´Ļ": 3843,
      "à´°à´³à´¯à´ķ": 3844,
      "à´¦à´¯à´µ": 3845,
      "à´Łàµ¼à´ķ": 3846,
      "à´Ĥ(": 3847,
      "à´µàµ¼à´·à´¤": 3848,
      "Ġà´ĩàµ»à´ķ": 3849,
      "Ġà´¸à´®à´ķ": 3850,
      "'-": 3851,
      "Ġà´²à´¯à´£": 3852,
      "à´¾...": 3853,
      "à´Łà´®à´¯": 3854,
      "Ġà´İàµ»à´±": 3855,
      "Ġà´Ĩà´ªà´¤": 3856,
      "à´°à´£à´Ĺà´¤": 3857,
      "à´ĸà´°àµ»": 3858,
      "à´¯àµ¼à´ª": 3859,
      "Ġà´¤à´±à´ķ": 3860,
      "Ġà´Ĩà´¯à´ª": 3861,
      "all": 3862,
      "à´¨à´¤à´µ": 3863,
      "Ġà´ħà´¯àµ½": 3864,
      "à´ķàµ»à´¡à´±": 3865,
      "à´«à´¸à´±": 3866,
      "Ġth": 3867,
      "Ġà´İà´¯àµ¼à´²": 3868,
      "à´¹à´ķà´¨": 3869,
      "Ġà´ħà´²à´¨": 3870,
      "Ġà´Ĳà´ľ": 3871,
      "Ġà´Ĩà´ķàµ¼à´·à´ķà´®": 3872,
      "Ġà´µà´ľ": 3873,
      "Ġà´°à´ļà´¯": 3874,
      "Ġà´ĸà´Ł": 3875,
      "Ġ240": 3876,
      "à´°à´ľà´¨": 3877,
      "à´²à´ķà´°": 3878,
      "à´Ĺà´®à´¤": 3879,
      "à´°à´µà´ļà´¨à´Ļ": 3880,
      "Ġ92": 3881,
      "à´ķà´°à´¤": 3882,
      "Ġà´¯à´ħ": 3883,
      "Ġà´ªà´´à´¯à´¤": 3884,
      "ric": 3885,
      "à¦": 3886,
      "à´¤à´µàµ¼": 3887,
      "à´®àµ½": 3888,
      "à´ļà´Ńà´ķ": 3889,
      "Ġà´¤à´¬": 3890,
      "Ġà´°à´¸à´®": 3891,
      "à´İà´Ł": 3892,
      "à´ķà´®à´£": 3893,
      "69": 3894,
      "à´ķà´¯à´ļ": 3895,
      "Ġà´¦à´¨": 3896,
      "Ġà´¤à´³à´³": 3897,
      "har": 3898,
      "Ġà´ĵà´«à´°": 3899,
      "à´µà´³à´®": 3900,
      "Ġà´ħà´Ĺàµ¼à´µ": 3901,
      "à´Łà´°à´¨": 3902,
      "âĢĮàµį.": 3903,
      "Ġà´«à´²à´ķ": 3904,
      "à´Ĳà´İà´¸": 3905,
      "à´¤à´ķà´ķ": 3906,
      "Ġ{": 3907,
      "Ġà´µà´¨à´¤": 3908,
      "à´µà´°à´£à´Ļ": 3909,
      "Ġà´®à´¨à´¶": 3910,
      "31": 3911,
      "Ġà´ļà´²à´¨": 3912,
      "à´¨à´¨à´·": 3913,
      "Ġ114": 3914,
      "Ġà´¡à´ļ": 3915,
      "Ġà´¤à´³àµ¼à´¨": 3916,
      "à´Ĵà´¯": 3917,
      "Ġ>": 3918,
      "à´Łà´¨à´Ļ": 3919,
      "à´§à´®à´²": 3920,
      "à´¿âĢ¦.": 3921,
      "Ġà´¨à´ľ": 3922,
      "àµ»à´²": 3923,
      "Ġà´¦àµ¼à´¶à´¨": 3924,
      "à´Ĺà´¤à´¨": 3925,
      "à´ĺà´Łà´¨à´ķàµ¾": 3926,
      "à´¨à´Łà´¯": 3927,
      "Ġà´°àµº": 3928,
      "79": 3929,
      "Ġà´Ńà´µà´¨à´¤": 3930,
      "Ġà´ħà´®àµ¼à´¤": 3931,
      "à´°à´³à´µ": 3932,
      "à´Ľà´®": 3933,
      "Ġ144": 3934,
      "Ġà´ķà´µà´±": 3935,
      "à´¯à´²à´¹à´°": 3936,
      "Ġà´ļà´µà´±": 3937,
      "Ġà´ķà´³à´µ": 3938,
      "Ġâĸ¡": 3939,
      "ational": 3940,
      "à´¤à´°à´²": 3941,
      "à´Ĩà´¯": 3942,
      "à´§à´ķà´®à´²": 3943,
      "à´¶à´ķà´¨": 3944,
      "Ġà´Łàµº": 3945,
      "Ġ185": 3946,
      "à´«à´·à´£àµ½": 3947,
      "à´Ĺà´°à´±": 3948,
      "à´µà´²à´®": 3949,
      "Ġcon": 3950,
      "àµĩàµį": 3951,
      "Ġà´ķà´²à´£": 3952,
      "Ġà´ªà´łà´¨à´µ": 3953,
      "à´łà´°": 3954,
      "Ġ142": 3955,
      "à´¶à´¯à´ķà´°à´®": 3956,
      "à´ŀà´®": 3957,
      "Ġà´¯à´®": 3958,
      "à´¯à´£àµ»": 3959,
      "à´ŀàµ¼": 3960,
      "à´ħà´¸": 3961,
      "Ġà´¬à´¦à´²": 3962,
      "Ġà´Ńà´°à´£à´®": 3963,
      "à´Ĺàµ»": 3964,
      "à´Ļà´³à´±": 3965,
      "Ġà´īà´ªà´¨": 3966,
      "à´µàµ¼à´£à´µ": 3967,
      "àµ»à´«": 3968,
      "à´ļà´µà´ļ": 3969,
      "à´Ńà´µà´¸à´®": 3970,
      "àµºà´Ł": 3971,
      "Ġà´İàµ»à´Ł": 3972,
      "Ġ230": 3973,
      "à´Ĺàµ½": 3974,
      "àµĹ:": 3975,
      "à´°à´£à´°": 3976,
      "à¥": 3977,
      "Ġà´¸àµº": 3978,
      "Ġà´¨à´¤": 3979,
      "Ġà´¦à´£": 3980,
      "à´¤à´µàµ¼à´ķ": 3981,
      "à´®à´ķà´°à´£": 3982,
      "à´¨à´¤à´®": 3983,
      "Ġà´ľà´¯à´ķ": 3984,
      "Ġà´ĵà´¹": 3985,
      "à´ļà´µàµ¼": 3986,
      "à´¡à´±à´²": 3987,
      "à´ªà´£à´¨": 3988,
      "Ġà´ĸà´ľà´¨": 3989,
      "ell": 3990,
      "Ġà´¨à´Ĺà´°à´¸à´Ńà´¯": 3991,
      "ha": 3992,
      "à´°à´¯à´®": 3993,
      "Ġà´ħà´²à´¯": 3994,
      "à´Ķà´Ł": 3995,
      "à´¤à´³à´¤": 3996,
      "Ġà´¨à´ĸ": 3997,
      "àµ½à´ľ": 3998,
      "àµģ.âĢĿ": 3999,
      "Ġ900": 4000,
      "Ġà´ļà´¤à´ļ": 4001,
      "ĠY": 4002,
      "Ġà´ĩà´«": 4003,
      "Ġà´Ĩà´¸à´¨": 4004,
      "à´ªà´ķà´Ł": 4005,
      "Ġà´ĸà´¨à´¨": 4006,
      "à´¸à´£à´²": 4007,
      "à´¯à´®à´¨à´¤": 4008,
      "à´°à´®à´£à´µ": 4009,
      "Ġà´Ĳà´Ĳà´Ł": 4010,
      "Ġ106": 4011,
      "Ġà´ħà´µà´¹": 4012,
      "Ġ109": 4013,
      "àµĨâĢĿ": 4014,
      "à´µà´«à´²à´Ļ": 4015,
      "Ġà´¬à´¬": 4016,
      "à´¯àµ½à´¸": 4017,
      "OS": 4018,
      "à´¨à´ķà´®": 4019,
      "àµĨàµĹ": 4020,
      "à´±à´ķà´°à´®": 4021,
      "eather": 4022,
      "à´µà´³àµ¼à´¤": 4023,
      "à´·à´ķàµ¼à´ķ": 4024,
      "à´¡à´¨à´Ļ": 4025,
      "à´Į": 4026,
      "Ġà´ľà´¯à´µ": 4027,
      "Ġà´Ńà´°à´¤": 4028,
      "à´¸à´®à´¨": 4029,
      "Ġ1991": 4030,
      "âĢİ\"\"": 4031,
      "àµĨâĢĻ": 4032,
      "Ġà´ĩà´¤à´¨": 4033,
      "Ġà´¸à´®à´¯à´ªà´°": 4034,
      "-à´¾": 4035,
      "àµĤâĢĭ": 4036,
      "à´¿à´ĤâĢĭ": 4037,
      "à´Łà´®à´ķà´³": 4038,
      "à´¤à´ŀ": 4039,
      "à´¤à´¡": 4040,
      "Ġ650": 4041,
      "à´¾à´Ĥ..": 4042,
      "Ġà´ķà´³à´°": 4043,
      "Ġà´Ĩà´³à´²": 4044,
      "ud": 4045,
      "àµ»à´ľ": 4046,
      "Ġà´Ľà´°": 4047,
      "à´²à´Łà´ļ": 4048,
      "à´ļà´ķà´¤": 4049,
      "ate": 4050,
      "ib": 4051,
      "Ġà´İà´Łà´ª": 4052,
      "à´¯à´¸à´®à´¯": 4053,
      "à´ļà´¨à´ķàµ¾": 4054,
      "Ġ175": 4055,
      "Ġà´µàµ»à´¤": 4056,
      "linen": 4057,
      "89": 4058,
      "à´¶à´®à´²": 4059,
      "oun": 4060,
      "à´²à´®à´²": 4061,
      "Ġ117": 4062,
      "46": 4063,
      "Ġ*": 4064,
      "à´¿àµį": 4065,
      "à´µà´ļà´°": 4066,
      "Ġà´¨à´±": 4067,
      "Ġà´®à´¦à´¨": 4068,
      "Ġà´ıà´¯": 4069,
      "à´Ĥ).": 4070,
      "àµ¾à´¡àµ»": 4071,
      "ub": 4072,
      "à´¯à´ªà´¤": 4073,
      "à´Łà´µàµ¼à´ķ": 4074,
      "Ġà´ħàµ¼à´®": 4075,
      "Ġà´ħà´£à´¯": 4076,
      "Ġà´ªà´¦à´Ļ": 4077,
      "à´¤à´°à´£à´µ": 4078,
      "Ġà´¤à´£à´²": 4079,
      "Ġà´ħà´µà´¨à´±": 4080,
      "ill": 4081,
      "ep": 4082,
      "Ġà´ķà´¤à´ķ": 4083,
      "àµ¼à´µà´ļ": 4084,
      "87": 4085,
      "Ġà´ħàµ¼à´¦": 4086,
      "Ġà´¸à´µà´°": 4087,
      "Ġà´¨à´¯àµ»": 4088,
      "Ġà´ıà´ķà´ªà´ķ": 4089,
      "ld": 4090,
      "Ġà´ħà´Ĺà´¤": 4091,
      "Ġà´¤à´ķàµ¼à´ª": 4092,
      "àµĨàµį": 4093,
      "à´±àµ¼à´®": 4094,
      "Ġ750": 4095,
      "09": 4096,
      "Ġà´®àµ¾à´Ł": 4097,
      "à´Ĩà´¤": 4098,
      "Ġà´ªà´¸": 4099,
      "àµĩâĢ¦": 4100,
      "Ġà´Ĺàµ¾à´«": 4101,
      "Ġà´¨àµ½à´ķà´ª": 4102,
      "à´Ĳà´¡": 4103,
      "à´ªà´°à´¤": 4104,
      "Ġà´¨à´Ĺàµ¼": 4105,
      "Ġ1500": 4106,
      "Ġà´İà´¯àµ¼à´ª": 4107,
      "Ġà´Ĵà´°à´µà´¸": 4108,
      "Ġ124": 4109,
      "à´®à´³à´®": 4110,
      "à´¯à´¥": 4111,
      "à´¦à´§": 4112,
      "à´¦à´¯à´®": 4113,
      "Ġà´Ĩàµ¼à´®": 4114,
      "Ġà´«à´²à´µ": 4115,
      "à´¸à´µà´Ļ": 4116,
      "--": 4117,
      "à´¯à´ĺ": 4118,
      "à´¸à´¹à´®": 4119,
      "à´°à´¸à´Ńà´¯": 4120,
      "à´«à´¸àµ¼": 4121,
      "à´ªà´ķàµ¼à´ķ": 4122,
      "à´³àµ»": 4123,
      "Ġà´ĵà´£à´¤": 4124,
      "à´Ĳà´ª": 4125,
      "Ġà´ħà´¸à´¦": 4126,
      "weather": 4127,
      "à´ļà´¨à´ķ": 4128,
      "Ġà´¤àµ½à´ķ": 4129,
      "Ġà´ħà´¯àµ½à´µ": 4130,
      "àµģ:)": 4131,
      "àµģà´Ĥ:)": 4132,
      "Ġà´µà´¨à´Ļ": 4133,
      "Ġà´Īà´¦": 4134,
      "Ġà´ľà´²à´¦": 4135,
      "Ġà´¸à´®à´®": 4136,
      "Ġà´ªà´²à´¸": 4137,
      "Ġ1990": 4138,
      "Ġst": 4139,
      "à´²àµ¼à´ļ": 4140,
      "Ġà´Łà´°": 4141,
      "Ġ93": 4142,
      "Ġ145": 4143,
      "àµĩ...": 4144,
      "à´°à´£à´µà´¶": 4145,
      "Ġà´ķà´³à´Ļ": 4146,
      "Ġ1996": 4147,
      "86": 4148,
      "SL": 4149,
      "Ġà´¨à´°à´ķà´®": 4150,
      "76": 4151,
      "à´µà´ķà´°": 4152,
      "à´µà´¹à´®": 4153,
      "à´ļà´²à´®": 4154,
      "Ġà´ħà´Ĺà´¸": 4155,
      "à´¯à´¯à´¶": 4156,
      "à´Ĭà´¦": 4157,
      "linenews": 4158,
      "à´Ńà´¸": 4159,
      "Ġà´īà´ªà´ķà´°à´£à´¤": 4160,
      "àµºà´¸àµº": 4161,
      "à´¶à´¦à´µ": 4162,
      "Ġà´Ĩà´²à´¯": 4163,
      "Ġà´¡à´µà´²à´ª": 4164,
      "à´Łà´¨à´ķ": 4165,
      "Ġà´ķà´®àµ½": 4166,
      "Ġà´¨à´¨à´ŀ": 4167,
      "àµį.\"\"": 4168,
      "à´Ļà´ķ": 4169,
      "Ġà´Ĩàµ½à´¬": 4170,
      "à´¤à´²à´µà´¨": 4171,
      "à´°à´²à´Łà´¯": 4172,
      "EA": 4173,
      "à´¤à´ªà´ķ": 4174,
      "à´µàµ¼à´®": 4175,
      "à´ļà´ķà´µ": 4176,
      "ĠâĢĭàµĨ": 4177,
      "à´µà´ķà´ķ": 4178,
      "âĢĭâĢĭâĢĭâĢĭ": 4179,
      "à´¸à´¦": 4180,
      "à´²à´ķàµ»": 4181,
      "Ġà´ªà´£à´ª": 4182,
      "Ġ112": 4183,
      "Ġà´ľàµ¼à´®àµ»": 4184,
      "Ġà´ħà´µà´¯à´µà´Ļ": 4185,
      "à´¤à´ªà´°": 4186,
      "Ġà´¸à´¹à´ľà´®": 4187,
      "à´¤à´ķàµ¾à´ķ": 4188,
      "Ġà´Ńà´Ĺà´µà´¤": 4189,
      "',": 4190,
      "Ġà´ħà´¨à´¸": 4191,
      "?\"": 4192,
      "à´Łà´¶": 4193,
      "à´¸à´µà´¸": 4194,
      "Ġà´¨à´¯à´®": 4195,
      "Ġà´°àµºà´µ": 4196,
      "à´ħà´µàµ»": 4197,
      "Ġ113": 4198,
      "à´ķàµº": 4199,
      "Ġà´ļà´ª": 4200,
      "à´Łà´ķà´µ": 4201,
      "âĢĮ.": 4202,
      "à´¿âĪĻ": 4203,
      "ran": 4204,
      "Ġà´¯à´®à´¹": 4205,
      "Ġà´ĵàµ¼à´®à´¯": 4206,
      "à´ķà´²à´°": 4207,
      "à´ķà´¬à´¨": 4208,
      "à´³à´¨à´Ļ": 4209,
      "à´´à´®": 4210,
      "àµ»à´¸à´¸": 4211,
      "à´ĵà´¸": 4212,
      "42": 4213,
      "Ġà´ªà´¯à´±": 4214,
      "à´ŀàµ»": 4215,
      "à´®à´¯à´²": 4216,
      "Ġà´ªà´¤à´±": 4217,
      "Ġà´¸à´®à´°à´Ļ": 4218,
      "Ġ.\"": 4219,
      "à´®à´¤à´²à´ķà´³": 4220,
      "Ġ4000": 4221,
      "600": 4222,
      "Ġà´¸à´®à´¯à´¬à´¨": 4223,
      "06": 4224,
      "Ġ$": 4225,
      "Ġx": 4226,
      "Ġà´ħàµ¾à´Ł": 4227,
      "Ġà´ĩà´Ĺ": 4228,
      "à´°à´µà´²": 4229,
      "à´§à´ķàµ¼à´ķ": 4230,
      "ies": 4231,
      "Ġà´ħàµºà´²": 4232,
      "Ġà´ħà´²à´®": 4233,
      "Ġà´®à´¤à´ķ": 4234,
      "Ġà´¨à´°à´ķà´¶": 4235,
      "à´İà´ľ": 4236,
      "àµģà´Ĥ,âĢĿ": 4237,
      "à´Ĳà´µ": 4238,
      "Ġ122": 4239,
      "ĠQ": 4240,
      "à´¿âĢĿ": 4241,
      "àµ¾à´®": 4242,
      "Ġà´Ńà´£": 4243,
      "à´°à´®à´£à´ª": 4244,
      "art": 4245,
      "à´µà´¡": 4246,
      "Ġà´®à´łà´¤": 4247,
      "Ġà´ľà´±": 4248,
      "Ġà´ľà´Ĺà´¦": 4249,
      "se": 4250,
      "Ġà´«à´Ł": 4251,
      "à´°à´ķà´°": 4252,
      "à´ĸà´°à´¤": 4253,
      "à´ªà´ķà´°à´®": 4254,
      "à´®àµ¼à´¶à´¤": 4255,
      "à´Ļà´£à´®": 4256,
      "à´Ńà´µà´®à´²": 4257,
      "Ġà´«à´²à´¸": 4258,
      "97": 4259,
      "à´¾)": 4260,
      "à´¤àµ½à´ķ": 4261,
      "Ġà´¹à´±": 4262,
      "Ġà´µà´¨à´ª": 4263,
      "à´·à´ķà´Ļ": 4264,
      "à´±à´¸à´®": 4265,
      "à´®à´¤à´°": 4266,
      "àµ¼à´£à´¤": 4267,
      "à´ľà´ķà´®à´£": 4268,
      "à´®àµ¼à´¶à´Ļ": 4269,
      "800": 4270,
      "Com": 4271,
      "à´°à´®à´°": 4272,
      "Ġà´Ĳà´İà´¨": 4273,
      "Ġ118": 4274,
      "à´¿âĢĭâĢĭâĢĭàµĨ": 4275,
      "aj": 4276,
      "à´®à´¤à´®": 4277,
      "Ġà´¦à´¹à´¨": 4278,
      "à´¨à´¸à´°": 4279,
      "à´ĺà´£": 4280,
      "Ġà´ħà´Łà´²": 4281,
      "à´Ĩàµ¼à´ª": 4282,
      "à´¨à´ĺà´Ł": 4283,
      "à´Ļà´³à´µà´¨": 4284,
      "Ġ288": 4285,
      "MP": 4286,
      "our": 4287,
      "à´ļà´°à´£à´¤": 4288,
      "Ġà´µà´°à´£à´®": 4289,
      "à´Ĺà´ŀ": 4290,
      "àµ»à´¬": 4291,
      "Ġà´µà´Łà´ķà´°": 4292,
      "Ġà´Ńà´Ĺà´¤": 4293,
      "à´ķà´·": 4294,
      "Ġà´īà´¤à´ķ": 4295,
      "à´°à´ķà´Łà´¨à´µ": 4296,
      "à´ļà´®àµ¼à´¤": 4297,
      "ĠCh": 4298,
      "Ġà´Ĩàµ½": 4299,
      "à´°à´£à´ķà´³": 4300,
      "à´°à´ļà´°à´£à´¤": 4301,
      "Ġà´ħà´µà´¶à´¨": 4302,
      "ant": 4303,
      "àµģ\"\"": 4304,
      "à´ĸà´ªà´Ł": 4305,
      "Ġà´¹àµ¼à´·": 4306,
      "Ġà´ħà´²àµ¼à´ľ": 4307,
      "à´ļà´¯à´¦": 4308,
      "Ġà´ĩà´Łà´µà´°": 4309,
      "Ġà´¨à´¯àµ»à´¤": 4310,
      "à´°àµº": 4311,
      "àµ¼à´¬à´²à´®": 4312,
      "àµįàµįâĢĮ": 4313,
      "Ġà´¸à´Ĭà´¦": 4314,
      "à´¥à´ª": 4315,
      "Ġà´ªà´°à´¦": 4316,
      "Ġ1950": 4317,
      "04": 4318,
      "Ġà´µà´ĸ": 4319,
      "à´§à´ľà´²": 4320,
      "Ġà´ľà´¯à´ª": 4321,
      "Ġà´Ĵà´°à´¨": 4322,
      "Ġname": 4323,
      "à´°à´¦àµ¼à´¶à´¨à´¤": 4324,
      "à´ķà´¨à´Ļ": 4325,
      "ip": 4326,
      "à´Łà´°à´£à´®": 4327,
      "à´°à´ķà´Ļ": 4328,
      "Ġà´ªà´Łà´ļ": 4329,
      "Ġà´¸à´ķà´²à´ľ": 4330,
      "à´ķà´Łà´ª": 4331,
      "à´ĩà´Ļ": 4332,
      "ight": 4333,
      "ae": 4334,
      "àµįâĢįâĢĭ": 4335,
      "à´¬à´¶": 4336,
      "Ġà´ªà´±à´®": 4337,
      "à´¯à´ķà´¤à´¯": 4338,
      "à´Łà´¬": 4339,
      "àµĢ?": 4340,
      "Ġà´¤à´¨à´¤": 4341,
      "à´Ļà´³à´¨": 4342,
      "à´¡à´±àµ½": 4343,
      "Ġà´ľà´µà´¹": 4344,
      "à´°à´µà´£à´¤à´¯": 4345,
      "Ġà´µàµ¼à´§à´¨à´¯": 4346,
      "Ġà´Ńà´°à´£à´¸à´®": 4347,
      "one": 4348,
      "à´İà´İ": 4349,
      "Ġà´¤à´Łà´¸à´®": 4350,
      "Ġ102": 4351,
      "à´¯àµ¼à´¥": 4352,
      "Ġà´Ĩàµº": 4353,
      "à´Ĺà´Ń": 4354,
      "âĢĻ,": 4355,
      "ex": 4356,
      "Ġà´Ńà´¯à´µ": 4357,
      "àµĥ.": 4358,
      "à´Łà´ķà´ķ": 4359,
      "àµį]": 4360,
      "àµĨ(": 4361,
      "Ġà´¸à´¹à´ķ": 4362,
      "Ġ103": 4363,
      "à´¨à´°à´ļà´¯": 4364,
      "Ġà´ħà´£à´ļ": 4365,
      "83": 4366,
      "à´ªà´²à´¤": 4367,
      "Ġà´Ĩàµ¼à´¦": 4368,
      "Ġà´Ĩà´¶à´¯à´®": 4369,
      "à´ħà´ļ": 4370,
      "Ġà´Ĳà´İà´İà´¸": 4371,
      "à´ĺà´ªà´°": 4372,
      "à´¨à´ľ": 4373,
      "àµį.âĢĿ": 4374,
      "à´ĩà´ķ": 4375,
      "Ġà´®à´´à´µ": 4376,
      "Ġà´Ĵà´®àµ¼": 4377,
      "à´¿àµĨ": 4378,
      "à´·à´ķà´®": 4379,
      "Ġà´ħà´²à´±": 4380,
      "à´¯à´ªà´Ł": 4381,
      "Ġà´ľà´¨à´ľ": 4382,
      "àµįâĢįàµį": 4383,
      "à´µàµ¼à´£à´ķ": 4384,
      "Ġà´Ľàµ¼à´¦": 4385,
      "Ġà´Łà´¯à´±": 4386,
      "à´Łà´ķà´¨": 4387,
      "Ġà´ķà´µàµ¼à´ļ": 4388,
      "à´ŀà´ķ": 4389,
      "Ġà´īà´ķ": 4390,
      "à´«à´±à´¸": 4391,
      "Ġà´ķà´°à´ķà´¯à´±": 4392,
      "Ġal": 4393,
      "à´¸à´ľ": 4394,
      "Ġà´µà´¡": 4395,
      "à´¦à´ķà´°à´®": 4396,
      "Ġà´ħà´±à´¯": 4397,
      "Ġ1993": 4398,
      "àµįâĢĮ-": 4399,
      "Ġà´Ĳà´·": 4400,
      "ĠâĢĻâĢĻ": 4401,
      "Ġà´ĭà´¤": 4402,
      "Ġà´ªà´²à´µà´Ł": 4403,
      "ik": 4404,
      "Ġàµģ": 4405,
      "à´ķà´¸à´Ń": 4406,
      "àµĭ)": 4407,
      "à´¤à´²à´Ļ": 4408,
      "Ġà´ķà´²à´¹": 4409,
      "à´¨à´µà´¨à´²": 4410,
      "Ġà´Ĳà´Ĵà´İà´¸": 4411,
      "à´®à´²à´ķ": 4412,
      "à´¦à´¬": 4413,
      "à´Ńà´µà´®à´±": 4414,
      "à´ĺà´¨à´¤": 4415,
      "à´¯à´±à´¯": 4416,
      "62": 4417,
      "Ġà´ľà´Ĺà´¤": 4418,
      "Ġà´ªà´ķàµ½": 4419,
      "Ġà´ªà´²à´¤à´°à´¤": 4420,
      "à´µà´ľà´¨à´¤": 4421,
      "ËĪ": 4422,
      "Ġà´ªà´¸à´«": 4423,
      "à´¸à´¡": 4424,
      "Ġà´®à´·": 4425,
      "àµĬ,": 4426,
      "à´¯à´®à´£": 4427,
      "à´¤à´¤à´²": 4428,
      "Ġ1997": 4429,
      "à´¸à´°à´£à´ķ": 4430,
      "ĠâĢĻ-": 4431,
      "Ġà´İà´Ĳà´İà´¡": 4432,
      "Ġ}": 4433,
      "à´Łà´°à´£": 4434,
      "Ġà´ħà´¨à´ķ": 4435,
      "à´Ĩà´¶": 4436,
      "à´®à´µà´¨": 4437,
      "Ġà´İà´İà´¨": 4438,
      "Ġ1914": 4439,
      "àµ¾à´ļ": 4440,
      "à´¾à´Ĥ)": 4441,
      "à´¤à´¨à´ª": 4442,
      "à´¸à´Ńà´ķà´³": 4443,
      "Ġ1971": 4444,
      "à´ļà´¯à´µ": 4445,
      "à´µà´¬": 4446,
      "à´¸à´µà´®": 4447,
      "Ġà´ħà´¯à´°": 4448,
      "ard": 4449,
      "à´µàµ»à´¸": 4450,
      "03": 4451,
      "à´¨àµ»à´¸": 4452,
      "à´®à´ªà´°": 4453,
      "Ġà´ĵà´·": 4454,
      "à´Ĩà´³": 4455,
      "à´¯à´£à´ļ": 4456,
      "ne": 4457,
      "à´ļà´ķà´°": 4458,
      "Ġà´Īà´°": 4459,
      "Ġà´ľà´¨à´¤à´ķ": 4460,
      "Ġ1995": 4461,
      "82": 4462,
      "ail": 4463,
      "Ġà´İàµ½à´ĩà´¡": 4464,
      "Ġà´®à´°à´£à´®à´Łà´¯": 4465,
      "à´Ńà´ľà´¨à´¤": 4466,
      "à´®à´ľà´¨": 4467,
      "à´³à´ķàµ¾": 4468,
      "à´Ńà´¯à´°": 4469,
      "Ġà´ĵàµ¼à´¡àµ¼": 4470,
      "84": 4471,
      "ok": 4472,
      "àµĤ...": 4473,
      "Ġà´¥à´®": 4474,
      "Ø§": 4475,
      "à´·à´¯à´°": 4476,
      "à´ķà´°à´ŀ": 4477,
      "end": 4478,
      "ome": 4479,
      "àµĬà´Ĥ": 4480,
      "Ġà´Ĺà´¬": 4481,
      "à´µà´¯à´±": 4482,
      "à´ħà´µà´¸": 4483,
      "Ġà´ĩà´Łà´ªà´´à´ķ": 4484,
      "ĠNews": 4485,
      "Ġ1980": 4486,
      "Comment": 4487,
      "à´µà´°à´£à´¤": 4488,
      "Ġà´ħà´Łà´ª": 4489,
      "2020": 4490,
      "ĠThe": 4491,
      "01": 4492,
      "Ġac": 4493,
      "à´±à´¶": 4494,
      "à´¦àµ¾": 4495,
      "à´ŀà´¤à´²": 4496,
      "Ġà´¶à´®à´°": 4497,
      "à´¯à´®à´¨à´Ļ": 4498,
      "Ġà´Ĳà´¡à´¨": 4499,
      "Ġà´ħàµ¼à´¥à´¤": 4500,
      "Ġà´ĭà´·à´Ń": 4501,
      "à´ľà´¹": 4502,
      "à´°à´¯à´²": 4503,
      "à´·à´¤à´µà´¹": 4504,
      "à´¤à´µà´®": 4505,
      "à´µà´Łà´Ļ": 4506,
      "à´¦à´ªà´°à´®": 4507,
      "à´¯à´¨à´²": 4508,
      "Ġ--": 4509,
      "orld": 4510,
      "à´°à´Łà´Ļ": 4511,
      "Ġ220": 4512,
      "Ġà´µà´§à´Ń": 4513,
      "à´¤àµ¼à´¦": 4514,
      "àµĨâĢĮ": 4515,
      "à´£à´¯à´Ļ": 4516,
      "à´¨à´µà´¨à´¤": 4517,
      "à´µà´¹à´£": 4518,
      "Ġà´ħàµ¼à´ľà´¨": 4519,
      "II": 4520,
      "qu": 4521,
      "àµ½à´¸à´¯": 4522,
      "Ġà´īàµ½à´ªà´¨": 4523,
      "à´®à´¤à´¯": 4524,
      "Ġà´ľà´¨à´±": 4525,
      "Ġ116": 4526,
      "à´ķàµ½à´ķ": 4527,
      "àµ¼à´£à´¤à´¯": 4528,
      "Ġà´īà´¯à´°à´Ļ": 4529,
      "Ð°": 4530,
      "ĠÂł": 4531,
      "àµ½à´µàµ¼": 4532,
      "à´·à´®à´µ": 4533,
      "66": 4534,
      "à´®à´ĺà´Ł": 4535,
      "à´£à´ŀ": 4536,
      "Ġà´Īàµ¼à´ª": 4537,
      "Ġà´§à´¨à´¤": 4538,
      "Ġà´ħà´µà´¸à´°à´µ": 4539,
      "Ġà´ªà´°à´®à´¦à´¯": 4540,
      "à´§à´Ń": 4541,
      "à´ľà´¨à´ķ": 4542,
      "Ġ138": 4543,
      "à´ĸà´²à´ķàµ¾": 4544,
      "ĠÂ°": 4545,
      "ect": 4546,
      "à´ªà´Łà´¯": 4547,
      "à´®à´±à´ķàµ¾": 4548,
      "Ġà´īà´¯à´°à´µ": 4549,
      "àµ¼à´¬àµº": 4550,
      "Ġà´¸à´¹à´ķà´°à´£à´µ": 4551,
      "Ġà´®àµ½à´¸à´°à´¤": 4552,
      "à´®à´°à´£à´¯": 4553,
      "à´Ĩà´£": 4554,
      "Ġà´Ĩà´ķàµ¼à´·à´£": 4555,
      "han": 4556,
      "Ġà´īà´£àµ¼à´¤": 4557,
      "à´¾à´¾": 4558,
      "à´Łà´µà´³": 4559,
      "à´µàµ½à´ķ": 4560,
      "Ġà´°à´¶": 4561,
      "AT": 4562,
      "à´¸à´¬": 4563,
      "Ġà´·à´ķ": 4564,
      "Ġà´ħà´¸à´¨": 4565,
      "Ġ1989": 4566,
      "ĠÐ": 4567,
      "à´µà´µàµ¼à´Ĺ": 4568,
      "Ġà´ĩà´¶": 4569,
      "Ġà´īà´ªà´®à´¯": 4570,
      "à´ĩà´µà´°": 4571,
      "Ġà´¤à´®à´¨": 4572,
      "ine": 4573,
      "Ġ360": 4574,
      "02": 4575,
      "à´¤à´¬à´¨": 4576,
      "à´Łà´¨à´®": 4577,
      "à´¸à´°à´£à´®": 4578,
      "à´§à´ľ": 4579,
      "Ġ189": 4580,
      "à´¦à´¯à´Ń": 4581,
      "ass": 4582,
      "à´¬à´²à´°": 4583,
      "àµĨ]": 4584,
      "Ġà´ħà´¸à´Ń": 4585,
      "Ġà´ĩà´¤à´±": 4586,
      "81": 4587,
      "à´ªàµ¼à´µ": 4588,
      "à´¸à´¬à´¤": 4589,
      "àµįâĢį.\"": 4590,
      "Ġà´ķà´Łà´ķàµ¾": 4591,
      "Ġde": 4592,
      "Ġà´Ĩà´£à´²": 4593,
      "à´¸à´¤à´Łà´¸": 4594,
      "Ġà´ľà´µà´¹àµ¼à´²": 4595,
      "pl": 4596,
      "à´°à´¯à´¯": 4597,
      "Ġà´¸à´«à´²à´®": 4598,
      "à´·à´£à´ª": 4599,
      "ĠâĢĺâĢĻ": 4600,
      "Ġ153": 4601,
      "à´¥à´¨à´ķà´³": 4602,
      "ps": 4603,
      "à´¨à´Łà´ª": 4604,
      "à´¤à´¶à´°": 4605,
      "à´ļà´µàµ¼à´ķ": 4606,
      "Ġà´¸àµ¼à´¦": 4607,
      "Ġà´Ĩàµ¾à´Ł": 4608,
      "à´ļà´¯à´ļ": 4609,
      "à´¸à´®à´°": 4610,
      "Ġà¤": 4611,
      "à´±àµ¼à´ª": 4612,
      "à´§à´µà´²": 4613,
      "à´«à´±à´µ": 4614,
      "ark": 4615,
      "à´°à´Łà´ķ": 4616,
      "à´¸à´°à´°": 4617,
      "à´®àµ¼à´¶à´¨à´®": 4618,
      "TR": 4619,
      "à´±à´ľ": 4620,
      "à´µà´µà´°": 4621,
      "Ġà´Ĺà´£à´¤": 4622,
      "à´´à´µà´°": 4623,
      "à´Łà´¤à´¤": 4624,
      "ition": 4625,
      "74": 4626,
      "Ġà´®à´³": 4627,
      "Ġà´¸à´¹à´µà´¸": 4628,
      "Ġor": 4629,
      "Ġà´¨à´°à´¹à´¤": 4630,
      "à´ļà´Ń": 4631,
      "à´¬à´ľ": 4632,
      "Ġà´¹àµ¼à´¤": 4633,
      "Ġ(\"\"": 4634,
      "à´¾à´Ĥ...": 4635,
      "Ġ01": 4636,
      "Ġà´µà´¦": 4637,
      "Ġà´ħà´¤à´µà´¨": 4638,
      "à´¯à´¤à´²à´¤": 4639,
      "à´µà´£à´ķ": 4640,
      "àµ¼à´£àµ¼": 4641,
      "à´°à´·à´±": 4642,
      "'s": 4643,
      "71": 4644,
      "à´¨àµ¼à´¥": 4645,
      "à´Łà´µà´ķ": 4646,
      "Ġà´ªà´µàµ»": 4647,
      "à´ļà´®à´¯": 4648,
      "Ġà´¸à´±": 4649,
      "Ġà´¤àµ»": 4650,
      "Ġà´Ĺà´ľ": 4651,
      "à´¸à´²à´°": 4652,
      "Ġà´ķà´·à´£": 4653,
      "Ġà´¨à´µà´¦": 4654,
      "à´«à´²à´¤": 4655,
      "Ġà´Īà´£": 4656,
      "Ġà´ıà´¶": 4657,
      "Ġà´Ĳà´ļ": 4658,
      "ish": 4659,
      "ace": 4660,
      "à´ķàµ»à´¡": 4661,
      "à´²à´¹": 4662,
      "àµ½à´ĸàµ¼": 4663,
      "à´ŀà´µà´¨": 4664,
      "Ġ126": 4665,
      "ith": 4666,
      "io": 4667,
      "ug": 4668,
      "à´¯à´ªà´ķ": 4669,
      "Ġ\\\"\"": 4670,
      "Ġ#": 4671,
      "à´°à´Ĺà´¤": 4672,
      "àµĨà´¿": 4673,
      "à´·à´¤à´®": 4674,
      "à´¡à´µ": 4675,
      "ĠREA": 4676,
      "ack": 4677,
      "à´²à´¯à´¯": 4678,
      "Ġà´¤à´°à´Ļ": 4679,
      "Ġà´ĩàµ»à´±": 4680,
      "Ġà´ħà´µà´°à´±": 4681,
      "Ġà´ķà´´à´®": 4682,
      "à´¯à´µà´¹": 4683,
      "Ġà´®àµ½à´¸à´°à´Ļ": 4684,
      "à´°à´Ńà´°à´£à´ª": 4685,
      "Ġà´¨à´¯à´ª": 4686,
      "à´°à´£à´¯à´µ": 4687,
      "Ġ149": 4688,
      "ĠRS": 4689,
      "àµģ.\"\"": 4690,
      "Ġà´¡à´¯à´²": 4691,
      "Ġà´®à´®à´¤à´¯": 4692,
      "Ġ1994": 4693,
      "à´¸à´ķà´²": 4694,
      "Ġà´«à´¤": 4695,
      "àµ¼à´¶à´ķàµ¾": 4696,
      "Ġ`": 4697,
      "Ġà´Ńà´°à´¦": 4698,
      "Ġà´Ĩà´£à´¯": 4699,
      "ĠREAD": 4700,
      "Ġà´ħà´¯à´µ": 4701,
      "Ġà´Ĵà´¹": 4702,
      "Ġà´ľà´Ļ": 4703,
      "Ġ-à´¾à´Ĥ": 4704,
      "Ġà´ħà´³à´¨": 4705,
      "à´¹à´¶": 4706,
      "à´ķà´³à´¯à´°": 4707,
      "à´«à´£": 4708,
      "à´¯à´¯à´²": 4709,
      "Ġà´µà´³à´¯": 4710,
      "à´īà´³": 4711,
      "ust": 4712,
      "à´³à´ŀ": 4713,
      "ĠâĢĿ-": 4714,
      "ind": 4715,
      "72": 4716,
      "hy": 4717,
      "à´ķà´µà´¯": 4718,
      "Ġà´µàµº": 4719,
      "Ġà´±àµº": 4720,
      "Ġà´ķà´°àµº": 4721,
      "à´ķà´Łàµ½": 4722,
      "à´Ĵà´Ł": 4723,
      "Ġà´¸à´®à´¯à´ķ": 4724,
      "Ġ135": 4725,
      "73": 4726,
      "ob": 4727,
      "Ġà´µà´§à´¤": 4728,
      "Ġà´ĵàµ¼à´Ĺà´¨": 4729,
      "à´£à´®à´£": 4730,
      "Ġà´ªà´²à´Ń": 4731,
      "à´±à´®à´²": 4732,
      "Ġà´Ķà´ªà´ļ": 4733,
      "ost": 4734,
      "à´Ĺà´Ł": 4735,
      "Ġà´²à´·": 4736,
      "à´¿).": 4737,
      "à´īà´±à´ª": 4738,
      "àµĨ\"\"": 4739,
      "à´±àµ¼à´Ł": 4740,
      "à´ļà´ķàµ»": 4741,
      "Ġà´·à´¬": 4742,
      "à´Łàµ¼à´¨à´Łà´ªà´Ł": 4743,
      "àµįâĢį\"\"": 4744,
      "à´³à´£à´®": 4745,
      "à´¦à´ķà´°": 4746,
      "Ġà´¤à´±": 4747,
      "à´Ńà´ķà´°à´®": 4748,
      "Ġà´¨à´Łà´°": 4749,
      "à´¾à´Ĥ.\"": 4750,
      "à´ļà´ķà´ķ": 4751,
      "âĢĭâĢĭàµĨ": 4752,
      "Ġ377": 4753,
      "ly": 4754,
      "à´°à´®à´ª": 4755,
      "Ġà´ħà´ªà´ķà´Łà´¨": 4756,
      "250": 4757,
      "Ġà´®à´²à´°": 4758,
      "ĠUS": 4759,
      "nd": 4760,
      "àµĤà´Ĥ,": 4761,
      "à´¨à´®à´°": 4762,
      "Ġ'-": 4763,
      "à´ĵà´ķ": 4764,
      "à´ıà´ķà´¦": 4765,
      "à´µà´°à´¸": 4766,
      "àµ¾à´¬": 4767,
      "Ġà´¸à´®à´°à´®": 4768,
      "Ġ512": 4769,
      "Ġà´Ķà´±": 4770,
      "ry": 4771,
      "à´ªà´£à´±": 4772,
      "Ġà´ķà´µàµ¼à´¨": 4773,
      "Ġ1984": 4774,
      "àµģ).": 4775,
      "àµ¼à´¹à´®": 4776,
      "à´Ńà´°à´£à´Ļ": 4777,
      "Ġà´ľà´¡à´¤": 4778,
      "à´¹à´£": 4779,
      "à´µà´¤à´µ": 4780,
      "Ġà´ĩà´²à´ķà´³": 4781,
      "Ġà´«à´²à´ķà´µ": 4782,
      "à´ĸà´¦": 4783,
      "à´«à´¸à´°": 4784,
      "Ġà´®à´¤à´ªà´°": 4785,
      "Ġ@": 4786,
      "àµģà´Ĥ(": 4787,
      "Ġà´¸àµ¼à´ľ": 4788,
      "à´§à´µà´¯": 4789,
      "à´¿.)": 4790,
      "Ġà´ħà´¨à´°": 4791,
      "à´Ľà´¯": 4792,
      "Ġ101": 4793,
      "ĠàµĢ": 4794,
      "Ġat": 4795,
      "Ġà´¸à´¯àµ»": 4796,
      "à´³à´µàµ»": 4797,
      "à´µà´±àµ»à´¸": 4798,
      "AI": 4799,
      "Ġà´īà´¡": 4800,
      "59": 4801,
      "à´®à´°à´ķ": 4802,
      "Ġà´µà´µ": 4803,
      "Ġà´Ĩà´²à´¤": 4804,
      "Ġà´Ĩà´²à´Ļ": 4805,
      "àµį,,,": 4806,
      "Ġ2030": 4807,
      "à´¤à´ķà´¥": 4808,
      "Ġ136": 4809,
      "à´ĵà´ª": 4810,
      "à´¯à´£à´¯": 4811,
      "Ġ1992": 4812,
      "àµį\"\"\"": 4813,
      "à´²à´ľà´¯": 4814,
      "Ġà´ħà´¨à´¶": 4815,
      "Ġà´ıà´ķà´¤": 4816,
      "Ġà´ĩàµ»à´«àµ¼à´®": 4817,
      "56": 4818,
      "ah": 4819,
      "àµģ'.": 4820,
      "à´²à´ļà´¨": 4821,
      "à´£à´¶": 4822,
      "à´¦à´¯à´¨": 4823,
      "Ġ1947": 4824,
      ",,,": 4825,
      "AN": 4826,
      "à´¶à´ľà´¯": 4827,
      "à´Ńà´ª": 4828,
      "Ġà´ĵà´ĸ": 4829,
      "à´¯à´ªà´¦": 4830,
      "Ġà´ķà´²àµ¼à´¨": 4831,
      "àµ¼à´µà´ķà´®": 4832,
      "à´ļà´ķà´Ļ": 4833,
      "Ġà´ĩà´Łà´±": 4834,
      "Ġà´Ĩà´¦à´®": 4835,
      "âĢį.": 4836,
      "2018": 4837,
      "à´Łà´£à´µ": 4838,
      "àµį''": 4839,
      "Ġ224": 4840,
      "à´°à´Ńà´µ": 4841,
      "à´²à´µà´¤": 4842,
      "à´ªàµ¼à´®": 4843,
      "à´£à´Łà´ļ": 4844,
      "à´¨à´ķà´¥": 4845,
      "Ġà´Ķà´¡": 4846,
      "Ġ302": 4847,
      "ical": 4848,
      "à²": 4849,
      "Ġà´®àµ½à´¸": 4850,
      "àµ½à´µà´ļ": 4851,
      "à´ŀà´±": 4852,
      "à´¥à´¶": 4853,
      "Ġà´ķà´°àµ¾": 4854,
      "à´Ĩà´µà´¶": 4855,
      "àµģ\"": 4856,
      "àµĬ?": 4857,
      "Ġ121": 4858,
      "à´ķà´¸à´¨à´®": 4859,
      "Ġà´ħà´¥": 4860,
      "à´Ńà´¨à´®": 4861,
      "à´Łà´¨à´µ": 4862,
      "à´¸à´°à´ª": 4863,
      "à´°à´ļà´°à´£à´Ļ": 4864,
      "à´¹à´ľ": 4865,
      "à´Ńà´°à´£à´¤": 4866,
      "Ġà´ĩà´¤à´¤": 4867,
      "à´ħà´¥à´µ": 4868,
      "à´ķà´µà´´": 4869,
      "Ġ243": 4870,
      "à´·à´ķà´¯": 4871,
      "Ġà´Ńà´µà´¨à´Ļ": 4872,
      "Ġà´µà´°à´°": 4873,
      "à´°àµ»à´®": 4874,
      "ie": 4875,
      "à´®à´´": 4876,
      "à´³àµ¼à´®": 4877,
      "Ġà´ķà´µà´ļ": 4878,
      "àµģà´Ĥ\"\"": 4879,
      "à´ĩà´µà´¨": 4880,
      "Ġà´İàµ»à´Ĳà´İ": 4881,
      "Ġà´İà´¯àµ¼à´µ": 4882,
      "Ġ1970": 4883,
      "à´ªà´³à´¤": 4884,
      "à´·à´ķàµ¾à´ķ": 4885,
      "Ġà´Ĩàµºà´®à´ķ": 4886,
      "Ġà´Ĺà´¯": 4887,
      "à´¨à´¯à´ļ": 4888,
      "Ġà´¸à´¯àµ»à´¸à´¸": 4889,
      "à¯": 4890,
      "à´ķà´¯à´¤": 4891,
      "à´¡à´ª": 4892,
      "à´ļà´¤à´¨": 4893,
      "Ġà´¾à´Ĥ": 4894,
      "ÉĻ": 4895,
      "Ġ),": 4896,
      "à´°à´¹à´¸": 4897,
      "Ġcom": 4898,
      "Ġà´®à´¥": 4899,
      "Ġà´ĩà´İ": 4900,
      "à´µà´°à´Łà´ķ": 4901,
      "à´¤à´¨à´²": 4902,
      "à´µà´ķà´ķà´³": 4903,
      "à´µà´Łà´ķ": 4904,
      "à´®à´³à´¤": 4905,
      "ĠCB": 4906,
      "Ġà´ĩà´£": 4907,
      "à´¬à´¬à´¨": 4908,
      "Ġà´ªà´°à´ª": 4909,
      "à´ķà´Łà´ķà´°à´®": 4910,
      "à´ķàµ¼à´·": 4911,
      "à´¤à´«": 4912,
      "Ġà´¨àµ½": 4913,
      "Ġà´Ĩàµ»": 4914,
      "78": 4915,
      "ress": 4916,
      "à´¨à´·": 4917,
      "à´®àµ¾à´ķ": 4918,
      "Ġà´®à´´à´®": 4919,
      "Ġà´ĩàµ»à´µ": 4920,
      "àµĭ'": 4921,
      "àµ½à´Ń": 4922,
      "Ġà´ļà´¹à´²": 4923,
      "Ġà´ħà´¨à´²": 4924,
      "Ġà´¹à´ĸ": 4925,
      "Ġà´®à´°à´Ł": 4926,
      "Ġà´®à´´à´ª": 4927,
      "41": 4928,
      "à´¦à´¦": 4929,
      "Ġà´İà´İàµ»": 4930,
      "à´ĸà´°à´£": 4931,
      "à´¾à´Ĥ.âĢĿ\"": 4932,
      "àµģ....": 4933,
      "à´ķà´£à´µ": 4934,
      "Ġà´µà´³à´ª": 4935,
      "Ġ270": 4936,
      "Ġ1956": 4937,
      "à´°à´®à´£à´ªà´¥à´¤": 4938,
      "àµĤ?": 4939,
      "Ġà´Ĩà´¨à´ķ": 4940,
      "Ġà´°à´ļà´¨à´ķà´³": 4941,
      "à´ļà´Łà´µ": 4942,
      "à´°à´µà´ļà´¨à´¤": 4943,
      "à´£à´¬": 4944,
      "à´Ńà´ķà´¤": 4945,
      "Ġà´¶à´µà´¸": 4946,
      "Ġà´¸à´®à´°à´µ": 4947,
      "Ġ320": 4948,
      "Ġà´¨à´¨à´¯": 4949,
      "Ġà´µà´¨à´®": 4950,
      "à´·à´±à´«": 4951,
      "Ġà´ħà´ªà´¹à´°": 4952,
      "ary": 4953,
      "AR": 4954,
      "SO": 4955,
      "gov": 4956,
      "àµĨâĢ¦.": 4957,
      "à´¨à´¤à´°": 4958,
      "àµģà´Ĥ.\"\"\"": 4959,
      "à´§à´¨à´²": 4960,
      "ev": 4961,
      "à´£àµ¼à´¤": 4962,
      "àµ¼à´§à´ķ": 4963,
      "à´¨à´®à´¤": 4964,
      "\"\")": 4965,
      "Ġ\"\".\"": 4966,
      "à´¤à´°à´£à´ķ": 4967,
      "199": 4968,
      "ure": 4969,
      "à´±à´ķàµ¾": 4970,
      "à´Ļà´ļ": 4971,
      "Ġà´īà´ªà´ķà´°à´£à´®": 4972,
      "Ġ148": 4973,
      "Ġà´¸à´ķà´²à´ª": 4974,
      "àµį\"\".\"": 4975,
      "ial": 4976,
      "Ġà´ľà´¨à´¨à´¤": 4977,
      "Ġà´ħàµ»à´¸": 4978,
      "à´ķà´®à´¨": 4979,
      "43": 4980,
      "à´§à´¦": 4981,
      "Ġà´Īà´±": 4982,
      "Ġà´īà´³à´³": 4983,
      "Ġthumb": 4984,
      "700": 4985,
      "àµ¾à´Ĺ": 4986,
      "Ġà´±à´®": 4987,
      "Ġà´µà´³à´µ": 4988,
      "à´°à´ªà´°à´µ": 4989,
      "2019": 4990,
      "à´¢à´µ": 4991,
      "Ġ1960": 4992,
      "à´ļà´°à´ķ": 4993,
      "à´¨à´¤à´¤": 4994,
      "à´¬àµ»": 4995,
      "Ġà´ĸà´°": 4996,
      "Ġà´ķà´¸à´¬": 4997,
      "08": 4998,
      "à´¯à´ķà´µ": 4999,
      "Ġà´Ĳà´¬": 5000,
      "Ġà´ľà´¨à´¸à´®": 5001,
      "Ġà´ķà´²à´µ": 5002,
      "àµ¼à´Ńà´¯": 5003,
      "Ġà´±à´µ": 5004,
      "....": 5005,
      "Ġ182": 5006,
      "Ġkerala": 5007,
      "à´¯à´¹à´°": 5008,
      "à´Ĥ/": 5009,
      "àµ¼à´¢": 5010,
      "Ġà´ħà´¯àµ¼": 5011,
      "Ġà´ķà´Łà´¬": 5012,
      "Ġ123": 5013,
      "âĢįâĢį": 5014,
      "63": 5015,
      "port": 5016,
      "à´¨à´°à´ķà´¤": 5017,
      "à´ªà´²à´ª": 5018,
      "à´¯à´®à´ªà´°": 5019,
      "Ġà´·àµ¼à´Ł": 5020,
      "à´µà´¯à´®": 5021,
      "Ġà´¤àµ½": 5022,
      "à´Łà´ķà´µà´¸": 5023,
      "à´·à´®à´²": 5024,
      "à´¦àµ¼à´Ńà´¤": 5025,
      "à´ķà´Łà´¯": 5026,
      "à´ķà´¸à´®": 5027,
      "Ġà´Ĳà´İàµ»": 5028,
      "Ġà´īà´³à´³à´¤": 5029,
      "Ġà´ħàµ»": 5030,
      "Ġà´®à´°à´ķ": 5031,
      "à´·à´µà´¤": 5032,
      "Ġà´¤àµ»à´±": 5033,
      "Ġà´ļà´¹": 5034,
      "àµįâĢĮâĢĮ": 5035,
      "à´°à´¸à´¹": 5036,
      "Ġà´·à´«": 5037,
      "Ġà´ªà´łà´¨à´ķ": 5038,
      "à´Ĩàµ¼à´¸": 5039,
      "à´³à´µà´³": 5040,
      "Ġà´ħà´³à´µà´±": 5041,
      "Ġj": 5042,
      "Ġà´İà´İà´¸": 5043,
      "Ġà´¬à´²à´µ": 5044,
      "Ġà´ķà´³à´®": 5045,
      "Ġà´Ńà´°à´£à´ªà´°": 5046,
      "àµį'-": 5047,
      "ĠInd": 5048,
      "96": 5049,
      "à´ªà´³à´µ": 5050,
      "à´Ĺà´¤à´®à´¨": 5051,
      "à´İà´´": 5052,
      "Ġby": 5053,
      "Ġà´µà´ĸà´«": 5054,
      "àµį\"": 5055,
      "àµĭâĢĻ": 5056,
      "à´ĸà´¸": 5057,
      "oh": 5058,
      "Ġà´®à´ķàµ¾à´ķ": 5059,
      "à´¹à´°à´µ": 5060,
      "ens": 5061,
      "à´ķà´ł": 5062,
      "à´¸à´³": 5063,
      "Ġà´ħà´²à´ŀ": 5064,
      "à´²à´µàµ¼": 5065,
      "à´ķà´µà´³": 5066,
      "à´¿ÂŃ": 5067,
      "Ġà´ķà´Łà´Ļ": 5068,
      "Ġà´Ńà´°à´£à´ªà´ķ": 5069,
      "âĢĭâĢĭâĢĭâĢĭâĢĭ": 5070,
      "//": 5071,
      "áĥ": 5072,
      "Ġà´ªàµ¼à´µà´¤": 5073,
      "à´¸à´¨à´¯": 5074,
      "à´¦à´¯à´°": 5075,
      "àµ¼à´³": 5076,
      "Ġà´²à´¯à´¨": 5077,
      "Ġà´īà´ªà´¸": 5078,
      "à´°à´¹à´ª": 5079,
      "ase": 5080,
      "tt": 5081,
      "à´µà´´à´ķ": 5082,
      "à´¬à´ª": 5083,
      "àµį,âĢĻ": 5084,
      "à´ļà´µà´Łà´¤": 5085,
      "Ġà´Ĩà´·à´¸": 5086,
      "Ġà´¦àµ¼à´¶à´¨à´¤": 5087,
      "rand": 5088,
      "à´¨à´°à´¨": 5089,
      "Ġà´Ĵà´¯": 5090,
      "Ġà´¹à´¸àµ»": 5091,
      "Ġà´¶à´ªà´¥": 5092,
      "Ġà´¶à´ªà´¥à´Ļ": 5093,
      "à´¯à´¸à´¹à´ľà´®": 5094,
      "à´Ļà´³à´Łà´ķ": 5095,
      "à´ªà´¨à´ª": 5096,
      "ĠâĢİâĢİ\"\"": 5097,
      "Ġà´ªà´¦à´®": 5098,
      "à´¤à´ķà´¶": 5099,
      "Ġà´Ĺà´£à´ªà´¤": 5100,
      "à´Ĺà´£à´¨à´ķà´³": 5101,
      "ĠUn": 5102,
      "àµĭ.âĢĿ\"": 5103,
      "Ġà´°à´ľà´ª": 5104,
      "Ġ737": 5105,
      "ction": 5106,
      "ho": 5107,
      "àµģâĢĻ.": 5108,
      "à´°à´¤à´²à´¤": 5109,
      "Ġà´µà´°àµ¾à´ļ": 5110,
      "à´ļà´²à´¨à´®": 5111,
      "ĠGT": 5112,
      "à´¿+": 5113,
      "àµģàµĨ": 5114,
      "Ġà´ªà´ķà´¯": 5115,
      "Ġà´¸àµ¼à´ª": 5116,
      "à´ŀà´¶": 5117,
      "Ġà´ľà´ķ": 5118,
      "à´·à´£à´¯": 5119,
      "Ġà´ħà´²à´¹": 5120,
      "Ġà´¸à´ķà´²à´°": 5121,
      "Ġà´Ĩàµ»à´±": 5122,
      "Ġà´µà´²à´ŀ": 5123,
      "à´±à´¯à´Ł": 5124,
      "Ġwww": 5125,
      "à´ĩà´Ĵà´¯": 5126,
      "à´ļà´Łà´¯": 5127,
      "Ġà´ħà´¸à´°": 5128,
      "à´ķà´³à´ķ": 5129,
      "Ġà´ªà´±à´ļ": 5130,
      "à´µà´¹à´£à´¤": 5131,
      "Ġ304": 5132,
      "Ġà´ĺà´Łà´ķà´¤": 5133,
      "Ġà´µàµ»à´ķ": 5134,
      "à´Ĺàµ¼à´Ń": 5135,
      "à´ľà´¨à´ķà´°à´®": 5136,
      "Ġà´¡à´¸": 5137,
      "à´¨à´µà´µ": 5138,
      "à´±à´¯à´²": 5139,
      "Ġà´µàµºà´ª": 5140,
      "à´¦à´¨à´¨": 5141,
      "à´ľà´ªà´ķ": 5142,
      "à´µàµ¼à´ª": 5143,
      "àµĩ?\"": 5144,
      "Ġà´®à´ļ": 5145,
      "àµ½à´¤à´¨": 5146,
      "Ġà´Ĩà´¢": 5147,
      "à´«àµ»à´¸": 5148,
      "à´°à´®à´£à´ķ": 5149,
      "Ġ376": 5150,
      "àµįâĢĿ.": 5151,
      "Ġà´Ĩàµ½à´«": 5152,
      "à´·àµ»à´®": 5153,
      "à´Ľà´¨à´®": 5154,
      "Ġ390": 5155,
      "àµģàµį,": 5156,
      "à´ķà´¸à´®à´¯à´¤": 5157,
      "àµģà´Ĥ.âĢĿ": 5158,
      "à´°à´¸à´Ń": 5159,
      "à´¯à´ķà´°à´µ": 5160,
      "à´±à´¹": 5161,
      "Ġà´ªàµ¾": 5162,
      "àµĩ-": 5163,
      "Ġà´¦àµ½à´¹": 5164,
      "à´¾à´ĤâĢ¦": 5165,
      "Ġ(%": 5166,
      "Ġà´Ĩà´¨à´ķà´³": 5167,
      "pp": 5168,
      "Ġà´ķà´±à´ķ": 5169,
      "Ġà´ıà´¦": 5170,
      "Ġà´¸à´®à´¯à´®à´²": 5171,
      "Ġà´ªà´£à´¯": 5172,
      "51": 5173,
      "à´®à´ķà´µ": 5174,
      "à´¸à´¡à´°": 5175,
      "Ġà´ĩà´£à´Ļ": 5176,
      "à´ķà´³à´ķà´¯": 5177,
      "à´ľà´§": 5178,
      "Ġà´ķà´´à´ķ": 5179,
      "à´łà´Ń": 5180,
      "Ġà´ªà´Łà´µ": 5181,
      "à´Ĩà´¸": 5182,
      "à´±à´³": 5183,
      "à´µà´°à´Ł": 5184,
      "à´µà´°à´ª": 5185,
      "Ġà´Ĵà´°à´Ł": 5186,
      "Ġà´¹à´ķ": 5187,
      "Ġà´®à´¹à´²": 5188,
      "Ġà´ªà´´à´µà´°": 5189,
      "ech": 5190,
      "AM": 5191,
      "à´¨à´¯à´®": 5192,
      "à´¯à´°à´ķ": 5193,
      "à´ķà´³à´µ": 5194,
      "à´«à´¸": 5195,
      "à´¯à´°à´²": 5196,
      "Ġà´ªà´£à´ķ": 5197,
      "Ġ111": 5198,
      "499": 5199,
      "IC": 5200,
      "à´¾âĢ¦.": 5201,
      "Ġà´ķàµ¼à´ķ": 5202,
      "à´Ńà´ķà´³": 5203,
      "à´łà´ķà´³": 5204,
      "à´¨à´µà´°à´¤": 5205,
      "àµĩ.âĢĿ\"": 5206,
      "option": 5207,
      "age": 5208,
      "Ġà´Ĩàµ¼à´ļ": 5209,
      "à´´àµ½": 5210,
      "à´µà´¶à´µ": 5211,
      "àµįâĢĭ:": 5212,
      "à´Ĳà´Ĩà´±": 5213,
      "à´µàµ¼à´£à´¤": 5214,
      "://": 5215,
      "Ġà´®à´¯à´Ļ": 5216,
      "Ġà´¬à´²à´¤": 5217,
      "à´°à´£à´¯à´ķ": 5218,
      "Ġà´ĵà´®": 5219,
      "à´Łà´ķà´°à´®": 5220,
      "à´°à´¯àµ½": 5221,
      "à´ķà´ªà´°": 5222,
      "Ġà´ªà´´à´¯à´ķ": 5223,
      "Ġ2024": 5224,
      "Ġread": 5225,
      "Ġà´ķà´°à´Ļ": 5226,
      "sl": 5227,
      "Ġà´ħà´°à´¯": 5228,
      "âĢĮ,": 5229,
      "à´³à´µà´°à´²": 5230,
      "Ġà´°à´¸à´¤à´¨": 5231,
      "à´Ĥ'.": 5232,
      "Ġà´¤à´±à´µ": 5233,
      "Ġà´°à´¨": 5234,
      "à´ĺà´µàµ»": 5235,
      "à´¦àµ¼à´¶à´ķà´°": 5236,
      "àµį',": 5237,
      "à´¾à´Ĥ-": 5238,
      "Ġà´Ĩà´ķà´¸": 5239,
      "à´±à´®à´±": 5240,
      "à´³à´µà´¨à´¤": 5241,
      "àµįâĢĻ,": 5242,
      "07": 5243,
      "53": 5244,
      "91": 5245,
      "à´¾âĢĿ": 5246,
      "Ġà´¹à´¤": 5247,
      "à´¤à´°à´µà´¨": 5248,
      "à´¨à´§à´°": 5249,
      "Ġà´®à´ħ": 5250,
      "àµ¼à´ĸ": 5251,
      "à´°à´¦à´ķ": 5252,
      "ĠPro": 5253,
      "à´ķà´¡": 5254,
      "à´«àµ»": 5255,
      "à´®à´¤à´²à´ķàµ¾": 5256,
      "à´ªà´¸à´®à´¯à´¤": 5257,
      "à´¸à´Ł": 5258,
      "Ġà´¨àµ¼à´¤": 5259,
      "Ġà´®à´£à´µ": 5260,
      "âĢĮâĢĮ": 5261,
      "optional": 5262,
      "à´Ńà´¦": 5263,
      "à´¯à´¤à´ķ": 5264,
      "à´ķà´²à´®": 5265,
      "Ġà´Ĩàµ¼à´¬": 5266,
      "rom": 5267,
      "Ġàµĭ": 5268,
      "àµįâĢĮ.\"": 5269,
      "à´ķà´®à´±": 5270,
      "à´ĺà´Łà´¨à´µ": 5271,
      "âĢĻ-": 5272,
      "à´¯à´£à´ķ": 5273,
      "ult": 5274,
      "ma": 5275,
      "à´ĤâĢĻ.": 5276,
      "à´¦à´ļ": 5277,
      "Ġà´ĩà´´à´ŀ": 5278,
      "àµįâĢĮ]": 5279,
      "à´ķà´£à´¤": 5280,
      "à´¯à´®à´¸à´Ńà´ķà´³": 5281,
      "ery": 5282,
      "52": 5283,
      "61": 5284,
      "ph": 5285,
      "à´ķà´¶à´®": 5286,
      "à´®àµ»à´¸": 5287,
      "Ġà´µà´¯àµ¼": 5288,
      "Ġ6000": 5289,
      "àµįâĢį).": 5290,
      "org": 5291,
      "ĠSam": 5292,
      "Ġà´¸à´Ńà´ķàµ¾": 5293,
      "Ġ1983": 5294,
      "IN": 5295,
      "à´ªàµ¼à´Ł": 5296,
      "à´°à´µà´µ": 5297,
      "Ġà´·à´£": 5298,
      "Ah": 5299,
      "à´³àµ½": 5300,
      "Ġà´¶à´¤à´ķ": 5301,
      "Ġà´·à´±à´«": 5302,
      "àµį?âĢĿ\"": 5303,
      "à´¨à´¯à´ķ": 5304,
      "à´¨à´°à´ķ": 5305,
      "à´ªà´Ĺ": 5306,
      "à´ªà´Łà´¤": 5307,
      "à´ªà´¯à´°": 5308,
      "à´¦à´¶": 5309,
      "àµ¼à´Ĺà´¤": 5310,
      "Ġà´ľà´²à´®": 5311,
      "à´°àµ»à´¸": 5312,
      "Ġà´¤à´´": 5313,
      "Ġà´¹àµ¼à´¦": 5314,
      "à´İà´¡": 5315,
      "àµįâĢį.âĢĿ\"": 5316,
      "à´¯à´¸à´®à´°": 5317,
      "Ġà´Ńà´°à´£à´ª": 5318,
      "Ġà´ķà´¥à´¯à´²": 5319,
      "Ġ164": 5320,
      "à´¸à´£àµ½": 5321,
      "Ġà´Ĩà´µà´°à´£": 5322,
      "ovid": 5323,
      "57": 5324,
      "98": 5325,
      "Ġà´Łà´µà´±": 5326,
      "Ġà´ªà´łà´¨à´®": 5327,
      "à´°à´ľàµ»": 5328,
      "à´¤àµ¼à´²": 5329,
      "Ġ1962": 5330,
      "out": 5331,
      "Ġis": 5332,
      "à´Ĺà´®à´¨à´ķ": 5333,
      "Ġ1200": 5334,
      "à´¨à´°à´ļà´¨": 5335,
      "Ġ147": 5336,
      "Ġà´ķà´¬à´¡": 5337,
      "dition": 5338,
      "à´Ĺàµ¾": 5339,
      "à´µà´¯à´²": 5340,
      "Ġà´ĩà´Łà´µà´ķ": 5341,
      "Ġà´¨à´Ĺà´°à´ª": 5342,
      "à´ļà´ķà´´": 5343,
      "ank": 5344,
      "à´®àµ¼à´¦à´¤": 5345,
      "à´ĺàµ¼à´·à´Ļ": 5346,
      "Ġà´²à´Ĺ": 5347,
      "à´ĸà´°à´Ļ": 5348,
      "Ġà´¤à´Łà´¯à´£à´®": 5349,
      "ff": 5350,
      "à´°à´ķà´¯": 5351,
      "Ġà´®à´ł": 5352,
      "à´ªà´¤à´¯": 5353,
      "à´µà´²à´Ń": 5354,
      "Ġà´¤à´³àµ¼à´¤": 5355,
      "ĠAr": 5356,
      "ĠCon": 5357,
      "Ġy": 5358,
      "à´Łà´¡": 5359,
      "àµįâĢĵ": 5360,
      "Ġà´¨à´¥": 5361,
      "àµĢ!": 5362,
      "à´¹à´ķà´³": 5363,
      "Ġà´ķà´³à´±": 5364,
      "Ġà´¬à´¹à´³à´®": 5365,
      "à´¿âĢĮ.": 5366,
      "54": 5367,
      "à´¾âĢĭâĢĭâĢĭ": 5368,
      "à´ĤâĢ¦.": 5369,
      "à´ªà´°à´ķ": 5370,
      "à´ªà´³à´®": 5371,
      "à´³àµ¼à´·": 5372,
      "à´¯à´¤à´²à´¸": 5373,
      "Ġà´ĵà´£à´ķ": 5374,
      "à´£à´®à´²": 5375,
      "à´Ĥ,âĢĿ": 5376,
      "à´§à´µàµ»": 5377,
      "Ġ1940": 5378,
      "Ġà´²à´¯à´£à´²": 5379,
      "ear": 5380,
      "Ġà´İà´¯à´±": 5381,
      "ĠâĢĭâĢĭ": 5382,
      "à´·à´£à´¨": 5383,
      "àµĹ,": 5384,
      "à´ĩà´Łà´¤": 5385,
      "à´®à´¸à´µ": 5386,
      "Ġà´ħà´ªà´²à´ªà´¨": 5387,
      "ng": 5388,
      "sh": 5389,
      "à´ķà´¶à´ķ": 5390,
      "à´²à´±à´¯": 5391,
      "Ġà´°à´Ļ": 5392,
      "à´¤à´®à´´à´¯": 5393,
      "Ġà´ħà´¯à´ŀ": 5394,
      "ĠHome": 5395,
      "Ġà´µà´¯à´°": 5396,
      "Ġà´¬àµ¼à´®": 5397,
      "Ġà´ıà´ŀ": 5398,
      "Ġà´®à´¤à´ª": 5399,
      "The": 5400,
      "Ġar": 5401,
      "à´±à´³à´µ": 5402,
      "à´®à´¯à´ķà´°à´®": 5403,
      "Ġà´ĩà´¹à´¤": 5404,
      "àµģà´Ĥ.\"\"": 5405,
      "Ġà´ĩà´µàµ»": 5406,
      "Ġ08": 5407,
      "Ġgov": 5408,
      "à´¯à´ķà´¯": 5409,
      "à´¯à´¶à´°": 5410,
      "Ġà´Ĩà´ĸ": 5411,
      "à´¹à´ķà´°": 5412,
      "àµĨ.\"\"\"": 5413,
      "à´¯à´µà´²": 5414,
      "Ġà´ªà´°à´®à´ª": 5415,
      "Ġ1988": 5416,
      "eb": 5417,
      "à´±àµ¼à´µ": 5418,
      "à´µà´±à´¨": 5419,
      "Ġà´ķà´¯à´°": 5420,
      "Ġà´¨à´µà´°": 5421,
      "à´Ńà´¨à´¤": 5422,
      "Ġà´Ĭà´±": 5423,
      "Ġà´ķà´°à´ķà´µ": 5424,
      "àµĨàµģ": 5425,
      "à´ªà´µà´ķ": 5426,
      "à´ªà´¸à´®à´¯": 5427,
      "à´³à´¯à´®": 5428,
      "Ġà´¶à´¯": 5429,
      "Ġà´¶à´µ": 5430,
      "Ġà´ıà´¨": 5431,
      "à´¤à´²à´ķ": 5432,
      "àµ»à´¸à´²àµ¼": 5433,
      "à´±àµ¼à´«": 5434,
      "Ġà´¬à´¹à´³à´¤": 5435,
      "Ġà´ĺà´Łà´ķà´ķà´ķ": 5436,
      "à´±à´·": 5437,
      "à´ªà´¦à´µ": 5438,
      "àµĭâĢ¦.": 5439,
      "à´§à´°à´¹": 5440,
      "à´¤à´®à´¯": 5441,
      "à´Łà´ķàµ¼": 5442,
      "à´Ĺà´®à´¨à´Ļ": 5443,
      "Ġà´Ńà´°à´£à´µ": 5444,
      "Ġ132": 5445,
      "à´°à´ķà´Łà´¨à´ªà´¤": 5446,
      "ĠGS": 5447,
      "à´°à´³à´¯à´¬": 5448,
      "Ġà´ħà´²à´¯à´Ł": 5449,
      "AP": 5450,
      "®ļ": 5451,
      "àµĩâĢ¦.": 5452,
      "Ġà´Ĩà´°à´¤": 5453,
      "à´°à´¸à´µà´¤": 5454,
      "Ġà´ĵà´µ": 5455,
      "à´ħà´µà´¯": 5456,
      "Ġ1986": 5457,
      "94": 5458,
      "î®ļ": 5459,
      "à´ªà´°à´¸": 5460,
      "à´·àµ¼": 5461,
      "Ġà´«à´Ļ": 5462,
      "à´¸à´®à´²": 5463,
      "Ġ).": 5464,
      "Ġî®ļ": 5465,
      "à´¯à´¸à´°": 5466,
      "à´¦à´®à´¨": 5467,
      "Ġà´²à´¸": 5468,
      "à´ĺà´¦": 5469,
      "àµ¼à´®à´¸": 5470,
      "ĠMan": 5471,
      "Ġà´ļà´²à´¨à´Ļ": 5472,
      "Ġà´ªàµ¾à´¸àµ¼": 5473,
      "px": 5474,
      "à´®à´¬à´¨": 5475,
      "à´ªà´ķàµ¾": 5476,
      "Ġà´¤à´²à´¨": 5477,
      "ĠRTR": 5478,
      "Ġ1972": 5479,
      "àµģàµģ": 5480,
      "à´ķà´°à´®à´²": 5481,
      "Ġà´ħà´µà´°à´¦": 5482,
      "à´ĩà´±": 5483,
      "Ġà´Ńà´°à´£à´¨": 5484,
      "ron": 5485,
      "à´¡à´¨à´µ": 5486,
      "Ġ176": 5487,
      "Ġà´ħà´ªà´ķà´Łà´¸à´®à´¯à´¤": 5488,
      "Ġà´ħà´ķà´²à´¤": 5489,
      "Ġ1976": 5490,
      "ai": 5491,
      "àµģàµį:": 5492,
      "à´ķàµ¼à´®": 5493,
      "Ġà´ļà´®à´¯": 5494,
      "Ġà´ľà´²à´ķ": 5495,
      "Ġà´ħà´¸à´®à´¤": 5496,
      "Ġà´ĸà´¦": 5497,
      "Ġà´ķà´²à´Ļ": 5498,
      "à´Ľà´¤": 5499,
      "Ġ354": 5500,
      "Ġà´ĩà´«à´ķ": 5501,
      "à´ķà´Ĺ": 5502,
      "àµ¼à´¬à´²": 5503,
      "à´¯à´¤à´¨": 5504,
      "Ġà´ıà´¬": 5505,
      "àµĭ?)": 5506,
      "Ġ139": 5507,
      "à´ĺàµ¼à´·à´®": 5508,
      "à´¯à´Łà´¯": 5509,
      "à´¯à´£à´¤": 5510,
      "à´¨à´¤à´ķàµ¾": 5511,
      "à´ľà´ķà´³": 5512,
      "Ġà´ķà´£à´Ļ": 5513,
      "Ġà´ķà´²àµ¼à´¤": 5514,
      "Ġà´ľà´¨à´¤à´ķà´³": 5515,
      "ĠAM": 5516,
      "Ġ1987": 5517,
      "Ġà´ıà´²à´¯": 5518,
      "Ġà´ĵà´²": 5519,
      "à´¤à´°à´«à´²à´Ļ": 5520,
      "àµĨ,,,": 5521,
      "àµ½à´¨à´Łà´¯": 5522,
      "Ġà´Ĩà´¸à´ķ": 5523,
      "Ġ129": 5524,
      ")-à´¾à´Ĥ": 5525,
      "à´¤à´Ńà´ķ": 5526,
      "Ġà´Ĩà´Ļ": 5527,
      "Ġà´ĩà´¨à´®": 5528,
      "à´¤à´®à´µ": 5529,
      "à´µà´¯à´µà´Ļ": 5530,
      "à´Ĩà´Ń": 5531,
      "Ġ127": 5532,
      "Ġ131": 5533,
      "Ġà´µà´Łà´ķà´°à´¯": 5534,
      "ecast": 5535,
      "à´±à´Ĺà´±": 5536,
      "à´¯à´¤à´¯à´¨": 5537,
      "à´ĸà´Ń": 5538,
      "Ġà´Īà´ļ": 5539,
      "à´°à´ķà´µ": 5540,
      "à´ªà´¨à´ªà´°à´®": 5541,
      "Ġà´ķà´®àµ½à´¹": 5542,
      "à´ªà´¯à´±": 5543,
      "Ġà´īà´®àµ¼": 5544,
      "âĢ¢": 5545,
      "Ġà´İà´Ĺ": 5546,
      "à´ĸà´ªà´¤": 5547,
      "Ġà´µà´°à´²à´ķ": 5548,
      "Ġà´ªà´ķà´ļ": 5549,
      "ord": 5550,
      "ice": 5551,
      "Ġà´ħà´µà´¤à´°à´£à´¤": 5552,
      "à¤¾": 5553,
      "Ġforecast": 5554,
      "):": 5555,
      "à´ļà´¯à´Ļ": 5556,
      "à´¸à´¡à´±": 5557,
      "àµĭâĢĿ": 5558,
      "Ġà´ĩà´´": 5559,
      "à´ŀàµ¾à´ª": 5560,
      "Ġà´ľà´¬": 5561,
      "Ġà´ħà´µà´¨à´µà´¨": 5562,
      "ĠKerala": 5563,
      "Ġcondition": 5564,
      "à´¥à´ķàµ¾à´ķ": 5565,
      "Ġà´Ĵà´°à´ķ": 5566,
      "àµ¼à´£à´µ": 5567,
      "Ġ151": 5568,
      "Ġpro": 5569,
      "Ġ1957": 5570,
      "ee": 5571,
      "à´¤à´¯à´²": 5572,
      "Ġà´ĩà´²à´µ": 5573,
      "à´°à´£à´®à´²": 5574,
      "Ġà´ıà´µàµ¼à´ķ": 5575,
      "Ġà´ħà´²à´¸": 5576,
      "à´¦à´°à´ª": 5577,
      "Ġà´Ńà´¯à´Ńà´ķ": 5578,
      "Ġ1975": 5579,
      "à´®à´¤à´¨": 5580,
      "à´Ĺà´¬à´²": 5581,
      "Ġà´ħà´¤à´µ": 5582,
      "à´¤à´°à´¯": 5583,
      "Ġ165": 5584,
      "Ġà´°àµºà´¦": 5585,
      "Ġà´Ĥ": 5586,
      "à´²à´«": 5587,
      "à´²à´µà´ķ": 5588,
      "Ġà´ıà´ķà´ķà´£": 5589,
      "Ġ146": 5590,
      "Ġà´¬à´¦àµ½": 5591,
      "ĠWorld": 5592,
      "tern": 5593,
      "Ġalso": 5594,
      "Ġà´¨àµ¼à´®": 5595,
      "Ġà´¤à´°à´ķ": 5596,
      "à´§à´±": 5597,
      "Ġà´Ĭà´£": 5598,
      "ĠâĹ": 5599,
      "ĠàµĨàµį": 5600,
      "iz": 5601,
      "uc": 5602,
      "à´¯à´µàµ¼à´Ĺ": 5603,
      "Ġ1978": 5604,
      "à´ªà´¸à´®": 5605,
      "Ġà´¤à´°à´®": 5606,
      "à´Ĺà´²à´¤": 5607,
      "àµĪâĢĭ": 5608,
      "à´°à´®à´¯": 5609,
      "Ġà´Ĺà´¦": 5610,
      "Ġà´®à´¹à´¨": 5611,
      "Ġà´īà´¯àµ¼à´ļ": 5612,
      "ĠPr": 5613,
      "à´Ĩàµ¼à´İà´¸": 5614,
      "à´Łà´Ń": 5615,
      "Ġà´ķà´¯àµ¼": 5616,
      "à´·à´°à´®": 5617,
      "à´µà´°à´ŀ": 5618,
      "Ġà´īà´ªà´ª": 5619,
      "àµį?âĢĿ": 5620,
      "Ġà´ĩà´Łà´ŀ": 5621,
      "Ġ143": 5622,
      "Ġà´ķà´Łà´ķà´®": 5623,
      "Ġà´ĩàµ»à´±àµ¼à´¨": 5624,
      "Ġà´Īà´¡à´¨": 5625,
      "àµį?\"\"": 5626,
      "à´°à´¹à´£à´µ": 5627,
      "Ġ\"\"\"%": 5628,
      "Ġà´ıà´ķà´ľ": 5629,
      "ates": 5630,
      "Ġà´İà´¯àµ¼à´¬": 5631,
      "93": 5632,
      "Ġà´®àµ½à´¹": 5633,
      "Ġà´İà´Ĩà´°": 5634,
      "à´Ĺà´ªà´°": 5635,
      "àµ»à´±à´¯": 5636,
      "à´£à´®à´±": 5637,
      "Ġà´īà´ªà´®à´ķà´³": 5638,
      "àµ¼à´£à´²": 5639,
      "Ġ155": 5640,
      "ite": 5641,
      "und": 5642,
      "à´®à´´à´¯": 5643,
      "Ġà´ıà´µà´¨": 5644,
      "Ġà´ķà´Łà´µ": 5645,
      "Ġ1982": 5646,
      "hers": 5647,
      "IP": 5648,
      "kerala": 5649,
      "ËĲ": 5650,
      "ÙĦ": 5651,
      "Ġà´ķà´Ĺ": 5652,
      "Ġà´ĩà´ĸ": 5653,
      "âĢĭàµĩ": 5654,
      "Ġ174": 5655,
      "à´īà´ª": 5656,
      "à´³à´ļà´²à´ļ": 5657,
      "ide": 5658,
      "à´Ļà´³à´µ": 5659,
      "Ġà´¬àµ»à´¸": 5660,
      "Ġà´¦à´Ĺ": 5661,
      "Ġà´Ĺà´®": 5662,
      "Ġà´¸à´¹à´¯": 5663,
      "à´ĩà´²à´ķ": 5664,
      "âĢį,": 5665,
      "à´Ńà´µà´¸à´®à´¯à´¤": 5666,
      "à´¨à´¹": 5667,
      "à´£à´µàµ¼": 5668,
      "Ġà´ĩàµ¼à´«": 5669,
      "Ġà´Ĭà´´": 5670,
      "eng": 5671,
      "ock": 5672,
      "ood": 5673,
      "àµ¼à´®à´¤": 5674,
      "à´¹à´³à´¤": 5675,
      "à´¹à´®à´¤": 5676,
      "à´Ĺà´°à´¤": 5677,
      "Ġà´Ńà´Ĺ": 5678,
      "à´°à´µà´Ļ": 5679,
      "à´ļà´¤à´ļ": 5680,
      "Ġ550": 5681,
      "Ġà´ĺà´¨": 5682,
      "Ġ162": 5683,
      "Ġ166": 5684,
      "ĠXL": 5685,
      "ime": 5686,
      "TE": 5687,
      "àµģ''": 5688,
      "à´ķàµ¼à´£": 5689,
      "Ġà´ªà´¯à´°": 5690,
      "Ġà´¯à´ľ": 5691,
      "Ġà´Ĺà´«": 5692,
      "Ġà´ħà´µà´°à´¨": 5693,
      "à´µà´¸à´°": 5694,
      "à´ķà´£à´¯": 5695,
      "Ġà´Ķà´¨": 5696,
      "Ġà´«à´²à´µà´¤": 5697,
      "onlinenews": 5698,
      "Ġsp": 5699,
      "Ġonlinenews": 5700,
      "à´°à´ľà´¨à´¨": 5701,
      "!\"": 5702,
      ",âĢĭ": 5703,
      "Con": 5704,
      "à´ªà´³à´³": 5705,
      "à´«à´Ł": 5706,
      "à´°à´£à´¸": 5707,
      "Ġà´Īà´®": 5708,
      "Ġ1930": 5709,
      "Ġ188": 5710,
      "Ġtr": 5711,
      "ĠIN": 5712,
      "Ð¾": 5713,
      "à´ļà´²à´¸": 5714,
      "Ġà´¤à´°à´Ł": 5715,
      "Ġà´²à´¹": 5716,
      "Ġà´ħà´ªà´°à´¨": 5717,
      "Ġ399": 5718,
      "à´Ĳà´İà´®": 5719,
      "Ġà´µà´ķà´µ": 5720,
      "ĠTR": 5721,
      "58": 5722,
      "Ġas": 5723,
      "à´ķà´¨à´¤": 5724,
      "à´ĸà´¬": 5725,
      "Ġà´¹à´«": 5726,
      "à´İà´£": 5727,
      "à´¯à´µàµ½à´ķ": 5728,
      "à´ħà´¬": 5729,
      "àµ½à´ªà´¨à´¯": 5730,
      "Ġ210": 5731,
      "Ġà´ķà´±àµ»à´¸": 5732,
      "Ġ1945": 5733,
      "à´¡à´ªà´ķà´Łà´Ļ": 5734,
      "Ġà´Ĵà´İà´¸": 5735,
      "Ġà´ªà´°à´¶": 5736,
      "à´°à´µà´£": 5737,
      "à´¤à´¨à´°à´¹": 5738,
      "Ġ(_": 5739,
      "à´Ĳà´İà´¯": 5740,
      "à´Ĵà´¸": 5741,
      "www": 5742,
      "à´¡à´¨à´®": 5743,
      "à´¡à´ªà´¤": 5744,
      "à´°à´¸à´ŀ": 5745,
      "à´µà´¶à´ª": 5746,
      "à´ªà´¨à´ķàµ¾": 5747,
      "OR": 5748,
      "Ġà´±à´¡": 5749,
      "à´«à´¯à´²": 5750,
      "Ġà´ıà´²à´ķ": 5751,
      "à´ļà´¯à´¸à´®": 5752,
      "Ġà´ħàµ¼à´¹à´¤à´¯": 5753,
      "Ġ1955": 5754,
      "Â°": 5755,
      "à´®à´¹à´²": 5756,
      "à´Ļà´²à´ķà´³": 5757,
      "àµ»à´ļ": 5758,
      "Ġà´Ńà´Łà´¨": 5759,
      "Ġà´¡à´ª": 5760,
      "à´łà´µ": 5761,
      "Ġà´ħà´ļà´ŀ": 5762,
      "Ġà´ªà´´à´ŀ": 5763,
      "Ġ310": 5764,
      "Ġà´°à´¸à´ķà´°à´µ": 5765,
      "àµ¼à´ĺà´¨": 5766,
      "Ġà´ħàµ¼à´§à´¸": 5767,
      "à´µà´¤à´²": 5768,
      "Ġà´¬à´£": 5769,
      "àµįâĢį,,,": 5770,
      "à´®à´¤à´µ": 5771,
      "india": 5772,
      "ert": 5773,
      "Ġà´Ĺà´µàµ¼à´£àµ¼à´ķ": 5774,
      "IS": 5775,
      "à´°à´ķàµ¾à´ķ": 5776,
      "à´®à´ķàµ¾à´ķ": 5777,
      "à´£à´¹": 5778,
      "Ġà´Īà´¯à´Ł": 5779,
      "à´¹àµ»à´¦": 5780,
      "Ġ2025": 5781,
      "vi": 5782,
      "à´¤àµº": 5783,
      "à´¤à´ľà´¨à´Ļ": 5784,
      "Ġà´·à´¹à´¬": 5785,
      "Ġà´Ĳà´İà´«": 5786,
      "Ġ720": 5787,
      "àµ¼à´¥à´¤à´¯": 5788,
      "à´§à´°àµ»à´ª": 5789,
      "à´ªàµ¼à´¸": 5790,
      "ĠCom": 5791,
      "OST": 5792,
      "ĠØ": 5793,
      "à´¸à´ļ": 5794,
      "à´·àµ½": 5795,
      "à´¬à´¸à´®": 5796,
      "à´°à´¤à´ª": 5797,
      "Ġà´ħà´µà´³à´¤": 5798,
      "Ġà´¸à´¹à´¨à´Łà´¨": 5799,
      "Ġà´ħàµ¼à´§": 5800,
      "TP": 5801,
      "à´¨à´²à´¤": 5802,
      "à´¸à´°à´ķ": 5803,
      "à´¤à´°à´¬": 5804,
      "à´ķà´²à´²": 5805,
      "Ġà´ķà´®àµ½à´¨": 5806,
      "Ġ?\"": 5807,
      "âĢİâĢľ": 5808,
      "name": 5809,
      "à´®à´¯à´®": 5810,
      "à´¡àµ»à´¸": 5811,
      "Ġà´¯à´®à´¨": 5812,
      "àµģà´Ĥ.)": 5813,
      "à´°à´·à´±à´°": 5814,
      "Ġà´Ĺàµ¼à´Ńà´ķ": 5815,
      "ĠOne": 5816,
      "à´°à´Ńà´µà´ķ": 5817,
      "à´²à´¹à´°à´£": 5818,
      "à´®à´®à´°": 5819,
      "à´®à´ªà´¦": 5820,
      "à´´à´¨": 5821,
      "à´ĸà´²à´ķ": 5822,
      "Ġà´¨à´²à´ķ": 5823,
      "Ġà´Ĩà´ķà´£à´®": 5824,
      "à´Īà´¸": 5825,
      "àµįâĢĭâĢĭ.": 5826,
      "à´ªà´´à´¤": 5827,
      "Ġà´ħà´²àµ»": 5828,
      "à´¨à´¯à´µ": 5829,
      "à´łàµ»": 5830,
      "Ġ203": 5831,
      "ĠMOST": 5832,
      "olog": 5833,
      "Ġà´ķà´°à´®à´¨": 5834,
      "àµĤ-": 5835,
      "Ġà´Ĩà´¹à´°": 5836,
      "Ġà´±à´®à´¦": 5837,
      "à´ħà´ŀ": 5838,
      "Ġà´Ĩà´³à´¯à´ļ": 5839,
      "Ġà´Ĭà´¤à´ª": 5840,
      "Ġà´µà´ļà´¨à´®": 5841,
      "Ġ280": 5842,
      "àµģâĢĭ.": 5843,
      "à´°à´¬à´²à´®": 5844,
      "yp": 5845,
      "à´¦à´®à´²": 5846,
      "à´§à´ļ": 5847,
      "Ġà´¬à´Ļ": 5848,
      "Ġà´ħà´Łà´°": 5849,
      "à´¤à´²à´¸": 5850,
      "àµ¼à´¡àµ»": 5851,
      "à´¸à´¯à´ļ": 5852,
      "à´Ĵà´ª": 5853,
      "à´Ĵà´´": 5854,
      "ence": 5855,
      "Ġ1965": 5856,
      "City": 5857,
      "ÃĹ": 5858,
      "à´¤à´¯à´ķ": 5859,
      "Ġà´ĩà´¹": 5860,
      "Ġà´ĩà´£à´ķ": 5861,
      "à´µà´°à´ķà´³": 5862,
      "à´¬à´°à´¨": 5863,
      "à´İàµ»à´¡": 5864,
      "Ġ420": 5865,
      "à´ĩà´Ł": 5866,
      "Ġ163": 5867,
      "ĠâĿ": 5868,
      "hel": 5869,
      "à´ªà´łà´¨à´¤": 5870,
      "à´¾âĢĻ": 5871,
      "à´²àµ¼à´·": 5872,
      "à´¦àµ½à´¹": 5873,
      "à´¶à´¯à´²": 5874,
      "à´¬à´°à´µ": 5875,
      "Ġà´¶à´®à´¨": 5876,
      "Ġà´¯à´¦": 5877,
      "à´·à´®à´ķà´°à´®": 5878,
      "Ġà´ķà´Łàµ½à´¤": 5879,
      "Ġ2500": 5880,
      "à´Ńà´°à´£à´¶": 5881,
      "Ġ1948": 5882,
      ")-": 5883,
      "à´¤à´µà´²": 5884,
      "à´Ĥ''": 5885,
      "à´§à´ķà´³": 5886,
      "à´¯à´ªà´Ļ": 5887,
      "Ġà´ħà´§à´°à´Ļ": 5888,
      "à´±à´µàµ¼": 5889,
      "à´°à´¶à´¬": 5890,
      "Ġ499": 5891,
      "ory": 5892,
      "ĠNational": 5893,
      "ĠSc": 5894,
      "ach": 5895,
      "ĠLive": 5896,
      "àµ¼à´¥à´¨à´ķàµ¾": 5897,
      "à´§à´¤à´°": 5898,
      "àµ½à´µà´¨": 5899,
      "à´Ńà´¨à´Ļ": 5900,
      "Ġà´ļà´°à´Ł": 5901,
      "Ġà´µàµ¼à´·à´ķ": 5902,
      "Ġà´İàµ»à´İà´¸": 5903,
      "ĠII": 5904,
      "Ġ1967": 5905,
      "à´¤à´Łà´µ": 5906,
      "à´ªà´łà´¨": 5907,
      "à´£à´µà´³": 5908,
      "Ġà´«à´Į": 5909,
      "Ġà´ĵà´ªà´±": 5910,
      "à´¯à´µàµ»": 5911,
      "à´°à´¹à´°": 5912,
      "à´ĩà´ŀ": 5913,
      "à´ķà´µà´±": 5914,
      "Ġà´¤à´²à´ķà´±": 5915,
      "àµĩ.\"": 5916,
      "à´ĵà´£": 5917,
      "à´®àµ»à´ļ": 5918,
      "Ġ1977": 5919,
      "ÑĢ": 5920,
      "àµĭâĢį": 5921,
      "Ġà´¸à´®à´ļà´¤": 5922,
      "à´¯à´µàµ¼à´¦": 5923,
      "Ġà´¸à´¨à´²": 5924,
      "à´µàµ¼à´Ĺà´Ļ": 5925,
      "Ġà´¤à´Łà´¯à´²": 5926,
      "Ġ225": 5927,
      "keralaonlinenews": 5928,
      "àµģà´Ĥ''": 5929,
      "Ġà´¸àµ¼à´Ĺ": 5930,
      "àµ¼à´¬à´±": 5931,
      "Ġà´Łà´¯à´°": 5932,
      "Ġà´¡à´®": 5933,
      "à´ķà´ªà´°à´®": 5934,
      "Ġà´ħàµ½à´«": 5935,
      "ead": 5936,
      "ĠÎ": 5937,
      "à´¨àµ¼à´µ": 5938,
      "à´¨à´°à´µà´²": 5939,
      "Ġà´ªàµ¼": 5940,
      "Ġà´¤à´ªà´¸": 5941,
      "à´ķà´³à´Łà´Ļ": 5942,
      "Ġà´¬à´®": 5943,
      "à´°à´µà´¤à´°à´®": 5944,
      "Ġà´ħà´Łà´µ": 5945,
      "à´¸à´®à´¯à´Ļ": 5946,
      "Ġà´ħàµ½à´¬": 5947,
      "Ġà´§à´¨à´µà´ķ": 5948,
      "%)": 5949,
      "750": 5950,
      "In": 5951,
      "à´°à´·à´¨": 5952,
      "Ġà´¸à´¬à´°": 5953,
      "Ġà´®àµ¼à´®": 5954,
      "Ġà´¤à´¹à´¸": 5955,
      "à´µà´°àµ»": 5956,
      "à´´à´°": 5957,
      "Ġà´¹à´®à´¦": 5958,
      "à´Ńà´µàµ»": 5959,
      "à´Ĩà´Ĺ": 5960,
      "à´ħà´µàµ¾": 5961,
      "à¥į": 5962,
      "àµģ(": 5963,
      "à´Łà´¦": 5964,
      "Ġà´¬à´³": 5965,
      "Ġà´±à´¯àµ½": 5966,
      "à´Ĥ.)": 5967,
      "92": 5968,
      "CT": 5969,
      "à´ķà´Łà´±": 5970,
      "à´µà´²à´¤": 5971,
      "Ġà´®à´ĸ": 5972,
      "àµ¼à´·àµ»": 5973,
      "Ġà´ĩà´¤à´°à´¸": 5974,
      "à´İà´±à´£": 5975,
      "à´µàµ¼à´£à´®": 5976,
      "àµ¼à´¥à´Ļ": 5977,
      "à´²à´¬à´¸": 5978,
      "ung": 5979,
      "ext": 5980,
      "à´²à´¹à´°à´£à´ª": 5981,
      "ile": 5982,
      "Ð¸": 5983,
      "à´±à´¬à´¨": 5984,
      "à´®à´ķàµ»": 5985,
      "à´£àµ¼à´¨": 5986,
      "à´¸à´µà´ķ": 5987,
      "Ġà´¤à´µà´³": 5988,
      "Ġà´ħà´±à´ķà´³": 5989,
      "à´¯àµ»à´±": 5990,
      "Ġ134": 5991,
      "orm": 5992,
      "à´¦àµ¼à´¶àµ»": 5993,
      "à´ıà´´": 5994,
      "Ġà´ªàµ¼à´µà´¤à´¨": 5995,
      "Ġà´ļà´®à´ļ": 5996,
      "àµ¡": 5997,
      "à´®à´£à´¨": 5998,
      "àµģà´ĤâĢĭ": 5999,
      "Ġà´µà´£à´Ļ": 6000,
      "àµĪàµį": 6001,
      "à´¯à´¤à´µà´£": 6002,
      "Ġà´¯à´Ļ": 6003,
      "à´¯à´µà´³": 6004,
      "Ġ\"\"%": 6005,
      "Ġà´ĩà´²à´ķàµ¾": 6006,
      "Ġà´ªà´²à´¹": 6007,
      "à´¸à´¨à´¸": 6008,
      "Ġà´ľà´¯à´¦": 6009,
      "à´¨à´¸àµ¼à´ķ": 6010,
      "à´«à´²à´¨à´®": 6011,
      "Ġà´ħàµ¼à´¹à´°": 6012,
      "aw": 6013,
      "Ð½": 6014,
      "à´¾'": 6015,
      "à´®à´°à´Ļ": 6016,
      "à´ªà´²à´ķ": 6017,
      "Ġà´ħà´ĸà´£": 6018,
      "à´ľà´¦": 6019,
      "Ġ245": 6020,
      "à´ļà´µà´Łà´®": 6021,
      "SI": 6022,
      "à´±à´±à´¨": 6023,
      "ans": 6024,
      "Ġà´ħà´°à´®": 6025,
      "àµģà´Ĥ'.": 6026,
      "Ġà´¤à´´à´ļ": 6027,
      "à´¶à´Ńà´°à´£": 6028,
      "à´°à´ķàµ»": 6029,
      "Ġà´¡à´¯à´®à´£": 6030,
      "Ġà´µà´²à´Ļ": 6031,
      "à´ªà´¯àµ¼": 6032,
      "à´§à´¨à´ķàµ¾à´ķ": 6033,
      "Ġà´ķà´µà´³à´ª": 6034,
      "Ġ-âĢįà´¾": 6035,
      "Ġà´ļà´²à´¨à´®": 6036,
      "Ġà´°àµºà´¬": 6037,
      "eg": 6038,
      "ĪĴ": 6039,
      "à´¤à´°à´¸": 6040,
      "à´²àµ¼à´®": 6041,
      "Ġà´ħà´¹à´¨": 6042,
      "Ġà´®àµº": 6043,
      "Ġà´İà´¨àµ¼à´ľ": 6044,
      "à´ľà´ķà´¤": 6045,
      "Ġà´¯à´ķ": 6046,
      "à´µà´¶à´°": 6047,
      "Ġà´¸à´¹à´¨à´¶": 6048,
      "Ġà´µà´¨à´µ": 6049,
      "à´ªà´£àµ¼": 6050,
      "Ġ1919": 6051,
      "2016": 6052,
      "Ġ137": 6053,
      "Ġà´ħà´ªà´ķà´Łà´µ": 6054,
      "Ġ1973": 6055,
      "àµį\"\",": 6056,
      "Ġ1952": 6057,
      "ations": 6058,
      "ays": 6059,
      "àµģ]": 6060,
      "à´²à´¶": 6061,
      "Ġà´¦à´¶à´ķ": 6062,
      "à´·à´£à´®à´²": 6063,
      "Ġà´®à´±à´¡": 6064,
      "Ġà´ªà´¦à´ª": 6065,
      "à´Ĵà´ķ": 6066,
      "Ġ1968": 6067,
      "à´¯à´ĺà´Łà´ķà´®": 6068,
      "ire": 6069,
      "à´£à´¯à´¨": 6070,
      "Ġà´ħà´´à´ķ": 6071,
      "àµģà´ĤâĢ¦.": 6072,
      "à´·à´¡": 6073,
      "ĠâĢ¤": 6074,
      "Ġà´¸à´®à´ª": 6075,
      "à´¨à´®à´¸": 6076,
      "àµįâĢĮ).": 6077,
      "ata": 6078,
      "ama": 6079,
      "ĠISL": 6080,
      "ĠEx": 6081,
      "Ġà´¨à´°à´µ": 6082,
      "Ġà´Ĩà´´à´ķ": 6083,
      "à´´à´µà´¨": 6084,
      "à´¯à´¤à´¤": 6085,
      "à´«à´¯àµ½": 6086,
      "Ġà´ĸà´·": 6087,
      "à´ŀà´¤à´¯": 6088,
      "Ġà´¬à´¹à´¦": 6089,
      "ilm": 6090,
      "Ġ1946": 6091,
      "app": 6092,
      "à´¨à´ķà´°": 6093,
      "à´ľà´Ļ": 6094,
      "à´ĸà´ķà´°": 6095,
      "Ġà´¸à´¹à´ķà´°à´£à´®": 6096,
      "à´¤à´µà´³": 6097,
      "à´ªà´³à´Ļ": 6098,
      "ĠSo": 6099,
      "Ġà´ķà´®à´²à´¹": 6100,
      "Ġà´Ĳà´İàµ»à´İà´ķ": 6101,
      "li": 6102,
      "àµģâĢľ": 6103,
      "à´¾âĢĭâĢĭ": 6104,
      "à´Łà´¯à´¯": 6105,
      "Ġà´ħà´ªà´®à´°": 6106,
      "àµĭ?âĢĿ": 6107,
      "Ġà´Ĩà´£à´¤": 6108,
      "Ġ177": 6109,
      "Ġà´īà´Łà´®à´ª": 6110,
      "Ġà´ľà´²à´ľ": 6111,
      "à´Ĩàµ¼à´Ĵ": 6112,
      "ft": 6113,
      "à´¨àµ¼à´®": 6114,
      "à´ķà´¹": 6115,
      "à´°àµ¼": 6116,
      "à´®à´¯à´Ļ": 6117,
      "à´ªà´ķà´¯": 6118,
      "Ġà´ĩà´´à´¯": 6119,
      "à´§à´¸à´®": 6120,
      "à´Ĺà´µà´£": 6121,
      "Ġà´Ĺàµ¼à´¤": 6122,
      "Ġà´ªà´ķà´ª": 6123,
      "à´ĩà´·": 6124,
      "à´¯à´µà´¯à´¸": 6125,
      "Ġ1985": 6126,
      "àµĭâĢ¦?": 6127,
      "JP": 6128,
      "à´ķà´ķà´°à´®": 6129,
      "à´²à´ķàµ¾à´ķ": 6130,
      "à´£à´ªà´°à´®": 6131,
      "Ġà´īàµ½à´ķ": 6132,
      "à´°à´¤à´°": 6133,
      "à´°à´£à´¨": 6134,
      "Ġà´Īà´¤": 6135,
      "Ġ999": 6136,
      "Ġà´«à´²à´®à´¤": 6137,
      "ath": 6138,
      "àµįâĢĻ-": 6139,
      "Ġ1961": 6140,
      "Ġ1951": 6141,
      "Ġ497": 6142,
      "ber": 6143,
      "Ã©": 6144,
      "à´¾ÂŃ": 6145,
      "àµĨâĢį": 6146,
      "à´®à´¨à´¤": 6147,
      "à´ļà´°à´£à´µ": 6148,
      "Ġà´¨à´¯à´ªà´°à´®": 6149,
      "Ġà´®à´¯à´ª": 6150,
      "à´Ńà´µà´¨à´¤": 6151,
      "à´ķà´²àµ¼à´¨": 6152,
      "à´®à´¸à´¤": 6153,
      "Ġ\"âĢİ\"\"": 6154,
      "Ġà´Ķà´¹à´°": 6155,
      "Ġ260": 6156,
      "à´²à´Ńà´Ļ": 6157,
      "Ġà´¸àµºà´±": 6158,
      "à´¨à´¯à´¨": 6159,
      "à´ķà´¸à´Ńà´¯": 6160,
      "à´£à´Łà´¯": 6161,
      "àµįâĢĮ...": 6162,
      "Ġà´Ĩà´¦àµ¼à´¶": 6163,
      "Ġà´ħà´Ńà´¯à´¸": 6164,
      "Ġà´ĩà´°à´ļ": 6165,
      "à´µà´¦à´¤": 6166,
      "à´°à´ªà´²à´¹": 6167,
      "Ġà´£à´Ļ": 6168,
      "Ġthers": 6169,
      "à´Łà´Łà´Ļ": 6170,
      "Ġà´īà´¬": 6171,
      "à´°à´¤à´µ": 6172,
      "Ġà´Łà´µàµ¼": 6173,
      "à´°à´¶à´ķ": 6174,
      "àµĤ.\"": 6175,
      "Ġ2023": 6176,
      "àµģâĢĿ.": 6177,
      "à´¯à´¯à´¨à´Ļ": 6178,
      "me": 6179,
      "à´²à´Łà´¯": 6180,
      "à´Ńà´¯à´®": 6181,
      "ĠâĢĿâĢľ": 6182,
      "ĠAn": 6183,
      "à´¸àµ¼à´²àµ»à´¡": 6184,
      "line": 6185,
      "à´ľàµ¼à´®": 6186,
      "à´İà´Ĳ": 6187,
      "Ġà´¡à´¸à´¨": 6188,
      "Ġà´®à´±à´±": 6189,
      "à´°à´¯à´µ": 6190,
      "Ġ161": 6191,
      "à´µà´ľà´¨à´ķ": 6192,
      "Ġ1963": 6193,
      "ge": 6194,
      "à´¨à´¯à´°": 6195,
      "à´²à´¨à´®": 6196,
      "Ġà´İà´¦": 6197,
      "Ġà´Ĵà´°à´±": 6198,
      "à´¾à´ĤâĢĿ": 6199,
      "à´µà´¸à´°à´¤": 6200,
      "à´¯à´®à´¨à´¸": 6201,
      "Ġà´¤à´Łà´¸à´Ļ": 6202,
      "Ġ1800": 6203,
      "à´®àµ¼à´¶à´¨à´¤": 6204,
      "ook": 6205,
      "à´¿âĢĵ": 6206,
      "Ġà´ªàµ¼à´ª": 6207,
      "Ġà´İà´¨à´°": 6208,
      "à´µà´°à´¤à´¯": 6209,
      "à´¯à´®à´ķ": 6210,
      "Ġà´¦à´¸": 6211,
      "Ġà´Łà´¯àµ¼": 6212,
      "Ġà´«àµ¼à´£": 6213,
      "Ġà´īà´ªà´¹": 6214,
      "Ġà´ĩà´Łà´ķà´²à´°": 6215,
      "Ġà´¸àµ¼à´µà´¸": 6216,
      "Ġ1958": 6217,
      "ount": 6218,
      "à´¤à´°à´£à´®": 6219,
      "à´±à´ªà´ķà´Łà´¤": 6220,
      "à´§à´Ĺ": 6221,
      "Ġ133": 6222,
      "à´²à´Ńà´®": 6223,
      "à¤°": 6224,
      "Ġà´ħà´¯àµ¼à´²àµ»à´¡": 6225,
      "Ġ00": 6226,
      "Ġà´®àµ»": 6227,
      "àµĤâĢĿ": 6228,
      "Ġà´±àµºà´µ": 6229,
      "Ġà´®à´£àµ½": 6230,
      "Ġà´ľà´¯à´ļà´¨": 6231,
      "à´°à´ªà´¦": 6232,
      "Ġ152": 6233,
      "ĠMar": 6234,
      "ĠCO": 6235,
      "à´ŀà´¯à´ļ": 6236,
      "Ġ1974": 6237,
      "Ġà´ķàµºà´¸àµ¾à´Ł": 6238,
      "Ġà´İà´İàµ»à´Ĳ": 6239,
      "Ġà´İà´®à´°": 6240,
      "à´¶à´ľ": 6241,
      "à´Ńàµ¼à´¤": 6242,
      "à´¯àµ¼à´¥à´¨": 6243,
      "Ġà´ħàµ¼à´¹à´¨": 6244,
      "Ġ1979": 6245,
      "à´¿âĢĻ.": 6246,
      "Ġle": 6247,
      "à´¿'.": 6248,
      "à´ķà´µàµ¼à´Ĺ": 6249,
      "à´ļà´±à´²": 6250,
      "Ġà´Ĵà´°à´®": 6251,
      "à´ķàµ¾à´ļ": 6252,
      "Ġà´Ĩà´ķà´£": 6253,
      "à´ľà´¨à´¸": 6254,
      "Ġà´ķà´²à´µà´±à´¯": 6255,
      "à´¿à´Ĥ.": 6256,
      "Ġà´¨à´¸à´±": 6257,
      "à´¹à´°à´¨": 6258,
      "Ġà´«à´¸à´²": 6259,
      "Ġà´ªà´±à´¯à´²": 6260,
      "à´¤à´²à´µ": 6261,
      "Ġ1920": 6262,
      "àµ¼à´£à´±": 6263,
      "à´Ĵà´±": 6264,
      "ree": 6265,
      "Ġ1942": 6266,
      "res": 6267,
      "à´Ŀ": 6268,
      "Ġà´¤à´¹": 6269,
      "àµ¼à´¬àµ¼": 6270,
      "à´ŀà´µ": 6271,
      "à´ľà´¯à´¸": 6272,
      "à´¥à´¸": 6273,
      "Ġhtt": 6274,
      "Ġà´ħàµ»à´µàµ¼": 6275,
      "AS": 6276,
      "Ġà´ªà´Łà´¨": 6277,
      "àµĩâĢĿ": 6278,
      "Ġà´¨à´«": 6279,
      "Ġà´ļà´°à´£": 6280,
      "Ġà´īà´²à´®": 6281,
      "Ġà´īà´Łà´ļ": 6282,
      "à´¬à´²à´ª": 6283,
      "à´¯à´ķà´±": 6284,
      "à´¤à´°à´µà´ķ": 6285,
      "Ġà´®à´²à´¬à´¨": 6286,
      "ale": 6287,
      "àµ½à´¸àµº": 6288,
      "ĠPl": 6289,
      "ĠPar": 6290,
      "__": 6291,
      "à´¨à´§": 6292,
      "àµįâĢįâĢĿ": 6293,
      "à´¹à´ķàµ»": 6294,
      "Ġà´ħà´¤à´¯": 6295,
      "Ġ141": 6296,
      "à´®à´¯à´¨": 6297,
      "à´®àµºà´µ": 6298,
      "à´Ļà´µ": 6299,
      "Ġà´µàµ¾": 6300,
      "Ġà´Īà´µ": 6301,
      "à´·à´£à´ļ": 6302,
      "Ġà´¸à´¹à´ľ": 6303,
      "àµĭ?âĢĿ\"": 6304,
      "àµ¼à´¡àµ¼": 6305,
      "àµĩ?âĢĿ\"": 6306,
      "àµįâĢį!âĢĿ\"": 6307,
      "Ġ1959": 6308,
      "Ġwith": 6309,
      "Ġà´ķà´ľ": 6310,
      "à´¦à´¹": 6311,
      "à´·à´°à´°": 6312,
      "Ġà´¸à´¹à´¨à´Ł": 6313,
      "Ġbe": 6314,
      "ĠGB": 6315,
      "à´¿à´¿": 6316,
      "à´µàµ¼à´Ł": 6317,
      "à´®à´°à´¶": 6318,
      "à´®à´ķà´¤à´¯": 6319,
      "à´µà´°à´°": 6320,
      "Ġà´°à´¥à´¯": 6321,
      "à´ľà´¨à´¨": 6322,
      "àµ¼à´ĺà´®": 6323,
      "Ġ1981": 6324,
      "Ġ1964": 6325,
      "ĠâĹĨ": 6326,
      "àµģ),": 6327,
      "à´®à´±à´¨": 6328,
      "Ġà´ĩàµ»à´ª": 6329,
      "àµ¼à´Ĺà´µ": 6330,
      "à´¾à´Ĥ'": 6331,
      "Ġà´¹à´¬à´ķ": 6332,
      "à´¯àµ»à´®": 6333,
      "à´¹à´¨àµ»": 6334,
      "2017": 6335,
      "Ġ222": 6336,
      "Ġ227": 6337,
      "Ġ311": 6338,
      "Ġà´Ĺàµ¼à´Ńà´§": 6339,
      "à¯į": 6340,
      "FC": 6341,
      "fo": 6342,
      "àµ¿": 6343,
      "à´¾âĢĮ": 6344,
      "àµ¼à´±": 6345,
      "à´°à´µà´ķà´°à´®": 6346,
      "à´Łà´±à´²": 6347,
      "àµĭ.\"": 6348,
      "à´¤à´µà´µ": 6349,
      "à´īà´¯à´°": 6350,
      "ĠRs": 6351,
      "àµĨ).": 6352,
      "ellation": 6353,
      "LE": 6354,
      "Ġà´ĩà´Ľ": 6355,
      "à´°à´®à´ķà´°à´®": 6356,
      "Ġà´²à´¨": 6357,
      "Ġà´¹à´¯": 6358,
      "Ġà´īà´£àµ¼à´µ": 6359,
      "Ġà´®à´°à´ª": 6360,
      "à´¦à´°à´¬": 6361,
      "à´·à´ķà´ķ": 6362,
      "ĠMT": 6363,
      "ĠSp": 6364,
      "ics": 6365,
      "ĠBJP": 6366,
      "Ġ1966": 6367,
      "ash": 6368,
      ",âĢĻ": 6369,
      "à´®à´°à´¤": 6370,
      "à´¦à´°à´¯": 6371,
      "Ġà´ľà´´": 6372,
      "Ġà´¹à´Ĺ": 6373,
      "Ġà´¸à´®àµ¼à´¤": 6374,
      "à´¨à´®à´¨à´¤": 6375,
      "à´Łàµ¼à´¬": 6376,
      "à´®àµ¼à´¶à´®": 6377,
      "ĠName": 6378,
      "à´¸à´¸àµ¼": 6379,
      "àµ¼à´Ńà´°à´®": 6380,
      "à´Īà´¦": 6381,
      "stellation": 6382,
      "àµįâĢĿ,": 6383,
      "àµģ'-": 6384,
      "IB": 6385,
      "].": 6386,
      "à´³à´´": 6387,
      "Ġà´ħà´°à´®à´£": 6388,
      "Ġà´±à´¨": 6389,
      "Ġà´±à´Ĺ": 6390,
      "\"\".": 6391,
      "à´¤à´²à´±": 6392,
      "à´Ĩà´§": 6393,
      "Ġ191": 6394,
      "Ġ159": 6395,
      "ong": 6396,
      "lection": 6397,
      "IF": 6398,
      "la": 6399,
      "Ġhe": 6400,
      "à´µà´³à´ª": 6401,
      "à´·à´°à´¸à´ŀ": 6402,
      "Ġà´¤à´±à´ª": 6403,
      "à´¹à´Ł": 6404,
      "Ġà´ıàµ½à´ķ": 6405,
      "à´¤àµ½à´®": 6406,
      "à´ĩà´¦": 6407,
      "à´Ĩàµ»": 6408,
      "à´Ľà´µ": 6409,
      "âĢįàµį": 6410,
      "Ġ169": 6411,
      "ĠAL": 6412,
      "à´İàµ»à´ľ": 6413,
      "Ġmore": 6414,
      "iss": 6415,
      "Ph": 6416,
      "xy": 6417,
      "à´¨à´³": 6418,
      "à´¯à´±à´ķ": 6419,
      "Ġà´¸à´¬àµ¼": 6420,
      "à´¶à´ķà´®": 6421,
      "Ġà´īà´²à´ļ": 6422,
      "Ġà´¡à´ķ": 6423,
      "à´¯à´µà´Ł": 6424,
      "âĢĭàµģ": 6425,
      "Ġà´®à´¹à´®": 6426,
      "à´Łà´µà´¨à´²": 6427,
      "ĠHD": 6428,
      "ÙĨ": 6429,
      "à°": 6430,
      "à´ªà´¥": 6431,
      "à´¶à´¶": 6432,
      "Ġà´ľà´¤": 6433,
      "à´§à´¨à´ļ": 6434,
      "Ġà´Ńà´°à´£à´ªà´°à´®": 6435,
      "àµ¼à´£àµ½": 6436,
      "Ġ168": 6437,
      "àµ¼à´ĺà´¦": 6438,
      "Ġà´¸àµ¼à´µà´¶à´ķ": 6439,
      "MS": 6440,
      "à´£à´Ĺ": 6441,
      "Ġà´ħàµ¼à´£": 6442,
      "Ġà´Ĵà´°à´§": 6443,
      "Ġà´¹à´¦": 6444,
      "Ġà´īà´ªà´¸à´®": 6445,
      "Ġà´®à´°à´ļ": 6446,
      "Ġà´ķà´³à´ª": 6447,
      "Ġà´ħà´¯à´£": 6448,
      "à´¤à´ķà´¥à´¯": 6449,
      "à´¹à´®à´²": 6450,
      "Ġ850": 6451,
      "àµ¼à´·àµ½": 6452,
      "à´Łà´µà´°à´²": 6453,
      "à´¯à´Łà´ļ": 6454,
      "Ġ272": 6455,
      "ĠXR": 6456,
      "Ġ1949": 6457,
      "echn": 6458,
      "ver": 6459,
      "à´°à´µà´¨": 6460,
      "Ġà´¨à´µà´®": 6461,
      "à´¨à´¤à´Łà´ķ": 6462,
      "Ġà´¯à´µ": 6463,
      "Ġà´ªà´°à´µ": 6464,
      "à´¨à´µà´ķ": 6465,
      "Ġà´ħà´¸à´¹à´¨": 6466,
      "à´Ĩà´²": 6467,
      "ĠAs": 6468,
      "ica": 6469,
      "à´¬à´µà´´à´ķ": 6470,
      "Ġà´¤à´²à´ķà´±à´ķ": 6471,
      "MA": 6472,
      "à´¨à´±à´²": 6473,
      "à´¯à´±à´µ": 6474,
      "à´µà´®à´¨à´¸": 6475,
      "Ġà´ªà´µà´²": 6476,
      "à´ļà´®à´ķ": 6477,
      "à´§à´§": 6478,
      "à´¥à´¤à´ķà´³": 6479,
      "Ġà´ŀà´°à´®": 6480,
      "à´°à´µà´¹": 6481,
      "à´¯à´¯à´¨à´¤": 6482,
      "àµĨ.âĢĿ": 6483,
      "Ġà´§à´¨à´ªà´°à´®": 6484,
      "Ġà´ĸà´¬à´±": 6485,
      "à´µà´£à´¨": 6486,
      "Ġà´ķà´²à´ķà´³": 6487,
      "à´ıà´ķ": 6488,
      "Ġà´Ńà´µà´¨à´µ": 6489,
      "Ġ1939": 6490,
      "à´¨à´ķàµ¾": 6491,
      "à´Ļà´°à´¯": 6492,
      "àµĭà´Ĥ.": 6493,
      "àµĤâĢ¦": 6494,
      "à´ŀàµ¾": 6495,
      "Ġà´Ĩà´±à´¨": 6496,
      "Ġà´īàµ¼à´¦": 6497,
      "à´°à´¤à´°à´¤": 6498,
      "Ġà´ħà´Łàµ½": 6499,
      "ann": 6500,
      "Ġ10000": 6501,
      "Ġ282": 6502,
      "Ġà´ĵà´£àµ¼": 6503,
      "ĠOn": 6504,
      "à´µà´¯à´°": 6505,
      "Ġà´¸à´ķà´°": 6506,
      "Ġà´®àµ»à´¸": 6507,
      "à´´à´ķà´¤": 6508,
      "Ġà´ıà´ķà´®": 6509,
      "à´µà´¯àµ¼": 6510,
      "à´®à´¯à´µ": 6511,
      "Ġ157": 6512,
      "Ġ158": 6513,
      "à´ķàµ¼à´·à´£": 6514,
      "Ġà´¡à´¯à´°à´ķ": 6515,
      "ey": 6516,
      "uk": 6517,
      "àµģâĢĭâĢĭâĢĭ": 6518,
      "à´¯à´ļà´°": 6519,
      "à´¯à´¶à´ķ": 6520,
      "à´Ĺà´°à´®": 6521,
      "à´¾à´ĤâĢĻ": 6522,
      "à´«à´²à´¨": 6523,
      "à´®à´¯à´ļ": 6524,
      "à´ªà´°à´²": 6525,
      "ÂłÂł": 6526,
      "à´īà´¯": 6527,
      "Ġà´ħà´«à´¯": 6528,
      "Ġ239": 6529,
      "ener": 6530,
      "à´®àµ¼à´¦à´Ļ": 6531,
      "Ġ1969": 6532,
      "Ġà´ľà´Ĺà´ªà´¤": 6533,
      "Ġà´ĩà´²à´µàµ»": 6534,
      "ts": 6535,
      "à´ªà´¹": 6536,
      "à´Ļà´¨à´¤": 6537,
      "Ġà´ħàµ»à´ªà´¤": 6538,
      "àµ¼à´·à´¨": 6539,
      "à´°à´µà´ķ": 6540,
      "àµºà´ªà´¤": 6541,
      "à´±à´µàµ¼à´ķ": 6542,
      "Ġà´ĩà´µà´ķ": 6543,
      "à´°à´¹à´°à´®": 6544,
      "à´°à´°à´ļà´¨": 6545,
      "Ġà´Ĩàµ½à´¬àµ¼à´Ł": 6546,
      "brand": 6547,
      "à´¤à´µà´ķ": 6548,
      "à´Łà´®à´¤": 6549,
      "à´¹àµ½": 6550,
      "à´ķà´¯à´ķ": 6551,
      "Ġà´ıà´¤à´¨": 6552,
      "à´İàµ»à´¸": 6553,
      "Ġà´ĵà´®à´¨": 6554,
      "Ġà´ħà´®àµ¼": 6555,
      "à´²à´µàµ¼à´·": 6556,
      "à´Ĩà´¹": 6557,
      "à´Ĩàµ¼à´¡": 6558,
      "àµ¼à´µà´ļà´¨": 6559,
      "à´°à´³à´¯à´¦": 6560,
      "à´ķà´Łàµ¼à´®": 6561,
      "Ġà´¸à´ľà´¯à´¨": 6562,
      "ĠRes": 6563,
      "Ġà´¦à´¶à´ķà´¤": 6564,
      "Ġ1954": 6565,
      ").\"": 6566,
      "ou": 6567,
      "rit": 6568,
      "à´¯à´ķàµ¾à´ķ": 6569,
      "à´®à´°à´£à´¤": 6570,
      "à´³à´¨à´µ": 6571,
      "Ġà´¸à´µàµ¼à´ķ": 6572,
      "Ġà´µà´¯àµ½": 6573,
      "à´¦à´ķà´®": 6574,
      "Ġà´ĩà´£à´ļ": 6575,
      "Ġà´¬à´µ": 6576,
      "Ġà´īà´±à´ŀ": 6577,
      "Ġà´ªà´±à´¯à´¤": 6578,
      "Ġà´Īà´ķ": 6579,
      "à´¯à´ķà´²": 6580,
      "Ġà´īà´ªà´µà´ķ": 6581,
      "ĠâĢľ[": 6582,
      "àµ¼à´®à´²à´¤": 6583,
      "Ġ790": 6584,
      "Ġà´Ĭà´¹à´¤": 6585,
      "àµģ?\"": 6586,
      "Ġà´ªà´´à´®": 6587,
      "Ġà´Ńà´µà´¨à´°à´¹": 6588,
      "uss": 6589,
      "à´¯à´¸à´®à´°à´¤": 6590,
      "Ġà´ħà´¯àµ½à´°": 6591,
      "à´ķà´§": 6592,
      "Ġà´ªà´¯àµ¼": 6593,
      "Ġà´¸à´Īà´¦": 6594,
      "à´·à´Ńà´°": 6595,
      "à´°à´ķà´²": 6596,
      "àµ»à´¸àµº": 6597,
      "Ġà´ªà´°à´®à´®": 6598,
      "Ġà´°à´ľà´¤": 6599,
      "Ġà´İàµ½à´¸": 6600,
      "Ġà´¤à´Łà´µà´±à´¯": 6601,
      "ĠRed": 6602,
      "Ġà´ħà´µà´Ĺà´£à´¨à´¯": 6603,
      "âĢĵà´¾à´Ĥ": 6604,
      "land": 6605,
      "Ø±": 6606,
      "à´ªà´Łà´Ļ": 6607,
      "à´ľàµ½": 6608,
      "Ġà´ªà´±à´ķà´¯": 6609,
      "à´Ļàµ¾à´ª": 6610,
      "Ġà´Ĳà´Ĩà´°": 6611,
      "Ġ154": 6612,
      "Ġà´īà´Łà´®à´ķàµ¾": 6613,
      "150": 6614,
      "ef": 6615,
      "mi": 6616,
      "à´ļà´¨à´Ļ": 6617,
      "àµĩâĢĻ": 6618,
      "à´·à´µà´°": 6619,
      "àµį,'": 6620,
      "à´ĺà´¨à´µ": 6621,
      "à´ķà´¨à´²": 6622,
      "ĠâĢľâĢĺ": 6623,
      "àµ¼à´®àµ½": 6624,
      "Ġ204": 6625,
      "à´¦àµ¼à´¶à´¨à´®": 6626,
      "Ġà´ĵàµ¼à´¡à´±": 6627,
      "à´§à´®à´¤à´ķ": 6628,
      "ID": 6629,
      "àµ¯": 6630,
      "Ġà´®à´£à´¤": 6631,
      "Ġà´İà´Ĳ": 6632,
      "àµĤ'": 6633,
      "à´Ĺà´ļ": 6634,
      "Ġà´īà´°à´¸": 6635,
      "Ġà´ľà´¯àµ»": 6636,
      "Ġà´ªà´°à´µà´¤": 6637,
      "à´µà´¨à´¦": 6638,
      "Ġà´¸à´®à´¦": 6639,
      "à´ĩàµ»": 6640,
      "à´°à´³à´¸": 6641,
      "àµºà´¸à´£": 6642,
      "Ġ213": 6643,
      "Ġpl": 6644,
      "Ġ543": 6645,
      "RD": 6646,
      "sy": 6647,
      "àµģÂŃ": 6648,
      "à´Ļà´³à´µà´¯": 6649,
      "Ġà´ħà´Ńà´¯à´ķ": 6650,
      "Ġ911": 6651,
      "ĠMang": 6652,
      "à´¸à´¹à´ķà´°à´£": 6653,
      "Ġ``": 6654,
      "Ġà´ªàµ¼à´µà´¤à´Ļ": 6655,
      "Éª": 6656,
      "Ðµ": 6657,
      "Ġam": 6658,
      "à´ķàµ½à´¨": 6659,
      "à´ªà´Łà´ķ": 6660,
      "Ġà´ªà´¹": 6661,
      "Ġà´¤à´ŀ": 6662,
      "àµ»à´®à´¨": 6663,
      "à´«à´¯à´°": 6664,
      "Ġà´ħà´µà´°à´Ļ": 6665,
      "à´²à´ªà´°": 6666,
      "à´µà´ķà´Ļ": 6667,
      "Ġà´µàµ¼à´®à´¯": 6668,
      "Ġà´İàµ»à´ķ": 6669,
      "Ġ303": 6670,
      "ĠIC": 6671,
      "Ġà´ķàµ¼à´·à´ķà´¨": 6672,
      "Ġà´°à´ļà´¨à´ķàµ¾": 6673,
      "Äģ": 6674,
      "à´®à´²à´¤": 6675,
      "àµģà´ĤâĢĻ.": 6676,
      "Ġà´µà´¯àµ½à´¸": 6677,
      "Ġà´°à´¥à´Ļ": 6678,
      "à´Ńà´¯à´Ļ": 6679,
      "à´Ńà´°à´£à´ķ": 6680,
      "à´¡àµ»à´·": 6681,
      "Ġà´Īà´°à´£": 6682,
      "Ġà´¹àµ¼à´Ń": 6683,
      "à´ħà´¤à´²": 6684,
      "Ġà´ĸà´µ": 6685,
      "à´¸à´®àµ¼à´ª": 6686,
      "Ġ184": 6687,
      "ali": 6688,
      "Ġ340": 6689,
      "à´°à´µà´£à´¤à´ķà´³": 6690,
      "Ġà´¦à´¶à´ķà´Ļ": 6691,
      "Ðº": 6692,
      "à´¨à´ļà´°": 6693,
      "à´ªàµ¼à´¤": 6694,
      "à´¸à´¡àµ¼": 6695,
      "Ġà´ķà´°à´®": 6696,
      "à´¦à´¤à´¯": 6697,
      "à´¶à´ªà´°à´®": 6698,
      "à´¶à´Ńà´ķ": 6699,
      "àµįâĢį.)": 6700,
      "Ġà´ľà´¯à´¶": 6701,
      "Ġà´ķà´Łàµ½à´ķ": 6702,
      "à´¤à´µàµ»": 6703,
      "à´¸à´«à´°": 6704,
      "NW": 6705,
      "à´°à´¬à´°": 6706,
      "à´ªà´±à´ķ": 6707,
      "à´¸à´ķà´°": 6708,
      "à´Ńà´¯à´¯": 6709,
      "à´ķàµ¾à´ª": 6710,
      "Ġ855": 6711,
      "aily": 6712,
      "à´¨à´¸à´®": 6713,
      "à´¾àµį": 6714,
      "Ġà´¨à´¨à´µ": 6715,
      "Ġà´ĩà´¯à´°": 6716,
      "àµįâĢĮ),": 6717,
      "à´¬à´Ĺ": 6718,
      "à´¬à´²à´¨": 6719,
      "Ġà´¯à´·": 6720,
      "à´µà´¨à´Ł": 6721,
      "à´¿,âĢĿ": 6722,
      "Ġà´ĩà´¯àµ¼": 6723,
      "Ġà´¤à´³à´ļ": 6724,
      "ĠMP": 6725,
      "Ġà´ħàµ¼à´¹à´®": 6726,
      "Ġà´ªà´£à´®à´Łà´¯": 6727,
      "iraj": 6728,
      "ax": 6729,
      "Ùħ": 6730,
      "à´¿àµĩ": 6731,
      "à´¨à´ķà´°à´¨": 6732,
      "àµįâĢįâĢĻ.": 6733,
      "àµ¼à´ľà´¨": 6734,
      "Ġà´īà´Łà´ķ": 6735,
      "à´¡à´µà´°": 6736,
      "Ġà´Ĺà´¸à´±": 6737,
      "à´¯à´ªà´°à´µ": 6738,
      "Ġà´īà´¦à´°": 6739,
      "ĠâĢİâĢİâĢľ": 6740,
      "Ġ660": 6741,
      "Ġ178": 6742,
      "ĠTh": 6743,
      "use": 6744,
      "ific": 6745,
      "cl": 6746,
      "Ġro": 6747,
      "à´Łà´´": 6748,
      "à´µà´·à´£": 6749,
      "à´®à´ķà´¤": 6750,
      "à´³à´¨à´®": 6751,
      "àµĤâĢĻ": 6752,
      "àµ»à´ªà´¨": 6753,
      "Ġà´¬àµ¾à´Ĺ": 6754,
      "àµĪ)": 6755,
      "à´Ļàµ¾à´¤à´¨": 6756,
      "àµºà´¸à´¨": 6757,
      "Ġà´Ĳà´²à´¨": 6758,
      "à´®à´±à´ŀ": 6759,
      "à´·à´ķà´¸à´®": 6760,
      "Ġ509": 6761,
      "à´īà´ªà´¯": 6762,
      "ese": 6763,
      "Ġà´ªàµ¼à´µà´¤à´¤": 6764,
      "oy": 6765,
      "à´µà´¤à´²à´®": 6766,
      "à´®à´Ĺà´¤": 6767,
      "à´ªà´´à´ķ": 6768,
      "Ġà´¨à´¯à´µ": 6769,
      "à´¹à´¦à´¯": 6770,
      "Ġà´Ĵà´İà´¨": 6771,
      "ĠâĢľâĢĿ": 6772,
      "Ġà´ĸà´¬": 6773,
      "à´¦à´¨à´ķà´³": 6774,
      "à´ļà´±àµ½": 6775,
      "Ġà´İà´®àµ¼à´ľ": 6776,
      "àµģâĢį": 6777,
      "à´¯à´¦àµ¼à´¶àµ»": 6778,
      "Ġà´®à´²à´µ": 6779,
      "Ġà´°à´¥": 6780,
      "à´°à´¤à´ķ": 6781,
      "Ġà´Ĵà´°à´°": 6782,
      "Ġà´¸à´®à´¤à´²à´Ļ": 6783,
      "Ġà´µà´°à´ª": 6784,
      "Ġà´ĸà´ľ": 6785,
      "ĠXC": 6786,
      "à´¶à´Ńà´°": 6787,
      "Ġà´®àµ¼à´¦à´¨à´®": 6788,
      "BS": 6789,
      "Ġà´İà´İà´«": 6790,
      "Ġà´ĩà´²à´¯": 6791,
      "à´§à´¨à´®à´²": 6792,
      "à´¨à´¤à´Ļ": 6793,
      "à´µà´°à´¶": 6794,
      "à´ĸà´°à´®": 6795,
      "Ġà´ħà´ªà´¸": 6796,
      "Ġà´·à´¡": 6797,
      "à´ªà´±à´ļ": 6798,
      "à´Ĳà´Ĳ": 6799,
      "à´®à´ķà´¥": 6800,
      "Ġ172": 6801,
      "ated": 6802,
      "à´¤àµ¼à´²àµ»à´¡": 6803,
      "Ġà´§à´¨à´¸à´®": 6804,
      "ĠZS": 6805,
      "ĠIndian": 6806,
      "à´°à´£à´¯à´ķà´¥à´¯": 6807,
      "ternational": 6808,
      "Ġà´ķà´°à´µ": 6809,
      "Ġà´Ĵà´°à´²": 6810,
      "Ġà´«à´¯": 6811,
      "à´¤à´®à´´": 6812,
      "Ġà´¸à´¹à´¨": 6813,
      "àµĭ?\"\"": 6814,
      "Ġà´īà´¦à´°à´¤": 6815,
      "à´¹à´¨à´Ĺà´¤": 6816,
      "ance": 6817,
      "à´®àµ¼à´¶à´µ": 6818,
      "Ġ234": 6819,
      "are": 6820,
      "Ġkm": 6821,
      "ower": 6822,
      "sp": 6823,
      "à´µà´³à´µ": 6824,
      "à´¹àµ¼à´ľ": 6825,
      "à´ĺà´Łà´ķà´Ļ": 6826,
      "à´¿,,,": 6827,
      "à´ħà´¡": 6828,
      "Ġà´ªà´¤à´ŀ": 6829,
      "Ġà´Ĭà´´à´®": 6830,
      "Ġà´Ľà´¦": 6831,
      "àµįâĢ¦?": 6832,
      "ĠTr": 6833,
      "Ġ480": 6834,
      "edia": 6835,
      "Ġ1941": 6836,
      "Ġà´¨àµ½à´ķà´°": 6837,
      "view": 6838,
      "ĠMangalam": 6839,
      "ject": 6840,
      "rap": 6841,
      "àµĩ'": 6842,
      "àµĭ\"\"": 6843,
      "à´¬à´ļ": 6844,
      "Ġà´ħà´¤à´µà´³": 6845,
      "àµĩà´¾:": 6846,
      "à´°à´µà´ª": 6847,
      "à´§à´®à´±": 6848,
      "à´®à´ķà´¥à´¯": 6849,
      "à´µà´Ńà´¯à´®": 6850,
      "Ġà´ĩàµ»à´Ł": 6851,
      "ĠTUV": 6852,
      "Ġsiraj": 6853,
      "rop": 6854,
      "Ġ1938": 6855,
      "rice": 6856,
      "à´¯à´§à´¨": 6857,
      "Ġà´¸à´§": 6858,
      "Ġà´¦à´µ": 6859,
      "Ġà´¡à´Ĺ": 6860,
      "ĠâĢĿ,": 6861,
      "à´§à´¨à´¨": 6862,
      "à´µàµ¼à´¦": 6863,
      "Ġà´¨à´Ĺà´°à´ķ": 6864,
      "ern": 6865,
      "Ġà´ħà´ªà´ķà´Łà´ķà´°à´µ": 6866,
      "Ġ325": 6867,
      "Ġà´ħàµ¼à´¥à´µà´¤": 6868,
      "Ġà´Ķà´·à´§à´®": 6869,
      "ode": 6870,
      "ĠOneindia": 6871,
      "DI": 6872,
      "ME": 6873,
      "sc": 6874,
      "àµª": 6875,
      "àµįà´¿": 6876,
      "Ġà´Īà´Ĺ": 6877,
      "Ġà´ıà´¥": 6878,
      "à´¤à´°à´Ł": 6879,
      "àµĨ.)": 6880,
      "Ġà´īà´¦à´¯à´ķ": 6881,
      "âĢĿ,": 6882,
      "Ġ''-": 6883,
      "Ġà´İàµ»à´İ": 6884,
      "Ġ306": 6885,
      "erv": 6886,
      "Ġ244": 6887,
      "Ġà´ħà´¹à´®à´¦": 6888,
      "ĠEn": 6889,
      "Ġ1943": 6890,
      "Ġà´Ķà´·à´§à´Ļ": 6891,
      "Phone": 6892,
      "àµįà´Ĥ": 6893,
      "àµģ/": 6894,
      "à´²à´¨à´Ļ": 6895,
      "à´ªà´µà´´": 6896,
      "Ġà´ħà´ľà´¨": 6897,
      "Ġà´¸àµ¾à´«": 6898,
      "Ġà´·à´¨": 6899,
      "à´ħà´¶": 6900,
      "Ġ208": 6901,
      "à´Łà´®à´¸": 6902,
      "Ġà´Ķà´¸": 6903,
      "Ġà´Ĭà´®": 6904,
      "à´«à´²à´¦": 6905,
      "Ġà´īà´Łà´®à´ķàµ¾à´ķ": 6906,
      "àµģâĢĭàµĨ": 6907,
      "CO": 6908,
      "àµģâĢĭâĢĭ": 6909,
      "à´¯à´¬à´¸": 6910,
      "à´Ĥ\"\"\"": 6911,
      "àµĩ:": 6912,
      "à´¨à´¤à´¸": 6913,
      "àµ»à´¹à´¯": 6914,
      "Ġà´¯à´ļ": 6915,
      "à´¯à´ķà´¸": 6916,
      "Ġà´¹à´¡": 6917,
      "Ġà´¸à´®à´°à´ª": 6918,
      "à´ħà´±à´¬": 6919,
      "à´ĺà´Łà´¨à´ķ": 6920,
      "Ġ15000": 6921,
      "Ġ:-": 6922,
      "Ġà´¤à´Łà´¯à´£": 6923,
      "à´¦àµ¼à´¶à´ķàµ¼à´ķ": 6924,
      "à´ıà´·": 6925,
      "à´°à´Ĺà´°": 6926,
      "à´±à´¦": 6927,
      "àµĢ...": 6928,
      "à´¶à´Ĺ": 6929,
      "Ġà´¬àµ¾à´¬": 6930,
      "à´ķà´°à´ķà´³": 6931,
      "Ġà´Īà´£à´®": 6932,
      "Ġà´ĩà´µàµ¾": 6933,
      "Ġ430": 6934,
      "Ġà´ħà´ªà´ķà´Łà´ª": 6935,
      "àµģà´Ĥ?\"": 6936,
      "à´īà´°": 6937,
      "ivers": 6938,
      "hat": 6939,
      "à´ļà´µà´³": 6940,
      "à´Ļà´²à´¯": 6941,
      "à´¸à´µà´³": 6942,
      "à´·à´ªà´°": 6943,
      "Ġà´ĩà´°à´®": 6944,
      "à´¹à´ľà´¨à´ķà´®": 6945,
      "Ġà´°à´¬": 6946,
      "à´¾à´ĤâĢ¦.": 6947,
      "Ġà´«à´ķ": 6948,
      "à´Łà´¨à´ļ": 6949,
      "Ġà´µà´³à´¯à´Ļ": 6950,
      "à´±àµ¼à´¸": 6951,
      "àµ¼à´£à´¯à´¤": 6952,
      "à´Ĺà´£à´Ļ": 6953,
      "à´µà´ļà´¨à´Ļ": 6954,
      "à´§à´µàµ½à´ķ": 6955,
      "à´¢à´ļ": 6956,
      "Ġà´ķà´¨à´ķà´°": 6957,
      "Ġ215": 6958,
      "ĠPM": 6959,
      "àµįâĢĿ-": 6960,
      "VID": 6961,
      "à´ļà´¨à´®à´±": 6962,
      "man": 6963,
      "âĻ": 6964,
      "àµįàµģ": 6965,
      "Ġà´ĥ": 6966,
      "à´ķà´ķàµ¾à´ķ": 6967,
      "à´±à´Ń": 6968,
      "à´®à´«à´²": 6969,
      "Ġà´µà´«": 6970,
      "àµ½à´µà´°": 6971,
      "à´µà´°à´£à´µ": 6972,
      "Ġà´¶à´µà´¶à´°": 6973,
      "Ġà´¯à´¶à´¸": 6974,
      "à´ĸà´®à´²": 6975,
      "Ġà´ħà´ªàµ¼à´£": 6976,
      "Ġ330": 6977,
      "à´¨à´ķà´µ": 6978,
      "à´Ĳà´ľ": 6979,
      "àµ¼à´µà´±": 6980,
      "Ġ7000": 6981,
      "à´ĺà´Łà´¨à´ķàµ¾à´ķ": 6982,
      "à´°à´ľà´ķà´³": 6983,
      "atch": 6984,
      "ĠiPhone": 6985,
      "à´ķà´Łà´Ļ": 6986,
      "à´ĤâĪĻ": 6987,
      "à´·à´Ł": 6988,
      "à´·à´¯à´²": 6989,
      "à´¹à´¨à´¯": 6990,
      "à´Ĺà´°à´Ļ": 6991,
      "Ġà´²à´²": 6992,
      "à´ĸà´°à´£à´¤": 6993,
      "à´Ĥ.âĢĿ\"": 6994,
      "\"\"-": 6995,
      "àµįâĢĮ..": 6996,
      "Ġà´®à´¤à´ªà´°à´µ": 6997,
      "à´ħà´µà´²": 6998,
      "à´ªà´ķàµ¼à´ļ": 6999,
      "à´¤à´ķàµ¼à´¤": 7000,
      "Ġà´ĸà´Ĺ": 7001,
      "Ġ8000": 7002,
      "à´īà´¨": 7003,
      "Ġà´¶à´®à´¨à´®": 7004,
      "Ġà´§à´¨à´ŀ": 7005,
      "act": 7006,
      "Ġfrom": 7007,
      "à´ľà´¨à´ķà´µ": 7008,
      "ĠàµįâĢĮ": 7009,
      "à´¤à´Łà´¯": 7010,
      "à´ªà´´à´¯": 7011,
      "àµ¼à´¡à´¨": 7012,
      "à´ŀà´ķà´³": 7013,
      "à´¹à´¸à´®": 7014,
      "Ġà´ªà´±à´µà´ķà´³": 7015,
      "à´«à´¡": 7016,
      "Ġà´ľà´¨à´¶": 7017,
      "à´ħà´ľ": 7018,
      "à´µà´²à´°": 7019,
      "Ġà´¤à´Łà´¯à´ª": 7020,
      "Ġà´«à´²à´Ń": 7021,
      "ĠXZ": 7022,
      ".-": 7023,
      "CS": 7024,
      "à´µà´ķà´¨": 7025,
      "Ġà´ķà´¦": 7026,
      "Ġà´¸à´«à´°": 7027,
      "Ġà´®à´²à´Ļ": 7028,
      "à´¦àµ½": 7029,
      "Ġà´Ńà´°à´¤à´¨": 7030,
      "à´§à´¨à´°": 7031,
      "àµ¼à´£à´¨": 7032,
      "à´ķà´¸à´¹": 7033,
      "ourt": 7034,
      "Ġà´¤à´±à´ªà´±": 7035,
      "à´²à´£à´®": 7036,
      "à´Ńà´¯à´¤": 7037,
      "Ġà´¦à´¹à´¨à´¤": 7038,
      "à´¯à´ķà´£": 7039,
      "Ġ299": 7040,
      "Ġà´Ĩà´ķà´®": 7041,
      "à´¯à´®à´¨à´µ": 7042,
      "à´ĩàµ»à´¸": 7043,
      "ina": 7044,
      "Ġà´¸à´ķà´²à´®": 7045,
      "Ġnot": 7046,
      "Ġ1953": 7047,
      "Ġ1931": 7048,
      "Ġà´īàµ¾à´¨": 7049,
      "Constellation": 7050,
      "ĠSoC": 7051,
      "àµģàµį?": 7052,
      "à´¤à´¤à´¨": 7053,
      "à´¯à´ļà´¨": 7054,
      "àµĨ),": 7055,
      "Ġà´ħàµº": 7056,
      "à´¶à´¹à´¤": 7057,
      "à´Ļà´³à´Ļ": 7058,
      "à´¸à´°à´¶": 7059,
      "à´ħà´«": 7060,
      "à´Łà´±àµ½": 7061,
      "à´±àµ¼à´ľ": 7062,
      "à´µà´±à´¸": 7063,
      "Ġ167": 7064,
      "Ġ173": 7065,
      "Ġà´¸à´ķà´²à´®à´¨": 7066,
      "à´¦àµ¼à´¶à´¨à´Ļ": 7067,
      "Ġà´ľà´²à´Ĺà´¤": 7068,
      "Ġà´İà´¯àµ¼à´ķ": 7069,
      "Ġà´İàµ½à´ľ": 7070,
      "Ġ326": 7071,
      "Ġ3500": 7072,
      "ict": 7073,
      "odi": 7074,
      "Ġà´İà´®àµ¼à´ľàµ»à´¸": 7075,
      "ru": 7076,
      "à´£à´¯à´µ": 7077,
      "à´¦à´¯à´ª": 7078,
      "Ġà´Ĩàµ½à´ķ": 7079,
      "à´Ĺàµ¼à´ª": 7080,
      "à´İà´¬": 7081,
      "Ġ156": 7082,
      "Ġ183": 7083,
      "Ġ06": 7084,
      "ĠPark": 7085,
      "Ġà´±à´«à´±": 7086,
      "Ġà´¹àµ¼à´Ńà´ľàµ»": 7087,
      "mAh": 7088,
      "right": 7089,
      "Ġun": 7090,
      "à´¯à´·": 7091,
      "Ġà´īà´·à´¯": 7092,
      "à´¬à´Ł": 7093,
      "à´¯à´®àµ¼à´¹": 7094,
      "Ġà´¹àµ»à´¸": 7095,
      "Ġà´§à´¨à´®": 7096,
      "Ġà´ªà´¤à´ª": 7097,
      "à´īà´²": 7098,
      "Ġ295": 7099,
      "ĠTag": 7100,
      "ĠXT": 7101,
      "led": 7102,
      "ĠFZ": 7103,
      "Ġà´Ĵà´°à´µà´¸à´°": 7104,
      "IV": 7105,
      "US": 7106,
      "eal": 7107,
      "à´Łàµ»à´¸": 7108,
      "à´²à´ķà´£": 7109,
      "à´³à´¯à´Ļ": 7110,
      "Ġà´¸à´°à´£": 7111,
      "à´·à´ļ": 7112,
      "à´°à´®à´°à´¹": 7113,
      "Ġà´±à´¸à´²": 7114,
      "à´¯à´ķà´¤à´ķàµ¾": 7115,
      "à´Ĺà´¤à´¸": 7116,
      "à´ªà´°à´°": 7117,
      "à´¢à´¤à´¯": 7118,
      "Ġ249": 7119,
      "esh": 7120,
      "Ġà´ħàµ¼à´¹à´¤": 7121,
      "alaxy": 7122,
      "der": 7123,
      "ram": 7124,
      "Ġit": 7125,
      "à´¿àµģ": 7126,
      "à´Łà´ªà´¤": 7127,
      "Ġà´İà´Łà´¤": 7128,
      "Ġà´İàµºà´ªà´¤": 7129,
      "à´ķà´°àµ¼à´ķ": 7130,
      "Ġà´ĵà´ļ": 7131,
      "à´°à´³à´¯à´®": 7132,
      "orn": 7133,
      "à´ªàµ¼à´¹": 7134,
      "ĠSh": 7135,
      "à´İàµ»à´İàµ½": 7136,
      "àµ¼à´ĺà´µ": 7137,
      "ett": 7138,
      "ĠâĻ«": 7139,
      "Ġà´ĵàµ¾à´±": 7140,
      "BI": 7141,
      "à´Łà´Ĺ": 7142,
      "à´Ĥ\"\".\"": 7143,
      "à´µà´²à´¯": 7144,
      "à´ļà´¶à´ķ": 7145,
      "à´¸àµ¼à´ľ": 7146,
      "Ġà´®à´°à´®": 7147,
      "àµ¼à´µàµ¼": 7148,
      "à´¥à´¯à´²": 7149,
      "Ġà´Łà´ķ": 7150,
      "Ġà´ĵà´ľ": 7151,
      "à´µà´¸à´°à´®": 7152,
      "à´ķà´±à´Ļ": 7153,
      "à´µàµ¼à´·à´Ļ": 7154,
      "à´¯àµ¼à´¸": 7155,
      "âĢĿ-": 7156,
      "à´¯à´£àµ½": 7157,
      "à´¢à´¤": 7158,
      "Ġ212": 7159,
      "Ġ290": 7160,
      "ited": 7161,
      "àµ¼à´µà´¹à´£": 7162,
      "ĠFl": 7163,
      "oll": 7164,
      "à´µà´µà´ļà´¨à´®": 7165,
      "NG": 7166,
      "tr": 7167,
      "àµģ\"\"\"": 7168,
      "à´°àµ¼à´ķ": 7169,
      "à´²à´¨à´ķ": 7170,
      "Ġà´µà´Ļ": 7171,
      "Ġà´ªà´±à´ª": 7172,
      "à´ĸà´°à´µ": 7173,
      "à´«àµ¼à´Ł": 7174,
      "Ġà´īà´ªà´µà´¸": 7175,
      "àµģ,âĢĻ": 7176,
      "à´Ĩà´®": 7177,
      "Ġ171": 7178,
      "ĠâĢį.": 7179,
      "Ġà´µà´¯à´²à´±": 7180,
      "Ġà´Ĩà´ķàµ¼à´·à´£à´Ļ": 7181,
      "af": 7182,
      "à´¨à´ķà´¨": 7183,
      "à´§à´µà´®": 7184,
      "à´ŀà´µà´¯": 7185,
      "Ġà´Łàµ¼à´ķ": 7186,
      "àµĭ?\"\"\"": 7187,
      "à´·à´®à´Ļ": 7188,
      "à´Łà´®à´¨": 7189,
      "à´Ĺà´®à´µ": 7190,
      "Ġà´®à´¹à´°": 7191,
      "Ġà´ļà´°à´²": 7192,
      "Ġà´Ľà´£": 7193,
      "à´īà´®": 7194,
      "à´ķà´¸à´¨à´ª": 7195,
      "ĠRR": 7196,
      "Ġà´¸à´ķà´²à´¦": 7197,
      "à´³à´µà´¨à´²": 7198,
      "à´°à´¬à´²à´¨": 7199,
      "Ġex": 7200,
      "Ġà´µà´¯àµ¼à´²": 7201,
      "Ġà´ħàµ¾": 7202,
      "Ġà´®à´£à´®": 7203,
      "àµĢâĢį": 7204,
      "Ġà´ļàµ¼à´®à´¤": 7205,
      "à´Ĺà´ªà´Ł": 7206,
      "Ġà´¦à´°àµ»": 7207,
      "à´Ĥ.\"\"\"": 7208,
      "Ġà´µà´°à´ķà´³": 7209,
      "à´·à´£à´ªà´¦": 7210,
      "àµģà´Ĥ,,,": 7211,
      "à´ħà´µà´ķ": 7212,
      "Ġ187": 7213,
      "à´Ĩàµ¼à´Ĳ": 7214,
      "ism": 7215,
      "à´¿âĢĭâĢĭâĢĭâĢĭàµĨ": 7216,
      "igh": 7217,
      "à´ļà´µà´Łà´µ": 7218,
      "own": 7219,
      "ER": 7220,
      "Ġà´ªà´Łà´¤": 7221,
      "Ġà´¨à´¯à´°": 7222,
      "Ġà´Ĩà´µà´²": 7223,
      "à´¯à´ķà´¥": 7224,
      "Ġà´¹à´°à´®": 7225,
      "Ġà´«à´µ": 7226,
      "Ġà´ĵàµ¾à´¡": 7227,
      "à´®à´¤à´²à´ķ": 7228,
      "Ġà´ªà´£à´ļ": 7229,
      "Ġà´Ĩà´µà´Ł": 7230,
      "ani": 7231,
      "ĠCup": 7232,
      "à´°à´·à´±àµ¼": 7233,
      "Ġ1944": 7234,
      "à´°à´¦àµ¼à´¶à´¨à´Ļ": 7235,
      "ĠUR": 7236,
      "Î±": 7237,
      "à´¤à´³à´ª": 7238,
      "à´±àµ»à´±": 7239,
      "Ġà´¤àµ¼à´ľ": 7240,
      "à´ķà´³à´®": 7241,
      "à´ĸà´ļ": 7242,
      "à´°à´¯à´Ł": 7243,
      "à´łà´¨à´¤": 7244,
      "à´¤àµ½à´®à´£": 7245,
      "Ġà´ªà´²à´ļà´°à´ķ": 7246,
      "à´¸à´¨à´²": 7247,
      "Ġà´®à´£à´ķ": 7248,
      "à´ķà´Łàµ¼": 7249,
      "Ġ186": 7250,
      "ana": 7251,
      "Ġà´Ĩàµ»à´¡à´®": 7252,
      "ĠIND": 7253,
      "DM": 7254,
      "ka": 7255,
      "âĪĴ": 7256,
      "à´¤à´µà´¸": 7257,
      "à´Łà´µàµ»": 7258,
      "à´¹à´Ń": 7259,
      "à´ĸà´¡": 7260,
      "Ġà´ŀà´£": 7261,
      "Ġà´µà´°à´µà´°": 7262,
      "à´¤à´¨à´°": 7263,
      "à´²à´µà´§": 7264,
      "ĠâĢĿ.": 7265,
      "Ġ205": 7266,
      "à´ĩà´¹à´²": 7267,
      "Ġ192": 7268,
      "ĠApp": 7269,
      "Ġà´¨à´°à´ķà´®à´¤": 7270,
      "Ġ1935": 7271,
      "htt": 7272,
      "ĠALSO": 7273,
      ",\"\"": 7274,
      "con": 7275,
      "Ġà®": 7276,
      "àµģ\"\".\"": 7277,
      "à´ķà´ķà´¯": 7278,
      "à´ķà´µà´¤": 7279,
      "à´¯à´¡": 7280,
      "à´±à´¤à´²à´®": 7281,
      "Ġà´µà´°à´ķ": 7282,
      "Ġà´ĩà´°à´µ": 7283,
      "à´Ĺà´¤à´°": 7284,
      "Ġà´ªà´±à´¶": 7285,
      "Ġà´ĵà´µà´²": 7286,
      "àµįâĢį.\"\"\"": 7287,
      "à´§à´¨à´¸": 7288,
      "à´Ĩà´Ł": 7289,
      "à´ķàµ»à´®": 7290,
      "ork": 7291,
      "ĠAm": 7292,
      "ĠIV": 7293,
      "Ġ07": 7294,
      "à´²à´µà´¸à´°": 7295,
      "ters": 7296,
      "ubl": 7297,
      "ci": 7298,
      "uar": 7299,
      "à¹": 7300,
      "à´²à´³": 7301,
      "à´§à´ªà´°": 7302,
      "àµįâĢĮâĢĭ": 7303,
      "Ġà´¶à´£": 7304,
      "à´İà´İà´¸": 7305,
      "à´¨à´®àµ¼à´¦": 7306,
      "àµºà´·": 7307,
      "Ġà´Ĩà´ķàµ¼à´·à´ķ": 7308,
      "Ġà´ľà´¨à´°": 7309,
      "à´ªà´£à´ķ": 7310,
      "Ġà´¤à´°à´ª": 7311,
      "Ġà´Ĩà´Ńà´°à´£": 7312,
      "Ġ257": 7313,
      "atest": 7314,
      "àµ¼à´¬à´£": 7315,
      "lect": 7316,
      "pd": 7317,
      "per": 7318,
      "ple": 7319,
      "yn": 7320,
      "àµ»à´¯": 7321,
      "Ġà´Ĺà´Ĺà´¨": 7322,
      "à´°à´£à´ķàµ¾": 7323,
      "Ġà´ĵà´¨": 7324,
      "à´Ńà´µà´ªà´°": 7325,
      "Ġà´§àµ¼à´£": 7326,
      "à´ľà´¯à´¦": 7327,
      "à´¤à´ªà´°à´®": 7328,
      "à´¤à´ķàµ¼à´ļ": 7329,
      "à´Ĵà´İà´¸": 7330,
      "à´ķà´¥à´ķàµ¾": 7331,
      "àµį''.": 7332,
      "à´¤à´Łà´¸": 7333,
      "ĠGo": 7334,
      "Ġà´®àµ¼à´¦à´¨à´¤": 7335,
      "Ġà´¹à´¯àµ¼à´¸": 7336,
      "aceae": 7337,
      "à´¤à´ķà´²": 7338,
      "à´°à´¬à´²": 7339,
      "à´ļàµ½à´ª": 7340,
      "Ġà´¬àµ½à´±": 7341,
      "à´°à´®à´¶": 7342,
      "à´µà´¸à´°à´Ļ": 7343,
      "à´ĺà´Łà´ķ": 7344,
      "Ġà´§à´®à´¨": 7345,
      "Ġ'.": 7346,
      "à´ľà´¯à´¶à´¤à´®": 7347,
      "à´ªà´£àµ¼à´®": 7348,
      "àµ½à´¨à´Ł": 7349,
      "Ġà´ĩà´¸à´¬": 7350,
      "acc": 7351,
      "Ġà´Ĩà´ķàµ¼à´·à´ķà´µ": 7352,
      "àµ¼à´¥à´¨à´ķàµ¾à´ķ": 7353,
      "ology": 7354,
      "sung": 7355,
      "Ġ]": 7356,
      "àµį&": 7357,
      "à´µàµ¼à´¨": 7358,
      "à´µà´²à´¨": 7359,
      "à´ªàµ¼à´¨": 7360,
      "àµĩâĢį": 7361,
      "Ġà´Ĩà´µà´£": 7362,
      "à´Ńà´§": 7363,
      "à´¡à´¤à´¯": 7364,
      "Ġà´¶àµ¼à´ķ": 7365,
      "à´°à´ķà´ª": 7366,
      "Ġà´ħà´µà´¨à´µà´°": 7367,
      "à´²à´µà´®": 7368,
      "à´łà´¶": 7369,
      "àµĭ.\"\"\"": 7370,
      "Ġà´īà´¨à´¦": 7371,
      "àµ¼à´¥à´¨à´ķà´³": 7372,
      "àµ¼à´£à´¤à´ķàµ¾": 7373,
      "ward": 7374,
      "à´ķName": 7375,
      "à´£à´ķàµ¾": 7376,
      "à´§à´¸à´®à´¯à´¤": 7377,
      "Ġà´ľàµ»": 7378,
      "Ġà´Łà´Ļ": 7379,
      "à´°à´µàµ¼à´Ĺ": 7380,
      "Ġà´ħà´®à´¨": 7381,
      "Ġà´ħà´¯àµº": 7382,
      "àµģ,'": 7383,
      "Ġà´ħàµ½à´Ĺ": 7384,
      "ĠOF": 7385,
      "2005": 7386,
      "oto": 7387,
      "àµģâĢĻ-": 7388,
      "AC": 7389,
      "àµģà´¾": 7390,
      "à´ķà´µà´ķ": 7391,
      "à´²àµ»à´±": 7392,
      "à´£à´«à´²à´Ļ": 7393,
      "àµ½à´°": 7394,
      "Ġà´Ĵà´°à´¤": 7395,
      "Ġà´²à´µà´£": 7396,
      "Ġà´Ĺà´ŀ": 7397,
      "à´¯à´ķàµ¼": 7398,
      "à´ķà´²à´¤": 7399,
      "à´ļà´¨à´Łà´¤": 7400,
      "Ġà´ķà´²à´¶": 7401,
      "Ġ1918": 7402,
      "Ġ9000": 7403,
      "2012": 7404,
      "à´¯à´£à´²": 7405,
      "à´¸à´²à´±": 7406,
      "int": 7407,
      "Ġà´ķàµºà´¸àµ¼à´µ": 7408,
      "ĠSamsung": 7409,
      "àµ»à´¤à´¨": 7410,
      "à´¥à´®à´²": 7411,
      "à´°à´¤à´ķà´³": 7412,
      "à´ħà´¹à´®": 7413,
      "Ġà´ħà´¸àµ¼à´¬": 7414,
      "à´Ĩàµ¼à´ķ": 7415,
      "à´°à´ļà´¨à´¯": 7416,
      "Ġà´ªà´´à´¯à´ªà´Ł": 7417,
      "ĠMr": 7418,
      "à´Ńà´ķàµ¼à´ķ": 7419,
      "ional": 7420,
      "àµģâĢĭàµĩ": 7421,
      "à´¡à´¯à´±à´ķ": 7422,
      "ET": 7423,
      "MI": 7424,
      "Ñģ": 7425,
      "à´¯à´ľà´¨": 7426,
      "à´Łà´ªà´±à´ŀ": 7427,
      "à´®à´±à´ķ": 7428,
      "à´ļàµ½à´¸": 7429,
      "Ġà´ķàµ¼à´«": 7430,
      "àµģà´ĤâĢľ": 7431,
      "àµĤà´Ĥ.": 7432,
      "à´«à´¤": 7433,
      "à´°à´µàµ¼": 7434,
      "Ġà´·à´Ļ": 7435,
      "à´²à´µà´ķà´°à´®": 7436,
      "à´łà´¤à´¯": 7437,
      "à´ľà´¯à´¶": 7438,
      "à´¦à´°à´°": 7439,
      "à´ķàµ½à´¸": 7440,
      "Ġ179": 7441,
      "Ġà´¸à´ķà´²à´¸": 7442,
      "Ġà´²à´¯à´¨à´¤": 7443,
      "àµģâĢĻ,": 7444,
      "ea": 7445,
      "ral": 7446,
      "uery": 7447,
      "Ġà´µà´°à´®": 7448,
      "àµ¼à´¸à´¯": 7449,
      "àµ½à´¶": 7450,
      "à´ķà´³à´¨": 7451,
      "Ġà´īà´²à´¯": 7452,
      "Ġà´¦à´¬": 7453,
      "à´ĸà´®à´¨": 7454,
      "Ġà´Łà´£à´²": 7455,
      "à´µà´¯à´²à´±": 7456,
      "2015": 7457,
      "Ġà´®à´²à´ŀ": 7458,
      "Ġ403": 7459,
      "Ġ09": 7460,
      "Ġà´ĩà´³à´¯à´®": 7461,
      "ound": 7462,
      "ransl": 7463,
      "))": 7464,
      ",'": 7465,
      "ket": 7466,
      "ÙĪ": 7467,
      "Ġà´®àµºà´¸": 7468,
      "à´ŀà´¨à´¨": 7469,
      "àµ»à´ĸ": 7470,
      "Ġà´Łà´¸": 7471,
      "Ġà´µà´°àµ»": 7472,
      "Ġà´µà´²à´ļ": 7473,
      "à´Łà´ªà´´à´ķ": 7474,
      "Ġ\"\"\"-": 7475,
      "Ġà´Ķà´ļ": 7476,
      "à´°à´Ńà´°": 7477,
      "Ġ1600": 7478,
      "àµ¼à´Ĺàµ»": 7479,
      "ĠRC": 7480,
      "enc": 7481,
      "à´°à´¬àµ¼à´¤": 7482,
      "Ġà´Ĭàµ¼à´ľà´µ": 7483,
      "Ġch": 7484,
      "Ġà´Ńà´¯à´ļà´ķ": 7485,
      "ote": 7486,
      "à´µà´ľà´¨à´ªà´ķ": 7487,
      "Ġà´ħà´°à´®à´¨à´¯": 7488,
      "1000": 7489,
      "à´®à´®à´²": 7490,
      "àµ½à´ĸà´±": 7491,
      "Ġà´Ĩàµ¼à´ª": 7492,
      "à´Ĺà´°à´ķ": 7493,
      "Ġà´¶à´°à´µ": 7494,
      "Ġà´ħà´µà´Ĺà´£à´¨": 7495,
      "Ġà´ĵà´Ļ": 7496,
      "Ġà´ħà´µà´¨à´µ": 7497,
      "à´ªà´Łà´²": 7498,
      "Ġà´µà´³à´ªà´Ł": 7499,
      "Ġà´Ĩàµ¼à´¸": 7500,
      "ĠAd": 7501,
      "ĠMI": 7502,
      "Ġ05": 7503,
      "ĠPh": 7504,
      "ĠGalaxy": 7505,
      "Ġmi": 7506,
      "Ġ425": 7507,
      "Sh": 7508,
      "du": 7509,
      "à§": 7510,
      "ĠØ§": 7511,
      "à´¯à´¹à´¸": 7512,
      "à´Łà´ªà´±à´¯": 7513,
      "à´µà´ķà´®": 7514,
      "à´ªà´²à´Ļ": 7515,
      "à´³àµ¼à´¨": 7516,
      "à´ļà´¯à´¯": 7517,
      "àµ¼à´ĺà´Ł": 7518,
      "à´¹à´ļà´Łà´Ļ": 7519,
      "àµĬâĢĭ": 7520,
      "Ġà´±à´¬à´°": 7521,
      "Ġà´ĵà´¶": 7522,
      "Ġà´ħà´±à´ª": 7523,
      "Ġà´Ĩà´¶à´¯à´±": 7524,
      "Ġà´Ĩà´¶à´¯à´ªà´°à´®": 7525,
      "à´ħà´Ĺ": 7526,
      "à´¯à´¸à´¤": 7527,
      "Ġà´ķà´³à´¯à´°": 7528,
      "Ġ845": 7529,
      "Ġà´ªà´¨à´ļ": 7530,
      "Ġà´®à´²à´ķà´¯à´±": 7531,
      "ond": 7532,
      "Ġà´¤à´Łà´¯àµ½": 7533,
      "Ġ02": 7534,
      "Ġà´±à´«à´±àµ»à´¸": 7535,
      "Ġà´¤à´µà´£à´¤": 7536,
      "Ġ1937": 7537,
      "Ġà´ľà´Ĺàµ»": 7538,
      "àµ»à´Ĺà´£à´¨à´ķàµ¾": 7539,
      ".,": 7540,
      "to": 7541,
      "à´²à´·à´£": 7542,
      "à´³à´Ń": 7543,
      "àµĩ)": 7544,
      "Ġà´ļà´¤à´ķ": 7545,
      "Ġà´°àµ»": 7546,
      "Ġà´¶à´ł": 7547,
      "à´¤à´®à´¤": 7548,
      "à´¤à´¨à´¨": 7549,
      "à´ķà´²à´Ļ": 7550,
      "àµįâĢĭ?": 7551,
      "à´¾à´Ĥ.\"\"\"": 7552,
      "Ġà´īà´¦à´¯à´¨": 7553,
      "à´ķà´µàµ¼à´ķ": 7554,
      "à´®à´¦à´²": 7555,
      "à´¨à´ªà´°à´µ": 7556,
      "Ġ235": 7557,
      "Ġà´µàµ»à´µ": 7558,
      "ĠBank": 7559,
      "ĠFilm": 7560,
      "Ġà´ļà´²à´¨à´¤": 7561,
      "128": 7562,
      "old": 7563,
      "ign": 7564,
      "able": 7565,
      "àµģ',": 7566,
      "ORS": 7567,
      "ES": 7568,
      "az": 7569,
      "aun": 7570,
      "à´²à´¤à´¨": 7571,
      "Ġà´¨à´µà´¨": 7572,
      "Ġà´¨à´ĸà´Ļ": 7573,
      "à´·à´µà´¸": 7574,
      "Ġà´¤àµ½à´¸": 7575,
      "Ġà´¦àµ¼à´¬": 7576,
      "Ġà´ĵà´ªà´£": 7577,
      "Ġà´®à´±à´ª": 7578,
      "Ġà´µà´¨à´Ń": 7579,
      "Ġ255": 7580,
      "àµĩ.\"\"": 7581,
      "à´Ĵà´®": 7582,
      "àµĨ?\"": 7583,
      "à´°à´£à´¯à´¬à´¨": 7584,
      "ĠCovid": 7585,
      "à´¤à´Łà´ļ": 7586,
      "âĢĭâĢĭâĢĭàµĨ": 7587,
      "ovie": 7588,
      "115": 7589,
      "ĠàµĪ": 7590,
      "à´¨à´ľà´²": 7591,
      "à´ªà´¥à´Ļ": 7592,
      "à´ļà´§": 7593,
      "Ġà´ĩà´Łà´°": 7594,
      "à´§à´°à´£": 7595,
      "à´°à´§à´¨à´®à´¨": 7596,
      "à´µà´¶à´¨": 7597,
      "Ġà´®à´¤à´Ń": 7598,
      "à´Łà´¯à´Ł": 7599,
      "Ġà´ªà´łà´¨à´±": 7600,
      "Ġà´¨à´°à´ļ": 7601,
      "Ġà´°à´ľà´ªà´ķ": 7602,
      "àµ¾à´¡àµ¼": 7603,
      "Ġà´īà´°à´Ĺà´Ļ": 7604,
      "ĠCR": 7605,
      "ĠiOS": 7606,
      "à´°à´¥à´®à´¦": 7607,
      "Ġà´ħàµ¼à´¬àµ»": 7608,
      "Ġà´Ĩàµ½à´¬à´Ļ": 7609,
      "ĠRedmi": 7610,
      "âĻª": 7611,
      "FI": 7612,
      "form": 7613,
      "Ð»": 7614,
      "à´¸à´°à´£à´¤": 7615,
      "à´¦à´®à´¤": 7616,
      "àµ½à´ªà´¤": 7617,
      "Ġà´ľà´«": 7618,
      "à´°à´¸à´ķà´³": 7619,
      "à´ķà´²à´ķ": 7620,
      "à´¹à´¤à´ķà´³": 7621,
      "à´£à´¤à´«à´²à´Ļ": 7622,
      "àµ¼à´®àµ»": 7623,
      "àµ»à´¸à´²à´±": 7624,
      "à´Ĵà´³": 7625,
      "Ġà´¸à´ķà´²àµ¼à´ķ": 7626,
      "àµ¼à´¬à´²à´ª": 7627,
      "Ġdaily": 7628,
      "ĠZX": 7629,
      "Ġà´®à´¡à´Ĺ": 7630,
      "ĠTRAN": 7631,
      "oo": 7632,
      "à´µà´¯à´¨": 7633,
      "à´µà´Ńà´¯": 7634,
      "à´Ļà´®": 7635,
      "Ġà´ķà´ħ": 7636,
      "Ġà´ļà´ŀ": 7637,
      "à´Ńà´°à´£à´µ": 7638,
      "à´¥à´ķà´®": 7639,
      "Ġà´¶à´µà´®": 7640,
      "Ġà´Ĵà´°à´³à´µ": 7641,
      "à´ħà´£": 7642,
      "Ġà´µà´ķà´µà´°": 7643,
      "Ġà´¤à´³àµ¼à´ļ": 7644,
      "à´ķàµ¼à´¬àµ¼à´Ĺ": 7645,
      "ald": 7646,
      "à´¿âĢĭàµĩ": 7647,
      "ĠmAh": 7648,
      "reat": 7649,
      "àµĨàµģà´Ĥ": 7650,
      "àµ»à´²àµ»à´¡": 7651,
      "àµ»à´¬àµ¼à´Ĺ": 7652,
      "àµį,âĢĭ": 7653,
      "à´¤à´°à´¹": 7654,
      "à´±à´µà´²": 7655,
      "à´Ĺà´®à´¸": 7656,
      "à´¯à´±à´¨": 7657,
      "à´±àµ½à´¸": 7658,
      "Ġ307": 7659,
      "arn": 7660,
      "Ġ275": 7661,
      "Ġà´ķà´Łà´®à´ķà´³": 7662,
      "Ġà´Ĩàµ¼à´¤àµ¼": 7663,
      "SLAT": 7664,
      "ĠUSA": 7665,
      "ĠTRANSLAT": 7666,
      "ĠTRANSLATORS": 7667,
      "Ġà´¨à´°à´¨": 7668,
      "Ġà´İà´µà´±à´¸": 7669,
      "à´¨à´¤à´²à´¤": 7670,
      "à´Ńà´ļ": 7671,
      "Ġà´Ĵà´°à´Ń": 7672,
      "Ġà´Ńà´²": 7673,
      "à´°à´ķà´£": 7674,
      "à´İà´°": 7675,
      "àµ¼à´¤à´¨": 7676,
      "Ġà´¸à´¹à´¦": 7677,
      "Ġà´Ĳà´µ": 7678,
      "à´§à´µà´ķà´³": 7679,
      "ĠâĢį,": 7680,
      "ures": 7681,
      "ake": 7682,
      "650": 7683,
      "DA": 7684,
      "ya": 7685,
      "àµģà´ĤâĢĿ.": 7686,
      "à´¶à´µà´¨": 7687,
      "Ġà´ļà´¤à´µ": 7688,
      "Ġà´ľà´¯à´Ļ": 7689,
      "à´¯à´®à´¬": 7690,
      "à´ĺà´ķà´°": 7691,
      "Ġà´ħà´ªà´¹": 7692,
      "à´ħà´µàµ¼à´ķ": 7693,
      "à´ŀà´¤à´µà´£": 7694,
      "Ġ251": 7695,
      "Ġbl": 7696,
      "à´¦à´ªà´°à´µ": 7697,
      "ull": 7698,
      "aking": 7699,
      "3910": 7700,
      "ife": 7701,
      "à´ķà´°à´¤à´ķ": 7702,
      "Ġà´ħàµ¼à´®à´Ĺ": 7703,
      "ĠApple": 7704,
      "CC": 7705,
      "ox": 7706,
      "por": 7707,
      "ual": 7708,
      "àµįâĪĻ": 7709,
      "à´Łà´ľ": 7710,
      "à´ªà´³à´ķ": 7711,
      "à´£à´ķà´°": 7712,
      "à´·à´¸à´¨": 7713,
      "à´ŀà´ļ": 7714,
      "à´¡à´±à´°": 7715,
      "Ġà´Īà´¡": 7716,
      "à´²à´¯àµ»": 7717,
      "à´Łà´°à´Ł": 7718,
      "Ġà´ľà´¨àµ½": 7719,
      "à´ªà´ķàµ½": 7720,
      "Ġà´ķà´³à´¯à´£": 7721,
      "à´°à´³à´¯à´µ": 7722,
      "à´¤à´°à´®à´°": 7723,
      "ĠSX": 7724,
      "Ġà´ĩà´³à´¯à´°": 7725,
      "à´¨à´Ĺà´°à´Ļ": 7726,
      "Ar": 7727,
      "SR": 7728,
      "ption": 7729,
      "ton": 7730,
      "ÙĬ": 7731,
      "à´®à´£à´°": 7732,
      "à´ªà´¸à´«": 7733,
      "Ġà´ķà´¹": 7734,
      "Ġà´Ĵà´£": 7735,
      "Ġà´Ĵà´·": 7736,
      "Ġà´Ĺà´ª": 7737,
      "àµį,\"\"": 7738,
      "à´¯à´°à´¹": 7739,
      "à´Ĥ,,,": 7740,
      "à´ļà´¯à´²": 7741,
      "Ġà´ĩà´°à´ª": 7742,
      "Ġà´ĸà´®": 7743,
      "Ġ1080": 7744,
      "Ġà´®à´²àµ¼à´¨": 7745,
      "orama": 7746,
      "à´īà´¸": 7747,
      "ĠAir": 7748,
      "àµĩâĢ¦?": 7749,
      "AL": 7750,
      "à¨": 7751,
      "à´¸à´¨à´Ļ": 7752,
      "Ġà´ĩà´ľ": 7753,
      "à´¶à´ªà´¤": 7754,
      "à´¹à´°à´Ļ": 7755,
      "Ġà´Ĵà´¦": 7756,
      "Ġà´ĩà´¤à´µà´°": 7757,
      "à´İà´İà´¯": 7758,
      "à´·à´£àµ¼à´ķ": 7759,
      "à´Łà´ķà´ª": 7760,
      "à´ªà´°à´¬à´¨": 7761,
      "Ġà´Ĳà´¨": 7762,
      "Ġà´ħà´¸à´¸": 7763,
      "à´ĩà´±à´ķ": 7764,
      "à´Ĩà´²à´ª": 7765,
      "Ġà´ªà´´à´¤": 7766,
      "ins": 7767,
      "Ġà´ħà´ľà´¯à´ķ": 7768,
      "à´ªà´±à´¯à´£à´®": 7769,
      "à´·à´ķà´¨à´¦": 7770,
      "Ġsh": 7771,
      "Ġà´ķàµ¾à´ļ": 7772,
      "à´¹à´¦à´¯à´¯": 7773,
      "ports": 7774,
      "à´°à´ĺ": 7775,
      "à´¯à´«": 7776,
      "à´ªà´²à´°": 7777,
      "à´ªà´´à´µ": 7778,
      "à´ľà´¡": 7779,
      "Ġà´ħà´µà´°à´µà´¨": 7780,
      "à´°à´ķà´£à´ķ": 7781,
      "à´ªà´¤à´±": 7782,
      "àµĨà´¾âĢĭ": 7783,
      "Ġà´ªà´¤à´¨à´¤": 7784,
      "Ġ218": 7785,
      "ĠMost": 7786,
      "à´°à´ķà´Łà´¨à´ķ": 7787,
      "ĠIsl": 7788,
      "Ġ324": 7789,
      "Ġdo": 7790,
      "help": 7791,
      "ĠCOVID": 7792,
      "TC": 7793,
      "Ġab": 7794,
      "à´¨à´ķà´²": 7795,
      "à´ľà´¨à´¤à´¯": 7796,
      "à´¬à´²à´µ": 7797,
      "à´°à´¸à´¤": 7798,
      "Ġà´µà´°à´¦": 7799,
      "à´¤à´°à´«à´²": 7800,
      "Ġà´ħà´²à´µà´¨": 7801,
      "Ġà´ħà´®àµ½": 7802,
      "à´ķà´¤à´ķ": 7803,
      "à´ªà´¨à´¶": 7804,
      "Ġ207": 7805,
      "Ġà´ªà´¤à´ķ": 7806,
      "àµ¼à´µà´µ": 7807,
      "Ġà´ĺà´¨à´®": 7808,
      "Ġà´İàµ»à´ª": 7809,
      "Ġ211": 7810,
      "Ġ233910": 7811,
      "à´°àµ½à´ļ": 7812,
      "ings": 7813,
      "Ġà´ķàµ¼à´·à´ķàµ»": 7814,
      "2004": 7815,
      "aper": 7816,
      "350": 7817,
      "ML": 7818,
      "pr": 7819,
      "à´¤à´Łà´¤": 7820,
      "à´µà´¹à´¨": 7821,
      "Ġà´ªà´Łà´ª": 7822,
      "à´Ļà´´": 7823,
      "Ġà´¸à´«à´±": 7824,
      "Ġà´®à´¤à´®à´²": 7825,
      "Ġà´ĩàµ½": 7826,
      "Ġà´īà´Ńà´¯": 7827,
      "à´µà´¨à´Łà´¨": 7828,
      "Ġà´¸à´®à´¯à´¨": 7829,
      "Ġ(/": 7830,
      "001": 7831,
      "à´ªà´Łà´µ": 7832,
      "à´ªà´Łàµ¼à´¨": 7833,
      "à´ħà´´": 7834,
      "àµį?\"\"\"": 7835,
      "à´¨à´µàµ¾": 7836,
      "à´Ĺà´®à´¨à´®": 7837,
      "à´°à´³à´ķ": 7838,
      "àµ¼à´¶à´¯": 7839,
      "àµį--": 7840,
      "Ġà´Ĩà´´à´Ļ": 7841,
      "ĠNew": 7842,
      "Ġà´Ńà´µà´¨à´®": 7843,
      "Ġfl": 7844,
      "Ġà´ħà´ķà´®à´´": 7845,
      "à´°à´¹à´¸à´¨à´®": 7846,
      "fl": 7847,
      "ll": 7848,
      "Î¿": 7849,
      "à´£à´¤à´°": 7850,
      "Ġà´¨à´ķàµ¾": 7851,
      "Ġà´ļà´µà´ļ": 7852,
      "à´ķà´°à´Ļ": 7853,
      "Ġà´¸à´®à´°à´¸": 7854,
      "àµºà´¡": 7855,
      "à´µà´¯à´Łà´ķ": 7856,
      "à´ªà´ķà´µ": 7857,
      "à´ľà´¨à´±à´²": 7858,
      "Ġà´ªà´Łàµ¼à´¤": 7859,
      "Ġ1917": 7860,
      "âĢįàµįâĢį": 7861,
      "à´Ĥ?\"": 7862,
      "à´²à´±à´ķà´³": 7863,
      "à´®àµ¼à´¶à´ķàµ¼": 7864,
      "Ġ223": 7865,
      "ĠNP": 7866,
      "Ġà´¤à´¦à´µà´¸à´°à´¤": 7867,
      "Ġà´ĵàµ¼à´®à´ķàµ¾": 7868,
      "Ġà´ħàµ¼à´§à´°": 7869,
      "ild": 7870,
      "à´¶à´ķà´²à´¨à´¤": 7871,
      "à¸²": 7872,
      "Ġaction": 7873,
      "short": 7874,
      "Ġà´ħàµ¼à´£à´¬": 7875,
      "pt": 7876,
      "à´¨à´µà´¶": 7877,
      "à´ĤâĢĿ.": 7878,
      "à´®àµºà´¸": 7879,
      "à´ªà´´à´Ļ": 7880,
      "à´£à´§": 7881,
      "à´¸à´ªà´°à´®": 7882,
      "Ġà´ħàµ½à´ķ": 7883,
      "Ġà´İàµ½à´ª": 7884,
      "Ġà´ĩà´İà´¸": 7885,
      "àµ»à´¦": 7886,
      "Ġà´ĵà´Łà´¯": 7887,
      "à´£à´®à´¯à´®": 7888,
      "à´µà´¤à´ķà´³": 7889,
      "Ġ\"\"\"\"": 7890,
      "à´¶à´¨à´ªà´°": 7891,
      "àµĩ?âĢĿ": 7892,
      "ĠâĢ¦?": 7893,
      "Ġà´µàµ¼à´§àµ»": 7894,
      "esc": 7895,
      "ĠVi": 7896,
      "Ġà´«à´Įà´±": 7897,
      "ÑĤ": 7898,
      "à´¨àµ¼à´¥à´®": 7899,
      "à´Łà´ķà´²": 7900,
      "à´¸à´«à´²": 7901,
      "à´´à´Ł": 7902,
      "Ġà´¬àµ¼à´¨": 7903,
      "Ġà´¶à´²à´Ń": 7904,
      "Ġà´¯à´¸": 7905,
      "Ġà´ıà´Ļ": 7906,
      "à´¤à´¤à´¤": 7907,
      "à´£à´¤à´ķà´³": 7908,
      "Ġà´®à´°à´£à´®à´²": 7909,
      "à´®à´±à´ļ": 7910,
      "ĠâĢĻ,": 7911,
      "Ġà´Ľà´ª": 7912,
      "à´İàµ½à´¸": 7913,
      "Ġ294": 7914,
      "Ġcase": 7915,
      "Ġà´µà´°à´µà´±": 7916,
      "160": 7917,
      "à´§à´®à´¨à´¸": 7918,
      "Ġ1934": 7919,
      "Ġà´¨à´Ĺà´°à´¸à´Ńà´ķà´³": 7920,
      "ember": 7921,
      "Ġà´Ĳà´Ĵà´¸": 7922,
      "Ġà´²à´¯à´£àµ½": 7923,
      "ĠManorama": 7924,
      "130": 7925,
      "ii": 7926,
      "à´£à´¯à´®": 7927,
      "à´Ļà´¤": 7928,
      "Ġà´¨à´³à´¨": 7929,
      "à´·à´§": 7930,
      "à´µà´°à´®à´¨": 7931,
      "à´¬à´°à´®": 7932,
      "Ġà´¦àµ¾": 7933,
      "à´¤à´®à´¯à´¤": 7934,
      "Ġà´ĵàµ¼": 7935,
      "à´µà´¯à´Łà´Ļ": 7936,
      "Ġà´¸à´°à´¬": 7937,
      "Ġà´ªà´¦à´¯": 7938,
      "Ġà´µàµ¼à´Ĺà´¤": 7939,
      "à´«à´²à´®à´¤": 7940,
      "ĠABS": 7941,
      "ĠSR": 7942,
      "ÂŃÂŃ": 7943,
      "fw": 7944,
      "gress": 7945,
      "ix": 7946,
      "à´¨à´ķà´¯": 7947,
      "àµįâĢį'.": 7948,
      "à´¸à´¸à´°": 7949,
      "à´·à´ķà´¤": 7950,
      "à´Ńà´¯à´¨": 7951,
      "à´ķà´°à´Ł": 7952,
      "à´²à´¯à´°": 7953,
      "Ġà´¸à´¹à´µà´°": 7954,
      "à´ĩà´®": 7955,
      "Ġ799": 7956,
      "Ġà´¬à´¹à´±": 7957,
      "Ġà´£à´®": 7958,
      "àµį!\"": 7959,
      "à´¦àµ¼à´¶à´ķàµ¼": 7960,
      "Ġà´¸àµ¼à´µà´ķà´ķ": 7961,
      "Ġindia": 7962,
      "2006": 7963,
      "à´¨à´Ĺà´°à´¤": 7964,
      "Ġà´ıà´¥àµ»à´¸": 7965,
      "120": 7966,
      "ÏĤ": 7967,
      "Ġan": 7968,
      "à´ķà´·à´£à´Ļ": 7969,
      "à´®à´¯à´ķ": 7970,
      "Ġà´ªà´¤à´¨": 7971,
      "àµĩà´¿": 7972,
      "Ġà´µà´¶à´µ": 7973,
      "àµĤâĢį": 7974,
      "Ġà´ļà´³": 7975,
      "Ġà´¬à´¦à´°": 7976,
      "ĠâĢĭàµĩ": 7977,
      "à´¯à´ķàµ¼à´ķ": 7978,
      "Ġà´¸à´®à´Ń": 7979,
      "à´ĩà´İ": 7980,
      "Ġ1925": 7981,
      "à´µà´ªà´°à´®": 7982,
      "à´¸à´±à´Ĺ": 7983,
      "Ġà´Ĳà´ķà´ķà´£": 7984,
      "ĠAnd": 7985,
      "Ġ323": 7986,
      "Ġà´Ĭàµ¼à´ľà´¸": 7987,
      "ohfw": 7988,
      "Ïģ": 7989,
      "à´¿\"": 7990,
      "à´ĤâĢĵ": 7991,
      "à´ªà´¦à´¤": 7992,
      "à´³à´³à´µ": 7993,
      "Ġà´ªà´³à´³": 7994,
      "à´ļà´£": 7995,
      "à´¦à´ªà´°": 7996,
      "à´¦à´Ńà´°": 7997,
      "Ġà´Ĩà´°à´µ": 7998,
      "à´¹à´°à´£à´µ": 7999,
      "à´¨à´¤à´¤à´²à´¯": 8000,
      "à´ľà´®à´¤": 8001,
      "à´¡à´±à´±": 8002,
      "à´¬à´²à´¤": 8003,
      "à´¿.,": 8004,
      "Ġà´¶à´µà´ª": 8005,
      "à´ĸà´ķà´°à´µ": 8006,
      "à´¯à´¨à´¶": 8007,
      "à´£à´®à´¨": 8008,
      "à´ķà´¤à´±": 8009,
      "à´ªà´£à´¬": 8010,
      "Ġ\"\"\",": 8011,
      "2014": 8012,
      "Ġ181": 8013,
      "à´°à´Ńà´¯": 8014,
      "Ġ506": 8015,
      "Ġ269": 8016,
      "Ġ318": 8017,
      "itle": 8018,
      "Ġà´ĸà´¨à´¨à´¤": 8019,
      "à´¶à´ķà´²à´Ļ": 8020,
      "ĠâĿĳ": 8021,
      "ublic": 8022,
      "Hz": 8023,
      "ool": 8024,
      "ðŁ": 8025,
      "àµĨâĢľ": 8026,
      "à´ªà´¥à´¤": 8027,
      "à´¦à´µà´°": 8028,
      "Ġà´¤à´±à´ļ": 8029,
      "Ġà´¤à´°à´£à´®": 8030,
      "àµ¼à´²à´Ń": 8031,
      "à´¶à´®à´¦": 8032,
      "à´ľà´¸à´¨": 8033,
      "à´Ńà´°à´®": 8034,
      "à´¥à´µà´¤": 8035,
      "àµĪâĪĻ": 8036,
      "à´°à´¸à´°à´£": 8037,
      "Ġà´·à´±à´ª": 8038,
      "à´ªà´¨à´ļ": 8039,
      "Ġ',": 8040,
      "à´ĩà´ĩ": 8041,
      "Ġà´ªà´łà´¨à´¸": 8042,
      "à´ķà´£à´®à´²": 8043,
      "à´¿âĢĭ.": 8044,
      "Ġ226": 8045,
      "ada": 8046,
      "Ġà´Ĺà´µàµ¼à´£àµ¼à´®": 8047,
      "echnical": 8048,
      "CP": 8049,
      "ean": 8050,
      "pen": 8051,
      "Ð²": 8052,
      "à´¨à´¯à´ª": 8053,
      "à´ķà´®à´¤": 8054,
      "à´¾à´¿": 8055,
      "à´µàµº": 8056,
      "à´ªà´Ńà´ķ": 8057,
      "àµģà´Ĥ\"\"\"": 8058,
      "àµĢâĢ¦": 8059,
      "à´¦à´°à´ķ": 8060,
      "Ġà´İà´Łà´ķ": 8061,
      "à´ŀà´ªà´ķ": 8062,
      "à´¹àµ¼à´²": 8063,
      "àµįâĢĮâĢ¦": 8064,
      "à´¯à´¤à´°": 8065,
      "à´ĸà´¨à´®": 8066,
      "Ġà´Łà´¬": 8067,
      "Ġà´ıà´ľ": 8068,
      "à´°à´µà´Ł": 8069,
      "Ġà´®à´¨à´ķ": 8070,
      "Ġà´ħà´²à´µàµ»à´¸": 8071,
      "à´ĩàµ»à´¡": 8072,
      "à´ķà´µàµ½à´ķ": 8073,
      "à´³à´³à´¯": 8074,
      "ors": 8075,
      "à´ªà´¦à´Ļ": 8076,
      "ick": 8077,
      "Ġsays": 8078,
      "idae": 8079,
      "Ġ1857": 8080,
      "''.": 8081,
      "UI": 8082,
      "ĠÃĹ": 8083,
      "à´¿\"\"\"": 8084,
      "à´Łà´¯à´°": 8085,
      "à´®à´°à´£à´Ļ": 8086,
      "Ġà´ħàµ¼à´ļ": 8087,
      "Ġà´ħàµ½à´®": 8088,
      "àµĤ)": 8089,
      "Ġà´īàµ¼": 8090,
      "à´¾à´Ĥ/": 8091,
      "à´Ĥ.âĢĿ": 8092,
      "Ġà´«à´²à´ķà´Ļ": 8093,
      "Ġà´ĩà´µà´°à´¤": 8094,
      "à´ªà´£à´¯": 8095,
      "à´¸à´®à´¯à´®": 8096,
      "âĢĮàµį,": 8097,
      "à´¯àµ½à´±": 8098,
      "àµį):": 8099,
      "ĠMRD": 8100,
      "ars": 8101,
      "Ġà´¤à´²à´¯à´±": 8102,
      "ĠGL": 8103,
      "Ġ337": 8104,
      "ĠHer": 8105,
      "à¤¿": 8106,
      "ricket": 8107,
      "AID": 8108,
      "ĠOnline": 8109,
      "ren": 8110,
      "ĠàµĤ": 8111,
      "à´ķà´¤à´°": 8112,
      "à´¸à´²à´¨": 8113,
      "à´§à´ķàµ»": 8114,
      "àµ¼à´²à´±": 8115,
      "Ġà´ļà´°à´®": 8116,
      "Ġà´ľà´Ł": 8117,
      "à´°à´®à´±": 8118,
      "Ġà´ħà´µà´±": 8119,
      "Ġà´ħà´µà´¶à´¯": 8120,
      "à´°à´µà´¶": 8121,
      "Ġà´ĵà´µà´¨": 8122,
      "Ġà´ĵàµ¼à´Ĺ": 8123,
      "Ġà´ħà´ªà´Ĺ": 8124,
      "à´µà´¤à´¸": 8125,
      "à´¤à´ªà´Ļ": 8126,
      "Ġà´ĸà´°à´Ĺ": 8127,
      "Ġ1924": 8128,
      "Ġ1928": 8129,
      "Ġ258": 8130,
      "Ġ1300": 8131,
      "à´µàµ»à´ķ": 8132,
      "Ġà´İàµ»à´Ĩàµ¼à´¸": 8133,
      "àµ¼à´Ĺà´°": 8134,
      "à´²à´§à´¨à´¤": 8135,
      "à´ħà´µà´°à´¤": 8136,
      "à´´à´¯à´Łà´ķ": 8137,
      "àµ»à´®àµ¼": 8138,
      "ise": 8139,
      "Ġpre": 8140,
      "here": 8141,
      "Ġà´īàµ¾à´¨à´Ł": 8142,
      "Ġact": 8143,
      "EE": 8144,
      "VT": 8145,
      "yst": 8146,
      "à¶": 8147,
      "à´¿à´¾": 8148,
      "à´¾àµĨ": 8149,
      "à´µà´®à´¤": 8150,
      "à´®à´²à´®": 8151,
      "à´ªà´ļà´ķ": 8152,
      "Ġà´ªà´¨à´Ļ": 8153,
      "à´ļà´µàµ»": 8154,
      "Ġà´ķàµ¼à´¦": 8155,
      "à´§à´¶à´ķ": 8156,
      "à´Ĺà´ªà´°à´®": 8157,
      "àµ»à´±à´±": 8158,
      "à´µà´¸à´ķ": 8159,
      "à´Ńà´µà´¬à´¹": 8160,
      "à´¤à´¨à´¯": 8161,
      "Ġà´Ĩà´Ĺà´¤à´®": 8162,
      "àµĩ?\"\"": 8163,
      "ĠMad": 8164,
      "Ġmohfw": 8165,
      "à´¨à´µà´¯à´²": 8166,
      "Ġ395": 8167,
      "2003": 8168,
      "Ġ1932": 8169,
      "Ġà´ļà´®à´ŀ": 8170,
      "Ġà´Ķà´·à´§à´¸à´¸": 8171,
      "à´§à´ľà´²à´¤": 8172,
      "Ġà´¸àµ¼à´ľà´±": 8173,
      "Ġhttps": 8174,
      "mon": 8175,
      "à´¸à´µà´µ": 8176,
      "Ġà´µà´°à´¤": 8177,
      "Ġà´®àµºà´ª": 8178,
      "à´·à´°à´¤à´¯": 8179,
      "Ġà´İà´µà´°": 8180,
      "à´¶à´ķàµ¾": 8181,
      "Ġà´ļà´¦": 8182,
      "Ġà´Ĩàµ½à´ª": 8183,
      "Ġà´¬à´¸à´¨": 8184,
      "à´°à´ķà´²à´¯": 8185,
      "à´ľà´¯à´ķà´°": 8186,
      "Ġà´ķà´²à´¹à´¤": 8187,
      "Ġà´¨à´°à´µà´¨": 8188,
      "à´³à´³à´ª": 8189,
      "à´°à´Ńà´®": 8190,
      "Ġà´¡à´¯à´Ĺ": 8191,
      "enn": 8192,
      "Ġoff": 8193,
      "istan": 8194,
      "ounc": 8195,
      "à´°à´¯à´¯à´ª": 8196,
      "AME": 8197,
      "ussian": 8198,
      "https": 8199,
      "720": 8200,
      "Ã¡": 8201,
      "Ġag": 8202,
      "à´°à´Ĺà´£": 8203,
      "à´°à´Ĩà´Ń": 8204,
      "à´¯à´´": 8205,
      "à´ļà´¬": 8206,
      "Ġà´ķàµ½": 8207,
      "à´§à´¬": 8208,
      "à´Ńà´ĺà´Ł": 8209,
      "Ġà´¯à´°": 8210,
      "Ġà´Ĺà´Ļ": 8211,
      "Ġà´¸à´®àµ»à´¸": 8212,
      "à´İà´¯à´°": 8213,
      "Ġà´ħà´±à´µ": 8214,
      "à´Łà´ķàµ¼à´ķ": 8215,
      "àµĨ.\"\"": 8216,
      "ĠâĢľ.": 8217,
      "à´łà´ķàµ¾": 8218,
      "à´Ĳà´®": 8219,
      "à´¦à´°à´²": 8220,
      "Ġà´®à´°à´£à´¸à´®à´¯à´¤": 8221,
      "Ġ1900": 8222,
      "Ġ1922": 8223,
      "Ġà´µà´ķà´µà´¯": 8224,
      "Ġà´ķà´ªà´Łà´¨": 8225,
      "à´¯à´£à´Ĺ": 8226,
      "à´·à´ķà´°à´µ": 8227,
      "Ġ242": 8228,
      "ĠPP": 8229,
      "ions": 8230,
      "omen": 8231,
      "Ġsc": 8232,
      "à´¤à´ķà´®à´²": 8233,
      "Ġ380": 8234,
      "Ġà´¦à´¹à´¨à´¯": 8235,
      "à¸²à¸": 8236,
      "SS": 8237,
      "à³": 8238,
      "Ġàµ»": 8239,
      "àµģà´¿": 8240,
      "à´¤à´ļà´°": 8241,
      "à´¯à´ľà´®": 8242,
      "à´®à´°à´£à´®": 8243,
      "à´®à´²à´¤à´¯": 8244,
      "Ġà´ªà´¥à´ķ": 8245,
      "à´·à´ķà´ª": 8246,
      "Ġà´¤à´´à´ŀ": 8247,
      "àµ¼à´§": 8248,
      "à´ŀàµ¼à´ķ": 8249,
      "à´¹à´¤à´¨": 8250,
      "Ġà´¯à´²": 8251,
      "à´«à´¯àµ¼": 8252,
      "Ġà´¹à´Ļ": 8253,
      "Ġà´ĵà´£à´°": 8254,
      "à´°à´¦à´¯": 8255,
      "à´¤à´ķà´¸à´®": 8256,
      "Ġà´¤à´Łà´µà´±": 8257,
      "ĠâĢĻ.": 8258,
      "à´®àµ¼à´¶à´ķà´°": 8259,
      "Ġ298": 8260,
      "àµįàµįàµį": 8261,
      "ump": 8262,
      "à¥Ģ": 8263,
      "ĠURL": 8264,
      ":-": 8265,
      "ous": 8266,
      "à´²à´Łà´Ļ": 8267,
      "Ġà´¸à´°à´¯": 8268,
      "à´·à´ķà´£à´ķ": 8269,
      "Ġà´¤àµ»à´µ": 8270,
      "à´§à´ķàµ¾": 8271,
      "à´¶à´²à´ª": 8272,
      "à´¯à´¤à´®": 8273,
      "Ġà´Ĺà´¹": 8274,
      "àµĥâĢĭ": 8275,
      "Ġà´¸à´®à´°à´¸à´®": 8276,
      "à´·à´£àµ¼à´®": 8277,
      "àµįâĢĮ....": 8278,
      "àµģà´Ĥ,âĢĻ": 8279,
      "àµ¼à´®à´¨": 8280,
      "à´®à´¨à´Ĺà´°": 8281,
      "à´µà´ķàµ¼": 8282,
      "à´ķà´Łà´ķà´³": 8283,
      "Ġà´¬à´¹à´³à´µ": 8284,
      "Ġà´Ĭà´¨à´®": 8285,
      "à´ľà´¯à´¨à´Ĺà´°": 8286,
      "à´Ĥ!\"": 8287,
      "Ġà´°à´¸à´ķà´°": 8288,
      "ĠXS": 8289,
      "hem": 8290,
      "Ġ498": 8291,
      "Ġ1933": 8292,
      "ĠJio": 8293,
      "àµģà´Ĥ'-": 8294,
      "Ġà´¸à´°à´¸à´«à´²à´Ļ": 8295,
      "ĠUnivers": 8296,
      "2000": 8297,
      ":)": 8298,
      "St": 8299,
      "à´®à´³à´µ": 8300,
      "à´£àµ¼à´ķ": 8301,
      "à´£à´ªà´°": 8302,
      "àµģà´Ĥ\"\".\"": 8303,
      "à´¶à´¨à´¨": 8304,
      "à´Ĺà´¸à´®": 8305,
      "Ġà´ŀà´°à´Ļ": 8306,
      "à´¯à´¨à´¨": 8307,
      "à´¯à´¯à´Łà´ķ": 8308,
      "Ġà´ħà´®à´ļ": 8309,
      "Ġà´ħà´®àµ¼à´¨": 8310,
      "àµĭ.âĢĿ": 8311,
      "à´°à´ļà´°à´£à´®": 8312,
      "à´¸à´®à´¯à´µ": 8313,
      "à´Łà´£à´ķ": 8314,
      "inist": 8315,
      "Ġà´Ĩà´´à´µ": 8316,
      "à´¸à´µà´ŀ": 8317,
      "ĠHead": 8318,
      "ident": 8319,
      "à´°à´«à´¸à´±": 8320,
      "ement": 8321,
      "aka": 8322,
      "Ġà´¤àµ½à´«à´²à´®": 8323,
      "Ġspec": 8324,
      "ype": 8325,
      "Ġà´ĸà´¬à´±à´Łà´ķ": 8326,
      "NA": 8327,
      "à´¯à´Ńà´ķ": 8328,
      "à´±àµ¼à´ķ": 8329,
      "à´ľà´ķà´£à´¤": 8330,
      "à´¾à´ĤâĢĭ": 8331,
      "Ġà´Ńà´µà´¨à´¨": 8332,
      "Ġà´Ĺà´¹à´¨à´®": 8333,
      "Ġà´Īà´µà´¨": 8334,
      "à´ªà´¨à´¸à´®": 8335,
      "à´Łà´®à´±": 8336,
      "à´®à´°à´ª": 8337,
      "Ġà´ĩà´Łàµ¼à´ļ": 8338,
      "Ġà´®à´¦àµ»": 8339,
      "Ġ04": 8340,
      "ĠPIB": 8341,
      "Ġà´ħàµ¼à´¥à´µ": 8342,
      "à´ıà´ª": 8343,
      "Ġcl": 8344,
      "Ġph": 8345,
      "à´³à´µà´¯à´²": 8346,
      "Ġ1936": 8347,
      "Ġà´ħàµ¾à´ľ": 8348,
      "ĠIsland": 8349,
      "ED": 8350,
      "Sp": 8351,
      "les": 8352,
      "à´¨à´°à´µ": 8353,
      "àµģàµįâĢĮ": 8354,
      "à´Łà´°à´µ": 8355,
      "à´Łà´¯à´¨": 8356,
      "àµįâĢįàµĩ": 8357,
      "à´µàµ½à´ª": 8358,
      "Ġà´ªà´Łà´Ļ": 8359,
      "àµĭâĢĮ": 8360,
      "Ġà´¸à´³": 8361,
      "àµ¼à´ľà´¯": 8362,
      "àµ¾à´¤à´¤": 8363,
      "à´Ńà´ķàµ¼": 8364,
      "à´ķàµ¾à´Ń": 8365,
      "Ġà´¨à´Łà´®": 8366,
      "Ġà´®à´¨à´¯": 8367,
      "à´ªà´±à´¯à´£": 8368,
      "Ġà´ħà´°à´²à´ķ": 8369,
      "àµ»à´¡à´¯": 8370,
      "à´ķàµ½à´±": 8371,
      "à´µà´ļà´¨à´¤": 8372,
      "à´·à´ķà´Ĺ": 8373,
      "à´µàµ»à´·àµ»": 8374,
      "àµ¼à´Ĺà´°à´±": 8375,
      "Ġ371": 8376,
      "àµ¼à´Ńàµ¼": 8377,
      "Ġ287": 8378,
      "amb": 8379,
      "ĠID": 8380,
      "Ġ264": 8381,
      "Ġ336": 8382,
      "cov": 8383,
      "ium": 8384,
      "Ġà¦": 8385,
      "à´ķà´«": 8386,
      "à´¤à´¹": 8387,
      "à´¤à´Łà´ķ": 8388,
      "à´¤à´£à´²": 8389,
      "à´¯à´«à´²": 8390,
      "à´ĤâĢľ": 8391,
      "à´®à´¯à´ª": 8392,
      "à´®à´°à´¯": 8393,
      "à´®à´²à´¨": 8394,
      "Ġà´¸àµºà´¸": 8395,
      "àµĢ..": 8396,
      "Ġà´¤à´Łà´¤": 8397,
      "àµ¾à´¤à´¨": 8398,
      "Ġà´¬à´²à´ķ": 8399,
      "à´¥à´¨à´ķ": 8400,
      "à´µà´¨à´ļ": 8401,
      "à´ķà´ªà´ķà´Łà´¤": 8402,
      "Ġà´ħà´Ńà´¯à´®": 8403,
      "Ġà´§à´®": 8404,
      "à´ĩà´Łà´ª": 8405,
      "à´¦à´¨à´¶": 8406,
      "ones": 8407,
      "Ġà´īà´²à´ŀ": 8408,
      "à´īà´ªà´¦": 8409,
      "Ġà´İà´¯àµ¼à´«": 8410,
      "à´ıà´¯": 8411,
      "à´®àµ¼à´¦à´µ": 8412,
      "Ġnational": 8413,
      "125": 8414,
      "à´¦à´¨à´®à´±": 8415,
      "à´°à´µà´£à´¤à´ķàµ¾": 8416,
      "ave": 8417,
      "Ġ`%": 8418,
      "ĠGSX": 8419,
      "310": 8420,
      "Co": 8421,
      "GS": 8422,
      "Ø¯": 8423,
[...]
